#version-knockout
e n
e r
Ġ d
a n
Ġ v
i n
e t
Ġ .
e l
i j
Ġ o
Ġ h
Ġd e
a a
o r
Ġ m
s t
Ġ w
Ġ b
Ġ g
i e
Ġ t
Ġ e
Ġ ,
c h
Ġ a
Ġ z
a t
Ġv an
Ġ en
i s
Ġ k
Ġ n
aa r
Ġe en
i t
o or
Ġ in
o n
in g
Ġh et
l e
Ġ s
Ġg e
Ġ p
d e
d er
r e
d en
o e
i g
Ġo p
Ġ D
Ġ j
Ġt e
Ġb e
ch t
Ġv er
r o
Ġ is
Ġv oor
ij k
a l
Ġ u
a r
ij n
k en
Ġ l
e e
g e
g en
Ġo n
o m
Ġa l
Ġm et
e er
i k
Ġa an
u r
v er
Ġ H
Ġ st
i l
r a
i et
u n
Ġj e
o l
Ġd at
an d
o t
i d
Ġ c
t e
a m
o u
ĠD e
Ġz ijn
v en
z e
Ġo m
a s
o g
Ġ A
Ġ B
Ġ M
el ijk
o k
aa t
Ġ E
c t
s ch
Ġ S
Ġd ie
Ġ er
Ġ 1
r u
Ġ I
Ġ f
Ġu it
â Ģ
Ġ V
Ġh e
Ġn iet
o p
en t
e s
Ġw or
Ġ W
r ij
er s
el e
Ġ âĢ
f t
Ġo f
Ġ O
Ġ 2
st e
Ġb ij
Ġw e
Ġ re
h e
u s
i en
Ġ (
i er
a g
a an
at ie
Ġ N
er k
Ġ )
Ġ le
aa l
u w
Ġo ver
Ġ :
el d
an t
s en
Ġo ok
Ġ ik
Ġ G
n en
a k
Ġ T
l en
Ġal s
u l
Ġ P
ing en
Ġz o
Ġd oor
Ġhe b
d t
er en
a d
Ġk un
k t
j e
i m
Ġ C
Ġm o
Ġd an
t en
an g
Ġz e
ĠH et
i cht
e m
Ġw aar
Ġm aar
e el
s e
i c
a p
Ġ L
Ġon der
Ġ Z
u ur
Ġn aar
s p
ig e
Ġge b
Ġs p
Ġs ch
Ġ K
on d
Ġ R
Ġa f
Ġp ro
Ġwor den
Ġk an
ee ft
is ch
ĠI n
Ġde ze
l ijk
b e
Ġal le
Ġ J
Ġh eeft
o en
i st
t er
Ġ r
o o
k e
oe d
Ġw at
el en
an der
it e
ij d
. .
Ġ !
Ġw el
oe k
Ġm eer
Ġn og
he id
Ġt ot
Ġwor dt
Ġ ?
or m
u it
p en
a st
r aa
v e
Ġ '
er d
0 0
Ġon t
a cht
b en
o on
Ġv ol
u t
el f
s l
Ġw as
in d
Ġd it
z en
u m
om en
Ġheb ben
Ġ F
Ġ 3
Ġ ander
e en
Ġm a
ar t
k er
ie uw
ig en
ĠâĢ Ļ
or t
ĠA l
Ġm e
Ġp l
Ã ©
i a
o d
ie s
Ġb et
Ġg ro
i ch
Ġd aar
o s
Ġ /
isch e
er e
et en
Ġb l
Ã «
i on
Ġc on
ou w
Ġkun nen
j es
on der
Ġ -
Ġw il
Ġ. ..
ĠI k
Ġ2 0
Ġge m
Ġj aar
st en
Ġm ee
Ġu w
Ġh ij
Ġge w
Ġt oe
l and
Ġg r
Ġw erk
Ġgeb ru
Ġm en
st el
Ġk l
Ġ U
u is
g t
i p
ar en
d at
Ġbe d
ĠE en
Ġge en
w e
Ġt er
Ġh ier
f f
Ġv eel
at en
g el
Ġge v
Ġg oed
aa k
in e
elijk e
Ġn ieuw
ct ie
am en
Ġ 5
u k
Ġe er
a f
p l
ra cht
Ġc om
m en
ite it
Ġz ich
Ġ 4
Ġw ij
aa kt
d u
in der
o c
Ġs e
Ġn a
w ee
Ġm ijn
ie k
aa m
ro uw
Ġon s
h ou
o op
Ġon ze
oor d
Ġk le
ĠE n
w erk
Ġh aar
w ij
in nen
e der
Ġw eer
a le
Ġander e
Ġ "
a c
o el
Ġz elf
v oor
Ġ20 1
Ġh oe
i Ã«
Ġw er
i de
cht er
a b
Ġb el
ge v
i r
Ġgebru ik
Ġs l
d el
Ġma ken
eer d
u g
aar d
al en
b er
Ġp er
Ġbe st
Ġbe g
an k
Ġt o
Ġkun t
ing s
Ġe igen
m a
Ġh un
raa g
al s
b aar
Ġg en
Ġ ru
Ġge z
i v
Ġ ;
an n
Ġ el
r en
e d
as s
Ġb en
u b
op en
p er
ĠâĢ ĺ
Ġn u
Ġmo et
e c
ur en
a ge
o og
or g
ĠO p
ĠW e
re s
ĠS t
ie f
Ġg aan
k el
Ġt wee
Ġm an
Ġ ro
ĠD it
ge ven
Ġa r
Ġs n
a ct
b ij
og elijk
sch ap
Ġt ijd
Ġte gen
a gen
Ġver sch
Ġe x
Ġz ou
at uur
r oe
Ġd i
f orm
u id
k s
ĠN eder
Ġd us
ĠV oor
us sen
or en
Ġh ad
u i
Ġbe h
o er
Ġk w
e g
Ġg aat
Ġnieuw e
ĠO n
ij den
ĠAl s
Ġz al
Ġpl aat
Ġm ogelijk
Ġw erd
ĠDe ze
ĠD at
n em
Ġge d
m er
t ijd
uit en
k ken
Ġbe sch
ĠNeder land
o et
ĠJ e
Ġ1 9
Ġe ven
Ġcon t
Ġ 6
Ġver k
Ġbe z
w er
gen s
Ġp ers
Ġ ie
v ol
ge b
Ġs amen
at er
a re
Ġh ou
aa g
on den
Ġd ag
Ġmen sen
Ġv in
d s
Ġver b
r ijk
g er
p p
Ġk rij
Ġ) .
o ven
Ġk om
Ġd oen
Ġo r
Ġb innen
n e
Ġo u
el s
v an
on t
Ġk omen
el l
iet s
Ġk o
Ġmo o
Ġp r
e u
Ġeer ste
Ġhe el
Ġl ang
d ien
ĠM aar
Ġalle en
i o
ul t
ĠE r
i den
Ġin ter
ĠâĢ ľ
der s
m e
k om
Ġst aat
b s
m aal
il len
Ġh and
r an
ra gen
Ġg el
ee m
m ent
Ġzo als
r ie
es s
u st
d ig
z elf
ĠD aar
Ġl aat
d ag
rij f
Ġ 7
ĠV er
ken d
ĠM et
be eld
Ġm oe
Ġgro te
it ie
Ġm in
l ie
Ġv rij
c e
he den
t al
o f
ĠB e
Ã© n
Ġe cht
r on
atie s
Ġbel ang
Ġa d
ĠB ij
Ġbl ij
am er
re e
Ġh ele
Ġz w
Ġ 8
Ġz it
oo f
l ing
o cht
Ġz ien
st er
Ġpro du
ĠO ok
Ġt ussen
aa st
lijk e
i f
Ġle ven
ak k
Ġg ele
h uis
ĠV an
Ġel k
Ġal tijd
Ġn atuur
o w
Ġver t
Ġsn el
Ġd en
in t
er t
s s
Ġh uis
p t
u ro
Ġter ug
Ġkom t
Ġh el
is s
Ġgro ot
Ġk inder
ct en
Ġversch illen
st and
Ġz ij
ee k
ijden s
en s
z ien
k omen
Ġa ut
re k
Ġv ia
de el
oe ken
Ġm ij
Ġre cht
o ol
ar d
form atie
id ing
z et
od ig
Ġ 0
al l
Ġ 9
an is
Ġbe p
an den
d ing
z oek
at ion
id del
Ġa chter
Ġ %
Ġge sch
un t
Ġie der
at is
Ġhe m
Ġt ra
a u
Ġ1 0
Ġde el
r i
am e
Ġv rouw
ul len
ĠW ij
Ġto ch
al len
Ġ Ã©
Ġplaat s
Ġpro b
aar t
oe de
oe p
Ġ iets
a v
er g
z icht
ijk en
ĠA n
Ġwe bs
ĠG e
w el
Ġmo eten
ot en
Ġn et
a de
ra m
Ġ ch
Ġeen s
Ġver g
Ġh er
Ġu ur
eer t
oe g
Ġverschillen de
Ġ2 00
oo d
Ġh oog
Ġf ot
eer de
w ik
Ġk en
ie d
ĠZ e
Ġver h
d oor
ee st
e st
Ġwe g
Ġl aten
Ġl ig
w oord
ĠZ o
al iteit
Ġru im
Ġ 00
ar k
ent en
ĠÃ© Ã©n
Ġv l
Ġom dat
ĠH ij
e ur
Ġin formatie
c c
ĠâĢ Ŀ
ann eer
Ġop en
ĠâĢ ĵ
b l
i el
ru k
er m
o st
aa d
Ġar t
il l
and el
o ot
ik t
Ġgem aakt
am p
ie den
u d
el len
Ġaan tal
e ft
ant en
i ken
Ġb uiten
in a
Ġs u
Ġbe ste
as sen
Ġse x
m ee
r ien
ĠH ier
Ġz onder
Ġbe v
or gen
ĠS p
Ġst aan
c l
Ġbelang rijk
o ver
Ġst ee
Ġge k
rij s
ij f
Ġ ra
Ġge h
g gen
Ġver der
er v
Ġvol gen
Ġw in
Ġv ak
Ġor g
ier en
Ġg oede
oe m
Ġt en
Ġaan ge
Ġalle s
a der
oor t
Ġn odig
Ġsp ec
ĠO m
l ine
on en
Ġvin den
p ro
Ġbed rijf
rij ven
icht ing
Ġj on
Ġkinder en
Ġd ien
o v
Ġpers oon
ĠC h
Ġn l
st aan
el t
Ġ &
Ġw aren
ĠW at
Ġw eten
Ġp art
Ġz eer
a y
Ġer g
ar m
Ġd er
an c
ant ie
Ġge ven
ĠS ch
il m
Ġstee ds
Ġt ijdens
t ra
Ġelk aar
u in
Ġcont act
Ġp le
oof d
i re
n is
Ġver l
om m
geven s
Ġ) ,
Ġcom p
Ġk eer
pl aat
Ġl u
Ġont wik
b are
ar i
en d
Ġg eld
voor beeld
c ent
Ġm aakt
m an
Ġb oven
o b
Ġver z
Ġl and
Ġheb t
Ġ1 8
k ker
ig ing
Ġver w
ol le
Ġver m
a ken
u re
Ġwer eld
ig heid
in k
Ġv ast
Ġv orm
p e
Ġt he
ie ke
Ġj aren
stel ling
Ġgr atis
v l
Ġb er
b o
Ġm ag
Ġze ker
aa s
q u
Ġwer ken
n a
em en
v ang
Ġs le
k ing
Ġb ent
Ġv aak
der en
Ġwebs ite
ff en
or n
Ġst r
d elen
Ġr ond
et ten
Ġp re
w aar
Ġdi re
iÃ« n
Ġk eu
Ġm is
acht en
Ġer v
g aan
Ġw ant
e ct
Ġa pp
Ġg er
hou den
Ġorg anis
Ġ1 5
al is
e il
m at
Ġbij voorbeeld
Ġg raag
s c
i aal
et je
v oer
â Ĥ
Ġwil len
we g
âĤ ¬
Ġb ere
ver s
ch n
ee s
ge m
Ġfot o
Ġwat er
Ġle ver
le s
i ve
Ġv ind
v eel
on ing
Ġbe sl
Ġm inder
ĠL e
ĠN a
Ġ1 2
Ġb as
o de
Ġre g
Ġz org
Ġkrij gen
e f
ĠD oor
Ã ¯
l o
t re
Ġp ol
Ġg l
ra g
t u
u z
Ġ [
Ġm il
Ġmee st
der e
d oen
Ġst uk
Ġmoo ie
Ġmoo i
Ġd rie
Ġgew oon
st ig
i z
Ġj ul
g ele
z onder
ĠA m
an s
et t
ar te
ar ing
Ġre s
Ġvol le
Ġv ragen
Ġ rij
g ang
Ġt oen
Ġver d
Ġv rien
Ġnatuur lijk
z aam
Ġb oek
gev ing
Ġwe et
g d
ar kt
Ġman ier
ur s
Ġbe w
Ġge sp
Ġart ik
Ġh oofd
Ġn emen
m and
Ġa ct
Ġm aat
Ġlaat ste
iet en
a ch
Ġwel ke
aal d
Ġ. âĢ
Ġre gel
Ġ ide
on e
Ġprob le
m m
Ġz ullen
Ġgebruik t
Ġon line
e ken
Ġ âĤ¬
Ġle kker
Ġhou den
Ġj ouw
ĠH oe
ĠA r
Ġst ad
g ram
Ġj ij
Ġz ie
ic e
Ġk n
Ġaan b
Ġb r
ge st
Ġm om
sl ag
Ġg et
ĠW il
akk elijk
st r
oo s
Ġs y
Ġz oek
Ġg ere
Ġt h
Ġl icht
ĠS e
Ġge eft
ĠB el
t je
Ġgem een
hou d
Ġb ren
Ġw eek
i le
et er
Ġzo dat
Ġonder zoek
Ġme d
re ken
stel len
Ġs h
Ġin st
Ġpro f
Ġge st
wij s
Ġ *
Ġinter n
ĠR e
Ġbas is
Ġad v
Ġvan af
ĠE uro
Ġander s
Ġt ele
Ġbet er
Ġbesch ik
Ġgebru iken
Ġle uk
d racht
je ct
Ġf un
Ġme de
Ġvin dt
zelf de
Ġ3 0
Ġaan v
Ġsle cht
Ġd agen
os s
Ġvoor al
Ġk on
Ġkle ine
Ġh eer
c on
in s
Ġs m
d ige
Ġex tra
Ġp aar
Ġw anneer
l ingen
Ġvolgen de
Ġp racht
b ru
Ġf ilm
k ele
r it
ak ken
Ġaut o
Ġst e
Ġ ]
an nen
ur g
b ouw
Ġzelf s
Ġ im
ĠP ro
ul p
Ġc l
Ġa p
Ġkw aliteit
ant woord
Ġo or
ru m
g r
ĠA an
Ġel ke
ĠD an
k amer
ĠM ar
Ġe ind
z ij
re ven
ol og
ijn en
le iding
ia le
o eren
oo it
Ġf e
Ġhele maal
et s
ĠH e
ĠT e
uur t
om s
kom st
g a
Ġwil t
it u
Ġb ouw
Ġz on
Ġv raag
am elijk
ze ker
Ġp rijs
Ġlig t
ra f
u ist
ra s
iv iteit
ijk t
l er
Ġma and
Ġmom ent
Ġt re
Ġkrij gt
Ġu n
b in
Ġv ier
Ġblij ven
Ġvoor zien
ken de
Ġdire ct
oor den
Ġop t
or d
gram ma
Ġ1 6
ub l
Ġg a
Ġ1 1
Ġv eil
Ġd oel
Ġle er
Ġen kele
be d
em ber
i b
p le
ĠU it
aan se
Ġop l
Ġl ief
Ġgev al
n aast
Ġsp eel
Ġr el
Ġuit ge
at e
Ġsch ool
id s
n er
werk ing
an gen
ag ina
c o
Ġc olle
Ġh uid
Ġn ooit
el den
iÃ« le
v ou
Ġalle maal
Ġkle in
Ġgr ond
Ġd uid
ig d
atie f
Ġk op
Ġc ent
al t
o ok
Ġre st
o ur
Ġst and
Ġ1 4
s k
Ġk ant
Ġ1 7
Ġin ge
a den
g et
Ġn aam
cht en
Ġontwik kel
Ġt huis
ĠB l
sch ien
Ġko sten
schap p
Ġw oon
Ġzit ten
o ge
Ġd oet
Ġeer st
Ġin d
Ġartik el
Ġte chn
Ġge gevens
Ġ ele
Ġwer den
Ġtwee de
ind s
ĠAl le
Ġe chter
v ing
Ġ2 5
Ġbe k
Ġken nis
Ġgr oep
aal de
Ġaf ge
ist en
Ġk ie
Ġkw am
i um
st eem
m iddel
Ġprodu cten
st erd
Ġf l
er ie
o gen
el ing
Ġk ijken
ĠOn der
Ġ an
Ġgr oe
Ġwaar in
ie dt
Ġkle ur
Ġieder een
aak te
m p
a il
ĠV ol
ĠEuro p
ĠD ie
raa k
Ġvrouw en
Ġge he
Ġa v
Ġ1 00
van gen
t s
r ip
Ġop ge
Ġf in
Ġ i
Ġbet eken
an ge
erg ie
Ġle u
Ġd raa
Ġbe kend
wij l
o elen
Ġe ff
ĠO ver
ĠE l
Ġgemeen te
ĠG ro
ui zen
ĠNederland se
Ġm id
Ġb ele
ot el
g roe
Ġe uro
Ġwaar door
sterd am
ro kken
n ieuw
h op
Ġwaar bij
s ie
Ġs c
um mer
Ġzo wel
ent ie
oop t
y s
erk t
Ġa cc
al ing
ig n
Ġm uz
Ġver ander
Ġc re
Ġd uur
Ġn e
Ġk re
rij d
Ġre ken
ij en
ra kt
Ġvrien d
Ġse ks
ass age
h a
Ġjul lie
ac k
s y
am il
icht en
ijn a
a x
ic atie
us e
Ġw it
ĠT he
Ġbij zonder
m b
sch e
Ġ Y
aar s
Ġk ort
ĠK l
Ġt op
ĠA f
i al
Ġ Â
Ġst erk
Ġ1 3
c es
ver se
Ġniet s
Ġruim te
le g
o sten
b el
d aag
Ġblij ft
Ġz orgen
Ġa ctie
cl us
Ġ5 0
Ġk ind
Ġver st
a ire
u te
nem ers
orn o
ou t
Ġbet re
p te
ĠO f
Ġg ing
Ġb iedt
Ġres ult
a ir
wer p
Ġj ou
Ġst ap
ĠAm sterdam
E N
Ġkeu ze
Ġbez oek
k l
Ġhad den
Ġgeb ied
or p
f oon
Ġ |
Ġn eem
ro om
Ġd r
gen omen
u p
Ġv ele
Ġwin kel
v in
Ġhel pen
Ġv or
Ġvol gens
ic k
Ġ.âĢ Ŀ
Ġsp el
Ġvan uit
ĠP l
re cht
le den
ui ste
Ġduid elijk
Ġb ieden
Ġro l
Ġge p
o den
u ten
z ig
E R
Ġgev ol
Ġd ruk
s b
Ã« n
Ġie mand
Ġt uin
Ġbest aat
Ġou de
or gt
Ġwerk t
Ġze ggen
r ik
Ġb re
in ig
Ġl id
Ġs oc
andel ing
Ġvak antie
Ġw ie
Ġprodu ct
Ġeen vou
gel open
Ġged aan
Ġ eten
Ġb ijna
er de
Ġz at
ap p
Ġvol doen
Ġm ater
on g
Ġl ich
ĠD en
Ã¯ n
Ġbe etje
or den
am es
Ġleu ke
ank elijk
ver en
Ġbest aan
Ġn amelijk
e k
ij st
Ġ. .
ĠI s
or te
Ġde c
Ġj uiste
v al
un ten
Ġb lijk
ou d
or e
Ġb ro
Ġsp elen
Ġbren gen
Ġte am
it s
Ġdi verse
Ġv roe
ĠDaar naast
Ġh al
Ġh en
Ġk er
Ġp as
Ġv ide
Ġop dracht
atie ve
nem en
Ġon gev
om e
Ġgew eest
ĠW aar
d acht
an te
Ġom geving
en te
im aal
ol en
p ass
ere cht
Ġ x
h er
m in
d st
Ġver vol
en en
aa p
ĠG r
a ste
Ġw oning
Ġf amil
erv ice
le x
wer ken
Ġtra in
Ġcom bin
Ġ2 4
a ur
Ġof f
is c
ĠM ijn
s el
Ġz iet
o ft
Ġl ater
ij l
Ġm aan
Ġz om
on de
Ġeigen lijk
Ġze gt
ist er
Ġz etten
Ġple k
Ġkun st
Ġv is
es e
c k
sp ro
g oed
Ġou d
Ġp rakt
io de
ri ft
Ġl ie
oe kt
ste un
ce pt
Ġm ot
a uw
Ġerv aring
Ġcom m
elijk s
ĠBel g
Ġver wij
w in
Ġgele gen
ĠW anneer
Ġaan we
Ġte k
Ġbed rijven
a z
Ġm iddel
Ġlu cht
Ġover een
ĠV l
ra k
a ctie
Ġdien st
at or
Ġ201 8
o erd
eren de
ab el
Ġen ergie
Ġver v
r is
Ġb ru
Ġ00 0
ion ele
Ġgen oeg
b urg
in de
Ġvolle dig
ĠM e
ĠSe x
gest eld
Ġgeb eur
Ġ et
Ġl ijkt
ĠOn ze
Ġst ellen
Ġsp ort
Ġmil j
Ġg elijk
Ġmis schien
Ġen ige
Ġplaat sen
er ing
c te
Ġk racht
Ġmuz iek
as e
on s
Ġter wijl
Ġt ran
Ġlang s
Ġl oc
Ġide e
Ġde s
Ġverh aal
ic o
Ġh ard
or ie
.. .
Ġp at
ĠB en
Ġwe inig
Ġbeg in
o ch
Ġdaar om
Ġh art
Ġpracht ige
ĠN ieuw
Ġv oet
Ġgew eld
Ġm arkt
Ġjon g
Ġs oort
Ġp os
Ġl open
Ġden ken
sl oten
Ġmaan den
Ġin t
oe men
rouw en
Ġgeb ouw
Ġh oge
Ġd ingen
Ġkan s
Ġsu per
Ġkl anten
cc es
Ġs oms
Ġz orgt
ĠZ ij
om st
u cht
Ġslecht s
Ġbe eld
aal t
Ġb le
Ġper f
at eg
ĠD uit
Ġuit geb
Ġmin uten
Ġp ar
ma il
Ġuit er
v is
ro l
Ġst art
Ġorganis atie
Ġgesch ikt
ĠN u
ol l
aard ig
sp raak
Ġkie zen
Ġl ast
Ġv oel
Ġfin anc
Ġkl aar
ip s
mat ig
ar is
Ġp ubl
ĠA d
Ġaan dacht
r y
Ġl eren
Ġont vang
Ġme is
Ġgele den
Ġlich aam
if ic
Ġvoor t
elijk heid
ĠW el
Ġhoog te
der d
z ak
Ġw en
ĠN iet
Ġden k
Ġbe ve
Ġer voor
ven s
Ġc o
Ġt ien
Ġd icht
Ġs ite
nem er
ru ct
Ġma x
Ġbeschik baar
e uw
g ing
Ġgev oel
Ġwe ken
om p
Ġre den
ver t
Ġpro ject
ig h
Ġpro gramma
ĠM eer
Ġav ond
ter n
ĠJ o
Ġongev eer
Ġbest uur
o ber
le i
Ġmogelijk heden
at t
at ten
Ġact iviteit
Ġh ulp
mer ik
Ġf ijn
Ġ +
Ġmoe st
Ġmee ste
Ġtele foon
Ġeer der
acht e
Ġb uurt
on nen
Ġmen s
Ġvan daag
el de
Ġre is
waar den
Ġp agina
Ġk open
stel lingen
Ġin sp
Ġt oek
Ġgez ien
Ã ³
Ġkl ant
it es
ĠF ran
Ġ X
m erk
Ġl os
Ġproble em
Ġprof ess
Ġ2 1
Ġopl oss
wer pen
k oop
Ġsu cces
Ġn orm
t jes
ig er
res s
Ġlig gen
mm ing
Ġintern et
Ġt erecht
Ġm assage
oen en
Ġp ark
y p
ac e
Ġmede werk
n ing
be h
raa d
Ġl ange
il ijk
Ġg ar
d am
Ġn aast
re den
Ġpol itie
r atie
Ġp orno
j aar
um ent
Ġh otel
o ff
uk k
Ġcon s
staan de
Ġgez ond
ĠL ees
i an
Ġz aken
plaat s
Ġin f
Ã ¨
zet ten
Ġmo del
k un
re d
Ġst em
ke ur
s h
Ġj uist
p unt
Ġaf gelopen
Ġal ler
Ġkeu ken
r et
r il
Ġm akkelijk
un i
Ġv oed
Ġontwik k
Ġp op
af el
Ġk aart
m ers
u ele
Ġz in
Ġeenvou dig
Ġ2 2
res ent
Ġle zen
Ġs inds
Ġmeer dere
Ġmo gen
ge ver
Ġmoe ilijk
Ġst u
st uk
Ġver antwoord
Ġwaar de
re g
Ġreken ing
ow n
i x
u il
ment en
ul d
Ġre d
ch e
Ġv ijf
t h
ij s
v orm
Ġw arm
it ter
Ġb ad
Ġ19 9
Ġd ro
Ġvoor komen
ation ale
Ġc m
Ġh og
Ġde zelfde
p h
stand ig
oem d
Ġman nen
w w
ver d
it t
ul ier
Ġbep aalde
ge gevens
Ġge Ã¯n
Ġgen ieten
Ġzou den
Ġele kt
ĠU n
Ġonder steun
gel s
oor ten
Ġg ra
Ġzo veel
Ġgehe el
ĠG od
Ġwe dst
s m
rij zen
Ġm erk
Ġgroot ste
v el
Ġs itu
Ġsch oon
Ġz oeken
Ġf eest
Ġtoek omst
Ġf orm
l og
c ies
am ers
Ġtoe pass
Ġru st
sl uit
ru im
c a
Ġn ov
Ġou ders
Ġe euw
Ġbeteken t
Ġj an
ast ing
iden t
Ġfamil ie
ind elijk
b al
del ing
p el
Ġt ro
Ġw ww
ag er
Ġw et
k ant
Ġheer lijk
Ġkle uren
ĠâĢĻ .
Ġgro ter
Ġd o
z org
Ġfe it
schap pen
Ġverg elijk
op pen
m ber
Ġg ast
Ġd elen
e ctie
Ġhou dt
f ort
Ġin dien
Ġd oc
Ġo og
2 0
pl icht
erd ag
ĠHe b
sch rij
ĠJ an
Ġpr iv
ĠZ w
Ġbez ig
sch ijn
oe f
Ġproble men
Ġ201 7
ĠT ijdens
k le
p ers
ee d
ĠC l
Ġp assen
Ġen orm
Ġge geven
Ġper iode
i ele
o it
Ġblijk t
ive au
Ġsch ade
Ġv ond
Ġr is
Ġcon c
Ġtoe ge
ger icht
Ġecht e
Ġfun ct
ĠE x
Ġpers onen
r ist
Ġgez ell
Ġle eft
pte mber
Ġbeg ele
ĠA merik
im a
Ġb al
Ġv lie
t t
sl and
Ġver zeker
en de
ven t
olog ie
Ġv re
ig it
Ġmoe der
gev oerd
ro le
u ari
Ġo kt
at h
ukk ig
b r
Ġmet er
ĠD us
Ġgro en
Ġsl aap
it y
Ġn acht
k k
m id
Ġuitgeb re
w on
Ġvervol gens
Ġ @
w are
ee uw
Ġvide o
aur ant
ĠT h
ĠZ ijn
a ut
im ent
iss ie
Ġgem akkelijk
omm ige
Ġ4 0
Ġbe sp
Ġen kel
Ġ201 6
ct or
Ġf or
Ġ y
Ġont vangen
Ġbet rokken
u e
Ġp ast
Ġle den
Ġz et
ak t
f eer
g elijk
Ġwaar op
Ġme i
vol le
Ġpers on
werk t
Ġa ss
gem een
Ġkre eg
Ġdi ent
iÃ«n ten
Ġver s
i oen
h ankelijk
Ġse ptember
Ġb oeken
Ġneem t
Ġon ge
Ġuit voer
eren d
Ġwil de
we ge
Ġpl an
Ġ2 3
o om
Ġge c
middel s
Ġont de
Ġst ud
ond ag
Ġadv ies
Ġjan uari
Ġnov ember
un d
Ġw ee
Ġj uni
Ġ ant
Ġtot aal
ĠG el
Ġcomm un
Ġwij ze
sl uiten
Ġn ood
ĠIn dien
Ġmet een
Ġpersoon lijke
Ġ #
iÃ«n t
Ġ =
z ing
Ġo gen
i vers
Ġbe ide
con om
Ġl oop
Ġop nieuw
Ġactiviteit en
ĠB ru
Ġc ult
ur k
Ġieder e
Ġk ijk
i ers
Ġverw acht
et jes
le ven
ug d
Ġa cht
sl agen
Ġ201 5
org anis
Ġaanwe zig
y pe
Ġokt ober
Ġsch il
Ġl in
Ġhe en
Ġn ad
Ġsy steem
raa gt
Ġb i
Ġzw em
Ġa mb
Ġk orte
Ġar be
ar ige
p ort
Ġs ub
op t
gr ond
Ġwaar mee
Ġl aag
Ġl ok
u im
Ġsch e
y n
clus ief
ge men
Ġvoldoen de
et ail
Ġeven tu
Ġvoor b
d it
Ġbr and
m ot
bru ik
Ġv alt
Ġd oe
Ġbeg innen
Ġh oor
Ġbl og
Ġhoe veel
Ġbet alen
Ġwaar om
ĠT er
ie u
Ġgew orden
je cten
Ġjon ge
Ġz ee
Ġonder wijs
Ġdaar na
Ġre c
Ġko ff
gemen e
Ġmo der
Ġl og
A N
iz oen
Ġpre cies
rip t
st of
de eld
h and
ĠN e
ie w
Ġander en
Ġf iets
ĠS te
Ġwe b
Ġuit e
r ing
ĠR ot
Ġontwikkel ing
Ġd ik
ĠP r
b oek
ĠM en
Ġh alen
av ond
ĠN oord
oem de
o eld
Ġkrij g
r ank
k op
Ġ! !
Ġover zicht
Ġte ken
Ġwaar van
groe p
ma ken
in n
Ġgeh ad
Ġ and
Ġk ru
w ijk
ic a
Ġder de
Ġw oord
Ġ Q
re in
ann ing
ĠN aast
Ġloc atie
le m
plaat st
ĠS l
ree k
l icht
Ġs erie
Ġmaar t
Ġverk l
Ġbesch erm
Ġst ond
Ġhoe ft
z er
Ġlang er
in den
Ġp ap
Ġt rouw
Ġcombin atie
Ġnieuw s
Ġpro ces
Ġh anden
an en
Ġpro cent
o zen
Ġber oep
ig de
heid s
Ġgeld t
Ġmogelijk heid
schijn lijk
ot h
Ġbelangrijk e
Ġze i
gen de
een s
Ġzat erdag
m et
Ġgev onden
o ffen
Ġko st
er ken
Ġhuid ige
Ġb or
re kken
Ġdan k
Ġmedewerk ers
Ġm on
Ġaut om
Ġb ank
Ġris ico
Ġn o
a h
d ra
ul dig
m arkt
f in
Ġk amer
ĠT ot
Ġd on
Ġsamen werking
Ġmilj oen
ter dam
ĠV eel
Ġ >
ie p
Ġap ril
Ġad res
Ġ... .
w or
h al
i zen
ĠAn t
is e
Ġj a
u ter
Ġz ak
oo i
Ġdaar bij
ang er
st aat
ra ken
Ġmo b
a in
Ġprakt ijk
eu ken
Ġle s
Ġgem e
Ġk il
um enten
Ġh oop
Ġbetre ft
Ġon be
ĠB oven
Ġk erk
Ġrest aurant
Ġbeh andeling
Ġp rijzen
Ġ201 4
r aal
Ġdec ember
og raf
Ġgeb oren
Ġcom fort
Ġapp ar
Ġbedrijf s
Ġe inde
rek king
Ġvorm en
Ġn ummer
geb ouw
Ġ aard
Ġdien sten
b ank
ĠT oen
w assen
Ġs feer
Ġd igit
ra b
Ġk ap
Ġuit v
m per
Ġrij den
z ier
in o
Ġonder deel
Ġ qu
Ġwerk zaam
em ent
Ġh oren
ij ven
ĠVol gens
Ġv oer
Ġop v
Ġspec if
Ġzw arte
I N
ee f
Ġv le
Ġhal f
ĠZ uid
D F
pp ort
ure au
m ak
Ġveil igheid
Ġvroe g
b ele
str aat
ieden is
Ġter m
ol land
o x
ĠDaar om
Ġver plicht
Ġz ondag
b ren
Ġmid den
Ġz icht
ste mming
Ġverz am
Ġlief de
Ġs ervice
Ġaf stand
Ġ. "
r icht
Ġmed ia
et te
Ġregel matig
a us
Ġz oekt
Ġbeg int
Ġen t
ĠOn t
Ġb and
Ġstand aard
Ġaan p
Ġresult aat
Ġstu den
Ġe is
u le
Ġd ieren
ie ken
Ġtek st
Ġbek ijken
Ġon ver
Ġleeft ijd
ĠH el
ap t
l oop
bed rijf
Ġna uw
Ġverb l
ap en
ĠRot terdam
vl oed
ber g
ur t
ĠL aat
Ġd isc
Ġ.âĢ Ļ
Ġma il
ist eren
ĠN eem
b et
ĠS h
Ġsitu atie
ĠEurop ese
own lo
Ġreg io
Ġd orp
Ġsl ag
oe gen
w eer
b on
ĠJ a
Ġn eer
as h
ig ers
Ġz iek
ĠW ie
Ġd ak
gele gd
ĠT wee
k osten
Ġlever en
im e
ank s
Ġwedst rijd
l open
Ġmeest al
u ut
ĠJo h
in es
Ġge s
Ġb us
ver len
Ġpop ul
Ġpos itie
Ġr ichting
Ġtoepass ing
Ġm aakte
Ġk m
ĠOm dat
Ġpracht ig
Ġh uur
ra le
rij den
aar de
Ġk oop
Ġoploss ing
sy ch
Ġjul i
Ġinst all
z ame
b ad
we gen
Ġ2 8
re gen
Ġa t
Ġgen omen
Ġuit ste
Ġge houden
k elijk
i der
ru ik
geb ied
it er
st ad
ik ken
Ġbed rag
ĠVer der
ĠI eder
oog le
Ġverk rij
Ġs oorten
Ġd ru
ĠâĢĿ ,
uren de
Ġtoe gang
Ġp resent
we zen
l ang
d ruk
Ġinter ess
ĠP DF
ss el
Ġt w
Ġcolle ctie
ie ve
ruim te
v rij
Ġhog er
Ġpr ima
Ġk ar
Ġ2 7
Ġaanb od
Ġst ijl
Ġv ader
Ġo oit
ro ken
ĠP ar
Ġl anden
Ġp ost
Ġzom er
Ġzich zelf
bo ok
Ġl ijst
Ġw oorden
Ġ2 6
kom t
Ġvrien den
Ġbijzonder e
Ġf ile
Ġje zelf
n ame
v iew
p s
Ġrecht s
tre cht
Ġw ijn
ab y
ĠN atuur
Ġd u
k ast
Ġuite indelijk
b re
Ġgev allen
Ġgen oemd
Ġst il
o i
oeg d
Ã ¶
ot s
ug ust
sch rift
ie el
Ġh a
ĠG een
Ġsoc iale
d f
Ġz ag
Ġaan geb
Ġte v
ĠGr atis
ist ische
Ġhet zelfde
m aat
o unt
Ġm aak
Ġ6 0
p ar
sch ool
Ġspeel t
v eld
du c
z el
ol f
us s
ĠW ant
l ijn
Ġver en
Ġprob eren
Ġp unt
oe ien
i ft
Ġin houd
Ġ Ã
Ġ201 3
Ġdaar mee
roe f
use um
Ġe conom
Ġs im
Ġmater iaal
Ġbed oeld
u de
Ġst er
ĠâĢĻ ,
baar heid
ĠB r
Ġt al
Ġop leiding
Ġb ar
Ġin middels
k ijk
ĠB er
ge d
5 0
Ġfun ctie
ĠO r
âĢ Ŀ
ch ine
Ġbev at
Ġle ggen
Ġsch rijven
Ġwen sen
ap pen
Ġd ood
ra ct
Ġstr and
Ġer van
ak e
Ġop le
Ġpart ijen
Ġc amp
Ġf iet
Ġb ur
ĠF l
Ġp ijn
Ġrel atie
a and
Ġf act
ve st
Ġont staan
ffen de
Ġm at
h alen
Ġse izoen
Ġgl as
k w
Ġz es
ĠG en
ĠM an
ĠC ent
ĠA pp
Ġl en
vin c
Ġvoor waarden
Ġerv aren
in st
ro t
Ġc urs
g eld
Ġde ur
i alen
Ġt aal
il iteit
Ġex per
m al
Ġactie f
Ġcent rum
Ġst elt
sp el
ĠEurop a
Ġleven s
Ġont werp
Ġr ijk
Ġver oor
Ġvrij dag
Ġpart ij
Ġverb et
Ġv allen
j arige
i ent
Ġont m
Ġp ass
ele ct
Ġleer lingen
ut t
Ġth is
d agen
Ġl oopt
Ġle es
w ill
Ġh or
Ġd ames
ĠU trecht
Ġst of
uur d
Ġcl ub
oft ware
Ġspec iale
Ġmaat schapp
Ġbl oed
z ijn
Ġre sp
aar ten
sc ript
oc k
ĠG em
Ġa c
Ġou der
he m
Ġvoor dat
Ġmot or
Ġperf ect
an de
ĠG oogle
Ġaller lei
E L
Ġversch il
zij de
Ġgeb racht
ĠN et
is sen
amer a
Ġge deel
ec te
ĠK le
ugust us
ĠF rank
Ġkoff ie
raag d
g de
p akk
p ast
Ġperson eel
id t
ĠS amen
Ġn iveau
Ġvl ak
sp re
f l
alis eren
sp ort
Ġgest eld
en n
ĠNederland s
stel de
Ġken nen
ĠC on
ken s
Ġk onden
im ale
ĠI tal
Ġc ar
Ġ Ã©n
Ġple zier
z oeken
h ol
Ġ3 1
Ġuit gevoerd
Ġb ron
ĠBelg iÃ«
Ġs ommige
b le
Ġh ar
Ġw achten
Ġdaar van
Ġadv is
Ġzw art
Ġp ot
Ġbeg rij
ĠS u
ik s
ver zeker
rien d
w aard
Ġber icht
ĠE er
ell er
Ġspec iaal
Ġveil ig
Ġgevol g
ind ing
Ġpersoon lijk
ĠVan af
bru ari
oe den
Ġstr aat
Ġsp ra
sp ron
kom sten
ĠL u
Ġc or
Ġvol wassen
o y
Ġ201 2
at ische
Ġp df
raa f
Ġ antwoord
Ġhier voor
Ġge ze
Ġwaar schijnlijk
Ġvor ige
Ġbelangrijk ste
ist or
een komst
at isch
Ġge g
Ġbep aald
ĠAr t
Ġz aak
et ter
Ġsh ort
ig in
Ġgel uid
vl ak
Ġde ed
Ġker st
Ġal gemeen
Ġbesl uit
Ġkw amen
Ġop genomen
Ġu p
Ġbeg on
gen d
o eten
dien st
iv id
Ġf ant
Ġpubl iek
Ġverk oop
he b
ĠâĢĿ .
w ater
script ion
waar de
Ġvan wege
ateg orie
Ġaan sp
Ġgesp rek
Ġw onen
Ġdire cte
Ġge plaatst
Ġge komen
ĠH eer
Ġre ed
win kel
ĠZ elf
sp l
Ġt afel
Ġbestaan de
Ġ19 8
Ġa ugustus
r ic
s n
Ġverm eld
Ġin v
der ing
Ġh tt
un g
Ġapp arte
oth eek
de m
ark et
Ġin zicht
ĠH aar
igh t
age ment
Ġun ieke
it i
et e
Ġ2 9
ion eel
Ġhou t
Ġmeis jes
Ġf il
Ġvolle dige
Ġaan t
Ġbe stellen
Ġfe bruari
ĠC ont
Ġsm aak
b and
ree kt
Ġged rag
Ġm eld
ĠM in
Ġdat ing
cent rum
Ġsch er
Ġt oon
Ġbren gt
Ġkle ding
or ten
Ġbeh eer
ok ken
Ġw ind
Ġfinanc iÃ«le
Ġresult aten
Ġi P
Ġpl at
/ /
ĠT och
Ġbre ed
z ijd
Ġver sie
Ġverz org
Ġge sl
is me
an ken
Ġv ij
Ġv aste
Ġbere iken
n ummer
s gegevens
Ġte vens
Ġinsp ir
ru it
standig heden
Ġwit te
Ġgebruik ers
ĠBoven dien
Ġlin ks
ge sch
Ġ" ,
Ġse c
ĠBe kijk
Ġthe ma
Ġje ugd
ent ies
Ġet c
Ġn ot
Ġnet werk
Ġbl auw
Ġ: //
ac y
x e
Ġhel pt
z aak
Ġger icht
p art
Ġarbe ids
Ġoff ic
el ingen
t oe
Ġsch rij
sc ort
Ġpart ner
ĠB ed
Ġw on
ar s
Ġbet rekking
ar ingen
ig t
Ġwee kend
Ġbe kende
Ġheer lijke
Ġd ragen
w oorden
Ġan al
Ġr aad
ul l
Ġo ef
Ġbe weg
Ġp unten
r ent
Ġd ub
Ġb u
i alis
Ġm erken
in ken
Ġb os
Ġar ch
Ġgesch iedenis
Ġv oeren
Ġin clusief
ĠP er
an e
Ġbew ust
ĠH aag
wij f
Ġw ist
eel den
te s
Ġvol gt
Ġt ab
Ġzw aar
Ġzo on
A R
Ġdo chter
Ġru g
n ov
Ġtoe v
am s
Ġver vangen
ers e
Ġwin ter
Ġbed oel
Ġgebeur t
it el
el le
in c
oed ing
te gen
ĠIn d
and elen
Ġgek ozen
Ġto er
d anks
Ġt ips
Ġprodu ctie
Ġvoor af
Ġ' .
roe p
Ġwaar onder
Ġuitvoer ing
as se
Ġvoor bij
Ġind ivid
Ġspra ke
t o
Ġcolle ga
Ġont sp
l oos
ĠV and
Ġbezoek ers
ĠS n
Ġnatuur lijke
Ġr icht
st al
n ers
Ġm ond
ist ratie
hou s
Ġontwikk elen
s dag
Ġp sych
sluit ing
Ġcont role
a ro
ic ro
ak el
Ġcon st
Ġc ir
Ġuit zicht
ot o
w iss
Ġver zoek
ree f
spro ken
ie mand
d aan
ĠU w
Ġkl ass
c om
Ġcomp uter
Ġal l
ĠAmerik aanse
Ġle iden
ks hop
ste m
Ġk r
Ġovereen komst
k aart
Ġn amen
ot te
Ġdon ker
Ġlok ale
Ġgez icht
Ġvoor beeld
ge w
Ġeff ect
Ġpol it
ĠT en
Ġde scription
âĢ Ļ
Ġl ag
Ġ8 0
ca use
Ġin g
Ġkomen de
Ġbe cause
Ġsex y
w agen
zen d
Ġb ak
Ġterm ijn
Ġuiter aard
le ment
Ġd ou
Ġinf o
ond s
Ġvert ellen
is h
ĠG a
ĠZo als
Ġaf sp
Ġal gemene
Ġmoder ne
i elen
in dt
z ingen
Ġover heid
ĠWe st
ruct uur
p rijs
le et
Ġl ijn
sch erm
j a
stig d
Ġvl oer
Ġste v
Ġverd w
Ġverh alen
id ingen
nem ing
Ġs al
ort iment
el k
Ġvoor z
onder dag
ĠM is
derd aad
Ġin vloed
Ġfilm s
it ief
Ġbouw en
Ġw acht
ĠV eren
Ġkil om
Ġvrij will
olog ische
Ġm m
Ġw ar
og elijke
Ġhier bij
art s
Ġ3 5
he en
Ġmeis je
oe s
Ġkant oor
ig ingen
ĠC ar
Ġra d
Ġind ruk
ĠP h
reg elen
land se
ace book
av or
schrij ving
Ġzie ken
Ġgel oof
Ġre gen
bl ad
Ġpro vinc
Ġd etail
re pen
ĠS c
ĠH eeft
act ies
Ġmax imaal
Ġgeze gd
re gel
Ġ201 1
Ġmoe ite
Ġc as
ut ie
Ġgew en
ro m
be st
te el
ui den
Ġbere ik
Ġe et
il le
ĠB innen
Ġaf hankelijk
e cten
Ġdie p
Ġvoel t
Ġgen er
Ġge ve
te ken
Ġor igin
r ische
d us
Ġn ame
ga ve
y l
ĠS inds
est iv
ouw en
E T
gem aakt
Ġbep alen
ell ing
Ġh ond
O R
c ont
Ġtev reden
Ġass ortiment
Ġbe stelling
Ġent hous
Ġschil der
ar ten
oe pen
Ġb aby
ĠAn d
Ġcom pl
Ġdes ign
ip l
Ġdat a
Ġdaar voor
a zen
ĠIn tern
Ġverk eer
Ġn ou
o se
an ce
Ġp akk
Ġk e
Ġwor d
Ġspec ial
Ġlief st
ar ie
ĠHier door
Ġkl im
Ġdag elijks
oen sdag
Ġstuden ten
Ġim mers
... ]
o le
h andel
Ġv al
ĠC om
on ie
Ġonder delen
Ġk ent
ĠB ar
Ġ201 0
Ġv oelen
Ġverantwoord elijk
Ġ it
Ġ4 5
n et
Ġaf spraak
Ġs oftware
Ġl ink
inder en
Ġd erg
Ġble ek
x t
Ġ5 00
ĠZ org
Ġ[ ...]
E D
Ġpre st
Ġop er
Ġzon ne
aa f
ĠâĢ ŀ
ivers iteit
Ġa s
Ġbad kamer
am b
Ġst ij
hou der
Ġgez et
woord ig
Ġvoorb ere
ĠM ed
igen s
Ġjong eren
hou ding
Ġer ot
oe st
ĠG ron
Ġe il
Ġru stig
Ġad vert
Ġ. )
gen aam
Ġwerkzaam heden
u eel
Ġen z
Ġaf beeld
f er
Ġbesch ikt
Ġtre kken
Ġn at
ĠS m
Ġsp reken
mid delen
Ġs er
Ġcult uur
Ġruim e
ow s
Ġspecif ieke
i ste
Ġjaar lijk
ras sen
Ġj ur
Ġde m
ĠA ut
Ġf avor
it ten
Ġartik elen
Ġgek regen
Ġo b
tre den
Ġmater ialen
Ġstap pen
Ġer n
Ġre chter
Ġk at
Ġintern ationale
ĠK ijk
Ġmaand ag
Ġf ab
ĠV ia
Ġbep erk
am a
Ġt ype
Ġb aan
ĠCh rist
ste men
id d
Ġdaar door
ĠS int
Ġp e
ader ing
Ġd ownlo
Ġbe oord
Ġvoor n
Ġa bs
Ġc a
Ġhel aas
Ġcommun icatie
o ze
Ġover al
Ġen e
Ġgel ukkig
Ġcomp leet
h uizen
o ond
S T
Ġg ingen
Ġst uren
l y
ke ken
Ġte mper
gaan de
Ġbetre ffende
Ġnood zak
ken nen
w et
ĠP a
Ġst at
Ġtran s
le ggen
ander s
Ġpersoon sgegevens
iet e
ie ur
Ġtrain ing
Ġre actie
Ġbeve il
g ere
Ġm ogelijke
op er
ĠEn gel
k ort
r im
Ġp an
ation aal
Ġgeweld ig
Ġbeg onnen
Ġfunct ion
Ġ" .
ĠGe bruik
ĠD ank
Ġonder houd
Ġvre em
Ġreed s
Ġk ut
Ġvoor deel
Ġcre Ã«
ĠWil t
ĠM aak
Ġregel s
Ġc ook
Ġbel asting
h oek
geb ruik
p unten
Ġro ute
Ġg af
Ġc amera
Ġuitgebre id
ĠAlle en
Ġlever t
ĠT ra
Ġhel ft
Ġm acht
ge geven
arket ing
Ġperf ecte
Ġontwikk eld
Ġs k
won ers
Ġte gelijk
Ġge est
Ġdeel nemers
Ġgeb e
Ġ19 7
Ġg ang
p os
h ode
Ġgoed kop
Ġvert rouwen
Ġstud ie
ip pen
Ġpro jecten
g baar
Ġp ens
Ġf ys
Ġkl achten
es l
oe der
her ap
v ast
Ġ7 0
Ġbet aal
Ġgesch reven
ver ing
Ġin du
Ġv raagt
ĠÂ ·
ra st
ĠC omm
Ġover leden
our n
Ġmo cht
Ġondersteun ing
Ġwor kshop
Ġverb and
ĠG er
Ġn eg
r ichting
ĠDuit sland
Ġdigit ale
Ġin derdaad
ĠE U
Ġge gaan
Ã ¼
Ġv ocht
Ġm ar
ol d
Ġaan zien
v aart
Ġh ang
1 0
Ġste un
g te
de k
Ġn iks
Ġorganis aties
Ġbe elden
Ġonder sche
bl ijven
Ġin iti
s er
Ġle g
an je
ĠT w
R O
ĠVl aam
per vlak
Ġk ader
ĠSt ichting
Ġle iding
sy steem
ins dag
Ġz acht
Ġnad at
Ġgele verd
Ġhand ig
mee ster
Ġprofess ionele
Ġin nov
ert ific
Ġro de
Ġverk open
s ver
Ġsl uiten
ĠK om
Ġk amp
ik e
ĠDaar na
it ies
Ġlu xe
Ġziek te
ĠMis schien
ĠNatuur lijk
ĠB o
Ġ9 0
Ġ Ð
wik kel
ol ie
am pen
Ġenorm e
Ġgezond heid
Ġbez oeken
ak ter
Ġver dien
Ġn oemen
k amers
Ġwel kom
l et
Ġveroor z
Ġb ood
ĠS ur
Ġgev aar
Ġgeh ele
A T
ĠV rij
e eld
Ġte st
Ġo lie
u igen
ĠO pen
Ġv est
Ġn am
Ġbl oemen
omen teel
Ġc ategorie
Ġt ent
vis ie
ĠKl ik
Ġo ut
ĠEl ke
ĠN og
Ġ3 6
re kt
Ġd onderdag
Ġh y
Ġverbl ijf
ce du
Ġk ast
d o
Ġverbet eren
Ġpriv acy
dat e
Ġbeh ulp
k racht
ĠH ar
Ġbet ere
ag n
Ġbr ief
Ġsp annen
Ġn iemand
aardig heden
Ġzo ver
Ġover tu
Ġont b
ĠK ort
Ġpre m
h oog
Ġgezell ig
f ilm
Ġacc ount
ĠNe w
ro on
ĠH er
in ter
Ġeis en
ĠG oed
iddel de
ĠR aad
Ġover leg
Ġde fin
Ġh istor
Ġkw art
or st
Ġuitv oeren
d itie
a i
Ġvak er
Ġontvang t
in en
Ġver len
ijn t
b aan
Ġbele id
Ġl iet
ĠK amer
de s
ĠK on
Ġlie ver
Ġged urende
Ġn euken
Ġk oel
Ġer op
in kt
Ġgeb as
ĠW et
Ġoff er
ĠQ u
Ġgroe ien
ij t
Ġzwem bad
Ġw andel
Ġsl acht
en k
t ussen
Ġh oort
Ġge pro
d om
Ġmin ister
Ġst rijd
ĠDuit se
i eld
age s
Ġeventu eel
ren d
Ġer gens
Ġd acht
ĠM on
hou t
wor pen
ater iaal
estiv al
Ġboven dien
ple eg
Ġoor spron
Ġverwij deren
b y
Ġbet rouw
Ġoor log
Ġverb onden
Ġop nemen
Ġnorm aal
ĠVand aag
ill a
Ġpart ic
sch ak
Ġw oensdag
h oven
Ġvl ucht
l ijst
am mer
Ġduur zaam
ĠWaar om
ĠW er
aag d
Ġdien en
Ġvoet bal
h one
Ġsl uit
Ġ200 9
Ġinst ru
ic s
Ġover l
Ġsm art
ge z
Ġaanb ie
v riend
sluiten d
Ġprovinc ie
plaat sen
m ogelijk
v ak
Ġwerk ing
Ġsl ot
Ġhier van
Ġd ier
k elijke
Ġ \
Ġvrij e
ĠP ers
Ġgroen e
Ġwij z
Ġsch rift
Ġtra dit
Ġin zet
gen t
ĠW or
ĠI I
ten s
Ġsn eller
Ġom standigheden
ĠL a
Ġn eder
Ġaangeb oden
Ġden kt
pro du
ĠF acebook
s id
ast er
g ro
Ġ19 4
Ġal tern
en e
elijk se
r ingen
Ġfiet sen
Ġgez in
Ġwebs hop
p ark
Ġkar akter
Ġgebe uren
ĠL and
Ġhou ten
Ġfant ast
Ġt el
qu e
Ġw ett
Ġl iter
ak ker
Ġm ass
ĠGro te
Ġautom atisch
Ġp ak
Ġv ar
ist r
ad res
b um
pro gramma
Ġpl annen
Ġter ras
Ġgevol gen
Ġra pport
un ch
Ġh onder
Ġge ile
Ġkilom eter
ĠAl les
Ġim p
ĠâĢ ¢
Ġp ij
ber t
ĠP ol
ĠHoe wel
Ġsterk e
er men
Ġf lex
Ġpl anten
verlen ing
re erd
Ġbro od
Ġc ade
Ġst room
Ġv og
Ġgroter e
inc ip
Ġor de
Ġver leden
ĠE ven
Ġaanv raag
Ġal dus
u ig
Ġin form
Ġb oot
ĠGron ingen
Ġmooi ste
Ġz ult
Ġverkrij gbaar
20 1
den ken
Ġver lie
or s
Ġb erg
z i
Ġcurs us
c ode
ĠE ind
ĠS y
ĠG l
Ġon gel
Ġv uur
ul ling
te gr
Ġt v
Ġont bij
Ġgem iddelde
Ġverander en
Ġtechn ische
Ġro od
Ġh ot
Ġop treden
Ġp ort
Ġv ari
Ġ19 6
Ġgev raagd
Ġ3 2
in er
Ġw ijk
Ġmil ieu
ct ies
Ġsch erm
Ġverk ocht
ĠIn st
Ġwe der
Ġr ele
Ġh oek
Ġbij dra
ot e
ik te
sch reven
ĠR eg
Ġgast en
Ġbijdra ge
Ġs ol
Ġtoe stemming
Ġeventu ele
ĠK an
ĠFrank rijk
Ġad min
ĠNieuw e
Ġre ger
Ġgebas eerd
Ġwar me
oef te
beh eer
ĠK un
Ġ200 8
ge zet
c omm
Ġvoor l
u ff
Ġw iss
Ġl ive
le ving
ou ten
Ġpark eer
Ġpap ier
ĠH olland
Ġspel ers
od ige
zen ding
Ġle ef
ge komen
Ġgroe pen
Ġvor ig
Ġgeweld ige
Ġver e
Ġwaar d
Ġjon gens
Ġbew on
v rouw
Ġwebs ites
l d
re en
Ġslacht off
ree p
Ġuit dag
Ġstuk je
Ġontm oet
Ġe scort
Ġ ident
Ġontvang st
O N
rijk e
Ġbed ien
Ġeigen aar
ree ks
Ġv ac
Ġrond om
Ġh eren
s sen
Ġbeh oor
sk un
re st
ĠSp ort
ge s
i aanse
p pen
Ġdank zij
om in
Ġbep erkt
d ragen
Ġhier onder
Ġaan m
Ġd w
ĠZ ie
Ġb od
Ġr et
Ġr onde
ir t
Ġapparte ment
Ġg oe
Ġsnel le
Ġ ang
Ġvert elt
Ġver voer
ri b
Ġverm ogen
Ġverg eten
Ġvoor uit
Ġkort ing
Ġb ot
Ġpr ett
ou de
Ġver le
ma chine
op p
Ġa sp
Ġste den
Ġze ven
Ġt itel
Ġuit str
Ġ' ,
Ġgelegen heid
Ġw ens
Ġbet aling
at s
aat s
Ġwarm te
Ġcent raal
vin den
Ġre izen
Ġbesl oten
in ess
ĠO ost
Ġze g
ĠS oms
Ġbeh oe
k n
Ġmaat regelen
Ġal len
ik el
Ġmen ing
we st
Ġter rein
g l
tegen woord
ar a
Ġr and
z us
Ġerv aringen
C H
Ġk amers
ĠNeder l
Ġge f
Ġl age
Ġabs ol
mer ken
ĠW erk
Ġbeh andel
ze k
ĠOn line
Ġhe et
Ġd insdag
Ġc ijf
Ġsch reef
Ġgeme enten
Ġuitgebre ide
Ġver f
Ġon af
Ġge organis
eer den
Ġdr inken
Ġg as
Ġeff ectie
Ġaan g
ctie f
in ner
o ster
v allen
Ġmin imaal
ĠGel ukkig
ĠHier onder
Ġl a
Ġbet aald
) .
Ġv e
Ġw innen
x x
Ġh uw
I J
st offen
st ra
Ġver n
on es
ings ver
Ġdro og
ode m
I S
Ġvle es
Ġbesl iss
Ġcomp lex
Ġdat um
Ġfijn e
ĠF in
ĠÂ »
im um
Ġdik ke
anc ier
Ġgebouw d
Ġnoodzak elijk
ade m
ĠOn s
Ġaan ra
r ont
Ġverb eter
Ġm uur
Ġz en
Ġf ac
Ġmoe sten
mat eur
Ġderg elijke
Ġh yp
C T
Ġwin st
Ġl etter
Ġide aal
Ġst uur
A L
Ġorganis eren
Ġh onden
Ġaanwe z
oo ien
Ġeil and
Ġge sloten
oc ol
ĠP iet
ĠC an
Ġbegele iding
Ġp akken
Ġs ign
Ġp ad
Ġonder werp
k ers
ur f
ar ch
ĠPa ul
ĠM ocht
Ġp en
Ġf ruit
Ġgew icht
Ġbescherm ing
Ġm aal
Ġt r
idd eld
p agina
Ġe mot
Ġge ef
un ning
Ġgezell ige
Ġre cept
Ġwerk nemers
ha ven
i us
Ġcor re
O S
Ġd aad
Ġpr aten
Ġwinkel s
Ġgoed koop
gele gen
Ġ7 5
ĠP art
Ġhoog ste
Ġs et
ĠM il
Ġto il
Ġverw achten
Ġer f
Ġide ale
Ġkun sten
Ġbl oem
Ġst ra
aan s
3 0
ĠH uis
Ġopt ie
Ġz ul
Ġop merk
E S
Ġopen baar
Ġvlie gt
Ġcook ies
Ġger ust
oor te
Ġduur zame
Ġkre gen
ud get
Ġenthous i
Ġop zicht
Ġ. '
Ġachter grond
Ġst raf
Ġ. ,
es se
kom stig
ĠBru ssel
ou den
oor n
pl ic
ĠWil lem
ran den
Ġvoor delen
Ġaant rek
re et
Ġv ing
Ġmid dag
ĠP ark
Ġweten schapp
Ġflex ib
g ers
Ġver nieuw
we kken
Ġ aarde
Ġst arten
ĠDen k
Ġgel den
ĠL im
Ġgere cht
Ġuit zonder
ite ct
u res
ul eren
Ġst im
Ġv eld
ĠN ee
ĠL et
Ġinter ieur
1 9
Ġaansp rak
Ġgek ocht
Ġpens ioen
Ġf ris
Ġgew erkt
Ġgroe i
Ġgesp ec
Ġzicht baar
Ġveren iging
res sie
ĠI N
ele ctie
et ers
Ġeff ic
Ġrecht bank
Ġpolitie ke
ap an
Ġsim pel
Ġker n
Ġst op
ĠHel aas
Ġdoor dat
ĠA b
ĠV al
and id
ĠH and
Ġdoc ument
ĠE igen
Ġu ren
Ġa bon
Ġf ra
Ġcont rol
ĠB et
w ijd
ĠM ich
ĠH eel
e den
Ġrecht en
A M
rab ant
Ġpr incip
ograf ie
Ġover igens
r ichten
Ġpl ant
p an
ĠDaar bij
ĠBelg ische
stuk ken
Ġsch olen
Ġtoe gev
Ġtien er
Ġprodu c
er ij
ru kt
Ġsh ow
ĠW ind
ĠU S
Ġ... ..
Ġde b
Ġk wij
i ders
Ġwerk gever
Ġaan be
d oet
ĠIn ter
Ġo l
Ġlast ig
and eld
Ġ9 5
Ġmob iele
Ġm ult
ĠB rit
Ġtegen woordig
Ġr en
Ġred elijk
pl an
Ã ¡
ĠUit er
Ġc ap
ĠFran se
ĠiP hone
Ġvroe ger
Ġbe vol
Ġtechn ologie
Ġbev indt
an kt
B O
Ġ200 7
ĠH a
ĠJe zus
s be
Ġ3 00
Ġvert rouw
Ġbeweg ing
Ġtemper atuur
ud io
Ġhoeveel heid
Ġin woners
ve ster
Ġpubl ic
Ġlekker e
Ġerot ische
Ġme ub
Ġvoor raad
Ġm orgen
u ze
Ġtegen over
Ġble ef
z ie
vol gens
Ġstr ateg
Ġvoed ing
Ġs ing
ĠB eg
Ġmodel len
Ġzieken huis
ĠSu per
Ġidee Ã«n
em a
ru kken
Ġst oppen
ĠBe st
ĠN aar
st reeks
Ġf out
Ġfl ink
Ġbewon ers
Ġvoed sel
verzeker ing
Ġk rit
Ġar m
ver k
Ã³ Ã³
al ingen
Ġinteress ant
or iteit
ĠS oc
Ġontsp annen
Ġontbij t
aan deren
Ġprofess ion
Ġals of
gen e
ve en
Ġwon ingen
Ġh angen
Ġoploss ingen
Ġdraa gt
Ġover ige
Ġre par
Ġwel k
Ġkie st
Ġ!! !
y t
Ġd re
b ers
Ġt wijf
Ġbl ok
ic i
y se
ĠH oog
Ġbeh oefte
ĠM art
Ġuitstr aling
Ġgr ens
open d
Ġz and
Ġb odem
I T
ĠDe s
Ġgedeel te
w acht
Ġt ieten
Ġk eur
Ġpakk et
Ġcont ract
Ġkl ik
Ġco ach
e iden
b ureau
Ġgewen ste
Ġgeme ent
Ġbel len
Ġoef en
Ġverzeker ing
at ter
it te
Ġpolit iek
Ġafsp raken
Ġpat iÃ«nten
al ist
Ġe ss
ĠN ad
Ġvoorz itter
Ġm omenteel
Ġsmart ph
ker ing
ĠJ ac
ĠB uiten
ĠR es
Ġin c
Ġsch oenen
ĠP e
ĠGe w
Ġwel licht
r iek
Ġvol k
ĠI J
doen de
p jes
Ġpositie ve
Ġt yp
ion s
Ġaanp ak
i ct
um mers
Ġtoe g
Ġreger ing
res ident
ĠB ra
Ġkw al
re m
ĠW ater
ann e
Ġkwij t
Ġp roef
Ġvrijwill igers
Ġtot ale
Ġver j
ge vers
ĠIeder een
Ġver spre
me de
Ġna bij
acht ig
h aald
Ġm arketing
z a
Ġcont in
Ġpriv Ã©
Ġorigin ele
ieuw d
k an
Ġgen iet
kun de
Ġopdracht gever
Ġhar de
ĠC O
i ot
Ġ ij
Ġman ieren
Ġsl im
Ġgespec ialis
Ġle idt
Ġv it
Ġk ont
Ġdraa ien
Ġver zek
Ġver tegenwoord
mal ige
u be
Ġverd iep
Ã¨ re
Ġc ond
ik er
Ġaange geven
Ġtre in
Ġgar antie
Ġa m
n aam
ĠTwee de
Ġvrij wel
Ġgeve stigd
Ġaan leiding
ĠT ele
Ġbeg rip
n eem
hou dt
ĠC o
ĠR ijk
ĠVoor al
Ġhtt p
r ies
IN G
er tijd
Ġgeorganis eerd
Ġt on
Ġmid delen
m od
Ġg raf
Ġconc ur
id den
Ġopt imaal
ĠP orno
Ġont worpen
ĠA ir
ĠD el
le ed
ĠApp le
Ġre aliseren
Ġuit sluitend
ied ingen
ĠD ag
Ġd uizen
ĠP as
Ġk ijkt
Ġontwikkel ingen
Ġt onen
ij e
ag ne
ation al
1 2
Ġun iek
Ġbuiten land
ett ing
ste en
Ġbez it
v uldig
Ġn r
v at
Ġin gericht
Ġ, ,
racht en
waard ige
t ing
ĠSur in
Ġonder zoeken
Ġm ate
elen de
ust r
Ġbere ikt
g ra
Ġhoe f
ic it
h eer
Ġontde kken
Ġonder neming
Ġder den
mer c
Ġsub sid
ĠWer eld
Ġer bij
Ġadv oc
Ġbeschik king
Ġbegrij pen
c el
t ie
ĠcreÃ« ren
Ġstuk ken
d an
Â Ń
ĠIs ra
Ġfavor iete
Ġprof iel
Ġont staat
ĠB ouw
ĠUiter aard
m eer
Ġwoon kamer
kun dige
p ut
ĠVer volgens
ĠMen sen
ĠB ent
Ġdr ank
ĠTe vens
Ġonder nemers
un n
elen d
Ġg oud
int ig
Ġhier mee
Ġl ager
cedu re
Ġgez amen
Ġzw anger
ĠA p
Ġt oel
in ten
pers oon
Ġth ee
Ġappar aat
Ġvergelijk en
n ess
h ang
ve il
Ġv oren
Ġgra den
Ġaan get
Ġv oeten
oi res
Ġtro ts
Ġw h
Ġgew one
Ġonder staande
man s
le ur
Ġs electie
Ġen ig
ĠT op
Ġa ute
Ġuit ger
Ġh om
Ġst rak
p akt
Ġsamen leving
Ġoor deel
ĠDank zij
Ġverb inding
Ġwaar voor
du id
bele id
Ġtechn iek
Ġaan koop
A S
ĠTe gen
Ġlie p
Ġgez onde
nem ent
em enten
ð Ł
ĠD on
Ġbl ad
Ġhet e
ĠP eter
Ġjon gen
Ġinstall atie
Ġh uren
Ġeen maal
ĠW h
Ġiniti atief
ur ele
g ar
I E
zetten d
ĠB as
d in
ĠV rouwen
Ġs oep
Ġaf le
aa i
Ġhog ere
der ij
Ġhe den
bo x
Ġdaar in
at ing
Ġgeb oorte
Ġvrij blijven
ĠV erk
Ġv et
sch uw
Ġn aakt
ubl ic
Ġte mp
ĠM o
ĠGe z
Ġk ab
ĠAl l
Ġr it
Ġb ier
Ġ200 6
sl aan
ĠSp ec
ver b
cht end
pro ces
ĠC D
k te
Ġ3 3
Ġben eden
Ġsle ut
f eest
Ġaf deling
Ġeind elijk
Ġverz orgen
Ġk eren
Ġin stellingen
Ġa b
m on
Ġbest and
ĠK ies
p je
mid dag
Ġverd achte
Ġvoor keur
Ġm y
Ġ) :
c am
ie gel
Ġk aarten
Ġr iv
Ġdaar naast
ol der
Ġhou d
Ġd is
Ġvoorn amelijk
wij ze
ver l
Ġuitste kende
ĠH otel
Ġt ijden
Ġaan sch
Ġal bum
Ġtoil et
kle ur
Ġin komen
Ġch at
ĠPro f
Ġple kken
kle ding
Ġbeste mming
Ã« l
bren gen
Ġslaap kamer
ome in
Ġp orn
Ġcomp et
an a
lang s
Ġcompl ete
ĠHier bij
Ġ200 0
cl ub
Ġsoc ial
Ġnieuw ste
Ġgesp eeld
Ġher inner
Ġcas ino
Ġme zelf
Ġcamp ing
Ġse ctor
ĠV rouw
Ġgere geld
ĠP ort
l aag
ĠT V
ĠSt aten
us sie
Ġzo genaam
or k
ĠD E
Ġgel uk
Ġ ðŁ
z w
ou der
Ġzw are
Ġz il
ĠK n
w it
Ġd ing
Ġgebruik te
gebouw d
Ġeer lijk
Ġn odige
sch rijven
Ġver werkt
Ġdag elijkse
Ġgev angen
ĠM er
Ġgebruik er
ĠS k
Ġtrouw ens
Ġverl oren
voer ing
Ġlever ing
Ġaange zien
wij zen
ant ies
ess oires
rik a
Ġbesch ermen
g aat
ĠK en
Ġb ord
Ġl unch
al ve
ĠC olle
Ġbesch rij
Ġo chtend
Ġf les
o wer
ch ines
Ġdirecte ur
n og
m el
Ġsnel heid
Ġpopul air
Ġv ro
Ġst ro
ĠO l
geb racht
V D
Ġin vester
og ing
Ġon danks
p r
Ġc ode
ge meester
u gen
r and
Ġst offen
Ġdownlo aden
et sen
Ġsch ad
Ġher ken
ui f
ĠR ob
Ġgem iddeld
Ġ3 4
es p
Ġd uurt
Ġgesp roken
Ġmet hode
Ġou dere
ap e
Ġklass ieke
ĠVlaam se
ol atie
ĠC ol
b us
Ġs ier
Ġqu a
u x
Ġav ont
al d
Ġwit h
af Ã©
Ġaanb ieden
Ġdou che
Ġf ig
lo ze
Ġl o
Ġont zettend
Ġk andid
ĠS im
h of
Ġdraa d
hou ders
ĠB re
ĠArt ikel
ipl om
Ġreden en
Ġst ation
it air
Ġuit leg
ĠJ ul
Ġlen gte
Ġz uid
Ġt aak
ĠAnt werpen
Ġelekt rische
Ġop pervlak
Ġsl apen
Ġschrij ft
ou ch
h aal
Ġmuz ik
daag se
Ġn ag
Ġw int
Ġbur ger
Ġre acties
Ġdaar op
f un
Ġre e
st ige
Ġresp ect
Ġle ert
un a
Ġy ou
Ġpos itief
Ġb oer
v ies
Ġvriend in
ĠJoh n
s w
arm ing
ĠK e
eur s
Ġver pakk
Ġgoe deren
Ġg od
org d
ui ven
Ġ3 9
Ġlicht e
ĠFran s
in ke
Ġeenvou dige
ĠAl gemene
ĠZ od
it ion
Ġnauw elijks
Ġop gericht
ĠM ax
Ġme et
Ġ3 8
yn am
gele verd
Ġbeh oren
ut ers
st ijl
Ġk oning
Ġverg ro
ĠKon ink
b oven
Ġhang t
Ġex tre
h am
b ak
Ġle ek
Ġindivid uele
Ġnog al
Ġk ies
m ond
Ġbor st
Ġv iel
form ulier
Ġfunct ies
ar den
wer eld
ĠC omp
Ġbere ken
Ġvan zelf
ĠN ij
onder zoek
Ġeven eens
Ġb ang
Ġle eg
Ġuitste kend
Ġm ont
Ġt ru
ĠGem een
ĠWel ke
ulier e
ĠN L
ĠE m
Ġeconom ische
Ġcomfort abel
apt op
Ġbeschik ken
Ġplat form
Ġbeteken is
Ġstem men
Ġaange past
rim in
ĠK ar
Ġres er
Ġs ites
Ġbesch ouw
Ġonder nemer
Ġre cl
aar den
ĠSe ks
Ġg isteren
Ġra den
Ġkop p
Ġl ijken
ar ief
Ġbe houden
bed rijven
ast en
ĠGro ot
aard ag
Ġster ren
Ġnorm ale
ĠAr n
Ã³Ã³ r
Ġb udget
p assen
Ġko ok
Ġtoe stel
Ġoffer te
ver g
ĠWind ows
Ġn oem
Ġvrij heid
Ġvoer tu
Ġr ente
n aar
Ġaan gev
Ġw are
Ġvriend elijk
ĠT urk
ĠEn gels
Ġvol g
al a
ĠV aak
ac te
1 1
Ġp aard
Ġtradit ionele
ĠA c
Ġklim aat
Ġde k
Ġen erg
Ġbehoor lijk
Ġles sen
Ġkl as
it aire
on y
alis eerd
Ġb oom
st rie
g o
ĠK er
Ġd raag
Ġge opend
ĠH ou
Ġst el
Ġ15 0
Ã¶ r
Ġinspir atie
Ġhistor ische
ist erie
Ġdaad werk
v raag
Ġa ft
te st
ĠVan uit
Ġm useum
Ġbl ik
ĠM ag
Ġge de
Ġp and
Ġbeve st
ĠD oe
ĠI S
Ġeven ement
Ġdetail s
ul den
Ġsoc iaal
al m
as c
Ġonder houden
Ġge con
Ġvij ft
Ġ5 5
Ġver rassen
Ġ19 5
Ġb on
Ð ¾
Ġopt ies
st ers
Ġverg oeding
Ġaf val
Ġm elk
Ġopen bare
Ġt ax
Ġkru is
roe ven
Ġl at
Ġbesch ad
Ġaange sloten
Ġgr en
Ġged achten
Ġbere id
Ġa mateur
Ġver werken
Ġl ied
Ġst ab
ĠF rie
Ġvoed ings
Ġhel der
Ġv ullen
ĠSt ad
Ġzon n
Ġcijf ers
Ġcon cept
Ġro t
Ġaanv ragen
Ġrel atief
Ġn ationale
Ġaanb iedingen
kt en
el oos
Ġondersteun en
re is
Ġuit bre
ader en
Ġverl ies
Ġa kk
hal ve
ĠR ec
z ers
ĠLim burg
t on
Ġmed ische
Ġont werpen
Ġverk ie
Ġvast gesteld
Ġaanv ullen
Ġland schap
Ġverantwoord elijkheid
omm od
Ġp od
Ġd room
Ġwe gen
Ġ6 5
ĠP ost
Ġb omen
ĠS ommige
Ġdraa it
der t
Ġa dem
bren g
Ġvier de
Ġc am
Ġcolle ge
ru ctie
Ġde uren
f on
Ġsp oor
z o
Ġvoel de
Ġtele visie
l ijnen
Ã© l
Ġslecht e
ak ers
ran s
Ġgen oemde
Ġt rek
zijd s
Ġz achte
z aken
Ġle gt
i h
Ġin tegr
Ġvorm t
Ġhier door
z ocht
mat ige
Ġuitdag ing
os sen
ac iteit
Ġuiter lijk
Ġk ust
ĠZe ker
Ġst een
Ġv i
Ġre m
ĠV raag
Ġin gev
Ġvoor del
Ġuit spraak
Ġh aal
Ġzom aar
st ap
aut o
Ġver de
v d
ĠJ apan
Ġfot os
ber gen
app ar
ĠB V
Ġcom merc
Ġverh oog
Ġg un
uz iek
Ġvoorb eelden
Ġvis ie
Ġ <
Ġtran sport
Ġs elect
ir l
ĠNad at
ble men
Ġexper t
Ġarch itect
Ġl oon
Ġin vest
ĠM a
ĠJ on
r iet
l ig
urg ers
Ġt and
Ġcent rale
Ġk or
Ġpr int
Ġbe stel
i que
ak er
herap ie
Ġreken en
Ġsp reekt
ĠA t
Ġgevol gd
Ġf oc
Ġsn eeuw
ĠM icro
Ġnet jes
Ġveroorz aakt
Ġopen ing
Ġbe wijs
Ġang st
r el
ver de
Ġl aptop
ag eren
Ġst ress
ast ic
Ġsch rijf
Ġvoorzien ingen
Ġl as
Ġ â
Ġpart ners
o ken
Ġverder e
1 8
Ġsy n
att ing
ĠB ro
Ġw agen
Ġben ieuwd
um in
ĠY ou
Ġv onden
Ġb all
ĠD u
il en
w en
h el
ĠM assage
Ġ4 8
Ġten zij
uw e
acht ige
Ġbet aalt
if te
Ġgebouw en
ĠH en
we dst
Ġh open
Ġdat e
aag de
v aard
oor log
dat um
Ġwedst rijden
k amp
Ġre f
Ġal weer
y e
c y
Ġom hoog
Ġonder werpen
Ġh um
E M
Ġb atter
bel asting
Ġbevol king
Ġlang zaam
Ġsch ip
Ġjaarlijk s
Ġ200 5
Ġbesch reven
ge en
Â °
ru s
Ġge ur
ĠB ur
veren iging
Ġkan sen
Ġ3 7
Ġg ame
Ġhand el
Ġcombin eren
Ġtoegev oegd
Ġconcur r
co hol
Ġc ol
ĠK w
Ġinge zet
Ġs erv
Ġopen en
ieu ze
ĠH oofd
Ġterug k
Ġverander ing
Ġe i
ĠV en
Ġh uizen
Ġdub bel
Ġsmartph one
u ste
Ġre view
oo ie
Ġkn op
Ġbre de
Ġver vang
te g
Ġgen e
Ġafbeeld ingen
alis atie
pen s
Ġzogenaam de
Ġtra p
Ġverj aardag
iÃ« ren
Ġwaar na
ĠH all
Ġsch itt
ob by
ge sp
merk ing
Ġu l
ĠG u
ĠP at
d r
Ġveil ige
Ġwoon t
sten s
Ġv ent
Ġber ichten
ĠG ra
Ġvac at
ĠA chter
te chn
ĠZ onder
g ist
Ġblauw e
oor de
y steem
Ġaf w
Ġsy mb
Ġtoeg ankelijk
Ġth er
Ġing red
ide o
Ġcont ent
ĠD i
b u
ol ang
ĠT ijd
atie ven
a ffen
Ġelekt ron
ge stelde
Ġinter esse
ĠK erk
ĠEind hoven
Ġbele ven
ou s
hou ds
Ġl amp
Ġex amen
if icatie
Ġhuw elijk
Ġac cept
Ġopzicht e
O C
schrift en
ow el
Ġver slag
Ġpl us
t elijk
Ġvoor stellen
w oning
Ġopv allen
Ġ9 9
d a
Ġtek sten
st aand
Ġma chine
ess ie
Ġm elden
groe pen
Ġv Ã³Ã³r
ch en
Ġra ken
ĠL eu
b ar
Ġst onden
Ġprincip e
Ġgeb ieden
Ġafge sloten
Ġn oord
Ġm icro
Ġdisc ussie
Ġs ens
Ġwe zen
Ġv ru
al k
Ġprett ig
Ġtoe zicht
le y
Ġvolwassen en
Ġwett elijke
Ġadvis eren
be g
Ġt as
gend a
n es
p ten
Ġe m
ab ele
Ġle sb
Ġacc ommod
Ġn ee
Ġte veel
Ġhtt ps
Ġr ichten
wikkel ing
Ġuit een
ĠE d
ip p
Ġl ook
ĠMar ia
ĠT im
Ġw and
a ft
ĠGro en
Ġdec or
Ġdan s
Ġprakt ische
Ġbeh andeld
Ġbeh alve
Ġinter view
ĠVeren igde
Ġl ach
ĠE rot
Ġg aten
ĠA v
Ġbev oegd
Ġgel oven
Ġsl aan
Ġgebeur ten
Ġmedewerk er
ĠV S
ĠF e
ru st
Ġgele id
y m
Ġtran sp
Ġer uit
b as
Ġtent oon
reken ing
Ġf re
ĠgeÃ¯n ter
ĠCh ina
Ġmilj ard
or ing
ĠTer wijl
Ġgeh aald
el and
zig ingen
ĠTe chn
ĠN ou
Ġabon nement
organis atie
Ġpopul aire
Ġeconom ie
ĠO osten
I D
ĠZ owel
ĠZelf s
Ġvol doet
u chten
Ġpass ie
Ġdienst verlening
dien sten
Ġverh uur
be urt
ĠG ent
Ġgele zen
Ġtw intig
ĠOn danks
Ġbel ast
Ġbe wegen
Ġex ter
Ġh ers
Ġart s
Ġbev or
over eenkomst
olog isch
Ġbele g
m ateriaal
Ġt aken
Ġit em
Ġdoor gaan
Ġtijd je
Ġw andelen
sch oenen
Ġl ul
Ġgebruik s
Ġr aam
Ġm aten
Ġwerk elijk
Ġ4 00
Ġe ditie
Ġverdiep ing
4 0
Ġf raa
Ġt rend
Ġgen ees
voor zien
Ġspel er
Ġsch uld
Ġher stel
Ġon middel
Ġspecial ist
Ġkl acht
ro p
ank elijke
ĠUn iversiteit
Ġgoedkop e
Ġlog o
Ġaan deel
Ġduid elijke
ĠH ans
Ġmed ic
Ġlu isteren
Ġal vast
Ġmakkelijk er
ien de
Ġabsol uut
Ġkl inkt
Ġbest eld
Ġvrijblijven d
Ġom zet
bo om
Ġtoev oegen
Ġree ks
Ġslaap kamers
ĠB us
os c
ocht en
Ġindu strie
Ġgespecialis eerd
umin ium
Ġ4 2
Ġg olf
ĠO u
u kt
Ġsp ullen
Ġzou t
ĠPh il
b ack
Ġinteress ante
it h
spl an
Ġbev atten
Ġbesliss ing
Ġ ijs
Ġop gel
Ġm ix
b ord
ĠVl aanderen
Ġrad io
et h
Ġh arte
uw en
Ġrestaurant s
ale s
Ġb o
Ġb v
sch il
Ġstev ig
ĠH ome
Ġsp oed
Ġ201 9
Ġman agement
Ġint ro
i at
res ult
m aak
ĠJ ong
ĠS a
Ġre ageren
Ġd ist
Ġbedoel ing
Ġd ert
Ġhal ve
Ġt ij
p ot
aan b
duc eerd
Ġele menten
Ġin gang
Ġst ructuur
act iviteit
Ġhoe ven
ĠB os
ĠSp anje
ĠF or
Ġa ir
oo st
A G
ĠC as
Ġbel angen
Ġged acht
Ġgez ocht
Ġm ann
Ġst ichting
Ġst oel
Ġpaar den
sb r
ĠKort om
Ġom t
Ġverdien en
Ġj ammer
Ġslachtoff er
Ð °
ĠIsra Ã«l
Ġakk oord
Ġdub bele
Ġverzek erd
Ġhe il
Ġde skun
Ð µ
ĠWe b
Ġha ven
oeg de
al le
ĠD ire
st ijd
Ġprob eert
du ctie
Ġverkl aring
ĠJ er
ĠV or
Ġaan k
Ġbereik baar
Ġmom enten
Ġhand ige
Ġsitu aties
Ġd un
al er
ĠH oge
Ġop bouw
ĠCh in
erk ant
m is
Ġ19 3
Ġb y
ĠSt aat
Ġp resident
Ġg ram
ĠZ oek
Ġ ill
Ġbal ans
Ġgehe im
ĠLe iden
u f
ĠE cht
Ġon vol
Ġne us
Ġverl ichting
Ġjur id
Ġwerk nemer
Ġvolgen d
Ġbu ik
ief de
Ġre age
Ġex c
Ġz aal
Ġtoege staan
Ġrecht streeks
Ġex pl
ic es
aa ds
rit er
ĠF oto
pl ant
Ġcontrol eren
Ġloc aties
ie Ã«n
ell a
ic al
Ġmaatschapp elijke
ĠD r
Ġgec om
Ġgeh oord
Ġd el
ĠHier mee
ĠG ed
entie el
Ġwe gens
if e
Ġdaadwerk elijk
H olland
ĠO ff
Ġverl aten
Ġaf komstig
Ġer in
Ġtoon t
ot t
Ġcons ument
ret aris
Ġro ze
Ġsch aal
Ġgeb rek
Ġd ame
Ġw ol
Ġform ulier
Ġj urk
ĠL ang
Ġin eens
Ġb ureau
Ġw onder
vl oer
Ġo ven
or is
P S
em pl
Ġtre kt
Ġal cohol
Ġvlie gen
Ġk oud
ge k
ĠH em
Ġk ol
Ġonder ste
Ġmax imale
Ġtechn ieken
aa ien
ra an
Ġstad s
on a
Ġbinnen kort
or a
val u
ĠE Ã©n
z ins
ct ion
Ġm een
Ġn utt
Ġin tens
ĠDat ing
Ġk eek
ĠO ude
ĠCont act
Ġtele fon
bl i
Ġd oelen
w aardig
n odig
Ġ0 1
Ġver sl
ie m
d uur
Ġregel ing
Ġvoorl op
Ġb racht
Ġmaatschapp ij
Ġkl asse
Ġb urgers
a van
Ġsy stemen
Ġg ay
ĠM ooie
st ation
Ġacc essoires
Ã¶r din
Ġeigen schappen
sp ec
Ġn er
ĠBe ste
Ġenthousi ast
Ġtoege past
Ġwerk te
ĠG al
and a
Ġspeel de
Ġverm inder
Ġschrift elijk
b ere
lopen de
Ġuit gang
ĠC ons
elt je
Ġeven ementen
ĠR en
Ġpresent atie
ĠD av
Ġg ras
b eren
ie zen
Ġbr oek
arie ven
ol pen
Ġpr im
Ġmoder n
on k
ce pten
ĠH of
Ġtel kens
ĠM ac
ver m
Ġch em
ĠR ad
ro ffen
ris is
Ġvergelijk ing
Ġaan pass
ab le
in et
Ġverwij derd
Ġap art
y le
ĠH un
Ġge Ã¯
ĠS E
Ġg rij
mak er
Ġz us
Ġhier over
Ġk west
ĠI T
Ġe mail
Ġ0 8
Ġvoor stel
is en
ĠI de
part ij
Ġgebeur d
Ġont st
Ġ200 4
Ġpat iÃ«nt
Ġgew onnen
c m
lei der
Ġzelf standig
Ġv aardigheden
rie ven
Ġ4 4
ĠZ eer
in ing
gel aten
Ġact ies
Ġoor zaak
Ġhoe wel
Ġaange m
Ġtegen st
Ġkop er
n am
Ġ( âĤ¬
Ġj ourn
ro k
Ġrel ig
pl ay
Ġre p
Ġverander ingen
Ġcon clus
pos itie
Ġreg elen
gen oot
Ġvol op
Ġf an
c ul
Ġf ase
Ġop slag
ĠJoh ann
ĠLe kker
Ġr aakt
Ġoffic iÃ«le
Ġvlie g
ol oog
Ġdicht er
Ġexter ne
v ingen
ĠA ss
ĠH end
anc iers
Ġro m
ran che
or de
Ġben en
k m
v le
Ġn ummers
kw aliteit
Ġcir ca
w ar
Ġzak elijke
is se
z inn
er land
Ġdefin itie
br oek
d igen
iÃ« r
ĠS T
ĠGe sch
re chten
r ig
voor waarden
Ġland elijke
Ġstra ks
Ġ' '
Ġverzam elen
Ġeff ecten
Ġ0 9
ĠW oon
Ġkunst stof
Ġ `
ĠS ol
ĠItal iÃ«
el der
ot os
ier e
st oel
ft en
ĠBij voorbeeld
Ġx xx
Ġf it
Ġland bouw
re erde
we et
Ġsleut el
Ġl er
s oft
ĠR o
Ġbur gemeester
ĠNederl anders
Ġriv ier
Ġver ra
Ġprof it
Ġafbeeld ing
Ġsuper markt
Ġc it
Ġh ield
Ġverlie zen
heb bers
ent iÃ«le
Ġd oll
Ġprest aties
ier ing
Ġverander d
Ġb ack
Ġgesl acht
oe i
ĠD rie
Ġhot els
esl uit
Ġrecl ame
oo ds
Ġactie ve
Ġvert rek
Ġbij dragen
Ġstev ige
Ġtijd elijk
o int
ĠC or
id ings
Ġals nog
itu ut
ĠSex y
cte ur
Ġbez waar
om geving
ĠM useum
sbr ief
ĠC re
ge et
Ġcade au
regel ing
Ġtegelijk ertijd
Ġbood schap
ĠB erg
ĠAmerik a
Ġon e
Ġst am
ĠT om
ĠS ams
et el
Ġm or
ĠL eeuw
ĠEl k
eu kt
in i
ĠM iddel
Ġl uid
Ġjaarlijk se
ĠDe el
eel t
Ġthe ater
Ġst a
Ġbru g
Ġ25 0
am ing
Ġbeh andelen
ĠS P
Ġin richting
beh oren
Ġg it
ĠR uim
Ġprob eer
Ġf ree
t el
ĠS an
comm issie
Ġger eed
Ġver werking
Ġbeh oort
ui ver
Ġge il
Ġte sten
ĠB i
Ġreg ion
Ġdat ings
Ġmin stens
Ġcon f
ur a
ĠSt and
Ġp ub
o ers
Ġvoort d
Ġaf sche
Ġle est
ĠB oek
z aal
maat schapp
Ġme iden
ens ie
Ġmob iel
ĠU ite
Ġw andeling
Ġact uele
ĠLe uk
Ġopt im
Ġuit druk
ult uur
au ff
Ġ19 2
cent age
ĠA cc
Ġvide os
E G
Ġmin uut
Ġopt imale
l in
Ġbor sten
ĠM aat
ĠH il
rie ken
Ġopge slagen
f st
roe pen
Ġou deren
Ġtab let
Ġbe se
Ġbe urt
Ġsucces vol
Ġwereld wijd
bli otheek
Ġhand elen
Ġfeit en
Ġbe ant
Ġgele gd
Ġscher p
Ġhyp otheek
Ġhonder d
Ġgere chten
c le
g s
ĠH D
ig ings
vorm ing
Ġaanp assen
w ay
ĠIn middels
Ġmen u
ĠE le
Ġ aardig
ĠS al
ad a
Ġhet geen
me gen
ĠR ed
k ap
U R
1 5
Ġ% .
Ġto ol
ĠGemeen te
k erk
Ġrust ige
es sen
Ġgere gist
Ġk abel
ĠV eil
as me
ĠF ilm
ĠE N
Ġverkrij gen
Ġfinanc ieel
Ġlang ere
Ġa genda
Ġingred iÃ«nten
Ġaf d
l age
Ġonder weg
Ġweer gegeven
Ġinter actie
Ġwerk elijkheid
Ġl ij
ĠL ED
Ġpro gram
Ġavond s
Ġontde kt
ĠJ aar
Ġben odig
Ġident iteit
ĠUite indelijk
Ġbed raagt
Ġgen oten
ĠM ooi
ĠH u
Ġj as
uk ken
ro id
r aat
Ġal uminium
p as
h oe
geven de
an y
w at
Ġondersche iden
Ġge keken
sch ot
dan ig
Ġcons umenten
Ġwil den
ĠDaar mee
wee k
Ġtot dat
uren d
Ġbal k
Ġex empl
ĠE g
Ġappar atuur
Ġz agen
d ur
Ġch ec
ind ingen
ĠEer ste
b ron
ĠE chter
Ġcon cent
Ġzorg vuldig
Ġk g
Ġaan merking
Ġavont uur
ĠG eef
Ġdoc umenten
- -
Ġleer ling
gev oel
Ġch ocol
ĠOp dracht
Ġgest art
be scherm
ĠW as
Ġgem ak
ĠA B
Ġcommun ic
Ġteam s
v ragen
Ġwijz igen
Ġeffectie f
ocht end
ĠG oede
s om
Ġ ir
Ġlu kt
ur n
ri Ã¨re
Ġbe urs
ĠPar ijs
Ġwe st
Ġbro er
Ġsp anning
Ġvert elde
Ġst eken
Ġzij de
Ġthe orie
ĠHaar lem
ĠR uss
Ġmo de
Ġverpakk ing
Ġap arte
Ġcomp on
or y
ĠDoor dat
Ġvreem d
Ġinst antie
ĠA M
Ġlag ere
v ig
Ġonder ling
ĠIeder e
Ġâ Ĩ
ĠItal iaanse
zi atische
h ent
en i
Ġgew e
ĠP C
Ġtek ort
ĠP S
ĠZ ee
ĠPro du
Ġgesp rekken
aste el
Ġs o
Ġc ertific
Ġfantast isch
Ġb ox
Ġv ul
gen en
Ġlie ve
Ġspannen d
ĠV erd
Ġu r
ĠBel ang
Ġw akker
Ġzo dra
Ġ) ;
gen oten
ĠEer st
ut ten
Ġuit sp
Ġop gev
Ġorganis eert
roe g
ĠCh ar
wiss eling
ĠK ru
Ġd ynam
Ġsu iker
Ġb un
Ġon langs
Ġdeel nemen
ĠgeÃ¯nter ess
Ġc al
heb ben
Ġasp ecten
oss ier
geb ieden
ĠM ark
tre kken
Ġomt rent
ĠBrit se
ĠK oop
rij ding
Ġweten schap
ĠV ind
acht er
op l
ĠT oe
ĠIntern et
Ġro ok
Ġgezond heids
Ġb uur
Ġspecif iek
Ġbe Ã¯n
n acht
Ġin zetten
Ġgemeen schap
.. ..
ĠSurin ame
ĠPers oon
ĠVol ks
Ġaanra der
per iode
Ġpod ium
Ġvervol g
ist isch
Ġde p
a ders
Ġ0 6
Ġonmiddel lijk
ĠG ar
ric iteit
pakk et
ĠI CT
Ġbro w
ĠM y
zak e
mogelijk heden
Ġover w
Ġbesp reken
ĠV O
Ġ4 3
Ġsch ak
Ġadvert enties
ple in
ĠL eg
ĠA N
weg ing
Ġb anden
ĠB T
Ġsp ons
Ġ! )
Ġf estival
i ze
am ine
Ġeigen dom
ĠRe cht
Ġun iversiteit
f ab
Ġbep aalt
Ġver se
sp unt
mal ig
ut s
Ġkeuze s
ĠH R
Ġneg atieve
ant ische
Ġzeker heid
Ġfor um
Ġk anten
Ġlaat st
f it
Ġvoor malige
Ġappar aten
Ġge Ã«
Ġmo d
ĠMicro soft
Ġop st
Ġklein ere
Ġre in
ĠCl ub
Ġf a
Ġbus iness
Ġb anken
Ġpro mot
Ġgep ublic
Ġtransp ar
ak antie
Ġfab rik
Ġcre atieve
il d
Ġbez ocht
Ġvog els
ĠBl ack
Ġm ast
Ġaltern atief
Ġ $
m acht
Ġh ant
ĠB al
a ven
Ġ" :
Ġber gen
Ġintern ationaal
ĠV is
Ġpassen de
Ġzwanger schap
ĠL eer
b a
iliteit en
Ġaf loop
Ġvers n
Ġ200 3
Ġpl astic
Ġbeteken en
Ġadvoc aat
stem d
Ġ4 9
t ers
Ġbed ragen
c or
Ġgren zen
ĠM idden
Ġ ann
ent ijd
h y
Ġ4 6
Ġfact uur
ell etjes
Ġonvol doende
Ġver pleeg
Ġvoor komt
I L
all er
ic us
Ġhe u
ach el
Ġin b
min ste
Ġplaats vinden
Ġgev el
h uur
Ġver deeld
Ġhor lo
Ġ {
iplom a
ol len
ific aties
Ġonder tussen
Ġonaf hankelijk
ou ders
ri ve
nem ingen
ff ing
aard oor
cont act
Ġver richt
Ġant woorden
ken ning
Ġgroep s
Ġ Ì
Ġin stelling
ĠO ran
ĠR ond
Ġbegele iden
Ġserie us
Ġinter ne
Ġex p
Ġaan doen
Ġdonker e
Ġde den
Ġkwal it
Ġko ol
ĠKun st
Ġmil f
Ġcomm issie
Ġt af
Ġvl ag
Ġwij zen
Ġbesl oot
h angen
ad s
ĠA D
Ġletter lijk
Ġcl iÃ«nt
ĠC he
ga ven
Ġneder land
Ġbeoord eling
Ġp il
aal f
sch ade
ĠI P
Ġver stand
Ġadmin istratie
Ġh of
del ingen
Ġhier in
Ġbij v
ust itie
ĠChrist us
Ġcontin u
Ã© t
Ġb oeren
Ġs an
Ġs a
ĠB rabant
Ġgener atie
a im
gem aakte
Ġrel aties
be wijs
Ġprofess ioneel
Ġkijk je
Ġh aalt
ruct ies
Ġform aat
ar ig
Ġvoor sp
Ġuitger ust
groe id
p ap
Ġfantast ische
Ġh igh
Ġen g
Ġverst rekt
oet s
Ġin komsten
p oort
Ġm ent
Ġg ids
vl oeden
Ġverzorg d
V V
oll icit
dien d
ĠK inder
ĠT il
Ġacc u
Ġt ient
ĠR us
Ġwij zigingen
ĠR ijn
Ġst ren
Ġhem el
ip t
Ġa g
Ġ100 0
Ġfys ieke
ĠAn dere
Ġv eert
ĠC al
Ġop zet
ĠNij megen
Ġy og
Ġverg adering
ĠT ussen
ĠH ol
Ġaf met
Ġdicht bij
Ġd ra
ul ieren
Ġner gens
Ġbod y
v o
Ġle ider
Ġv oegen
Ġaf ger
Ġv eg
um e
ĠSt el
Ġbev inden
Ġaan delen
Ġrec ente
Ñ Ĥ
e kend
ont role
Ġopdracht en
lig gende
n iveau
op elijk
Ġ19 0
Ġsubsid ie
Ġin z
1 7
Ġwaar den
ple ment
ett ers
Ġkru iden
Ġd oos
ĠArn hem
Ġvoer t
Ġwaar schuw
Ġf isc
l am
e x
ustr al
ĠFin anc
Ġb oord
oelen s
Ġl ot
Ġp ik
ĠN oor
Ġ }
Ġko ken
Ġged ragen
werk ers
el aar
fer entie
s je
de ur
i ber
Ġvere ist
Ġgeh olpen
ne y
oo ster
schak eld
ief d
pan elen
Ġoffic ieel
Ġwaar b
Ġtrain ingen
Ġd Ã©
ĠDuit s
Ġdoel groep
ĠP et
Ġhoog waardige
ad ing
Ġkwest ie
Ġwijz iging
goed ing
ĠComm issie
Ġg ouden
Ġdigit aal
Ġaanvullen de
Ġch rist
Ġ5 2
Ġverander t
ĠY ork
u ck
ĠZod ra
ĠJ ij
Ġfl inke
Ġwaar heid
zicht ig
Ġken merken
Ġpr aat
Ġtal ent
af ond
ĠM aas
ĠAn n
Ġworkshop s
at al
Ġboven staande
Ġduizen den
ĠL in
Ġz iel
st room
Ġom gaan
b oeken
ec a
ĠâĢ Ķ
Ġapp ell
Ġv ieren
van te
Ġgel eerd
1 6
Ġindruk wekken
Ġop gesteld
Ġgar age
ĠNieuw s
Ġsp orten
Ġlos sen
Ġhoofd stuk
Ġto etsen
Ð ¸
Ġh ap
et ische
ĠAf gelopen
Ġapparte menten
ĠV i
Ġz aten
Ġvern iet
Ġte xt
Ġuitzonder ing
ĠH art
Ġinform eren
sten en
Ġst aal
at oren
Ġc ru
ĠM eest
Ġa mp
oc atie
neem t
ĠL o
ar ische
ĠSams ung
ĠA ct
ĠP rijs
Ġ0 5
st anden
atie k
Ġ ram
ir tu
Ġbetrouw bare
p at
Ġd ur
z ee
ĠR ome
Ġom vang
st ro
ĠEngel se
Ġ4 7
Ġh oof
f ect
Ġdi vers
Ġdoll ar
d orp
Ġbesl uiten
ro ss
ownlo ad
Ġgl azen
Ġr ing
ĠV ers
sl otte
ĠS le
Ġcl iÃ«nten
Ġbed re
Ġz uiden
Ġkr ant
ick ets
z on
Ġgl ad
ĠR u
Ġfin ale
raa m
Ġinstall eren
d ro
ĠK inderen
v a
Ġges elect
ĠOr g
Ġsucces volle
r or
ĠAan ge
Ġaanbie ding
gele id
maal s
Ġ, ...
ga and
Ġprofession als
Ġkoel kast
Ġimp act
Ġ? ?
Ġanal ys
werk ingen
8 0
ant al
Ġberoep s
r id
Ġaan sluit
Ġaanwez igheid
it a
ĠSch ool
b eelden
produ cten
ree dt
ik elen
ĠM ob
il j
Ġt arief
Ġwen st
Ġpro cedure
Ġaut hent
Ġk oude
v oet
ist iek
Ġru b
Ġpl ots
ien st
ĠMed ia
Ġlos se
f onds
ĠC orn
Ġto ets
ed ia
ĠAr ch
Ġop gebouwd
b i
Ġvrouw elijke
Ġblij f
in formatie
Ġb ijk
Ġaan sluiting
Ġt ip
ĠN o
Ġbe Ã«
Ġle erk
Ġk aas
sl im
Ġv en
Ġanal yse
Ġlever ancier
Ġn och
Ġmeld ing
Ġtelefoon nummer
Ġmaal tijd
R A
vrij e
eel and
z il
Ġhou ding
Ġpl oeg
Ġv elen
ĠAnd roid
Ġverk eerde
ĠErot ische
ĠH erm
el at
orden ing
b ro
Ġtoekomst ige
Ġop vol
z in
am in
i ra
V O
Ġaantrek kelijk
Ġvoorbere iding
Ġl ijf
Ġontb reken
schapp elijke
ĠPr iv
Ġra men
ĠZ aken
Ġgecom bin
ou l
igen d
Ġko ers
ĠC amp
ĠTw itter
Ġbe oor
Ġde els
lie ke
ĠM ad
r Ã¨
Ġtwijf el
Ġom a
ĠCent rum
Ġ0 7
Ġmis sen
Ġher fst
os of
Ġnauw keur
Ġverbeter ing
den k
ĠP racht
Ġg ames
m ijn
Ġfot ograf
ul de
vriend elijk
pl ichting
oo ft
ĠEurop ees
Ġher stellen
ĠK oning
ten de
Ġtegen stelling
Ġc ur
Ġverplicht ingen
ĠM ot
ov atie
Ġfoc us
Ġb oet
Ġconc ert
Ġzil ver
vak antie
Ġbij een
og raaf
Ġfunction eren
Ġspannen de
z itter
Ġvol daan
Ġals mede
Ġlang dur
Ġw iel
ol a
Ġz olang
won gen
Ġgezamen lijk
B S
Ġrol len
Ġversch ijnen
Ġ6 00
ne den
Ġz uur
Ġrij dt
k a
Ġnieuw sbrief
Ġdru kken
Ġverb ouw
Ġbeperk ing
Ġklein er
Ġmiddel s
6 0
Ġbeve stigd
Ġbe keken
Ġoorspron kelijke
ag ers
Ġl agen
ĠS ervice
gew icht
Ġaangeb racht
Ġgehe ugen
Ġl ijnen
Ġaccommod atie
Ġmee ster
Ġon mogelijk
Ġkw aad
Ġcap aciteit
Ġcomfort abele
Ġver houding
w icht
Ġver ster
Ġbest anden
b eer
aast richt
ĠL og
Ġ0 2
werk er
it aal
wij zing
il de
Ġaan sluiten
Ġkl us
Ġwe ig
Ġbe en
Ġ200 2
ĠSch e
Ġbesl ist
Ġv uil
wedst rijd
Ġle ger
se x
oef en
Ġcontact en
rouw d
Ġk ok
ont wikkeling
Ġb roe
Ġnoem t
Ġverde dig
Ġoverl ijden
ant s
ĠGel der
Ġverk eerd
ĠPl ay
ĠA ustral
Ġgl im
Ġpij p
ar ande
rot ing
Ġoud ste
ver w
ui ken
Ġschrij ver
op dracht
Ġeven als
Ġna der
Ġkamp ioen
Ġzelf stand
Ġrepar atie
Ġcult urele
Ġs j
Ġ12 0
Ġsec onden
r isten
Ġ8 5
Ġr ende
Ġver zend
ann er
Ġmeer der
O M
Ġvan daan
Ġgem aakte
Ġhonder den
D E
ĠR on
se ctor
ĠL es
ij ft
Ġbeschik bare
Ġe c
Ġgroot te
Ġtw aalf
Ġkl ikken
Ġ q
Ġfact oren
Ġt arieven
ĠB ank
Ġweb cam
ee sten
Ġgemeent er
Ġzw ak
ĠW ill
b eek
s u
Ġkn ap
at te
ĠD aardoor
Ġkw ets
Ġv illa
h ankelijke
Ġverra ss
ĠBo sch
k elen
Ġaansprak elijk
Ġun ivers
Ġversch ijnt
Ġfab riek
Ġ200 1
Ġhier na
oor nis
Ġvert rekken
Ġbuiten landse
de x
erk l
I P
Ġmo du
Ġt elt
Ġpr ive
Ġm el
Ġarbe id
Ġbegrij p
b eerd
ron en
Ġst age
ĠW i
Ġ0 4
Ġmag az
mail adres
Ġmaakt en
re gels
u ken
Ġbez orgen
ĠKle ur
Ġstim uleren
Ġver tal
Ġant i
ĠPl us
Ġrele vante
ĠL onden
ï ¿
ie ven
ĠHier voor
Ġadmin istr
win ning
ï¿ ½
re chter
ĠÃ ł
Ġbij ge
Ġbed ankt
Ġsp e
Ġv el
ĠSch ip
ĠChin ese
Ġmin imum
Ġelekt riciteit
Ġprem ie
d ijk
ui zing
ele inden
ple k
ĠEngel and
A P
Ġsp ir
ĠO ud
Ġin ten
ĠA lex
Ġs ur
Ġin zake
is ie
Ġf outen
Ġonder nemen
Ġex clusief
ĠBe ide
Ġvoor stelling
gelegen heid
Ġver re
Ġh iel
ac ul
Ġg rijs
lo ok
f il
av ing
Ġgoedkop er
ĠA s
Ġbeant woorden
bo ard
Ġf ull
Ġin gesteld
Ġonder houds
ag ram
g ier
Ġl im
Ġvari ant
ĠSt art
Ġproces sen
bru g
Ġdem oc
Ġwerk dagen
af stand
i ff
A C
ĠK at
Ġrec re
Ġbesp aren
Ġhand els
p erk
Ġgew ij
Ġbew aren
Ġgepublic eerd
Ġs ug
Ġar g
ĠB B
ĠHend rik
d aar
1 4
Ġd et
ĠDes ign
ĠA L
le erd
erv aring
ĠPiet er
ĠB red
c omp
ver kl
Ġeeuw en
Ġbesl ag
ĠIn formatie
Ġstuden t
te it
Ġtemp o
Ġ0 3
Ġb ond
Ġtelefon isch
Ġsp rak
ge h
oren s
akel aar
ren ds
Ġontm oeten
ver goeding
l ief
bed rag
best uur
ĠM od
all ig
fun ctie
Ġgesch ikte
Ġontde k
ĠS am
Ġv racht
Ġst enen
film s
oe id
Ġeen tje
Ġnad ruk
Ġverh ogen
Ġis olatie
ĠW in
ĠBT W
Ġverwacht ing
ĠR em
ee ds
Ġtrain er
Ġgek opp
Ġstat us
op leiding
t elijke
ijn s
ou ter
Ġhier boven
Ġbest eed
O T
im m
Ġe u
ĠGod s
Ġbez ien
Ġkat oen
p els
w ard
Ġmo chten
Ġver huis
spre kend
ee p
Ġk ussen
aam d
Ġverster ken
in stellingen
Ġbeschouw d
onder wijs
Ġuiter st
il er
ĠT huis
Ġverb oden
kant oor
Ġger aakt
Ġverg unning
ze g
Ġg ok
ĠâĨ Ĵ
Ġern stige
Ġd ia
Ġeis er
ĠB art
i ro
Ġonder zocht
I C
ĠZ ou
Ġten minste
o h
ĠSp aanse
ide os
Ġ18 0
ĠK N
ist ieke
im mer
Ġst ruct
Ġto cht
Ġhoor de
Ġk atten
Ġbe wezen
Ġge pl
e et
I G
ĠS ing
Ġher kennen
ĠVeren iging
Ġsh op
ra ven
ret e
ĠB on
Ġcon fl
Ġsamen gesteld
Ġre cent
Ġvliegt uig
Ġbatter ij
Ġsche pen
o ere
Ġb aas
ĠM aastricht
Ġapp s
Ġscher pe
Ġr oe
sch al
Ġtijd st
Ġvent il
Ġnamen s
n ooi
Ġ18 9
Ġkracht ige
ĠD is
ĠO P
Ġc risis
ier d
ath ol
Ġst reven
Ġveel al
ĠColle ge
rast ructuur
ĠKer st
ĠS w
u al
Ġfant as
Ġoef enen
ĠF re
ĠAn ders
Ġ? âĢĿ
Ġl ab
ĠD a
ro ute
Ġther ap
Ġzwem men
d raa
Ġdro ge
Ġvis sen
Ġlever anciers
ĠW ord
Ġkre d
ar io
oeien de
ann y
ĠÌ ģ
Ġvol t
se c
Ġne gen
Ġblijk baar
og el
vol utie
Ġaan leg
Ġbehoe ve
won ingen
ĠTil burg
alen der
Ġaansprak elijkheid
Ġbe sproken
ĠS er
eld ing
ĠbeÃ« ind
Ġuit kering
Ġsp ier
Ġz ingen
p ad
ure el
oo id
l a
Ġbep alingen
ĠBr and
Ġop vang
ĠMe de
ar y
Ġt ap
id de
orp or
i ver
Ġ6 4
Ġp ed
Ġdi agn
Ġaan komst
Ġart ie
ĠMin ister
g erecht
ĠM us
voer der
an o
ĠLu c
Ġmeld t
or der
Ġeffic iÃ«nt
Ġn aakte
inst all
Ġblijk en
mod el
Ġinnov atie
Ġgeg eten
i as
Ġbestuur s
Ġgev oelens
Ġd iner
Ġbeh alen
Ġim m
pt ie
Ġc y
Ġop breng
Ġgra pp
ĠS ec
Ġvoor jaar
Ġbet on
Ġsp iegel
Ġtij de
ur ing
Ġafsche id
ic ap
Ġverzorg ing
ad vis
ĠT r
Ġc an
Ġprakt isch
Ġuit zending
Ġst eek
ag s
Ġoppervlak te
ĠE scort
uil en
op vang
Ġm us
Ġpub lieke
Ġvol ks
ĠB ron
ok jes
Ġbeste den
Ġteken en
Ġgroe it
Ġa de
Ġvoordel ig
Ġonze ker
Ġspeel goed
Ġhuis arts
Ġper c
Ã ¤
Ġh obby
p ijn
Ġd uren
s on
ĠZ on
Ġer mee
p ost
Ġp h
Ġkut je
Ġpro v
gen oemde
Ã ª
Ġdi am
f oto
rakt ijk
Ġtro k
ĠAut o
Ġn oorden
ĠVer m
Ġon recht
c ar
Ġtechn isch
Ġcompet itie
activiteit en
pro f
ad o
bas is
2 00
Ġvro lijk
Ġstrateg ie
av a
Ġaf zonder
Ġbron nen
aut om
Ġm its
Ġfig uur
Ġsp aar
Ġ5 4
Ġsal aris
Ġern stig
Ġs ollicit
Ġbe denken
Ġinstru ment
iv eerd
Ġkl opt
oot schap
Ġpat roon
Ġbed acht
Ġtrain en
Ġsp ect
Ġtoepass ingen
Ġmin isterie
Ġvriend elijke
Ġer aan
aa gt
Ġduurzaam heid
clus ieve
ĠM ont
Ġt om
Ġgen ot
Ġ4 1
ĠP vd
Ġlig ging
Ġgro enten
Ġproduc eren
Ġup date
Ġverkl aard
vent ie
ĠS erv
Ġmax imum
l ange
Ġpl anning
Ġmet alen
Ġbele ids
Ġap pl
ĠHeer lijk
Ġcons ult
Ġmens elijke
Ġfris se
Ġpr ik
Ġamb itie
m orgen
Ġd os
u c
l amp
Ġtijd elijke
ĠOnder wijs
Ġ5 3
Ġkunsten aars
u den
ĠC V
Ġd om
Ġaute ur
l ucht
uin en
Ġn on
Ġaan geven
f oort
Ġmin i
ĠN orm
ĠHall o
Ġr aads
Ġbe iden
Ġfilm pje
ĠDav id
ĠUS B
im eter
ĠÃ© cht
Ġhoofd stad
ent je
a el
ĠZw olle
Ġboer derij
les sen
Ġgek leur
ĠRus land
Ġvast gelegd
Ġ5 6
Ġtentoon stelling
Ġonder grond
ĠC ap
Ġc afÃ©
il t
Ġbeoord elen
Ġb ra
Ġversch enen
ĠT ien
Ġover st
ran ge
Ġgev uld
Ġh ip
Ġgeb leven
Ġadvert entie
Ġmet en
gest uurd
Ñ ģ
pe ctief
er n
Ġgewen st
ĠAange zien
Ġconclus ie
Ġbescherm d
Ġregel geving
Ġgeld ig
Ġstud io
ĠW it
Ġverg ader
Ġgeg arande
M S
ĠZw arte
Ġstaat s
ch es
Ġveiligheid s
ell ingen
Ġdro men
Ġsing le
Ġde gelijk
Ġged achte
Ġvergro ten
ĠV ul
p ret
Â ®
Ġe valu
ĠRijk s
elt jes
Ġ! âĢĿ
ĠZw its
ĠRe gel
organis aties
ag o
Ġverb inden
Ġof wel
ĠR ij
Ġtra ject
Ġz anger
Ġspecial isten
Ġvoortd urend
bescherm ing
Ġ. [
Ġher inn
Ġl ood
ĠBred a
Ġkan ker
ks el
Ġdert ig
ĠPl aats
ĠN ot
ĠOnder zoek
zaam heid
ĠF C
ĠD rent
Ġor anje
Ġgez el
Ġbl oot
Ġoefen ingen
ĠR om
az z
Ġople idingen
Ġver richten
ĠH al
Ġst elde
Ġdie pe
ĠC a
ĠV el
on om
Ġverm inderen
ĠA g
ib r
Ġpro m
Ġzo danig
Ġverdw ijnen
ĠÂ «
Ġvru cht
Ġdeel name
Ġbe per
Ġinnov atieve
Ġnieuw bouw
u gel
Ġbenodig de
ander en
Ġbij eenkomst
Ġbew onder
orm d
L E
ĠWe bs
gem oet
Ġrijk e
Ġverw ar
2 5
Ġverzam eld
Ġme id
Ġont h
Ġcar riÃ¨re
h ulp
6 6
Ġverwacht ingen
el ier
eer der
Ġleuk ste
z igd
Ġget oond
Ġoper atie
Ġsamen werken
m aakt
t w
Ġver standig
Ġbij behoren
Ġreg istratie
p a
ĠM arkt
r isch
Ġg eren
ĠN S
Ġh ome
Ġstuk s
ĠPvd A
Ġpresent eren
Ġwil d
be ste
us h
Ġbood schappen
Ġkab inet
ĠR T
ĠCent raal
Ġamb ten
Ġm oed
iz er
Ġm ake
k eld
Ġvoertu ig
Ġbe m
Ġgecombin eerd
ĠL ou
be i
Ġ] .
int je
Ġexper iment
ge gaan
Ġc d
ĠN V
mak ing
ĠV een
Ġaard app
Ġkrit iek
ĠBij bel
Ġ% )
k ru
p ak
Ġgeregist reerd
ĠV AN
Ġgest uurd
Ġ il
Ġgew end
vriend elijke
ac c
Ġre iz
z els
Ġmee genomen
Ġkl in
teken ing
Ġwin naar
odig d
op ers
ur b
Ġverdw enen
st eld
Ġzul ke
G B
duid elijk
Ġsl oten
zen den
Ġcamp agne
ĠAl bert
Ġin ch
O P
Ġconst ructie
per t
Ġb ag
Ġmet h
Ġreg uliere
Ġis lam
or pen
ass a
ĠEigen lijk
le idingen
Ġde gene
Ġ5 9
Ġjaren lang
Ġfilm pjes
ĠWor ld
1 3
Ġuit st
Ġdat ab
j uist
if i
ly mp
Ġgebeur de
ĠA V
Ġjurid ische
Ġachter af
p akken
Ġar men
up s
ĠBru g
Ġte gemoet
Ġhe ft
Ġk oopt
Ġvert eld
Ġtijd ig
Ġindu str
Ġp ian
te xt
Ġinv ullen
Ġovertu igd
am ent
Ġd omein
Ġv on
ĠMart in
ĠL en
ter rein
ĠO h
Ġweder om
Ġfeest je
Ġv aat
Ġaange k
Ġregion ale
ron g
ĠOran je
Ġextre em
Ġgedeel telijk
S t
art ikelen
Ġsch en
Ġbeperk te
Ġra ce
b oot
ĠW al
I n
gev onden
on gen
ell ig
ĠGr iek
ĠB ad
Ġst reek
f iets
Ġkil o
Ġs at
ies o
Ġ5 7
u um
Ġele g
ĠH enk
Ġverm oed
Ġ ip
Ġverv aard
t ime
ĠH ot
ĠJ os
Ġtoen emen
Ġaanb ren
l aat
k aarten
art sen
h aling
ĠC ity
Ġmin ste
Ġsch ouder
ĠDel ft
ĠS il
n ie
Ġn ak
ĠG o
h andeling
ĠFrie sland
Ġgec ontrole
Ġd ok
b all
bl ik
ri x
Ġgere den
Ġv aren
g elijke
br and
Ġeer dere
Ġvoorlop ig
n el
ĠR oy
Ġinvest eren
vou dig
Ġber oemde
Ġcorre ct
Ġp c
Ġsp re
Ġwij s
ph en
Ġel ast
be c
ĠgeÃ¯nteress eerd
ule erd
ĠH y
i veren
Ġkred iet
ĠA j
ot he
Ġkandid aat
Ġsp ellen
Ġme ch
get rokken
Ġaange wezen
ĠKle ine
ĠOn e
wee g
sch illen
I I
Ġsp reek
Ġbeve stig
ĠUn ie
v re
Ġan im
Ġsterk er
Ġpassen d
ind ust
Ġonderste unt
ar iteit
Ġbeg repen
Ġlucht haven
m ere
ĠBed rijf
Ġv enn
ĠN at
hand s
U S
ĠP ale
Ġgekopp eld
b ond
Ġtele ur
Ġverd ient
z onden
ĠJe ugd
ow ieso
p ol
Ġvol gde
r ant
Ġf ir
wijf eld
ĠiP ad
Ġm r
Ġbedien ing
Ġaanzien lijk
m d
Ġwe d
spro ces
Ġcom ment
Ġk asteel
sp ire
ĠD uur
Ġret our
ĠMeest al
ĠM al
Ġkaart je
ĠG roep
ste in
Ġovereen gekomen
Ġvreem de
ĠV VD
ĠL icht
Ġ id
ip atie
erm ate
ĠS ant
un ct
Ġver staan
Ġp uur
Ġgeb le
ut ch
ĠH am
Ġbetrouw baar
Ġaute urs
rij pen
Ġsch ijf
Ġbehoe ften
e ut
ĠIn f
au ze
Ġgebeurten issen
ĠWe et
Ġzo et
Ġlin ker
Ġkwart aal
il is
Ġge el
ĠM aro
Ġob ject
Ġer ger
ĠN ationale
Ġim plement
ĠBest uur
ers port
ĠW ar
Ġwet geving
Ġbek ijk
Ġc rimin
Ġma chines
Ġmot iv
ĠJoh an
om men
Ġuitbre iding
Ġdaar toe
w aart
ĠWel kom
Ġversch uldig
stijd s
Ġw ees
oot h
sen s
Ġzet te
Ġmon it
Ġcre at
ĠOosten rijk
Ġvog el
Ġeven wicht
Ġbeveil iging
Ġro man
gev allen
I V
Ġtient allen
Ġexpert ise
Ġom vat
Ġlen ing
Ġgere aliseerd
Ġflexib el
Ġbot er
g ids
ĠH eil
ing er
igen de
Ġweb winkel
hem ale
Ġverb orgen
Ġtre den
Ġsoep el
Ġtev oren
m ar
Ġch auff
ke st
ĠF ree
Ġget u
ĠR el
Ġverl open
Ġre cepten
ĠG reen
Ġconcurr entie
Ġprest atie
ĠV ideo
d y
Ġwel zijn
mak ers
Ġbestuur der
at ch
Ð ½
ĠðŁ ĺ
Ġschoon heid
Ġacht erkant
Ġslachtoff ers
eeuw se
is jes
Ġbi ologische
vers ie
riter ia
Ġschitt erende
Ġonderzoek ers
Ġbrow ser
ar de
A D
ĠF il
ant el
vent aris
Ġrel ax
Ġcommerc iÃ«le
Ġzonne panelen
ade s
w ust
de kt
ĠZ at
Ġverg oed
Ġbed den
Ġdoorgaan s
Ġge stelde
ĠJac ob
Ġopmerk ingen
s ing
Ġgepro duceerd
Ġtoer isten
Ġb rieven
ter e
spec ial
Ġbalk on
P N
if est
Ġvre de
ma chines
y pen
Ġrij st
Ġwaar aan
vorm en
ĠD N
om er
Ġc ou
Ġm ist
indust rie
ĠW eer
Ġveroorz aken
Ġvoor zichtig
ĠB or
ĠVlaam s
at form
ĠgeÃ¯n teg
keur d
g h
Ġd ossier
ok er
Ġbijbehoren de
Ġaf sluiten
Ġlesb ische
Ġgez innen
Ġgepro beerd
Ġafge sproken
an ische
Ġbeschrij ving
Ġha ha
ou te
ĠA rab
beg repen
Ġch ron
Ñ Ģ
s zins
ĠP op
ĠEn kele
v atten
ing e
ets el
d oc
Ġper man
it en
ra p
ĠUn ivers
he im
Ġgegarande erd
ra d
ĠJ ans
Ġlok aal
ĠBus iness
w eten
Ġvoor op
ĠMar c
Ġm uren
Ġwij st
Ġw al
mp el
ĠCorn el
s al
omm igen
Ġsp ieren
b ur
Ġp o
Ġb anen
Ġveel zijd
Ġkunsten aar
Ġopgel ost
gebouw de
Ġdie et
Ġh on
Ġan ale
Ġgesl aagd
o bs
ĠW ell
ail le
Ġhier op
ĠT o
Ġg o
ĠV oeg
ĠN ov
Ġbew aard
ke y
ĠE conom
ĠV ier
Ġliter atuur
wagen s
persoon s
I M
Ġo ost
Ġgar anderen
Ġhum or
Ġopl ossen
Ġs eni
Ġlever baar
Ġgezel schap
Ã Ń
Ġbeper ken
Ġk ip
Ġafge werkt
Ġpl afond
ber icht
Ġsu pport
Ġhuis houden
st at
z one
Ġverkie zingen
Ġm alen
ĠL at
Ã¯ ne
Ġpro c
ĠZ et
ĠBe zoek
p aste
ĠP re
ĠJohann es
or f
ĠTele foon
Ġfil osof
Ġinge diend
Ġdownlo ad
Ġbelang stelling
Ġb uren
Ġp omp
ĠGe ile
Ġpark eren
i am
O L
app y
Ġplaat je
Ġt anden
Ġont slag
Ġb akken
it atie
ĠA antal
Ġnorm en
ĠB M
ĠD ir
ĠIntern ational
ĠZ eeland
Ġbehandel ingen
Ġv irtu
Ġkl ok
Ġdem on
d ieren
ĠK amp
ĠT uin
du izen
Ġre ist
ĠA z
w aren
verkl aring
Ġga uw
Ġslim me
ĠBe stel
iv ing
Ġco Ã¶rdin
Ġr its
Ġemot ies
ĠH oud
Ġst re
a ver
ĠP ap
ĠEr g
Ġmeerder heid
Ġuit nodig
ĠR ober
Ġving ers
ĠS elect
Ġtijdst ip
Ġl ift
dig heid
Ġversch een
uw d
Ġboek je
ust er
an al
Ġverlen en
Ġonaf hankelijke
erv eerd
ĠO ut
aliteit en
Ġverspre id
ĠTh om
or es
Ã §
uk te
Ġ8 00
c ore
Ġnieuws gier
Ġverst rekken
ĠA P
pro blemen
Ġwaar uit
ann ingen
Ġvest iging
ens ervice
me ub
gesp rek
sp er
Ġplaat se
Ġchocol ade
ĠH or
Ġzoekt ocht
Ġdag je
k ings
k ijken
ad vies
b anden
Ġ5 8
Ġd omin
ia ste
Ġland elijk
Ġb ranche
Ġbru in
Ġ? âĢĻ
iv a
Ġeffic iÃ«n
Ġb ol
Ġvijf de
Ġongel uk
Ġg al
Ġth erm
Ġwetenschapp elijke
Ġz ang
Ġin cl
ill er
Ġmis d
Ġinzicht en
Ġh aast
Ġb b
ĠRuss ische
mm el
tende els
! !
Ġd oek
Ġverd riet
Ġz akken
l ok
an ke
Ġrende ment
b or
Ġzit ting
ĠTurk ije
Ġbest ond
ged rag
Ġfraa ie
Ġ: )
ĠA S
Ġuit b
p ele
Ġbi bliotheek
Ġstuk jes
ĠK euken
Ġverk regen
Ġz ijk
Ġmis bruik
ct oren
Ġtra ditie
Ġne k
Ġzo iets
Ġaang ifte
g ren
Ġvoorkomen de
Ġcon form
Ġschrift elijke
ĠD am
Ġfac iliteiten
Ġtoe passen
en se
act er
Ġkn uff
ĠComm un
Ġsch oen
um a
ijn se
Ġmo slim
F i
ĠW im
voor t
Ġd iploma
l aan
Ġre al
Ġh als
Ġgep resent
Ġverz onden
Ġsy m
te am
ĠWereld oorlog
Ġsp oren
Ġkind je
or ven
Ġonderzoek s
il oft
Ġgen aamd
Ġstrak ke
Ġaf werking
ĠT ha
ĠR os
Ġex clusieve
Ġsc ore
man agement
ĠBeg in
Ġm ama
ĠOp t
ĠM c
Ġpl aten
ĠBed ankt
ĠBra zil
Ġkop pel
k ante
ĠW K
Ġover gang
Ġdo eleinden
Ġuitgeb racht
is waar
sch ouw
Ġe p
Ġaanv ulling
ien ce
A AR
Ġhel dere
l ij
Ġben ad
ĠGen iet
Ġel ders
c olle
Ġop ent
Ġverl oop
Ġfre qu
over en
Ġinvester ing
ĠOnt dek
Ġdr ink
Ġw isten
m ing
Ġpar lement
Ġopge zet
Ġorigin eel
ĠMaro kk
j aars
Ġgro tendeels
ick et
Ġcre dit
ĠO or
ĠI l
n ames
Ġz uiver
Ġvl ot
Ġser ver
Ġp roeven
ie erd
ĠPr ins
Ġf eed
ĠO oster
ĠPro beer
Ġverbl ijven
Ġpe per
Ġfra me
Ġlog isch
Ġverz orgt
Ġm and
Ġt aart
od y
Ġhor eca
Ġdr ingen
Ġspoed ig
Ġhand leiding
ĠZat erdag
Ġaanm elden
uist er
Ġst oere
ass er
ĠG raag
ro w
Ġp oging
ĠAmsterdam se
af e
Ġonder aan
ĠT our
Ġin begrepen
Ġsch at
ĠC am
Ġdrank je
Ġver plichting
ĠL ater
men s
d oek
plic aties
sw aardigheden
alis eerde
c ijf
ĠJ ammer
az ing
ĠProdu ct
Ġer kend
Ġm issie
Ġdruk ke
Ġverw arm
Ġde stijds
Ġb an
Ġbreed te
onder d
alis ering
ĠAl gemeen
am elijke
Ġafle vering
erkl aas
Ġm ig
Ġwerk gevers
Ġgit aar
Ġpr ins
Ġontmoet ing
ĠT on
ĠT ran
Ġresp ectie
ter t
Ġ6 9
Ġkom st
Ġd ron
ĠD ijk
sl id
A f
Ġ18 7
Ġinge schreven
Ġgro ente
Ġop stellen
Ġonder bouw
ĠH ele
ation s
ĠKonink rijk
adem ie
Ġaanbie ders
Ġbrand weer
Ġdefin itief
n amen
Ġ- -
Ġver zending
m o
Ġindivid u
gr onden
Ġnat te
Ġbevest iging
ĠAm ers
Ġenthous iaste
Ġbet aalde
Ġvakantie huis
Ġmee doen
Ġl ijden
Ġop halen
be stand
w iel
Ġop name
ra c
Ġmedic ijnen
at uren
Ð¾ Ð
Ġsc en
ĠM ee
Ġd iv
Ġsp ring
oss ing
ĠEuro pe
ĠZw art
Ġat tra
Ġh aak
ut ion
Ġin stellen
Ġgel ukt
ĠD ownload
Ġsim pele
Ġaanbren gen
Ġr oepen
Ġvan avond
pl aten
Ġreg istr
sch olen
Ġgezamen lijke
ĠAj ax
ĠAmers foort
Ġkop je
Ġkwaliteit s
ĠN aam
ess ies
Ġvoor heen
Ġmoeilijk e
ub ile
Ġmin er
ĠVeil igheid
sch er
ot a
t rek
Ġuit gen
Ġdaar over
sy stemen
Ġgesch il
vle es
cent ra
wij zingen
Ġbez org
Ġf el
Ġgec ertific
et re
le v
ĠV re
Ġg ig
Ġafger ond
Ġ18 8
Ġver zet
c ard
itu atie
Ġsp l
ie pen
akk elijke
Ġget uigen
Ġvacat ures
z u
Ġaan komen
voorzien ing
ĠT ro
ĠM S
Ġover d
Ġconc rete
ul atie
ik ke
Ġ. :
Ġvoor gaande
Ġv oeg
Ġman ager
Ġom gev
ĠIde aal
Ġverkeer s
kom ing
Ġmet aal
et isch
Ġsub t
ĠJapan se
Ġo ren
Ġtoev oeg
Ġv iss
Ġitem s
Ġmaat werk
n av
R E
ien s
Ġaan genaam
u es
o un
Ġving er
ert je
Ġglim l
ĠB ol
Ġarchitect uur
ĠB oer
Ġvl uchten
Ġa udio
ĠG eert
bl ijf
rek te
Ġvijft ig
Ġzelf de
m erkt
Ġ6 7
Ġdoc ent
Ġper centage
ĠSt ap
Ġm aster
CH T
ĠRe p
ple x
be sten
Ġuit dagen
Ġp orte
f ront
Ġelektron ische
rÃ¨ me
Ġuit komst
g in
Ġaanwez ige
alis me
Ġbevest igen
ood se
ĠD oel
Ġze vent
t uin
stel sel
ĠGez ond
Ġhom o
Ġstr aten
Ġmeub els
ĠTe am
result aten
V S
ĠWor dt
ari um
ĠH ong
b an
ĠAn ne
ĠGew oon
Ġw ijnen
Ġcir c
Ġkap ot
Ġm es
ĠâĢ ĭ
Ġg ij
ĠOver igens
Ġaut oriteit
b ot
Ġsl aat
verk eer
stal ige
Ġs w
Ġgem ot
Ġb oos
heb ber
th ans
ĠU l
Ġs il
ĠI ets
k ingen
ĠWe ster
spro gramma
Ġt ube
ĠSt ar
wee gt
Ġgew aar
get wijfeld
er den
ĠB ert
Ġl ente
Ġmont age
Ġ ic
Ġzijn de
ĠSt uur
ĠIn sp
ubl iek
Ġhuis je
omen de
Ġuitgen odigd
ged ragen
m us
ra ft
keur ing
a res
Ġz aad
ĠW eten
Ġess entieel
Ġra c
Ġn aa
ste d
vol gende
ĠL ive
Ġt um
Ġl anc
ĠD igit
Ġj acht
Ġdoor b
ra y
bet aling
Ġbez orgd
ĠA C
Ġover heids
ĠB E
bl auw
w onen
Ġd oden
Ġlach en
Ġgevangen is
ver f
sp unten
vin dt
Ġbelangrijk er
Ġgewij zigd
Ġle zer
Ġbij lage
Ġschad uw
Ġsp ont
ĠP an
Ġaf wijk
Ġd a
Ġul tie
ĠAf rika
ĠK u
Ġw apen
Ġin schrijving
ĠB u
Ġoorspron g
ĠSt erk
ĠE C
Ġaan vang
gen er
Ġfa ill
ĠT el
ff e
kel s
Ġsn e
y c
ver bruik
Ġlevens duur
Ġd ome
Ġdie pte
schak elen
Ġs owieso
Ġst oelen
dat es
z akken
Ġruimte s
ok je
ĠAn na
Ġverst erk
ĠG rieken
Ġ199 9
eer st
Ġgecontrole erd
ina ire
w ol
Ġsch one
ĠEx tra
Ġsn ap
Ġwat erd
Ġovereen stemming
ĠAl tijd
ing t
Ġs om
Ġ6 2
g as
Ġaantrek kelijke
Ġs em
Ġo bs
t ocht
Ġget rouwd
ĠH igh
Ġdatings ite
ond sen
a o
Ġverm oeden
Ġuiteen lopende
ĠG oud
Ġduizen d
is je
Ġmon ument
ĠInd ia
d ier
ĠPl an
b allen
verlen ers
ĠAn al
ĠPro ject
Ġmaatschapp elijk
Ġgevaar lijk
ĠKw aliteit
en is
Ġgeh oor
at a
Ã© r
Ġil leg
Ġg ift
Ġvier kante
Ġcre atief
Ġcon text
Ġabsol ute
d heid
ĠN ic
Ġgemeenter aad
ĠO lymp
ĠF un
Ġwetenschapp elijk
ĠF ort
herap eut
Ġvast goed
ĠGe b
ĠB ijna
ĠEn ergie
v ant
Ġt it
Ġnacht s
ĠM el
Ġpubl icatie
Ġdu ik
ĠB ig
Ġvervang ing
ĠN euken
Ġdist rib
m es
Ġmuzik ale
Ġlu ister
Ġhor iz
land s
ĠRad io
Ġg at
I A
Ġpij pen
Ġplaats elijke
Ġcurs ussen
Ġa ud
ff er
Ġd och
l id
Ġsch iet
ist ers
Ġw ou
Ġop roep
Ġgepresent eerd
Ġpers pectief
ĠTegen woordig
Ġsch ulden
ĠG eest
Ġkwalit atief
sec retaris
Ġkandid aten
Ġteken ingen
Ġsp ot
Ġkn ie
Ġvlucht elingen
ĠMan agement
ĠM att
Ġcommunic eren
S L
Ġbezoek er
ĠT ur
Ġpromot ie
Ġplaat st
ĠR oo
ad el
be gele
rum p
Ġren ovatie
Ġaanv aard
Ġsp ringen
Ġcomplex e
ĠF ijn
Ġver geet
Ġarbeids markt
ash ion
Ġ elf
sp ers
Ġappl icatie
Ġl ampen
Ġtra c
Ġst opt
B rabant
inder s
Ġdoc enten
Ġl ic
el y
ĠIJ ssel
h oofd
Ġbe wijzen
dat en
Ġhel p
Ġover winning
un e
Ġh aalde
ĠDaar voor
Ġalle bei
Ġgev arie
Ġget est
h r
Ġgel open
ar ia
Ġstijl volle
Ġdek king
Ġkracht en
Ġontwikkel de
Ġbon us
Ġjourn alist
Ġmen g
Ġ, "
e p
Ġkop ie
Ġ5 1
Ġ6 6
Ġverw arming
Ġrespectie v
kw am
Ġgeble ken
Ġmoo ier
Ġwiss elen
met hode
ax y
ĠEU R
Ġwas sen
Ġs urf
Ġmeen emen
v oeding
Ġstr ip
Ġschoon maak
Ġa ziatische
Ġschak elen
je ctie
Ġmed isch
rik aanse
Ġbevor deren
y en
Ġz elden
ĠM aster
Ġvoor waarde
ĠBij zonder
kast en
ĠIn houd
Ġvanzelf sprekend
Ġweer stand
Ġdoor heen
Ġbesl issen
spron g
ĠR est
Ġa re
Ġondersteun d
ĠInd ones
Ġne ut
Ġindustr iÃ«le
id a
r ice
ap ens
Ġ6 8
ĠII I
z ijnen
Ġme vrouw
maatschapp ij
ĠM uziek
Ġtweede hands
io ol
ĠVoor dat
Ġmilj oenen
ĠE t
f ase
p ress
Ġsch ijnt
ĠA mer
E C
Ġlaag ste
Ġklass iek
Ġbedoel de
all oze
Ġneg atief
sp art
spire erd
m l
Ġnet werken
ĠM aand
Ġzorg de
Ġwett elijk
Ġbeh eren
Ġroe pt
Ġzorg verzeker
R C
ĠSchip hol
ch em
ĠH ard
ĠOrg anis
Ġver kennen
Ġspect acul
ĠThom as
Ġt oren
ĠTer ug
Ġbru iloft
us ie
b esp
gele gde
ĠOnder tussen
Ġver stel
Ġdoel stellingen
Ġselect eren
urs us
Ġsp elletjes
op pervlak
l u
Ġbeoor deeld
Ġkort ings
ĠR ab
Ġim port
eld oorn
ĠOpdracht gever
st reek
T M
Ġafmet ingen
Ġverk oper
um n
Ġt ellen
m oeder
v elden
Ġz u
kk ers
Ġaanv al
Ġeffectie ve
Ġk al
Ġf en
iÃ«r s
z uur
Ġsch ieten
Ġgev ormd
Ġonder nemingen
Ġne gent
Ġan aal
Ġop eens
ĠV ader
Ġm em
Ġ7 2
Ġgev oerd
ĠW itte
maat schap
Ġgoed ge
Ġcont ra
ĠMich ael
ĠD ub
ĠU W
Ġhand elingen
Ġ6 3
b oer
Ġsh irt
Ġplek je
Ġga ven
s ervice
Ġseks uele
Ġgep land
ĠH oi
ĠH oo
Ġto ur
Ġaansch af
pl o
Ġget rokken
Ġt abel
ĠIn t
voor zitter
Ġc el
Ġsa una
men de
Ġvak ken
ĠGr and
Ġvlak bij
Ġfil ter
au d
Ġdeb at
ĠBe halve
Ġsch att
Ġontsp anning
Ġondersche id
ess ion
Ġge deeld
Ġinspir eren
zaam heden
Ġcreat iviteit
Ġl ate
Ġbere iden
ver st
le er
ĠD ames
Ġdan sen
ĠP ower
Ġople veren
Ġsch ijn
Ġvl oeren
werk te
Ġvroe ge
rek ers
Ġdeskun dige
Ġcont ain
Ġk oek
p rijzen
Ġherinner ingen
ĠB ele
eu ze
kn op
ĠF orm
ĠAf hankelijk
ĠðŁ Ļ
Ġfabrik ant
Ġiniti atieven
ist orie
ĠA ch
i aan
Ġtrain ings
ĠBel asting
onie m
Ġv ee
ĠN I
Ġhe cht
Ġont w
uur de
ĠAl mere
ĠZ ondag
Ġten slotte
Ġadv iezen
pro ject
Ġachter zijde
ĠP al
Ġuitge ver
Ġverzend kosten
Ġleu ker
Ġaf st
l agen
Ġvoertu igen
er o
Ġh o
Ġbeperk ingen
Ġadvis eur
Ġop ger
gericht e
Ġro ken
omm el
Ġbrand stof
Ġbos sen
ĠV ast
oeien d
Ġgeb oden
Ġover tre
ist ent
t ocol
Ġdaar aan
Ġred den
Ġten nis
ent jes
Ġd ol
verl ichting
Ġg ooien
Ġ199 8
Ġmil itaire
Ġe ieren
Ġvl oe
Ġe v
Ġdeel nemer
Ġpijp beurt
Ġenig szins
Ġmat ch
Ġcond itie
Ġker ken
Ġaanpass ingen
eef d
Ġsamen stelling
im enten
Ġm l
Ġref le
Ġde f
Ġverl angen
Ġuitgang spunt
stel l
der ingen
Ġverst uren
Ġsing les
Ġm as
gang ers
Ġlich amelijke
Ġt rends
Ġm ust
Ġal arm
Ġpro test
Ġc oc
Ġvit amine
Ġwerk wijze
Ġh arm
Ġbl aderen
c ond
Ġbetrokken heid
ĠE st
hebben de
b ra
voor stel
r ond
Ġpartic ulieren
Ġsport ieve
Ġnog maals
gen ame
ad y
Ġuit ermate
Ġopge geven
Ġfe ite
Ġvak man
he ffing
Ġged etail
se qu
oe dt
Ġform ule
Ġst elling
ĠM ult
ir ts
ĠGro ene
AN D
ĠGro up
Ġbegele id
l aten
Ġhorlo ge
ut te
Ġonver m
Ġbere kend
Ġdruk te
Ġfin ish
Ġw Ã©l
Ġbeschrij ft
at es
Ġ, âĢĿ
gl as
Ġna jaar
ĠR ich
Ġna vig
ĠSn el
Ġeen heid
cedu res
kl asse
Ġ] ,
Ġprob eerde
ĠC E
Ġin dex
ĠFran c
Ġm oord
ĠKle in
Ġinv ulling
k y
Ġtax i
Ġbezien swaardigheden
Ġer over
Ġonbe p
ĠRober t
Ġfeed back
b os
Ġk etting
Ġle zers
ator ium
Ġtherap ie
ĠBl auw
Ġp itt
Ġmotiv atie
Ġvro lijke
Ġb tw
Ġv aart
Ġm aag
beh andeling
Ġgez ag
Ġgeest elijke
appar atuur
ĠD OC
Ġover genomen
ĠH ad
Ġdien s
S M
Ġdemon str
Ġp al
Ġm ouwen
sie ve
a w
Ġuitge geven
iss aris
ĠMe x
Ġversch eiden
Ġsier aden
Ġbedien en
Ġget roffen
Ġp u
Ġdru gs
ĠAn gel
n y
Ġgeluid s
Ġpr i
Ġt alloze
ĠT rump
ĠV riend
Ġin ner
Ġst ort
ze ggen
Ġpap ieren
Ġarch ief
Ġf i
Ġaltern atieve
Ġton eel
Ġon getwijfeld
Ġonbe kende
ver halen
ĠB ren
Ġvan gen
ĠM oet
ak ing
Ġk alender
w and
b b
ĠTurk se
Ġr aakte
ĠM or
Ġaf k
Ġgetu ige
Ġc um
ĠGal axy
Ġf ran
Ġuit gest
ĠgeÃ¯n stal
ĠD utch
Ġkracht ig
st oelen
Ġuit gere
Ġspir itu
g ings
Ġverle end
d rukt
Ġk eten
ĠH eren
j aren
und igen
Ġverst erkt
Ġdraa i
Ġinc ass
Ġvacat ure
oer de
Ã ¢
ul s
ĠG re
Ġstand punt
Ġm uis
Ġscher men
Ġa tt
Ġverk oopt
Ġvoor be
l ust
Ġonge acht
akk un
V A
i od
lo gen
Ġkan aal
Ġverm ijden
Ġkn oop
ĠSte en
Ġverzam eling
be zoek
Ġverhoog d
Ġjur y
Ġd urf
ĠV N
ĠG et
ĠU p
ĠG isteren
Ġgoedkoop ste
le in
Ġuit gaan
Ġultie me
Ġverzeker ings
Ġhers enen
Ġcomp uters
Ġwacht woord
Ġaut over
Ġkap itaal
Ġcategorie Ã«n
Ġrein igen
Ġp iz
2 4
ĠL aten
Ġd ure
i os
Ġbun del
Ġaan genomen
ĠJ ouw
g res
Ġsp uiten
ĠZ we
Ġklant enservice
Ġautom atische
ĠStand aard
Ġaan slag
Ġdis play
Ġver wezen
vang st
Ġafw ijken
Ġjaren lange
ĠLeu ven
rij p
Ġsym pt
co urs
ĠVer gelijk
ĠSp eel
on ken
icht e
Ġconst ant
Ġin bouw
O D
Ġprogram m
Ġtoel ichting
ay s
Ġst alen
schapp elijk
v i
all y
ĠSch rijf
bl og
Ġk ids
Ġschilder ij
Ġwas machine
Ġst randen
Ġst orm
ĠLu x
Ġm iss
Ġexpl oit
Ġf asc
vrij heid
sh irt
ĠLeeuw arden
Ġsamen werk
om pen
Ġhant eren
ive aus
Ġbereken en
Ġstr alen
Ġb uis
Ġp ure
Ġuit gave
od igen
Ġmag net
Ġdire ctie
Ġwel iswaar
Ġverz oeken
Ġtoev allig
te wel
Ġna deel
ĠDire ct
Ġpot entiÃ«le
ol ven
r Ã©
Ġinstru menten
Ġcent imeter
ker ij
ĠT eg
Ġverl iefd
Ġdec enn
vol en
Ġdi al
m ed
Ġsimpel weg
Ġh aren
Ġtal enten
Ġschilder ijen
ĠD J
Ġreage ert
ken t
Ġbesliss ingen
beeld ing
oes je
at eur
sk undigen
a ve
i aans
Ġontwikkel t
Ġn est
ĠU r
om b
r ick
f act
Ġsch uif
Ġbewust zijn
Ġmann elijke
Ġver plaatsen
Ġtegenst ander
ĠSm art
Ġinter pret
alt h
Ġon mis
Ġvor dering
Ġh Ã©
al isten
st ijden
Ġenthousi asme
ĠGesch ikt
Ġf ol
ĠGelder land
Ġrespectiev elijk
Ġcontact formulier
zet ting
ĠC B
Ġbeste md
Ġlied jes
Ġfot ografie
Ġsc oren
Ġp oort
Ġuitge sproken
ij p
Ġmass a
Ġkl ap
bo sch
Ġveg et
ĠDrent he
Ġkon ink
Ġl etters
Ġout fit
aard ige
Ġf ans
Ġm al
ĠMin isterie
ro f
Ġuitdag ingen
ĠLeu ke
ster ren
Ġontst ond
Ġverl oopt
s hop
ĠR ode
Ġboven op
stel oos
l anden
kan ker
pap ier
Ġartie sten
v atting
Ġuit z
avan c
Ġvoorbere id
geb onden
ĠAp eldoorn
Ġenz o
Ġopdracht gevers
Ġken de
ĠAnt on
ian en
m uziek
Ġm ore
Ġin sch
Ġ8 8
Ġvol ume
iet er
Ġele ment
ĠD ord
ĠN ationaal
Ġor der
Ġbe houd
se izoen
Ġopbreng st
ap el
Ġplat te
ĠB ox
arte ment
ĠBer n
Ġboet e
Ġzak elijk
in f
Ġverzeker de
ĠV roe
we ken
Ġben adering
Ġcontact gegevens
Ġver he
eu len
ĠG G
Ġmil itair
A B
Ġheden daagse
gesch reven
Ġl ippen
Ġn achten
Ġopvallen d
Ġhuis houd
sen d
k et
br ief
Ġherinner ing
osc oop
Ġrecept ie
Ġde al
ĠVor ig
Ġvert rokken
Ġs hemale
aanb od
ĠCh at
it Ã©
201 8
ye ster
c amp
ater ialen
Ġaf b
g ingen
ĠInst agram
Ġl abel
Ġveren igingen
ell etje
ĠP agina
ĠSt eeds
Ġerf goed
ĠC ultuur
Ġb randen
ĠS j
Ġz eld
Ġinge schakeld
ĠO N
Ġtijd schrift
Ġt ouch
Ġgemakkelijk er
Ġsug gest
Ġred elijke
Ġafge stemd
Ġke us
ĠT rans
ĠAl ler
Ġbru ik
Ġingev uld
br iek
Ġbestuur ders
Ġk ou
Ġsp ijt
ĠW aal
ĠBer lijn
Ġeind igt
Ġverwij zen
tert ain
Ġplaat jes
j arig
ĠL ange
ĠG ele
Ġe st
Ġst oom
k eren
av el
Ġte gels
ar n
s le
ĠJ ack
sch ik
ĠðŁĻ Ĥ
u ch
ij ssel
Ġraad ple
ĠVer b
Ġgrij ze
Ġaf l
r int
Ġp uz
id atie
Ġl et
d ie
Ġeil anden
og els
as y
Ġm er
Ġw ijken
ĠC ast
Ġwil le
A merik
wij de
ĠA F
gesch iedenis
Ġex act
zorg ing
Ġf ront
2 1
Ġgesch eiden
Ġd alen
Ġappell ant
E ER
Ġh am
ver slag
deel de
un de
sp elen
Ġt alen
Ġaangev uld
tu be
Ġn eu
ĠM ateriaal
ĠF er
Ġbij stand
Ġd im
Ġreser veren
Ġvenn ootschap
ĠV oet
u deren
Ġaan wijzingen
Ġzelfstand ige
Ġa qu
ĠP V
Ġbele ving
Ġvergelijk baar
Ġs maken
Ġge ste
veil igheid
Ġverrass ing
Ġst uurt
Ġfinanc iering
Ġo e
ĠL ie
ĠCD A
Ġgem eten
Ġconcent ratie
Ġin s
Ġaangek ond
Ġken n
Ġ7 00
c ellen
ĠW ees
ĠPort ug
Ġver ont
ĠN iets
Ġpl ak
Ġsch ol
ĠPro vinc
ol utie
ag ue
Ġdivers iteit
Ġsfeer volle
bel ang
v lie
em and
verlen er
Ġcon sequ
ĠVer l
Ġt reedt
Ġze il
Ġongel oof
Ġp et
v els
Ġol ijf
Ġplots eling
ron gen
Ġm antel
Ġkr anten
ĠBe ach
Ġindivid ueel
he d
sche de
Ġconfl ict
ĠCl ass
Ġged wongen
bre uk
ĠVrij dag
ve zel
ĠEg y
Ġstu de
Ġexempl aar
Ġent ree
Ġ7 7
f otos
ĠV akantie
ĠGew eld
Ġindien en
Ġl enen
Ġgem eld
bl ok
os itie
Ġgen eukt
ur ity
Ġw ast
dek king
hal te
ĠH out
Ġcl oud
Ġs ong
Ġbl ack
Ġsch uur
Ġv akkun
Ġverbet erd
Ġdorp je
ĠP rem
ite d
Ġt ank
ver h
ic ker
Ġflexib ele
Ġschil deren
a j
oef enen
il s
ĠJer oen
Ġob jecten
Ġgeselect eerd
ĠSelect eer
Ġverv elend
vel op
Ġer s
Ġverkl aren
Ġon sch
on eel
Ġintens ief
im p
Ġover b
Ġovereen komsten
Ġinvester ingen
g ie
Ġgeb onden
Ġricht lijnen
Ġmoe ders
ĠDir k
ant ra
rijk en
T C
Ġontb reekt
vang el
Ġwe sten
ĠVan wege
Ġde genen
Ġbar bec
f or
al ling
ĠD ruk
Ġger es
Ġaccept eren
Ġkwart ier
ĠT al
r iÃ«
alist isch
Ġrecht e
at o
iet sen
ell o
Ġindrukwekken de
Ġ... ...
ĠSint erklaas
Ġt ime
Ġongev al
Ġtr io
appar aat
E K
Ġjong ere
Ġstil te
* *
ĠV olle
w n
Ġl ong
k elijks
Ġc art
Ġl aden
Ġhy g
man ager
Ġreiz igers
Ġonge wen
Ġdoor lopen
Ġo osten
Ġont sn
Ġw ifi
Ġprofit eren
Ġoffer tes
Ġir rit
Ġadministr atieve
Ġcl ass
Ġvermeld ing
Ġbedrijfs leven
Ġb ig
he el
Ġbinnen kant
Ġwaar over
Ġsign aal
Ġsc oot
Ġinf rastructuur
ĠPhil ips
ente gen
Ġuit gaven
ings systeem
Ġ18 5
ĠM at
Ġl etten
pp el
spel er
form eerd
Ġvervaard igd
Ġna denken
ĠD ou
ĠWebs ite
ĠG R
Ġuur tje
st oornis
er zijds
Ġuit slag
Ġth at
Ġvoorn aam
ĠJe an
ĠJ uist
Ġgemeent elijke
Ġgele verde
ĠB aby
Ġdeel t
Ġvoort vl
Ġin log
) ,
re izen
Ġp eil
Ġsymb ool
sch ip
mm ers
km aar
ĠSle cht
ent er
Ġg irl
Ġin schrijven
h en
Ġ? "
ĠKl ant
ĠV in
Ġcertific aat
Ġom schreven
Ġbeveil igd
D e
ĠV eg
ik ing
Ġin schrij
Ġgest opt
ure aus
Ġtoe stand
Ġsp uit
Ġvoor kant
ĠV e
Ġc ab
Ġk eert
ater ing
Ġtemper aturen
Ġgevaar lijke
Ġ7 6
Ġpre c
st op
ĠGriek se
Ġexper ts
werk zaamheden
itt ing
ule ert
Ġres erv
Ġsn ij
V B
Ġstud ies
Ġv a
Ġonbe kend
Ġsl agen
Ġpartic uliere
ĠS and
Ġbet al
Ġw etten
ch at
Ġaan gelegd
ĠSch oon
Ġ7 3
ĠL os
men d
min istratie
ude erd
con st
ĠA R
Ġpol y
ĠH um
Ġl i
Ġm ap
Ġy our
t age
ĠBas is
Ġlie pen
Ġger elat
Ġaf geb
Ġbeschikbaar heid
Ġt ong
Ġvertal ing
ĠV it
4 5
Ġle idde
Ġg elijke
aut y
Ġin h
ĠUW V
Ġkost uum
install atie
zinn ige
ĠV R
ĠI emand
oo ch
Ġgew aarde
ale is
Ġbese f
ĠGer rit
ĠF amil
ont eerd
id dag
oe gt
Ġon gem
ĠD om
v ee
Ġas iel
or ter
Ġzeker e
Ġmis l
Ġreview s
Ġ16 0
Ġmodu le
ĠAd vies
ubile um
sb etre
Ġbe antwoord
ĠCon c
Ġovereen komstig
d recht
Ġover wegen
Ġp auze
Ġrelig ie
ĠEer der
Ġde sbetre
Ġp annen
Ġuit zend
Ġeven t
Ġtrend y
Ġoorspron kelijk
Ġcons um
Ġpas vorm
Ġgliml ach
g ifte
kun st
s els
Ġont wer
ĠM erk
ab l
Ġnauwkeur ig
Ġapp el
ĠJ ava
ĠB ob
sch en
Ġmoeilijk er
Ġrele vant
Ġgereed schap
Ġover le
eer ders
Ġle ge
ĠF estival
Ġopvallen de
Ġkwaliteit en
g n
Ġsl ip
ĠPale st
Ġinstall aties
Ġverdw ijnt
i ven
Ġauthent ieke
Ġhe k
ĠSoc iale
le erde
Ġop per
Ġzon de
d ij
og n
ol ge
Ġbro ch
den t
Ġs essie
j urk
Ġjong ste
Ġgez ins
Ġnood zaak
ĠEle kt
Ġverg ele
Ġred actie
Ġintro ductie
Ġ! "
Ġcam per
ĠgeÃ¯nstal leerd
Ġru briek
Ġt rip
iek te
bon y
Ġfisc ale
Ġj ob
Ġbe werken
Ġbasis school
ch er
Ġvergele ken
Ġclub s
Ġscen ario
w arm
Ġver zenden
ĠTot aal
Ġtra ppen
igh ts
d oel
st aten
ĠG E
z am
ĠKen nis
Ġfit ness
Ġfys iek
iss ement
ĠF ab
ĠP o
ĠD o
er ings
ĠS on
Ġtoe stellen
h onderd
Ġne w
Ġk art
k st
ol ogen
ĠM omenteel
l as
Ġer kende
u aliteit
ĠAm stel
it ische
Ġl ieten
ĠJ as
Ġfact or
Ġt ak
ĠM annen
ĠBl ue
Ġr un
Ġfun dam
ler aar
Ġonver get
Ġlichaam s
ĠHerm an
den kt
Ġvergro ot
Ġgeh and
7 0
Ġget al
Ġhon ger
ĠI V
ĠIn leiding
Ġmeub el
Ġspec ialis
Ġh ol
Ġloop afstand
Ġdesbetre ffende
result aat
ik i
Ġc riteria
Ġparkeer plaats
Ġbru ine
Ġbe stellingen
gesch ikt
Ġonder staand
ver e
use a
A K
Ġbeg roting
wij zer
Ġverh uizen
ĠB esluit
iv el
Ġhe ct
b esluit
Ġfot ograaf
athol ieke
Ġ( âĢ
Ġpolit ici
Ġf ru
Ġtoer nooi
ĠGen er
Ġw ets
Ġsy mp
Ġvoort gezet
Ġgemeen schappelijke
Ġm olen
Ġcru c
Ġnutt ig
Ġwaarde volle
Ġmee gemaakt
sch aft
Ġben oemd
ĠTeg elijk
Ġing rijpen
Ġge avanc
ĠM eld
ĠD ienst
Ġverzeker aar
Ġfys iot
r anten
be urs
Ġm erkt
Ġm unt
Ġr oest
Ġw is
Ġlat ere
ĠV ER
Ġn oten
Ġuit gelegd
Ġherinn eren
Ġ7 8
f estival
Ġlid maatschap
Ġopmerk ing
Ġben ader
ĠTe x
Ġverw en
Ġons zelf
ĠSt udio
Ġinst ructies
oord elen
Ġfiet st
ic ale
Ġch risten
kaart je
w ood
Ġ! âĢĻ
uden ten
Ġwille keur
Ġle zing
h o
Ġverrassen d
Ġl ak
ĠS ony
Ġduur der
Ġbegrij pt
f ace
ĠDord recht
wer ing
ĠJul lie
ĠM ari
Ġstaan de
ad ijs
O U
ch o
Ġs ig
Ġre aliteit
of ilm
aaf d
ĠVand aar
Ġsch rik
kt op
Ġt ol
Ġbeh aald
Ġrij bewijs
Ġmed ium
Ġj arige
Ġ7 9
Ġart sen
Ġvorm geving
ĠE P
ĠR ol
Ġover dag
Ġst or
Ġro ck
Ġtrouw de
Ġpl ay
Ġfantas ie
Ġmy ster
j as
O W
B A
Ġstij ging
Ġv at
Ġyog a
Ġtre ft
Ġh inder
ac ks
Ġvoort aan
Ġvert rag
Ġc over
Ġschool jaar
Ġvoor malig
Ġgevoel ig
Ġnag el
ĠVer t
Ġpass ag
Ġoor zaken
Ġle d
Ġuiter ste
Ġdie f
Ġbe sm
ĠO V
Ġe iken
ĠHier in
Ġ199 7
Ġdiagn ose
Ġ18 6
ĠMaar ten
Ġ14 0
mper atuur
Ġvoor werpen
Ġperc eel
ĠT ru
orm en
2 2
h art
Ġdoel stelling
ite cten
ĠBrug ge
Ġbeweg ingen
ud ie
Ġwor t
spro du
Ġintegr atie
ĠBar cel
Ġc v
Ġspec ificaties
gew oon
Ġeigen aren
Ġover heden
Ġlu ist
Ġro bu
m ann
V l
ĠZ oekt
Ġadvoc aten
Ġbetrokken e
Ġtre ffen
ĠM orgen
Ġdie per
Ġm aalt
elle ct
Ġwen nen
Ġvij and
ag ra
Ġal thans
Ġvoorbere iden
h u
ĠG aat
Ġin ventaris
raa id
Ġbren g
Ġwaar dering
ĠS hop
ass ade
im aat
ĠG eld
Ġrij pe
ĠAd ri
o be
Ġvoor zijde
Ġstij gen
ak te
Ġap plicaties
ru iken
Ġko cht
Ġgezondheids zorg
ĠAr be
y a
geven d
e ff
uss entijd
Ġbescherm t
Ġmarkt en
Ġk oor
Ġ7 4
ke uren
ĠGer ard
Ġcl aim
Ġb ou
Ġbe houdt
verm ogen
k ussen
ess or
ĠH P
ij er
Ġsche iding
h orst
kun dig
Ġaange komen
ĠP orn
Ġgroeien de
ĠZwe den
ĠAn der
n ee
Ġaf we
EN T
sp eel
Ġged icht
er ten
Ġkl oppen
hal f
Ġuitnodig ing
Ġble ven
Ġsl ap
ĠS o
Ġdun ne
g raaf
ĠEr ik
Ġna gen
Ġd orpen
Ġin kt
wik keld
j an
Ġweg ge
Ġkle ed
Ġzen uw
Ġvijft ien
Ġuitge zonden
pleeg d
f ot
ver haal
v oc
ĠHoe veel
aat sen
ath on
ĠBelang rijk
Ġont ste
M A
M C
Ġover dracht
s et
w al
ab on
oon t
ĠGrieken land
Ġchrist elijke
ook t
ĠD ieren
Ġgevoel ige
vert rouwen
aam se
ĠLe ven
Ġaan hang
verb inding
p omp
ĠgeÃ¯n spireerd
Ġter ror
E uro
Ġverb ruik
ĠZ and
ĠC ru
Ġle gde
waart s
b oog
U L
ĠN iemand
iek em
ĠSch il
h an
Ġgar ant
Ġpen is
Ġkrit isch
sch op
Ġgez orgd
h oorn
Ġdur ven
ig ur
Ġk ring
Ġchauff eur
Ġw an
ĠT em
Ġgun stig
Ġover leven
Ġdok ter
Ġloop baan
Ġtoege kend
aanb ie
Ġr aar
Ġfeest dagen
ĠC le
Ġprett ige
ation ele
ĠW ijn
Ġo k
Ġ199 5
Ġmin imale
ĠCan ada
Ġh ost
Ġvlieg veld
y stemen
Ġe duc
ĠSt at
Ġk oos
Ġkilom eters
isse ur
our ce
Ġd arm
or ge
ĠWaar schijnlijk
ĠHeb ben
Ġin se
verg adering
Ġwoon plaats
ĠA al
bl aden
pl anten
Ġij zer
Ġler aar
ĠT ip
Ġb acter
ĠVor ige
Ġuitdruk kelijk
Ġop zetten
Ġhuur der
weg ingen
h or
Ġbesch eiden
Ġplaats gevonden
Ġpat ronen
kamp ioen
Ġtyp isch
Ġze stig
ĠAl kmaar
z amer
ĠCent er
Ġb reken
v ideos
h ard
Ġverzeker ingen
ele foon
ĠBarcel ona
Ġro k
Ġbeg ins
Ġmaat regel
Ġl etsel
ag ing
Ġcom pens
ĠKonink lijke
r ang
Ġm eren
Ġvoorz iet
re am
ĠBur ger
ro og
ator s
ĠB ay
Ġsch aam
Ġvertrouw de
r at
Ġbr il
Ġuitsp raken
Ġgekleur de
Ġamb acht
Ġk ippen
bl r
Ġged reven
Ġind icatie
Ġhoog st
ĠEn schede
Ġver rast
Ġcont rast
ĠYou T
K B
ĠJ ustitie
Ġm ark
ĠM ol
Ġstab iel
Ġtoevoeg ing
ĠR ock
Ġduur de
Ġgebeurten is
Ġarm oede
c in
Ġintro duc
Ġpl ug
Ġrij tje
b ie
ra den
oet sen
Ġschade vergoeding
r eren
Ġkleur rijke
ra pport
Ġbeschad igd
Ġplaats ing
Ġtien ers
ant isch
ĠL ib
Ġaf wiss
ble em
Ġmens elijk
Ġzo o
gel ing
produ ctie
ui z
ĠO b
Ġtuin en
Ġaanbe volen
ĠL i
Ġ9 8
re Ã«
Ġbb w
Ġv eer
ĠM ay
ĠK ees
Ġ8 9
Ġversch ijn
Ġuitge k
Ġhoeveel heden
ĠInst ituut
Ġwet houder
l ast
ĠK L
Ġbu ff
ĠHolland se
Ġuitv aart
y d
Ġgoedge keurd
Ġbinnen stad
Ġg reep
ĠgeÃ¯n t
cte urs
Ġpre d
ug de
ruim en
ĠM r
vel ingen
ung al
Ġh opelijk
Ġvooraf gaand
ĠJon ge
Ġbez oekt
ĠP R
Ġ9 6
Ġd rum
Ġboven ste
Ġgel iefde
Ġtab l
am men
verl ies
v es
Ġver pakt
Ġzo ete
Ġcon ne
Ġn ationaal
Ġaanv allen
tertain ment
af els
Ġop gave
Ġj ustitie
Ġont houden
Ġwiss el
I F
ij pen
Ġged ichten
Ġgr ip
hy dr
Ġs aus
Ġheil ige
Ġstu deren
Ġsympt omen
m ogen
Ġverlie st
Ġop slaan
co ach
ĠbeÃ¯n vloeden
ĠMich el
schal ige
Ġvoor sprong
ĠB a
Ġchem ische
inst ru
ĠF le
Ġgrapp ig
Ġ8 4
h t
s d
ĠI B
Ġbetaal bare
Ġrol l
Ġ9 2
Ġb inden
O O
wor k
ĠðŁĺ ī
Ġ199 6
Ġlucht vaart
Ġcon gres
ag og
Ġsch oot
Ġdatab ase
aar zen
Ġlief hebbers
ĠK ing
Ġill ustr
Ġh erk
ot ische
Ġh d
o ir
atal og
ar ken
ĠVi ctor
Ġfavor iet
st raf
ĠW erken
ĠW all
ĠWell icht
Ġpian o
Ġf acebook
IJ K
Ġinteractie ve
ĠD oc
Ġgem en
Ġvari anten
Ġaanpass ing
bren gt
Ġa ro
Ġ12 5
Ġkopp elen
Ġg ulden
gez ond
Ġoptim aliseren
Ġtool s
am m
ĠT rouw
Ġin zien
z eer
u el
ĠK rij
Ġvolg orde
ĠL aur
Ġgeb oekt
ĠH oll
app ort
Ġber oemd
Ġfunction aliteit
Ġin koop
Ġachter uit
v ideo
ĠAm b
Ġherken baar
Ġper iod
v reden
Ġg ord
Ġemot ionele
ĠTw ente
Ġshow room
ert jes
Ġmob iliteit
ru g
voor deel
Ġster ven
ĠBren g
ĠZ al
Ġch ar
ĠT or
ĠB ureau
Ġ? !
ar ds
k eten
st ij
Ġople idings
u gels
ĠT ype
Ġextre me
ree ft
v ie
ie ker
v oeren
Ġro om
Ġ9 00
ĠVroe ger
Ġw aan
ok e
ĠBer gen
Ġgoed keuring
Ġwoon de
ĠV eld
Ġplaats vindt
ul dige
Ġkan alen
Ġtro p
Ġa mper
Ġsch ouders
Ġb ied
Ġleerk rachten
Ġmaalt ijden
unn el
Ġsteun en
og ingen
Ġvaat w
Ġkn ip
Ġnot aris
mm ingen
ĠH opelijk
Ġeconom isch
chten ds
dat ing
ven ter
Ġar range
Ġsch akel
ĠDe f
Ġsp ro
O V
bet es
hoog te
Ġinspir erende
ĠI m
Ġbe ker
l ocatie
ĠEr v
Ġb allen
Ġna dere
ĠDe c
Ã© Ã©n
Ġom st
ar isch
ce aan
ĠI t
ind elijke
Ġc ellen
oefen ing
Ġh u
gro te
len de
Ġexempl aren
b it
ĠF it
Ġcoach ing
ĠG olf
Ġzil veren
Ġverv allen
ĠVer schillen
Ġpo Ã«
Ġwerk dag
ĠH om
um m
Ġhers en
ĠO per
Ġter men
Ġtyp ische
Ġhoogte punt
o gens
Ġverb azing
ĠM ogelijk
Ġind ire
Ġcombin eert
Ġ11 0
pl annen
pro jecten
Ġple in
D ER
zeker ing
Ġar rest
Ġst al
ann ings
kl achten
st erk
Ġler aren
ers p
Ġasp ect
ĠZ oet
ĠW agen
ree uw
Ġuitge werkt
ĠK ap
z ine
anc y
Ġna ge
Ġbuiten kant
k rant
Ġra s
ĠOff ice
ĠGe zien
ĠVer g
Ġpri oriteit
Ġlopen de
ĠJ u
ick ers
ra ge
ĠDat um
Ġw apens
ĠH an
ĠM oeder
Ġaan gename
ĠYouT ube
eer s
Ġsl oot
Ġb it
p and
ĠS un
Ġgod s
mat ische
Ġpol yester
ĠK im
Ġb oel
Ġar mb
W B
v or
ressie ve
Ġs ommigen
ĠPracht ige
Ġdecor atie
Ġbijeen komsten
Ġele ct
ograf ische
f sel
ĠAustral iÃ«
co unt
ĠA mateur
Ġaf sluit
ĠH o
Ġveert ig
zen de
ĠB S
Ġd akk
Ġaanbie der
ander ing
Ġdaar entegen
ĠH oek
Ġge acht
N L
Ġdeb uut
Ġcar avan
Ġeer lijke
Ġsp er
Ġverm elden
ĠP ak
techn iek
Ġrecre atie
Ġop komst
f um
ĠA ma
P O
Ġaf sch
Ġd uiven
ĠO S
I K
w itten
ul ering
teken ingen
Ġversch rik
b es
Ġ9 7
Ġoefen ing
Ġer achter
Ġschitt erend
d rukken
Ġ8 2
op h
Ġf rom
Ġt ouw
ĠGed urende
ie ze
Ġtext iel
ĠT re
ĠW ol
Ġfraa i
ĠI C
n o
rek ing
3 5
Ġin deling
Ġt assen
ro s
be p
Ġz older
c ap
Ġhard ware
Ġver wel
Ġtoen ame
Ġint ellect
ver wege
Ġcade aut
Ġverschillen d
ĠJ ur
Ġmassage s
Ġzelf gemaakte
Ġh oed
ĠVol g
pr int
Ġzieken huizen
Ġdefinitie ve
Ġt ussentijd
des ign
b anen
Ġboven aan
Ġroute s
v orens
form ance
Ġmat ras
Ġprof ielen
Ġtoenemen de
Ġgem ist
Ġsch ema
qu es
Ġnaar toe
Ġver du
ĠC ir
Ġfra ctie
Ġhistor isch
Ġon aan
Ġpl akken
Ġanalys eren
Ġover nacht
Ġde aler
Ġt ypen
Ġsm alle
ĠVoor waarden
Ġbeg ane
Ġt ickets
Ġge staan
Ġkol on
Ġis ol
oe it
bed den
inder d
verw arming
uit je
Ġrub ber
Ġvriend innen
Ġj ubileum
Ġbedrijf sp
Ġteken ing
Ġzonn ige
Ġverkl aart
Ġcar nav
Ġer kenning
Ġnieuwsgier ig
Ġop a
front eerd
Ġaandoen ing
ec k
gr ip
Ġdank baar
Ġpublic eren
Ġbarbec ue
Ġuit zien
iss er
of te
houden de
l ag
aad jes
ac cept
inde x
hou se
Ġgezell igheid
Ġopl open
Ġverschuldig d
Ġseni oren
b aden
h av
Ġro y
Ġevalu atie
Ġbl onde
b elen
Ġfundam ent
id der
Ġpro te
ak es
Ġvast stellen
ĠHar ry
Ġuite indelijke
ific eren
Ġbeg raven
Ġm usea
ĠI K
Ġpiz za
Ġh t
Ġop richt
f ol
Ġ199 4
oof de
anc eerd
Ġvert rekt
Ġc ard
Ġnoodzak elijke
ir urg
Ġ? )
c ript
Ġn ut
Ġr i
ĠM os
g eeft
Ġveroor deeld
Ġgek l
ific eerd
Ġbel and
b oel
un es
Ġgeb akken
Ġsn ijden
handel ingen
ĠN ik
f a
ĠC ook
zinn ig
deel t
m om
orp s
Ġk elder
Ġople vert
Ġmont eren
Ġinten sieve
is olatie
ĠP ool
Ġneder landse
ĠK PN
Ġsl ijt
ĠAan v
ing erie
ĠBl u
lij sten
com plex
Ġl aad
Ġraadple gen
Ġl ine
Ġvert aald
Ġkenn elijk
Ġwat erv
Ġvru chten
Ġbl ond
ĠUit slag
Ġfac il
Ġbep aling
oc i
Ġaangekond igd
Ġsl aa
Ġregistr eren
Ġg u
ĠDe m
n aars
ĠW eek
Ġserie uze
Ġf eesten
p per
Ġgec reÃ«
f eu
N eder
Ġaft rek
Ġkl ikt
Ġa k
ele ens
Ġderg elijk
Ġflexib iliteit
Ġex port
ĠVO OR
st uren
st ar
on te
cond ition
Ġgrond slag
Ġpro cedures
ĠPriv acy
Ġl ens
i ase
U N
Ġdw ars
ĠC it
ĠM ij
Ġvergelijk bare
Ġbe oog
Ġchec k
Ġn as
Ġget ra
Ġbeveil igings
Ġte gel
Ġbesch rijven
ĠB ody
eg a
vol ution
Ġlever de
ĠMe ch
Ġmed i
Ġoptreden s
Ġadres sen
iele den
Ġst reep
ple zier
ĠCornel is
aro ch
Ġb om
t op
Ġh oopt
Ġkortings code
Ġverk le
ĠR VS
Ġverb aas
b ang
at ed
be staan
Ġvers ies
Ġgecon fronteerd
Ġhaar d
Ġof tewel
Ġcit ro
f ul
Ġvooraf gaande
Ġris ic
Ġwereld wijde
ĠN ational
Ġko steloos
Ġmin st
wacht ing
ub sid
Ġhar der
Ġkinder opvang
ĠLou is
ĠZwits erland
ĠCh amp
Ġd uiken
ĠA T
ĠChe ck
Ġgel aten
ĠKru is
Ġv elden
Ġvere iste
Ð »
ĠIS O
Af rika
ĠF ot
Ġb ab
Ġvert alen
p rest
Ġn al
Ġtaf els
ran ken
U W
Ġgaan de
spro blemen
Ġw ielen
ann a
Ġlangdur ige
Ġverl ang
Ġverb rand
g y
Ġv res
Ġgeren ov
Ġverspre iden
ĠWi Fi
Ġvar iÃ«ren
duizen d
Ġgez eten
Ġopge haald
Ġe dit
Ġe ig
Ġkl ooster
aa id
ĠMo der
Ġbelast ingen
Ġko zijnen
Ġarbeids on
Ġcook ie
vers um
ĠA ud
ĠVer geet
att eland
ĠZ wee
b ellen
ren te
r iv
itt ers
Ġwerk elijke
Ġw eleens
Ġ8 6
part ijen
ĠLe ague
Ġoverzicht elijk
Ġj azz
Ġvoor schriften
it al
at iet
Ġrelig ieuze
ĠP ay
Ġpersoonlijk heid
ĠB R
ĠIn du
Ġkl eren
ĠP olen
qu Ãª
Ġs oft
Ġover heer
Ġbez uin
y r
Ġrest aur
Ġachter naam
ĠL ok
Ġzijk ant
Ġcomment aar
Ġsec retaris
Ġh itte
Ġcol umn
ĠR oer
Ġl ip
at ers
Ġ( ...
ĠW inter
men sen
Ġgrond stoffen
Ġkant oren
Ġ13 0
Ġdan ken
ĠPr ima
Ġricht lijn
Ġverplicht e
Ġaard be
Ġbag age
ind a
Ġescort s
Ġdemoc ratie
Ġrec ord
ist of
Ġin gebouwde
Ġmij zelf
ĠSoc ial
Ġint ussen
ĠL ief
Ġgeb roken
com fort
ink y
Ġk eel
Ġwe kelijks
Ġop richting
ĠA ssen
uit ing
Ġonder kant
Ġvin tage
mat e
s ole
Ġlijst je
Ġrepar eren
ĠBr un
Ġwerk plek
Ġcomp acte
Ġin le
Ġaansch affen
sp ot
Ġh orm
st ructuur
ak s
Ġe sc
gere kend
b omen
ĠD VD
ĠBelasting dienst
Ġ8 3
Ġz one
den de
ĠVer h
ĠHou se
Ġgelden de
Ġgem onteerd
kt ail
Ġbij bel
Ġind ic
Ġin gevoerd
ĠRich ard
ver koop
ĠOver ijssel
Ġaan nemer
Ġpak te
Ġwetenschapp ers
ĠV ries
Ġpersoneel s
Ġup dates
ken nis
Ġmen ig
Ġn eukt
e igen
Ġven ster
Ġre fer
ĠMaand ag
Ġnagen oeg
Ġsch ot
er ingen
Ġtra m
ĠV ijf
Ġap os
Ġin k
z it
p al
ĠPortug al
men u
Ġlast en
ĠGe plaatst
Ġaange paste
h i
Ġop zoek
Ġvon nis
ver band
Ġp akt
Ġals ook
Ġverzek eren
gebruik ers
ik ker
in ks
Ġop geleverd
Ġvast stelling
Ġdes ktop
Ġhoe s
Ġom gek
Ġern aar
Ġ8 7
Ġaanbe v
Ġ199 0
Ġ20 20
bron nen
oord eling
Ġtru c
Ġaanget oond
ĠB W
Ġtoegev oegde
Ġ... âĢĿ
Ġverwij st
vest ing
Ġb uit
Ġged oopt
Ġschil ders
Ġbereken ing
Ġlo un
Ġwor k
ont je
ĠS C
Ġ6 1
Ġker am
Ġonder b
ĠV ak
tu ig
Ġuit stap
Ġaan d
be en
ui der
ĠR a
ĠÂ °
ĠBl ok
Ġpast a
Ġverw eerder
c amera
Ġkeur ig
Ġbeh aalde
ri ct
Ġexc urs
Ġk raan
op te
il do
ke uze
der de
ĠL ight
ĠM ir
Ġgr onden
ĠHier na
amin aat
Ġom schrijving
og a
ĠMot or
Ġu plo
Ġres olutie
Ġchron ische
ĠSpec iaal
r atische
Ġ18 4
Ġperson ages
Ġverv uil
con c
Ġbest rijden
bre ed
veil iging
k o
Ġhy per
j o
Ġwast afel
ol i
Ġse ctoren
ĠJ ames
ft al
Ġinsp ectie
Ġdu o
sch ema
bl oem
Ġduidelijk heid
Ġzuur stof
Ġuit komt
Ġop sp
p aal
Ġl ukken
el pen
ĠW onen
Ġleven de
ĠN B
Ġcont ro
Ġopbouw en
Ġtussen door
Ġgl ij
ek ra
Ġcir kel
ĠAnd re
of look
is er
ĠVerschillen de
sch aal
Ġkoff er
Ġsterk te
Ġ> >
âĢ ĭ
Ġmed icatie
Ġmot oren
Ġm g
Ġsch ok
Ġonderling e
Ġheu vel
ĠOver eenkomst
Ġder halve
Ġaange houden
Ġvriend schap
Ġtom aten
Ġvest igingen
Ġhoriz ont
ĠAut om
Ġro er
ian a
Ġb ook
ĠS ite
Ġram p
Ġdief stal
op e
Ġaank ond
sch oten
ĠE S
Ġex plic
special ist
ĠDN A
ĠW O
ĠDe venter
Ġstij gt
Ġblog s
m useum
Ġfasc in
ron de
Ġoverl ast
Ġble ss
m eter
Ġd uw
ĠRe al
allen ge
Ġuit leggen
Ġgeavanc eerde
Ġb is
ĠGem e
Ġwaar deren
ab eth
ĠK em
Ġvoor gesteld
ĠL ab
Ġorganis ator
ĠN U
Ġgoe ie
Ġander zijds
Ġch amp
gele verde
Ġgep aard
utt ing
i els
rien den
Ġver onder
Ġhier aan
anal yse
ĠB ou
ĠBed rijven
Ġw anden
Ġdial oog
ĠSt r
Ġdorp s
Ġcijf er
ĠB ere
le ding
Ġlangdur ig
ail and
Ġa kte
Ġont ving
ĠR omein
Ġpsych ische
ĠR and
Ġwaarb orgen
Ġopvol ger
Ġaf f
ĠMar cel
Ġrom antische
Ġverl oor
ĠS ar
il ity
le menten
ĠLe ver
is eerd
Ġde eg
Ġb orden
ĠO M
Ġgebruik elijke
ĠH outen
net werk
ĠO k
ĠU N
Ġover leed
av o
Ġst iekem
ut ter
ĠR am
ĠSch ot
ĠS ie
Ġdaar uit
Ġc ul
Ġjon ger
Ġzo cht
ro od
ar et
ĠPracht ig
Ġp ijl
Ġkool hydr
Ġverwij zing
Ġ199 2
bere ik
ĠZe ven
ĠV illa
Ġbekend ste
ĠIn form
Ġlic entie
ĠCas ino
f ra
ĠN A
Ġk am
ist an
R M
ĠThe ater
Ġpakk etten
Ġverst uurd
ĠL as
ont werp
Ġinsp anning
dek te
Ġcon cl
Ġonder te
ect or
af deling
ens ies
Ã© Ã©r
ĠW arm
or ry
ĠJ oden
Ġbetrokken en
Ġb io
houd ingen
Ġpublic aties
Ġver ant
Ġgewe zen
ig uur
ok t
Ġdisc uss
ĠB all
ber ichten
Ġkaart jes
2 3
Ġde ss
Ġprem ier
stel t
Ġbeweg ings
ĠMan ager
in stelling
fab riek
kop p
f goed
pro cedure
T S
Ġopv oeding
ĠL am
Ġgespecialis eerde
ĠW ijk
Ġaang eeft
Ġge slagen
Ġvij ver
Ġint ellig
Ġkl ank
m mer
Ġpriv ate
i cten
Ġom slag
Ġhou der
ĠS yn
Ġtoer istische
el oze
Ġdome inn
ĠO K
Ġvroeg ere
Ġleven sl
Ġdiam eter
Ġru sten
ĠM aur
g angen
ĠT est
Ġonder gaan
ĠB ook
Ġuit komen
Ġop gelegd
ĠL id
Ġk oeien
ĠM olen
Ġfilosof ie
ĠHeer en
ic an
Ġleerk racht
Ġ3 50
n ij
Ġch a
Ġdecenn ia
ĠS ter
cont ract
ĠEn kel
Ġconc reet
d i
hoe wel
Ġa gr
ĠgecreÃ« erd
Ġpl atteland
ĠDat a
ĠM oe
ĠT sje
Ġovertu igen
Ġnad elen
ĠHele maal
Ġ": "
rol len
ĠH BO
Ġont pl
Ġdoor geven
Ġon juist
Ġzes de
Ġ, âĢĻ
em bad
ĠC ost
Ġgewaarde erd
Ġst aart
Ġt u
Ġz uin
Ġop recht
Ġa st
Ġmail en
ir d
Ġt weet
Ġverz uim
Ġn oemde
as es
Ġspec i
Ġgecertific eerd
ĠP en
Ġsex date
Ġaanm eld
l on
Ġh istorie
n ummers
Ã ĥ
ĠA h
oed el
Ġbij passen
Ġvan daar
wedst rijden
ce des
groe i
ij m
Ġvert el
ĠCont role
h otel
T ER
ĠSa int
ĠNI ET
ĠEr ic
er wijs
ĠD ak
Ġtelefoon s
Ġzee p
Ġp ant
Ġd in
Ġe del
ĠMil ieu
Ġu zelf
Ġverm oeid
Ġgroe ide
Ġinner lijke
Ġbad kamers
Ġd ress
Ġbed anken
as k
ĠSim on
Ġsamen hang
ort h
ĠcreÃ« ert
Ġimplement atie
Ġgeb eld
tu igen
Ġgl ob
ĠL ucht
Ġgrond ig
aan den
ĠW ad
b els
Ġaanp akken
ĠVol gende
Ġin voering
ĠE G
Ġb ocht
m aterialen
Ġm akelaar
ĠX L
Ġtoon aan
Ġwin kelen
produ ct
iss ies
Ġbetaal baar
Ġproble m
eeuw en
rag ers
Ġen d
i form
v as
Ġamb assade
Ġk roon
Ġfunct ionele
Ġ17 9
ĠC at
Ġmen eer
ĠV ele
Ġaf gest
ĠKom t
Ġact iv
ro g
Ġg ym
besten dig
Ġpap a
Ġlu x
it eren
vl ucht
Ġstem ming
mat isch
ĠH arm
ist ieken
Ġver ste
Ġvari atie
cl ass
Ġreg ie
ĠS D
k ie
Ġreg lement
Ġkn oflook
ĠR oel
zet t
Ġlo sl
ĠB ond
p ing
Ġsyn th
Ġg aaf
ou se
ge deel
Ġaank open
ĠRoy al
A O
og ram
ĠG ast
Ġdatings ites
ĠBM W
sl ot
ĠT ouch
Ġse con
v et
Ġam sterdam
ĠJo se
Ġover name
ĠA qu
Ġaanra king
ĠD er
Ġget ekend
Ġ; )
Ġer toe
ĠHeil ige
Ġmoslim s
ĠDaar in
Ġa gen
Ġn iveaus
Ġverrassen de
len gte
Ġp ower
elt a
Ġmede deling
Ġser ies
ĠH ass
ich e
Ġinse cten
ĠNederl ander
Ġa gent
Ġingericht e
ĠLo ve
mot or
rom ing
Ġaanget roffen
Ġop zeg
over zicht
Ġbru id
Ġmantel zorg
ĠP sych
Ġal daar
p ool
st ru
ĠLe id
Ġl ust
Ġ36 0
Ġfamil ies
Ġsch affen
Ġk raam
Ġvertrouw d
dacht e
is a
l len
vin cies
Ġon ro
Ġafzonder lijke
Ġmiddel bare
ĠL ife
ĠR S
ĠC ur
ĠS om
en st
ĠLe on
ĠIn nov
Ġr iep
Ġsper ma
Ġh it
Ġambten aren
p on
ste ken
ĠVoor zien
ĠSte f
Ġn ar
oun dat
ĠO C
00 0
Ġstap el
Ġh oer
im mel
ĠHil versum
ĠD or
Ġe bony
ont vangst
Ġz Ã³
Ġch atten
ĠR et
Ġpassag iers
vorm ige
ĠP ier
Ġprofession al
ron ken
Ġbe est
Ġnak om
Ġbehulp zaam
ra ger
ĠB at
Ġom gezet
ĠCh ris
de uren
f e
Ġbetre kken
Ġ! .
Ġsm s
ape ut
Ġstad je
Ġhulp middelen
ĠS S
ĠH istor
Ġc ase
Ġklein ste
is ende
Ġther apeut
ĠOnt m
oor dt
agn es
Ġme st
Ġuitbre iden
i Ã¨re
Ġger oepen
sen de
el ux
Ġinz age
Ġver men
Ġged uld
komen de
out h
Ġst ok
ĠSE O
Ġbetrouw baarheid
Ġtoe gelaten
gang er
ĠK osten
yen oord
Ġsign alen
Ġher steld
Ġo chtends
Ġverde digen
u gt
Ġg iet
ĠSk y
ic ks
Ġwel l
we ven
Ġj apan
Ġelekt risch
Ġfotograf eren
Ġvertegenwoord igd
oon de
Ġv o
Ġver deling
Ġin gel
ĠJ ust
Ġf ood
Ġcompon enten
andel ingen
Ġpr inter
maatschapp ijen
Ġthe or
Ġn ul
t ype
Ġon duidelijk
itie ve
ĠAf met
Ġminer alen
T E
Ġpart y
Ġj al
rol l
acte ur
ge houden
Ġvertrag ing
kun digen
Ġde skundigen
oc key
Ġeind igde
oss ingen
Ġuitge sloten
Ġruim telijke
Ġvol komen
Ġzak e
ĠMin i
2 7
Ġventil atie
M O
Ġth ans
ĠC S
erm eer
Ġh oning
Ġdocument aire
Ġgel ooft
Ġaf genomen
Ġeen e
Ġwat erk
ĠNorm aal
ĠB ak
iz oenen
Ġkrit ische
Ġinc ident
nem ings
Ġin richten
best rijding
Ġp all
Ġsh oppen
dien ing
ĠK ant
ul a
ĠV W
? ?
ze gd
Ġfl at
z y
raag de
ĠDat e
ĠR ef
Ġher zien
olog y
Ġontwikkel ings
Ġop get
ĠK op
le zen
Ġverb indingen
Ġverm ogens
Ġre alisatie
Ġpre ventie
ĠRomein se
den s
Ġrad i
Ġch arm
bet aald
Ġom streeks
Ġess entiÃ«le
ĠZ il
Ġvoor aan
Ġd ijk
Ġgel et
Ġt rouwen
ĠSy stem
Ġzelf vertrouwen
oed d
Ġei wit
Ġaan leggen
sn el
h anger
Ġt icket
condition ing
ĠI D
Ġbi ologisch
Ġt int
Ġbev alling
Ġamb ul
Ġsecon de
ĠM arketing
akk oord
Ġ9 3
ĠG roe
se ks
Ġander half
Ġstee kt
ĠMer cedes
Ġuit verk
Ġgerecht igd
Ġst ed
Ġontvang er
Ġ9 4
Ġk alk
om een
m os
Ġn aad
Ġstijl vol
Ġaltern atieven
ĠH uur
Ġsollicit atie
Ġnag els
Ġaan gaan
Ġsc ala
Ġwerken de
Ġd rijven
sk l
Ġschrij vers
Ġf eder
Ġrond je
ver voer
as en
ĠO ekra
Ġgek n
uit kering
re ur
ĠL E
ĠFl or
Ġaanv ankelijk
m assage
Ġben aderen
Ġact ueel
ĠRest aurant
Ġdynam ische
Ġsluit ing
re ert
Ã¼ r
ĠRe ad
ĠâĢĭ âĢĭ
Ġp aal
op gave
Ġmon te
ĠR A
ruk te
winkel s
ĠAlle maal
ĠG or
anis me
Ġmaand elijks
Ġp a
Ġgebruik elijk
Ġp oeder
it or
ĠF red
Ġz uigen
z amen
Ġb utt
ĠJ uni
ĠMe isjes
au x
be weging
ĠH oorn
Ġhoog leraar
ĠWe g
Ġverdedig ing
ĠEen maal
Ġkort ingen
Ġv r
Ġom gang
Ġdat en
bouw en
ĠBe heer
g or
Ġgener aties
Ġg raad
ĠM A
ruct ure
Ġw oest
il and
Ġgel uiden
Ġschil d
is on
am ma
gev el
Ġpr ie
Ġhoe ver
ĠB akker
ak elijk
Ġweer gave
Ġarg ument
ĠM iss
Ġc rÃ¨me
reken en
leg ging
ĠK ro
ieken huis
Ġmeer waarde
Ġsch uil
veren igingen
Ġp oten
Ġcond oom
ingsver mogen
Ġwerk plaats
Ġball on
ĠM ach
t as
Ġfiet sp
Ġverhoog de
Ġwoord voerder
ĠI sl
ĠBelg isch
Ġbewonder en
Ġcontra cten
Ġ199 3
Ġsch uim
lei ders
Ġh aken
Ġze st
Ġve chten
l oopt
Ġp roe
Ġk ond
ĠG B
ĠD S
Ġn odigen
stro men
Ġvre es
Ġaanra den
ĠWil hel
Ġverzorg de
Ġal vorens
al itie
ĠDuits ers
je ctief
age erd
Ġgl an
Ġken teken
Ġnet te
Ġstrateg ische
ĠB ang
vou dige
Ġaan staande
licht ingen
feu ille
Ġfig uren
r al
iteit en
Ġsch uldig
Ġbacter iÃ«n
ru ikt
ijk er
Ġbl z
ĠWh ite
Ġkl assen
ar men
Ġgenees middelen
sprodu cten
t he
Ġke ih
Ġstren ge
Ġcons erv
y er
ĠGr ond
gra ven
Ġonver w
Ġvoorzien ing
Ġkast en
ĠG ouden
ĠP ink
Ġexpl os
Ġsol o
kle ed
Ġtoe genomen
mel o
ĠSp elen
oundat ion
Ġgemot iveerd
Ġjurid isch
Ġgev ierd
Ġverschil t
Ġreser ve
ĠGe v
Ġaut or
Ġver wer
ĠSt ate
Ġinv oeren
ob ank
Ġvar kens
L A
Ġdraad loze
b at
ĠJ ord
om standigheden
vallen d
ĠK or
L O
id ge
Ġporn ofilm
sch at
v ings
gren s
Ġi OS
w a
Ġc oll
Ġmet ro
a ult
ill s
Ġru it
ĠF lex
ed ie
ĠD ay
et ooth
Ġfir ma
Ġr aak
Ġk ers
at eurs
Ġsch apen
Ġrond leiding
Ġeenvoudig er
Ġde ksel
Ġgl ans
Ġged rukt
az a
ĠW ist
erm an
Ġma c
ĠA ziatische
Ġfeit elijk
al bum
T A
Ġor iÃ«nt
ĠJ ud
ĠEven tu
Ġvar ia
Ġontdek king
Ġmast urb
ĠD onderdag
k eer
Ġvermoed elijk
gele zen
Ġgest olen
Ġhele boel
Ġbe werkt
em d
u a
ĠT rip
ĠbeÃ¯n vloed
Ġhart st
att ingen
Ġup gra
ĠL ot
Ġpan elen
ĠEn erg
vaard igheid
i or
Ġserv ices
Ġle iders
Ġgew assen
Ġl ading
gedeel te
ĠPol itie
Ġtranspar ant
Ġkunst werk
Ġstee g
Ġbro ers
ĠW ee
id delen
Ġop geven
ĠM ail
ik kel
t a
Ġbet oog
Ġtum blr
d ad
Ġmagaz ine
ver blijf
Ġsu pp
Ġverder op
Ġsl oeg
-- --
Ġstij len
ĠR ay
Ġsec ret
Ġgel ov
Ġ18 3
ĠT oon
b akken
ĠFe yenoord
Ġpresent eert
oot jes
Ġpas poort
Ġweig eren
Ġf onds
Ġsch atten
Ġn ation
Ġsal ade
Ġschoon maken
Ġbeleg gings
ĠAr m
Ġei witten
oef end
ĠP ass
Ġp oesje
ic aanse
v ocht
Ġadvis eert
wer f
Ġgeb ed
Ġgev aren
Ġre inig
ĠGl as
on ne
Ġb rouw
Ġstem pel
Ġport ret
Ġonbep erkt
yt ics
kort ing
Ġvernieuw de
Ġ... )
Ġdro gen
kan aal
ken den
re c
Ġber oepen
Ġg ru
ĠG irl
ĠF act
au te
ĠGe orge
Ġaf voer
Ġleer de
war ds
Ġpl ank
be stemming
b org
Ġsl otte
ĠM ore
Ġplan eet
ĠH ulp
ĠB y
win st
ĠCont in
Ġstim uleert
Ġro ts
Ġt im
Ġbl ind
Ġf older
Ġgeb re
ari aat
Ġtijd s
Ġfra ude
eu ten
Ġstab iliteit
ill on
bo y
Ġade qu
Ġverh oging
cent rale
ĠM ul
ale m
over d
ple kken
Ġplaats je
Ã¶ per
ĠB and
in richting
Ġje gens
Ġbroch ure
Ġachter tuin
Ġonver wacht
Ġst oer
le e
h ow
Ġp el
Ġtrain ers
Ġkopp eling
Ġaan maken
Ġsamen stellen
Ġelkaar s
ĠgeÃ¯n formeerd
Ġover hand
ĠThe o
Ġcorre cte
Ġwest erse
sch ad
Ġboven kant
b anken
Ġreg isseur
ath ie
Ġautoriteit en
Ġken baar
eil and
Ġor gel
z oekt
ĠR ijs
Ġzonn etje
Ġh aat
ĠTh ailand
ĠG PS
Ġge accept
Ġ Ü
Ġbatter ijen
Ġde ment
az ine
Ġfen omeen
Ġp up
z eren
Ġopen de
ra pt
m olen
wij st
Ġverl agen
Ġbet alingen
Ġeind eloos
ĠBen elux
Ġhoog waardig
Ġhard core
Ġcollectie ve
Ġdw ang
Ġs in
ĠDis ney
Ġst els
g ras
Ġ7 1
ĠRT L
Ġsamenwerk ingsver
ĠSlecht s
put atie
Ġser vers
Ġges neden
un ing
Ġbelang hebbende
Ġelekt ro
ĠAr gent
ic um
ĠR h
ver ingen
Ġhuishouden s
Ġbesp aart
Ġsol daten
steun ing
is eren
ĠAf deling
Ġc up
Ġ(... )
Ġqu ot
Ġ17 5
Ġpre vent
ĠMee ster
Ġbeh ang
Ġl aminaat
Ġst oot
Ġuitgere ikt
sp raken
ĠC ong
Ġpro vincies
ut je
Ġverdien d
Ġinst anties
Ġuit maken
Ġpro p
Ġverb indt
w end
te vreden
Ġgeh ant
Ġm n
Ġvre ugde
Ġse g
Ġbeoord elingen
Ġbest ur
Ġr at
Ġt ar
ĠC ult
Ġcontain er
Ġdia betes
l ampen
ĠB out
ĠK orte
Ġfles sen
ad ministratie
Ġuitge schakeld
Ġverv ullen
Ġvor deringen
ĠMod el
Ġwerk loos
el icit
Ġair co
p o
Ġex acte
ER S
ĠAf rikaanse
Ġsn oep
ĠM R
ĠAd voc
Ġcredit card
Ġex positie
Ġt achtig
tegr atie
atalog us
ĠSl aap
Ġfabrik anten
wij z
Ġpsych iat
Ġverwen nen
ĠAd vert
Ġbe middel
Ġindrukwekken d
Ġra pp
ĠJ oodse
Ġcomp act
il air
Ġmerk te
Ġpot je
Ġen erzijds
Ġvooruit gang
Ġk ro
Ġverb od
w ille
Ġhand matig
Ġl ukte
Ġmil ie
s a
Ġd own
Ġstart te
Ġtradit ioneel
Ġt ur
Ġon g
c u
Ġkab els
ĠS en
Ġch ef
Ġpar ag
Ġgeve cht
v ader
Ġerv aart
g raad
ĠLux em
Ġverh uizing
et itie
ĠP rive
ien sten
Ġre alis
Ġaangev raagd
ĠG ran
el ings
Ġonverget elijke
Ġgew eten
ĠUnivers ity
Ġat elier
Ġhuw elijks
Ġpro g
iden d
Ġb ungal
Ġeig entijd
Ġcirc uit
z igheid
ĠVeren igd
we i
Ġ17 0
Ġvorm ing
Ġconc erten
Ġen de
Ġkl agen
Ġcontin ue
Ġvit am
ĠX X
Ġafwijk ing
Ġconf ront
Ġgeselect eerde
c ursus
Ġr ang
ain b
beheer der
ĠV o
ĠKl aas
z iekte
il i
best anden
spers oon
bo dem
ĠG i
ĠC y
ĠAir port
Ġze ilen
Ġproduc eert
Ġeleg ante
Ġverbouw ing
ĠT aal
Ġh appy
ĠA ar
Ġvirtu ele
Ġpol is
Ġgesl aagde
gemeen schap
ig den
Ġporte mon
Ġtra ck
ĠL oop
ust ers
m elden
d se
Ġher haling
Ġsl a
s em
ol den
Vl aanderen
Ġje ans
Ġbi oscoop
Ġdik te
ĠgeÃ¯ sole
Ġk as
Ġaantal len
ĠC up
ge werkt
ag in
Ġw iens
Ġaf geleid
Ġgeste gen
Ġen quÃª
Ġcom mand
Ġgedetail leerde
Ġprim aire
Ġpr et
Ġ aar
Ġgehe ime
ĠM B
Ġuit oefenen
een komsten
Ġopening stijden
Ġolijf olie
um b
Ġover stap
ad vert
oc aties
be w
ĠS M
Ġges erveerd
tre ff
eem t
Ġsch uiven
ĠArab ische
Ġattra cties
Ġrol stoel
Ġsymb ol
Ġaf komst
ress ief
Ġak oest
gele ide
Ġbek l
Ġb oog
ĠEgy pte
Ġer e
Ġvuur werk
gem erkt
ĠB eek
Ġet h
Ġverzam el
Ġr etail
Ġstren g
Ġinb raak
te m
ĠMus ic
Ġbetal ings
Ġdos is
Ġd aling
ian ce
Ġb illen
Ġt oed
Ġvak anties
ĠP le
Ġvernieuw ing
Ġmede werking
Ġopen ings
u zen
Ġspont aan
Ġgl oed
ĠR og
ĠTsje ch
Ġuitge groeid
st appen
sch oen
ut a
wekken d
Ġ% ,
d elijke
Ġh all
ĠR eken
Ġv ielen
Ġv aar
Ġarch itecten
Ġorg asme
Ġfrequ entie
Ġnot a
ĠSpec ial
Ġdep ressie
ĠPer fect
Ġke y
Ġop sch
Ġaan spraak
ĠW olf
2 6
uist eren
ĠS oort
ge er
Ġbre iden
Ġverbeter ingen
ĠL iefde
d on
w oorde
in ie
Ġsc reen
ĠV oer
Ġdicht st
ĠF onds
Ġg an
re iking
Ġvlag gen
ateg ie
ĠHoge school
Ġsp aren
ĠIn c
reg ister
Ġge act
Ġsche ids
Ġarbeidson geschikt
Ġmaand elijkse
ĠV oed
Ġg olven
Ġaandoen ingen
estiv als
oep ass
b ril
Ġbijk omende
Ġbez icht
Ġgevarie erd
Ġlekker ste
d oeken
Ã© e
Ġuit werking
akel aars
Ġverv elende
s erie
Ġrep resent
oot s
9 0
Ġst rijk
Ġkn oppen
atis ering
ĠT H
Ġontde kte
Ġben zine
tijd ig
gezond heid
ĠRab obank
str and
ik ers
Ġw aa
l oon
Ð º
it utie
ĠF ood
Ġverz ocht
ĠP ot
Ġspectacul aire
Ġbev indingen
ĠefficiÃ«n te
ĠA ward
ste den
ĠN ico
ĠG old
Ġseks ueel
Ġto f
Ġdie zelfde
Ġmuzik anten
Ġbest uren
ĠF eder
cap aciteit
pl atform
ĠSt ra
Ġre ferentie
cht e
be ur
ĠS at
zie kten
Ġen gel
ĠgeÃ¯nteg reerd
j ob
Ġar che
Ġinsp anningen
Ġd ode
ĠLin ks
Ġstaats secretaris
Ġbe waar
stem men
ĠN ike
Ġgeleid elijk
ĠOn langs
ĠgeÃ¯nteg reerde
l azen
art ier
Ġhect are
Ġinstru ctie
Ġlast ige
ĠL ieve
re f
Ġafzonder lijk
h et
Ġglas vezel
Ġmet ers
Ġverm elde
uil ding
Ġvaatw asser
Ġ? '
Ġbeg ro
stig de
Ġtemp el
Ġd ram
ift en
Ġt ri
Ġin werking
ĠSt aats
ap ter
Ġverhuur der
Ġsch eelt
ĠVrij e
ĠEle ct
Ġperman ente
Ġverk leed
oel t
Ġh oeren
Ġkle m
vol ging
ĠItal iaans
Ġmon ster
le en
Ġcoc ktail
Ġfru str
ĠT ja
ĠTegelijk ertijd
Ġz innen
Ġaan ger
Ġterugk eer
w aliteit
ĠKar el
Ġbericht je
den d
Ġst aten
ĠL em
Ġse izoenen
ĠRe is
me isje
m as
Ġde ken
Ġuit gev
Ġadvis eurs
Ġgraf ische
den king
ĠVoet bal
Ġged oe
Ġlicht en
om an
Ġp ick
Ġont l
Ġben oem
Ġfiets ers
em arken
i als
ĠF ant
Ġlab or
Ġbeh uizing
ĠP ur
Ġharm onie
Ġver sp
se isen
Ġtoe val
Ġtoege wezen
Ġongewen ste
Ġnutt ige
ĠAcc ount
Ġhoe ken
ele menten
ĠAt l
Ġg aar
at ib
eel ing
b uiten
Ġaf delingen
Ġstude erde
ĠAc adem
ert s
Ġpersoon s
ens ioen
ĠHe y
j et
a ff
ĠZ it
ĠK am
Ã¼ n
on ische
ĠS ab
ĠW oensdag
ĠVer wij
un del
ĠU V
Ġbe ur
ele id
Ġsnel weg
Ġgroep je
q uid
te mperatuur
C O
ĠW acht
Ġdw ingen
Ġl ikken
ĠZ olang
Ġbij werkingen
Ġzo geh
T O
ne p
Ġuitdagen de
app ing
2 8
iz ar
oo sten
Ġgericht e
Ġ.' '
Ġvi rus
Ġgar ande
cijf ers
ag el
i pen
ker ingen
Ġver ordening
Ġhoofd rol
it is
ĠC ool
ran en
Ġmoo is
Ġfe at
gev al
Ġhap jes
Ġverd iepen
ĠWeb cam
schapp ij
ro und
Ġsp rong
Ġkwets baar
b orst
d re
ou ver
Ġgene zen
Ġin geb
ĠSp aans
Ġvac cin
ĠB ill
ĠL ig
ĠCommun icatie
Ġzogeh eten
Ġd vd
pe ct
Ġac adem
sc reen
Ġ& #
ĠN ooit
ĠSt ation
ĠTha ise
ĠHaag se
ing ton
elicit eerd
Ġbij en
d ak
it ch
ĠR icht
recht elijke
ecte ur
Ġbesch uldig
Ġzevent ig
vang er
h uid
Ġmeng sel
Ġaf nemen
ina ir
Ġon zicht
it st
Ġwor st
od a
ĠP RO
Ġconst at
Ġreage erde
ĠE dit
Ġuitste k
Ġkor ter
sche iding
Ġav onden
Ġdrank jes
ĠPat rick
d ingen
Ġpar cours
Ġd ri
ĠN acht
Ġfact uren
Ġp ion
ĠIN G
int jes
Ġsl oop
Ġmin im
Ġk ra
Ġhip pe
Ġble ken
Ġh Ã©t
Ġkru id
Ġbre in
ĠL y
Ġd am
n s
il inder
Ġk oe
ĠBrazil iÃ«
ĠA AN
Ġkracht ens
Ġmens heid
Ġnet to
Ġcal orie
Ġd ir
Ġhard lopen
Ġgun stige
Ġover k
Ġogen blik
Ġk rist
Ġu i
Amerik a
Ġv ibr
z ool
Ġfil ters
groe ien
Ġloop tijd
o ung
Ġb ussen
Ġap otheek
ĠW ik
Ġbouw t
Ġz ijden
Ġdeskun dig
Ġ199 1
Ġpar fum
Ġd achten
Ġacc ent
P ress
con s
teken en
Ġko ste
be dekking
Ġbloed druk
ĠEn g
Ġrit me
ĠD C
Ġecht genoot
ĠK enn
ĠH eu
c al
ĠGe gevens
Ġrele ase
i oenen
Ġuit k
Ġl ui
Ġzoek opdracht
Ġst om
ar ist
Ġlid staten
ĠIn clusief
b esl
ĠAller eerst
Ġhand icap
ĠSt ore
v rouwen
ĠL inke
ĠH aal
kleur ige
Ġd ildo
Ġro mmel
aa dt
ĠMar co
e inde
Ġdisc rimin
Ġbrood jes
p op
Ġ rouw
Ġbed rukken
Ġle euw
ĠB eter
ĠAz iÃ«
ĠC P
in chem
ĠG ay
ĠF ire
Ġterug vinden
e sten
m ark
Ġzacht jes
k ok
ĠA ctie
w ijn
Ġprov ider
eest ers
ist a
Ġvoorbij e
Ġbijge werkt
Ġsoort gelijke
Ġin gen
Ġweder partij
verk ie
ĠI mp
Ġmo unt
Ġv oegt
Ġtevreden heid
Ġben utten
Ġspeel den
Ġsp its
Ġha ve
ne st
Ġer om
Ġleider schap
Ã¨ ne
Ġrug zak
ond anks
ac count
ul aire
ose ks
ver zorging
k abel
Ġschad elijke
be grip
Ġne uk
ĠHoofd stuk
Ġarmb and
ĠSy riÃ«
E E
Ġb rachten
iÃ« ne
lief hebbers
it iek
j ack
Ġl ingerie
ation eel
Ġdraa ide
Ġverl icht
ĠVer ordening
Ġc orpor
Ġbevoegd heid
Ġv ult
voorzien ingen
ĠAnt werp
begele iding
ĠD oet
ĠDen emarken
le ss
Ġaange duid
Ġstels el
Ġaccount ant
sp ect
Ġd uim
ĠP ast
j ar
Ġz wij
ds m
ĠBe at
ĠD isc
Ġhoof dt
Ġom laag
hand elen
Ġaccommod aties
Ġg ood
Ġm oorden
ĠM inder
Ġcommerc ieel
ĠEm men
ĠOr igin
Ġvoorlop ige
Ġorg an
Ġk it
p rem
Ġvoor geschreven
Ġbeste mmingen
Ġtoe slag
Ġonverw achte
Ġsan itair
Ġdie sel
Ġmail tje
ĠIsra el
iv isie
Ġren nen
ĠNic ol
Ġbe bouw
Ġcor rig
Ġarg umenten
Ġop berg
Ġbe stelde
Ġver plaatst
Ġop gemaakt
wer kende
I O
Ġon zin
ro de
ĠSt reet
Ġ198 0
Ġe volutie
Ġop geleid
Ġperman ent
Ġklim men
Ġmass aal
Ġconf igur
advis eur
ĠS G
Ġ.) .
Ġw c
Ġverander de
Ġkoning in
unn ingen
Ġst ier
nem enten
Ġhal verwege
ry pt
ĠPart ij
Ġsil ic
Ġlever tijd
route s
ĠSoc iaal
Ġkeur merk
Ġstad ion
Ġpar as
ocht ers
Ġher haald
Ġovertu iging
ĠFrie se
Ġv rie
Ġ8 1
il atie
p x
M I
ĠR ood
Ġsuggest ies
v aardig
als nog
Ġviss ers
par ken
Ġvert onen
ĠCost a
ge zel
ĠB N
ers on
ST ER
Ġzon s
Ġwerk groep
Ġle k
Ġresp ons
kracht en
Ġl ad
Ġgep ass
lijk s
o ire
p roef
ĠM ast
Ġafmet ing
ĠV os
Ġj arig
Ġwe in
ĠAlex ander
ĠT ri
Ġ15 00
gar antie
sp iegel
Ġpro tocol
ĠSu cces
Ġambten aar
Ġbev oegde
inst ituut
at ive
Ġsmartph ones
Ġonmis baar
ĠN ap
ĠB it
ot herapie
Ġru il
Ġuitvoer ingen
Ġuitdruk king
Ġs qu
ĠC ategorie
Ġv zw
ĠN H
Ġaansp reken
Ġc ross
Ġbel t
ur y
v aren
ann ers
ĠB P
Ġan oniem
Ġair conditioning
ĠServ ices
og ie
os met
ĠPar lement
ĠE ff
Ġcombin aties
st aal
ĠB lijk
Ġacht t
Ġom liggende
ĠLuxem burg
Ġj uw
k ar
ide s
ell igen
al te
l ip
ĠM KB
ĠHot els
Ġre putatie
ĠT ax
Ġdra ma
Ġbeheer der
Ġc op
ĠBedrijf s
ĠNoor wegen
Ġtranspar ante
ĠW oord
Ġtand arts
Ġinc iden
Ġw all
g unning
d room
I R
ĠL ee
Ġmagnet ron
ĠPart ic
Ġres ort
ĠK oen
iv es
Ġs aai
spel ers
ĠC afÃ©
ĠR ust
ĠDan iel
Ġver delen
ĠC are
b ureaus
ĠJan sen
Ġmeth oden
ĠW W
ĠBl ijf
gebouw en
Ġaan kl
Ġtit els
Ġsp raak
n t
fin ancier
ĠGoud a
Ġbl okken
ĠWil ders
ang o
Ġkwets bare
ter mijn
Ġor kest
oort s
Ġverantwoord ing
Ġbenad rukt
Ġs okken
ĠPro gramma
Ġeind igen
Ġga ve
et ch
tu Ã¯
ge halte
ĠH ET
Ġaan nemen
Ġt akken
Ġj ack
Ġreg ister
Ġsc ript
ĠRes ult
Ġsch ud
ĠR onde
Ġprodu cent
Ġstad ium
Ġe vangel
itt le
ĠM em
ĠOn gev
ĠE EN
ĠWord Press
ĠZ oon
Ġverzeker aars
Ġp aroch
Ġbew uste
Ġproblem atiek
Ġk alm
ment s
Ġro bot
ĠDi verse
Ġwinkel centrum
Ġgen omin
Ġul tra
zijd ig
Ġ ï¿½
Ġbijpassen de
Ġoog st
Ġbuiten gewoon
Ġco alitie
Ġarbe iders
D EN
Ġone ind
Ġberg ing
Ġfaill issement
Ġaf vallen
Ġhoever re
Ġzo ol
G A
Ġwol ken
g eest
Ġf rag
ĠCons ult
Ġv oeden
Ġvrijwill iger
Ġgro t
Ġinterview s
Ã ´
aar se
Ġbel oning
eu ter
Ġknuff el
Ġe g
geb leven
Ġpan iek
ĠMex ico
ste chn
ich aam
Ġvoordel ige
Ġbre der
Ġstr aal
et st
ĠTien er
Ġs essies
Ġbest reden
Ġdru pp
ĠKoop handel
Ġro os
in eerd
ĠD insdag
Ġprim air
Ġover t
le ut
ol ens
Ġtre inen
ĠVer zeker
Ġwijs heid
ĠA k
v ogels
e ind
Ġuitz iet
ĠB ul
Ġdru iven
Ġt ante
Ġge kend
Ġwaarde vol
ĠPaul us
ĠVerd rag
Ġhet en
Ġbele ggen
Ġver een
ĠT j
er em
Ġkwalit atieve
Ġin vloeden
Ġwil l
or ds
Ġwin naars
Ġe s
ute ur
Ġcart oon
ĠN RC
Ġvoornaam ste
Ġfamil ieleden
V E
ely stad
Ġtegenst anders
Ġdur ft
Ġprincip es
Ġhe chten
ĠWin kel
ris ico
v ige
Ġal t
we bs
Ġc ogn
T V
Ġpartic ulier
Ġwandel ingen
Ġregel t
Ġw ijd
Ġverminder d
ĠSterk er
Ġcor ru
Ġht ml
be veiliging
Ġ( +
ĠK ok
Ġtop ic
ĠH ug
Ġt ape
ĠBr oek
oe ven
fol io
Ġfor s
ĠC C
ĠC our
ap s
sh ow
Ġtru i
plaat ste
Ġvraag stukken
ag on
ĠC ard
Ġverkie zing
Ġmagaz ijn
Ġsat ell
Ġf et
U M
ĠV lie
Ġbel ooft
Ġopge daan
Ġmot to
Ġbeginnen de
Ġvis uele
Ġk etel
H D
at ier
rij ders
Ġhap je
ĠCamp ing
cor atie
Ġmor gens
Ġbe weegt
Ġvracht wagen
ĠOver ige
Ġ", "
Ġgel ukk
Ġvakkun dig
Ġopge pakt
ĠM ond
Ġpr inten
ĠE et
Ġ198 9
ett i
Ġm ill
P l
Ġgr an
h au
Ġverlen gd
Ġla w
Ġgest oken
ĠRotterdam se
Ġgez onder
ett o
ijk e
Ġcult ureel
Ġaangem eld
Ġamb ities
Ġged aagde
D A
Ġtoen malige
Ġverbeter de
ĠH A
Ġle zingen
zak elijk
ĠK ind
sp anning
ĠP VV
Ġvast leggen
Ġgods dienst
Ġ( =
ĠBl oem
ĠBe schrijving
Ġkn open
Ġavont uren
Ġcre atie
v eer
Ġkl inken
Ġmeth od
ĠOngev eer
c ir
Ġg ister
Ġdieren arts
Ġro zen
Ġmedic ijn
ĠBl oemen
Ġsche iden
Ġp or
Ġtechnologie Ã«n
ĠRecht s
ĠAmerik anen
Ġb itter
Ġgeaccept eerd
ĠJ aap
ĠVen lo
E P
ont wikkel
amp ie
Ġsch roef
eer ste
Ġvak gebied
Ġkok os
id o
ĠT ips
ĠZon ne
ĠM P
aan vraag
Ġver val
ĠD ol
Ġpro st
ĠC ub
Ġzie kten
Ġveelzijd ige
ĠW ed
ĠM as
Ġzwak ke
d ire
ĠPS V
ie me
ing ers
Ġverstel bare
ĠIntern ationale
d ings
is p
Ġstil le
Ġgesch enk
Ġsymb olen
Ġged ing
ĠOnder weg
som standigheden
Ġde v
ĠLe den
rust ing
erv akantie
rij ving
Ġgarande ert
Ġval se
Ġe d
Ġex pos
Ġpot entieel
Ġuit zoeken
ĠVin cent
ĠOff ic
Ġgro f
Ġspons or
kru id
ĠR utte
ĠGl ob
Ñ ĥ
Ġs elf
w oud
Ġin voer
gez ellen
Ġ iv
ow een
d elijk
Ġhet zij
Ġwort els
Ġvis ite
Ġwint ersport
ĠZ eg
Ġdomeinn aam
ĠVoor ts
ĠV ragen
Ġfl ip
B C
Ġonzeker heid
ĠAV G
Ġgeest elijk
il a
st a
z uin
Ġh ak
ĠÃ ¡
h oop
ĠT ab
it as
Ġf ok
B I
op le
N V
sk i
l ist
Ġhart elijk
Ġafge wezen
ĠN ick
Ġfeest elijke
isc ipl
Ġas best
ĠI ran
ĠOntm oet
Ġge groeid
ĠCh risten
w oordt
Ġop zoeken
Ġb oten
Ġsign ific
draa ien
Ġel lende
Ġsinds dien
ĠAl phen
h ar
Ġvoort gang
sl uis
Ġinge deeld
st ok
Ġop names
Ġt raag
ĠK o
Ġverbet ert
zijn de
Ġvernieuw d
Ġmar athon
Ġs and
ĠCon st
Ġdakk apel
Ġchec ken
Ġge ar
Ġvrij staande
c ast
ĠLin ux
Ġhart je
Ġvak ant
ĠOrganis atie
Ġp rij
Ġsec und
Ġveert ien
Ġnatuur gebied
Ġpass eren
Ġgrapp ige
Ġvl oei
ĠR is
Ġverbl ijft
ĠE va
Ġover schrij
Ġbe denkt
ik a
oll ige
Ġlied je
Ġgere kend
ĠCont rol
Ġhuis dier
Ġop stand
ĠVoor beelden
Ġgek ke
ĠC op
in us
orm de
we b
ĠD omin
Ġvoor keuren
Ġover vloed
Ġportemon nee
ĠB ack
Ġmas ker
Ġm ind
ĠN O
skun dige
Ġ194 5
Ġdre igt
Ġaange schaft
el a
Ġhuis artsen
Ġun iform
Ġverv oeren
Ġped agog
ĠpoÃ« zie
Ġke izer
Ġverf ijn
Ġlo ve
Ġverst rekte
ĠPersoon lijk
oe deren
ings middelen
ou ts
zoek ers
Ġbesch ouwen
ĠF iets
ĠTen slotte
ĠG RO
comm un
ĠH ond
Ġgl uten
ĠH it
Ġop geb
ik ant
id as
iss ing
f ietsen
nieuw e
ĠWh ats
ĠF eest
Ġsens or
ĠB eer
Ġvast gestelde
Ġel ftal
ij dt
Ġon de
Ġinhoud elijke
ĠSt ud
ic aal
Ġonderte kend
Ġbegrip pen
Ġwaterd icht
Ġafge geven
st rijd
ĠZ Z
achel or
opl ossingen
ĠE de
is co
Ġman ifest
Ġbegele ider
ĠB ir
v it
autom atis
Ġlood g
Ġcommun ity
ĠIsl am
ĠH eem
Ġeven wel
Ġaanm elding
Ġdek bed
ij ten
Ġgerenov eerd
Ġom ring
ĠH appy
Ġbegins el
Ġcolle cties
iet ers
Ġplan ken
Ġbese ffen
zen der
Ġbij houden
oer nooi
Ġonder t
wiss eld
ĠVl ak
Ġachter gronden
le k
Ġmilitair en
pers onen
Ġvrijblijven de
Ġstro men
we gende
Ġtw itter
Ġd aken
ar be
Ġop gest
Ġverbaas d
Ġregel maat
ĠWagen ingen
prof iel
Ġmodu les
gel icht
ĠCar l
Ġpijn lijk
Ġch irurg
Ġspiritu ele
Ġbestemming splan
gen ees
ore a
Ġen tertainment
Ġeet kamer
is atie
Ġpuz zel
Ġzorg verzekering
wijl s
Ġve cht
Ġvor st
ĠR ub
Ġaf standen
ĠAnd rÃ©
mede werker
Ġmij l
Ġo h
ĠWe sten
us es
Ġob st
ĠK al
te min
boek je
Ġr oep
ĠOpen baar
ĠPV C
ĠBen ieuwd
Ġc ool
Ġchristen en
C A
we sten
Ġhiel den
Ġtrans actie
Ġgig antische
Ġs ap
Ġgev order
ĠB erk
oppervlak te
snel heid
lev ard
Ġun d
ĠPr im
Ġilleg ale
u un
Ġsle e
ĠSh ow
ap pe
Ġpl oegen
ĠPhil ip
co in
Ġpark et
ĠRon ald
S cript
Ġre alistisch
off er
Ġd od
ĠP u
Ġar me
Ġvar iÃ«
sp rijs
af val
oc us
Ġlog istieke
s huis
ĠS ub
op slag
Ġvle kken
Ġvle k
Ġzen der
Ġb ik
Ġcompet enties
it jes
z oon
Ġaan du
ĠB ot
Ġhand h
Ġverd acht
Ġk ee
Ġmeld ingen
Ġvertegenwoord igers
Ġaanbe velingen
Ġobs erv
Ġzo doende
ged aan
ie urs
Ġinge wikkeld
Ġre volutie
aal den
Ġmond eling
Ġver slagen
Ġop stelling
Ġoorlog s
Ġnad ien
reek baar
Ġst orten
ĠMar ie
Ġzanger es
Ġf f
Ġbek ijkt
verg unning
Ġbuur man
Ġz ond
Ġ ~
Ġsnel ste
Ġet ik
Ġon voor
em in
bin den
ĠP or
Ġarbeids overeenkomst
gev oegd
Ġluid t
ĠC oc
Ġin lichtingen
Ġont v
Ġop dat
ĠCon ne
Ġstim ul
Ġf er
Ġre Ã«
Ġp oe
if orn
aalt jes
be wust
ĠH uid
Ġsche ppen
ĠE K
ann es
ĠEconom ische
Ġmon umenten
Ġst ak
Ġthe m
Ġsl ang
Ġop w
Ġgeb reken
ĠB oeken
Ġlas er
i i
Ġin teg
Ġleiding gevende
om t
ĠM ount
ĠIndones iÃ«
Ġbel eef
Ġin leiding
ĠM ens
p oint
Ġl aste
Ġaardapp el
Ġver ou
Ġsport ief
Ġf olie
Ġ17 8
Ġbez etting
Ġverw achte
Ġv agina
Ġwor tel
az er
st udie
Ġg if
Ġsfeer vol
Ġsne akers
F C
val idatie
ĠFinanc iÃ«n
bro od
Ġdistrib utie
Ġmicro foon
Ġd roeg
Ġbl ote
Ġo v
Ġachter halen
c ultuur
Ġinge wikkel
Ġbegin ners
el er
ĠHel p
onom ie
v ille
const ructie
Ġbezoek je
Ġf ort
amen s
Ġr itu
Ġtal rijke
ĠOver zicht
ĠCom fort
ĠC ath
Ġtran en
B ook
Ġh eld
d ringen
m uur
Ġuit pro
Ġover leggen
Ġn aald
b orden
Ġzom ervakantie
ĠD al
w as
Ġl iber
Ġeind resultaat
ĠI sland
akk ers
Ġbeg raaf
Ġin tuÃ¯
Ġherk omst
Ġd oop
kw amen
Ġconsequ enties
ĠHen gel
Ġfunct ioneel
t rip
Ġje ug
Ġkijk er
im men
Ġp ist
Ġverhoog t
Ġsubsid ies
Ġachter stand
AT IS
Ġd uit
um p
Ġcult uren
ĠD ikke
ĠSurin aamse
Ġaard ige
Ġj u
Ġol if
s elen
Ġtrop ische
aar n
der ijen
boer derij
Ġkoolhydr aten
Ġme ga
bij zijnde
met h
ke uken
Ġvermoeid heid
z uren
Ġlij m
ie us
Ġlich amelijk
Ġ/ /
ĠAmer ican
Ġhoe sje
Ġvast houden
ay a
schuw d
Ġmed itatie
be woners
Ġst oornis
Ġge ken
Ġvergader ingen
ĠE M
Ġp ool
Ġhuur ders
Ġweer somstandigheden
ĠB il
h anden
ĠE indelijk
pat roon
Ġaller eerste
Ġopper vl
ĠBur gemeester
Ġin loop
D S
E A
Ġin schakelen
Ġr anden
wol de
f onie
Ġbek w
g at
ĠE s
Ġverw onder
lopen d
onder delen
Ġvoor hand
Ġst reeft
Ġman agers
un k
ĠE R
Ġvloe istof
Ġonder v
sal on
ĠF ir
ĠLe o
Ġdichter bij
Ġwoest ijn
Ġkunst werken
ĠBl og
ĠW eder
Ġdoor gegeven
Ġd ranken
ĠRel atie
Ġveil ing
cl aim
c ia
ifest yle
Ġt we
ĠGoed kop
ĠAc ademie
u us
ris e
m eel
Ġpopul ariteit
ĠBelg ie
Ġz int
Ã© s
pl oeg
ĠV I
bl ig
Ġscoot er
Ġgekleur d
ĠG raaf
hou ten
0 1
Ġc ass
Ġp k
oss iers
ĠChar les
ĠT ags
ur al
d icht
Ġvoor stellingen
Ġhuur auto
Ġge automatis
Ġb ut
ĠAn g
Ġd ochters
ry l
ĠA G
Ġbe dekt
Ġuitzonder lijke
ob il
Ġcir cul
Ġip v
oo ide
raa i
ĠW oning
Ġsch roeven
Ñ ı
Ġvoor werp
ĠB rouw
Ġhaal baar
Ġzo genoemde
ĠL ijkt
Ġt aille
Ġonder handelingen
Ġz ieke
ĠHoo ge
ĠL ast
ĠNederl anden
bl okken
Ġbe werk
ĠV rienden
Ġboek et
ĠRegel matig
ĠT rek
Ġinlog gen
Ġd op
Ġglad de
Ġdeelnemen de
Ġleven dige
Ġaf sluiting
Ġtoonaan gevende
Ġhou ts
ro me
ĠWil d
Ġlog istiek
waard igheid
Ġvakman schap
Ġtoe schouw
sper iode
Ġtijd perk
Ġweer geven
ert ogen
Ġon bet
Ġeiser es
Ġgel anceerd
Ġaangem erkt
mer ce
Ġs ales
Ġvakantie woning
Ġover gedragen
Ġaf geleverd
ne de
Ġgeren omm
Ġpe ch
ook te
ĠPark eer
ste de
Ġon nodig
Ġont le
Ġ7 50
ER K
ĠZwee dse
Ġverm oord
Ġvoorbere idingen
Ġdisc ip
Ġklaar komen
Ġzoek machine
Ġw ier
Ġgehand icap
Ġverl of
Ġgewaar schuwd
ch ec
Ġzwaar der
ĠCan on
Ġparag raaf
Ġc atering
Ġf ondsen
vest iging
Ġstap t
ĠF ord
Ġra re
D P
part ner
Ġconclus ies
E X
Ġaandeel houders
Ġur ine
gen ote
Ġaange pakt
me isjes
Ġver rijk
ĠH i
ĠW int
Ġonder wij
Ġze iden
h istor
aan sluiting
Ġtrans form
Ġc ust
Ġch al
Ġoverw ogen
h oren
Ġpar adijs
Ġ300 0
Ġbeheer sen
ĠZod at
Ġveel vuldig
Ġtijd schriften
Ġonrecht e
ĠS K
ent uin
Ġre port
Ġaf nemer
ĠJ ap
Ġmee sten
Ġ(âĢ ĺ
ĠIn derdaad
ĠJava Script
6 5
w onden
Ġ22 0
and in
verkie zingen
Ġkeuken s
Ġverk racht
tra ining
Ġexplic iet
ĠK ol
b ol
Ġbehoren de
Ġover komen
Ġte en
h ost
iv al
Ġrestaur atie
L inks
ann ab
ĠCent rale
ĠI M
u ip
ĠPr in
Ġdisc ipl
ver werking
Ġbez et
iz a
Ġap othe
ell y
ĠW outer
ĠI erland
ijn tje
b ied
Ġ..... ..
Ġint ake
ĠE ss
Ġaan st
Ġanim atie
Ġ9 1
ĠS ens
ur ger
Ġbet ekend
ĠDag elijks
Ġgr ill
Ġsleut els
ĠJ oost
amp oo
Ġvorm gegeven
Ġne iging
Ġoff line
k ool
ou che
uz alem
Ġbestel t
Ġdement ie
h ond
Ġgem akkelijke
Ġf usie
w ind
ĠAnal ytics
Ġbedrijfs voering
or gel
Ġp aden
ĠD ro
Ġu s
il anden
u ge
Ġpresent aties
z orgen
onder houd
Ġhant eert
Ġrijk dom
an ia
f ac
Ġverb leven
ĠOlymp ische
verzeker ingen
Ġaan nem
zicht en
Ġuit maakt
ĠBuiten landse
Ġneer slag
Ġo a
Ġ194 0
Ġge sm
Ġmult if
ĠB O
ur beren
ĠÃ ¼
Ġeen malig
H z
ĠVen et
Ġc at
ĠCom bin
ĠB uurt
Ġp ru
Ġverlen gen
ĠEn t
n achten
Ġm ut
ĠGR ATIS
ĠOnder houd
Ġr ingen
Ġbru to
Ġa cteur
ĠPersoon sgegevens
l or
Ġbl anke
Ġcruc iaal
Ġl ol
Ġstab iele
Ġken mer
og an
ĠB oom
Ġru zie
Ġleven d
Ġb izar
Ġret ro
Ġkennis making
Ġkle ink
ĠC ab
Ġsupport ers
v ru
c ks
Ġb ok
Ġv ies
Ġbel ofte
ats oen
Ġge pleegd
an im
Ã³ g
Ġf ashion
Ġb idden
kl imaat
ĠV ideos
Ġconst ante
ĠKamp ioen
ĠB org
Ġbekend gemaakt
Ġhorlo ges
ĠM id
Ġsch immel
ru b
com bin
ĠHass elt
Ġm eel
ss els
Ġact iveren
Ġgew ond
cont role
b ranche
vl iet
ĠF air
C l
l ood
ik es
Ġvoedings stoffen
Ġon n
Ġsp elletje
ĠFor um
Ġnadruk kelijk
ĠOver al
Ġverscheiden heid
Ġinf ectie
Ġhulp middel
Ġsl ikken
Ġro ul
Ġsl et
Ġgen oegen
o is
ĠFre der
as ie
Ġzorgverzeker aar
ac o
Ġl ay
Ġhand eling
Ġterug komen
Ġsal on
akk et
Ġstr ikt
bestaan den
Ġfor se
Ġp ogingen
Ġwaarschuw ing
Ġlief hebber
andin av
Ġgeken merkt
ĠHet e
Ġbe weeg
ĠI mmers
Ġz adel
Ġnat ure
ĠM i
Ġg aren
Ġb uizen
Ġk ad
ĠD O
ure a
Ġblok k
Ġjas je
Ġken merk
Ġd uister
ĠV iet
ĠS U
ĠI b
kle uren
Ġpost code
Ġk W
ĠF ull
op bouw
inter est
Ġv eter
Ġpl as
Ġor den
Ġverkl aarde
Ġrapport age
Ġvres elijk
Ġva andel
Ġle kkers
Ġbevestig t
Ġland goed
Ġment ale
Ġacc ess
ĠbeÃ«ind igen
lo se
Ġle ed
ĠHel der
ĠM O
Ġr iool
Ġafwe zigheid
Ġr iem
Ġsp an
Ġst ruik
Ġver gt
ĠD etail
ĠCo ach
Ġbe f
Ġweer s
ĠS af
ĠL G
Ġgem oed
wekken de
Ġv ette
Ġkamp eer
ĠBe scherm
Ġp ie
ĠT s
g aarden
sm aat
iss ingen
Ġsle chter
Ġverdiep ingen
ĠL ies
Ġc ake
ings kosten
Ġinterpret atie
pp ing
Ġst oring
Ġuitverk ocht
Ġover nemen
Ġleeftijd s
Ġzom erse
ĠBinnen kort
Ġtra iler
Ġplek ke
a e
ĠBij lage
Ġvrijdag avond
k etel
Ġl am
ĠS oftware
it z
ang ere
colle ctie
ĠL elystad
won er
ĠN av
Ġverantwoord elijke
eter ing
ĠHel mond
ĠArbe ids
ster mijn
Ġagen ten
Ġverl aat
Ġwet houders
k ring
oet st
sp ellen
Ġsupermarkt en
Ġtoetsen bord
r ia
ĠGel et
ĠE H
wor ding
Ġgener eren
ĠRen Ã©
Ġuitpro beren
Ġper formance
Ġbuff et
ĠWel zijn
ĠÂ ©
Ġtap ijt
Ġ198 8
Ġongeloof lijk
Ġse ctie
Ġmel od
bij stand
mod ellen
Ġ4 50
Ġoffic ier
h es
ĠS V
it je
Ġz weet
Ġonder zoekt
Ġess entie
Ġbeleg gers
sch ermen
Ġhoofd pijn
ĠGroen Links
Ġkussen s
Ġcomp atib
Ġzeld zame
Ġged roog
Ġz aden
id sen
ĠJ ourn
od ium
ĠReg io
ĠFilm s
Ġk atholieke
Ġher halen
f re
feest je
ĠZoet ermeer
h ouw
ĠLen gte
Ġpop pen
ver andering
ĠBe p
ĠVolks wagen
at iete
ĠenquÃª te
ĠLinke d
Ġh op
Ġle gend
z z
ĠWet boek
Ġk aars
7 5
Ġf r
Ġtr anny
Ġkoek jes
Ġsol id
Ġpar all
Ġvrijwill ig
Ġvoorl ichting
Ġ Ã³
ĠVolks krant
Ġill ust
Ġp anden
Ġjourn alisten
ĠClass ic
ĠOm schrijving
Ġtrans acties
Ġgr iff
ĠA th
f ord
Ġto ffe
per to
Ġvert rok
Ġdik wijls
Ġob jectief
Ġonder hav
Ġgevol ge
Ġerot isch
Ġuit n
Ġmat ig
f ondsen
c ertific
ĠOp vallend
Ġb ub
ĠSt udenten
Ġpopulair ste
Ġvoor st
Ġstop contact
ĠVoor beeld
el ine
Ġtyp es
ĠHe alth
n ik
Ġknap pe
Ġpe uters
Ġbl aas
Ġdru kt
s ituatie
ĠGem iddeld
Ġp ict
Ġp in
Ġw ond
ĠP L
er a
ĠRep ubliek
Ġa u
Ġgra ven
Ġveil iger
Ġrobu uste
Ġtechn ologische
Ġgetra ind
Ġle id
Ġstation s
Ġaan komt
blauw e
Ġpartic ip
Ġvl ug
ĠM aa
t afel
Ġlat ina
gesp rekken
Ġuit komsten
rib utie
Ġrest erende
Ġverkl aringen
Ġaangem aakt
Ġrepar aties
hau pt
Ġlang zamer
app el
ĠG ert
Ġkl ussen
ĠD ick
Ġmag ische
ĠLu xe
Ġn omin
art a
Ġr iet
ĠO t
reg io
ĠJ ob
Ġb org
k ust
Ġser veren
Ġgepl ande
Ġe go
ĠRegel ing
Ġde kken
Ġbegele idt
Ġverminder t
Ġa ug
sbe diening
wit ch
Ġsh ows
Ġprovinc iale
Ġprom oten
Ġaan trekken
Ġtabl ets
Ġdraad loos
Ġint im
club s
on ingen
Ġinhoud elijk
Ġop gelopen
Ġa cteurs
ver deling
h urt
ĠVoor af
Ġverant woorde
Ġaanzien lijke
Ġherken t
Ġdir ig
Ġd uinen
Ġlevens stijl
Ġontsn appen
de kken
ĠBe eld
Ġsal do
k i
Ġb oeiende
Ġbe auty
ĠCl oud
ĠW ash
f alt
dig ing
ĠN aakt
ĠCal iforn
Ġuniversiteit en
ĠR O
Ġvoet b
stand aard
le es
Ġcitro en
he ven
ur ken
Ġband s
Ġbor stel
ĠOu ders
ĠDat ings
Ġc le
ĠT ieten
Ġg raaf
gem ak
Ġp osten
Ġsamen vatting
d oms
ĠEl is
bal k
Ġdru g
it sen
un der
iviteit en
s ite
ite in
Ġc all
eel de
z uig
Ġzal m
Ġheu vels
Ġbez itten
ĠP ed
un en
Ġant ib
Ġcomp os
Ġcas ual
g ets
Ġuit wiss
schrij ft
Ġhand haven
perto ire
Ġge uren
l ies
Ġp est
Ġm akers
ĠM ass
Ġt immer
ter ing
Ġbesluit vorming
Ġwis kunde
Ġaan tre
maat regelen
b em
Ġ) ?
Ġlen ingen
ĠC ro
Ġaro ma
Ġple eg
Ġe ett
ĠB ull
Ġgez ichten
el se
Ġbl ader
ĠV eer
Ġged raaid
ĠefficiÃ«n ter
Ġuitst oot
Ġbev elen
Ġbond age
bru in
ĠT N
ĠVal ent
Ġint entie
Ġbeteken de
Ġ. ]
dien de
ific eerde
geb oren
r ijn
ĠI rak
Ġdynam isch
ie erde
ig go
ĠG ame
Ġont slagen
Ġ( '
kelijk se
ver ancier
Ġdie gene
ĠMad rid
ĠGeweld ig
ĠDi am
Ġover hem
Ġtre f
ber haupt
ĠG ere
vol and
Ġve zels
Ġim ago
Ġk ale
Ġret ourn
ĠM BO
ĠSl uit
ar ije
man nen
ent al
Ġgen re
in te
Ġrein iging
Ġweb pagina
D AM
Ġaanb iedt
Ġf estivals
Ġpijn lijke
st ick
ĠR oos
Ġge form
n oten
Ġ198 5
ĠK ie
ĠH ul
Ġpartic ipatie
ĠJohann a
Ġaannem elijk
ĠUS A
Ġbeveil igde
Ġminder e
ĠB ab
Ġch ique
ĠJose ph
oel ing
Ġover heen
ĠT it
Ġconfl icten
Ġkant on
ĠGe h
Ġf arm
Ġbehoor lijke
ĠT ime
ĠG as
4 4
Ġt inten
Ġgord ijnen
ĠGele gen
Ġgar n
Ġverb ouwen
Ġslaa pt
Ġanders om
Ġhuis dieren
zu iger
Ġ: :
Ġvroe gen
Ġdre mpel
Ġzeven de
U nie
me ch
t ijden
Ġge sc
Ġgrond gebied
Ġk assa
Ġzoek resultaten
j en
Ġben oemen
Ġ. (
ro duceerd
Ġver beelding
ĠV ill
ge ert
ĠEx per
Ġb rak
ĠMe et
ĠN ight
Ġh Ã¨
ĠR y
Ã ł
Ġme ent
Ġeven min
Ġsj aal
ĠT U
Ġver plaats
uss ers
Ġh aag
Ġsubt iele
Ġn Ã³g
3 2
u y
Ġonder liggende
ĠS oph
at iel
Ã º
ach e
ĠStad s
Ġo rale
m ode
Ġe mp
ar ings
Ġb oekt
ĠG ood
ing o
Ġd aalt
omp any
Euro pa
ĠC ode
Ġc amer
g aard
schik king
ĠV isser
co se
Ġver anda
ĠM ath
u les
Ġ! ).
str ategie
Ġb il
Ġmin ute
ĠY our
sb eleid
Ġvragen lijst
ĠHand ig
Ġg re
ĠC BS
ĠControle er
Ġt unnel
Ġwil s
Ġvocht ige
vol g
station s
Ġkampioen schap
ĠF ra
Ġzet el
Ġgesp re
c ade
ĠC L
Ġsub st
ĠTechn ische
Ġass ist
Ġall erg
Ġch e
Ġgesch illen
velop ment
opl ossing
Ġj uf
Ġpro min
Ġbl oei
Ġv arie
E F
ĠJer uzalem
Ġtrans itie
w o
ĠL aag
Ġl ife
y ling
Ġt roepen
ee ps
Ġver te
Neder land
ĠG T
Ġon op
Ġont ro
Ġbel oofd
Ñ ĭ
Ġgewoon te
Ġo er
p aar
Ġaut isme
Ġop positie
R L
Ġvertegenwoord iger
ĠGebruik ers
Ġin begrip
ver huur
Ġaf gev
Ġafd rukken
Ġpar ken
ĠS L
Ġerv aar
aar dt
Ġf ram
ĠF iguur
Ġresp onden
Ġemot ioneel
z itting
ĠSm it
de sk
h aalde
Ġmod der
Ġvliegt uigen
Ġde ugd
Ġkeih ard
h oes
Ġaanv aarden
Ġcorre sp
Ġfavor ieten
vor dering
Ġexploit atie
ar ning
ĠWad den
Ġnegent ig
Ġl it
hand eld
Ã¯ teit
Ġhiel p
an i
Ġrecht hoek
ĠE th
ec ut
Ġo cc
bet alen
ĠO e
ag ia
eer ing
Ġverh uren
Ġged ronken
nieuw s
Ġblijven d
a ine
ĠD H
Ġverst opt
Ġverschrik kelijk
ic y
ĠBer oep
ect ies
l s
j on
gro en
ĠD ar
Ġcontro les
Ġple it
ertogen bosch
Ġonder worpen
Ġste unt
Ġm ouw
D R
ĠL eren
ĠAmerik aans
uim d
Ġriv ieren
Ġ23 0
it ut
Ġregel ingen
Ġmonit or
ip edia
Ġl aarzen
Ġplek jes
Ġroul ette
waar schijnlijk
ui ft
Ġch ip
Ġbor rel
Ġz uster
ĠAB N
erm is
Ġeeuw ige
Ġkn ieÃ«n
ĠD elta
Ġk ampen
Ġillustr aties
uist erd
Ġjurk je
ĠProvinc ie
ĠS up
ĠAud i
st oe
en ken
Ġonge z
om et
Ġdien de
Ġmen ingen
Ġp ix
Ġv acht
ĠH yp
Ġ198 6
c ol
Ġprest eren
Ġfinanc ier
Ġl outer
sk aart
ĠGoedkop e
Ġdiscuss ies
Ġjapan se
Ġg oogle
ĠF ys
ĠC H
Ġvoldoen ing
Ġna bestaanden
ĠE ras
Ġaant onen
Ġnavig atie
Ġvolt ooid
ĠO tt
ĠS eni
ĠD I
Ġp ony
ij zer
Ġsc oort
Ġafgeb roken
Ġgede gen
Ġlicht er
Ġbev allen
Ġch ips
Ġinge gaan
ĠLinked In
Ġten einde
le vering
m ix
sm iddelen
in ck
Ġmount ainb
Ġvoet ballen
Ġpos ities
Ġm akkelijke
el aars
ĠAb out
ra de
Ġvol st
ĠInst all
Ġp iek
Ġple gen
ĠR ud
ĠSp ot
Ġvoor ts
ĠT an
Ġaf name
eken de
Ġpaar s
ĠK ids
Ġhom oseks
Ġverdu bb
v alt
g repen
ĠPart y
ir atie
Ġtra kt
ĠOor log
Ġbehandel t
ĠTra vel
Ġspeelt uin
Ġdi ct
Ġeffect iviteit
oeg ang
Ġpsych oloog
ĠM C
Ġdichtst bijzijnde
Ġd rijf
Ġverpleeg kundige
Ġop roepen
ĠSc andinav
Ġdik ker
t aal
ĠE ver
Ġcalorie Ã«n
Ġuitzonder lijk
Ġst uit
ĠCan ade
Ġd ash
Ġvi ru
vent ies
Ġonverm ijd
h off
ĠBlu etooth
ĠU b
ĠDef ensie
Ġget allen
Ġtwee maal
ĠY oga
Ġgeve stigde
gew enst
ĠM ess
Ġk rab
Ġspro okjes
Ġg Ã©Ã©n
ĠProf ession
Ġw a
ĠK open
Ġlicht gewicht
Ġzon licht
Ġbevol kings
Ġb ud
b uis
ĠS ier
ĠUn ited
Ġste iger
ĠZ h
Ġ( !
actie f
Ġrijk s
Ġwens elijk
ste ding
h ip
Ġst icht
Ġschad elijk
ĠK a
ĠAf gh
ost al
ig ratie
opp ing
Ġverniet igd
Ġf elle
ĠK ont
ĠVeil ig
Ġemot ie
A F
he f
ĠUit gever
Ġgrij pen
Ġd aag
ĠNederland stalige
Ġvoor doen
av ia
sche pen
j ourn
Ġbur n
m oord
ĠG il
Ġvoorsp ellen
Ġhoef de
ĠCE O
ĠEx pl
Ġhuis vesting
an aal
Ġlosl aten
Ġo ceaan
Ġorg anen
ĠN ok
ut h
Ġter min
ĠZ in
voet bal
Ġgere st
Ġbez waren
Ġvloer verwarming
Ġhost ing
ĠArch ief
Ġmater ie
Ġrapp orten
ĠA u
Ġenzo voort
Ġz ingt
tre ding
Ġzo juist
Ġverv oers
ĠS N
Ġheer st
Ġverschuldig de
f eren
Ġv iew
sp eeld
oot je
Ġverrass ingen
es c
rit t
ĠHe ijn
ĠE asy
Ġp oker
ĠEx c
Ġken merkt
Ġsch reeuw
Ġlaag je
Ġopl aden
Ġland schappen
Ġelektron isch
Ġaansp reek
Ġondersche idt
Ġveg an
ian o
ĠDag blad
Ġsatell iet
ĠD ist
Ġgesch iedt
Ġuit ing
Ġhoofd zakelijk
j er
Ġ197 0
opt im
ĠL een
Ġd ele
Ġmech anische
em an
oel de
Ġin n
Ġcollectie f
Ġverander ende
Ġaan gevoerd
ĠTen zij
Ġz alen
Ġin gaan
Ġsy stem
co Ã¶rdin
ĠR un
m elding
ĠZo om
oer den
ĠComp any
Ġonderhav ige
Ġvoor alsnog
Ġv ouw
ung le
sk erk
Ġtwee persoons
resent atie
ach en
Ġl ike
Ġv s
ĠKun nen
Ġc ash
ĠQu a
dan ige
Ġex cl
Ġf atsoen
b ag
Ġpan or
Ġ198 7
ģ Ħ
ĠHet zelfde
el ten
lijk heid
fil ter
Ġtwijf elen
Ġwell ness
ĠAls of
Ġgroot s
Ġvrij stelling
Ġzwem baden
ĠA cht
ĠRob in
ron k
ĠR idder
Ġaan loop
ĠS ander
ĠCom pl
Ġgere ageerd
ĠP raktijk
ĠS qu
Ġbet w
ĠMech elen
Ġon rust
Ġbruik baar
Ġcorre ctie
ĠMarokk o
w anden
Ġbru ggen
Ġnauw e
Ġreser vering
vis sen
if y
Ġgro ve
Ġof zo
ĠFinanc iÃ«le
Ġdag licht
Ġin houdt
Ġmeld de
cept ie
Ġverz ad
Ġinkomen s
A pp
Ġopger oepen
Ġcre ampie
ĠS uz
â ģĦ
fl ix
Ġzus je
ĠAll ah
beeld ingen
Ġtrouw e
Ġhand je
Ġv ice
t arief
Ġgro et
Ġgewoon lijk
ĠIn s
ĠS et
Ġinnov aties
Ġovertre ding
rel atie
h ut
ĠA w
is eerde
Ġreist ijd
Ġserv ic
Ġunivers ele
Ġco ating
Ġhel m
Ġwaarb org
Ġfoc ussen
stoornis sen
op name
cl ar
it o
vis or
Ġbezorg ing
Ġaut ob
Ġaardapp elen
ĠF ashion
AS S
Ġstap je
Ġer kennen
Ġsch oor
Ġbank rekening
ĠGoed koop
Ġyou tube
Ġgehant eerd
ĠT M
Ġzicht bare
EN S
Ġbru ids
ig ner
Ġ% ).
z p
ĠF a
Ġstor ingen
ĠS of
Ġsp amb
Ġtoe pas
l eren
Ġ! '
ĠP ic
Ġdron ken
Ġin nemen
sp annen
ĠWel k
Ġh its
Ġr ent
Ġweekend je
y wood
Ġsc oorde
Ġwillekeur ige
ĠA gent
Ġle der
techn ologie
Ġom geven
Ġkeur ing
Ġv etten
ĠEx press
ĠC ross
Ġappell ante
reven tie
Ġzin vol
ĠPersoon lijke
Ġbew ind
Ġtrans formatie
Ġme g
be ke
Ġru w
Ġpar am
Ġsch atting
Ã¯ s
Ġnal aten
Ġgang bang
l oper
ruimte s
Ġop staan
Ġspamb ots
uil d
ĠHa ven
ĠBB Q
C D
Ġeigen doms
Ġregel matige
zorg d
ĠAb ra
Ġstat istieken
fun cties
ĠSt op
9 9
Ġ idd
Ġout door
ĠB esp
ĠY oung
ĠS us
Ġ24 0
ert og
ĠReg ion
ĠRuim te
ĠL eef
ĠWor k
Ġuit geven
f olie
d raagt
av onden
ied am
ri el
Ġstuur de
Ġhy br
z itten
f ield
Ġtweet al
Ġ( "
Ġst off
Ġschatt ig
send aal
ĠHeeren veen
Ġdoel groepen
ier de
er veren
Ġbar s
Ġgem akken
Ġd j
201 7
ra ck
Ġb reekt
schal ig
ate au
Ġprins es
ir ten
ĠLaat ste
Ġveelzijd ig
Ġverh elpen
OR T
ĠgeÃ« x
ĠS ites
ĠG eel
Ġt antra
Ġwets voorstel
gelegen heden
Ġverf ris
Ġontwerp ers
Ġrij p
Ġmasturb atie
m oed
Ġst icker
Ġgerelat eerde
ĠE em
Ġontwer per
Ġdiscipl ines
ap per
Ġschatt ige
rein iging
ot ten
ĠRe in
ĠE V
Ġgraf iek
Ð° Ð
ĠAmstel veen
ĠSl ot
Ġverminder ing
schap s
ĠM ov
Ġbedre iging
Ġkn ippen
Ġfeit elijke
n iet
Ġexperiment eren
Ġomst reken
Ġom wille
Ġautover zekering
p raktijk
le ef
Ġlog ische
Ġt ik
clus ive
Ġstrateg isch
Ġresult eert
Ġ198 4
Ġbenader d
Ġverhuis d
sch oon
Ġs ets
Ġzo wat
kaart jes
we kt
Ġsurf en
Ġverwezen lijk
ĠHeb t
Ġf oute
Ġverg oeden
art h
Ġsted elijke
ij ver
uim te
Ġro oster
Ġbe wijst
Ġbedoel t
Ġhouden de
pl y
ĠC ura
Ġm unten
Ġenergie zuin
Ġeleg ant
ĠKl aar
ĠHong arije
Ġkle uter
ra ph
b aren
Ġover kant
Ġvertegenwoord igen
Ġh uilen
Ġcon ferentie
um er
ĠA arde
Ġpunt jes
Ġg ooch
Ġzest ien
Ġst ickers
ĠE ten
Ġaller beste
ĠF ac
ĠMon te
Ġgecon stat
ĠGro etjes
yl on
Ġvle ugels
itt ingen
Ġeigen schap
Ġzak je
Ġol iÃ«n
pens ion
red iet
breed te
Ġover nachten
d is
proces sen
Ġretourn eren
Ġluist ert
ĠTran sport
ĠH oop
Ġintellect uele
ĠVast goed
ĠPers oneel
ĠBel gen
Ġgenees kunde
ĠUtrecht se
Ġex t
o urs
ur u
Ġsk i
Ġgelijk nam
doc ument
dr at
Ġst rijden
ĠR oss
Ġwerk vloer
ĠKon ings
Ġbeeld scherm
Ġaan gaande
Ġmede ver
sc o
borst ige
Ġom zetten
ĠR iv
Ġtoer isme
ra in
Ġhuis stijl
one y
Ġsamenwerkingsver band
le d
ĠD ok
Ġdet ect
Ġant is
Ġhuishoud elijke
Ġjaar rekening
ĠA A
Ġ iet
Ġtoon de
omen d
ĠMar s
Ġsex films
r aten
Ġbevoegd heden
Ã¡ t
kl aar
pen de
s neden
re inig
ann iÃ«
Ġonge w
Ġaf handeling
am i
Ġp ay
Ġafwijk ingen
ĠFle voland
Ġstruct ureel
Ġd al
dat a
Ġingev olge
ĠF rit
ĠQu ick
ĠGezond heids
Ġk raag
im uleerd
le iden
Ġrem men
ĠDe ur
Ġn icht
Ġrustig er
3 4
v aardigheden
ĠVoor t
Ġroest vrij
red it
ob bel
ĠCa rol
Ġaqu arium
ĠO R
Ġt rokken
Ġa ch
ĠMarokk aanse
Ġonderzoek er
ĠA ren
ĠElis abeth
Ġcomm issaris
c er
Ġconcurr enten
ĠEras mus
Ġspeel se
Ġzom ers
Ġsm aakt
Ġtrouw t
Ġschen ken
ĠA Z
Ġwh ite
ĠG P
Ġp euter
ip per
sh irts
Ġabon nementen
ee g
Ġg okken
ine a
ĠHand els
Ġaan slagen
Ġgroot handel
Ġminder jarige
ĠBru ssels
Ġvolg den
Ġintegr eren
sch uim
Ġann uleren
Ġkw ant
Ġ10 5
Ġref erend
ĠCons umenten
Ġfeest elijk
Ġsamen hangen
ĠFamil ie
ut phen
Ġheft ig
Ġorg aan
al ity
ĠRe acties
t ot
Ġro ut
agen t
ma and
w oude
ĠA ft
Ġkle i
J urk
Ġcul inaire
Ġaf gel
form eerde
gener aal
Ġmensen rechten
Ġvoorbe houden
z and
Ġbekend heid
Ġconcur rent
ĠD re
Ġliter aire
rij ft
Ġop gemerkt
Ġbet rek
ese arch
Ġpl icht
Ġmoe itel
ĠZZ P
ag ged
b od
Ġ* *
Ġident ificeren
k aan
Ġdoor ver
Ġconsum ptie
Ġ36 5
Ġ?? ?
h n
Ġdisc reet
Ġne p
Ġer na
Ġdou chen
mede werkers
ĠC u
Ġvan morgen
Ġafstand sbediening
sp licht
Ġverscheiden e
Ġintegr aal
B e
Ġliggen de
Ġb ie
on n
ig ment
ĠG O
Ġsn ack
n ot
Ġwoning bouw
v aten
Ġbungal ow
vl ies
Ġp aus
ĠV L
Ġra ssen
ĠhÃ© Ã©l
Ġneer gezet
Ġrub beren
if ieke
rij der
Ġtrans fer
Ġverw eer
Ġre pertoire
Ġkl uis
Ġhoogte punten
Ġdat gene
Ġze gen
Ġuitv als
ĠÃ ī
Ġgelegen heden
Ġuur tjes
z elen
Ġr onden
Ġmiddel eeuwse
Ġenergie verbruik
Ġ Ã¨
ĠCh i
Ġwerk gelegenheid
Ġvan middag
ĠB ram
Ġcon cepten
ĠO s
Ġsu p
Ġs ale
duizen den
Ġga zon
Ġhand schoenen
ĠT O
fot ografie
Ġpol der
as on
Ġboven genoemde
ĠG ab
o Ã¯
rest aurant
Ġon weer
c afÃ©
Ġkop ers
tegen deel
Ġkopp els
Ġfles je
ac ker
w ijken
Ġin breuk
gere chten
ĠgeÃ¯nt roduceerd
U T
Ġzuid elijke
1 00
Ġle kk
ĠPl atform
Ġgeres erveerd
Ġvert icale
Ġp oster
Ġlen zen
Ġdag boek
ĠT oer
Ġvl inder
Ġdr iet
Ġm bo
Ġprofess or
Ġsch eer
aan de
Ġadem haling
ings recht
cl er
ĠAcadem y
Ġin val
Ġzien s
re ed
Ġzo zeer
Ġdiagn ost
Ġle idingen
Ġcompon ist
jaar den
Ġopmerk elijk
A d
onom ische
Ġeven tjes
Ġh oven
Ġbele mmer
ĠK eur
et ijd
b undel
ĠZ iekenhuis
Ġmiddag s
Ġst af
ge slagen
Ġst ik
Ġsp at
Ġsug ger
Ġgesch oten
iÃ« l
Ġbestuur lijke
Ġkomen d
ar ina
Ġmater iÃ«le
Ġvrouw elijk
z ijden
lie ft
r etten
i vering
ĠLe x
Ġsch eur
Ġinf ra
Ġbe kken
m ob
Ġrec ensie
gar age
ic on
sl aat
Ġmultif unct
Ġfisc aal
st art
sch ikt
ĠB ud
in sp
Ġe mb
k ou
amb ten
Ġd og
besp aring
ont ste
ĠC ou
Ġattra ctie
oor l
Ġpan eel
ĠBr ink
Ġricht te
aris sen
Ġmult i
Ġover macht
Ġth r
Ġpol s
Ġanders zins
Ġpornofilm s
I ER
Ġdaar onder
amb oe
op leidingen
ĠK ir
form aat
Ġversterk ing
ĠBad kamer
Ġt ril
Ġlabor atorium
Ġoor delen
Ġanalys es
Ġf uck
Ġt or
hed raal
ĠR esearch
Ġj oden
Ġter rassen
Ġkennis maken
ĠN OS
Ġkap el
Ġuit m
Ġn eef
Ġbeschad iging
ĠSte ven
ĠB H
Ġal lang
Ġnage dacht
g reep
Ġwe kelijkse
f eesten
ch in
ĠL an
Ġsp eur
Ġport folio
oep el
belang rijk
Ġhuis werk
ĠVel uwe
Ġte m
2 9
le cht
dre mpel
w an
Ġwee gt
on i
Ġst eel
ĠVol vo
Ġgen ade
ĠVol wassen
z ucht
Ġmet ingen
z aad
Ġc atalogus
ĠVan avond
Ġleeft ijden
Ġomring d
Ġmo er
b roe
roef d
ĠSl im
l ight
ĠG ren
ĠMil f
Ġtop per
Ġverwar ring
he ater
Ġgebruik maken
Ġn immer
Ġgelijknam ige
Ġhulp verlening
ĠG esl
Ġopv attingen
Ġterugk eren
ad or
ĠMob ile
Ġmater ieel
Ġpannen k
Ġ500 0
Ġzo om
Ġrefle ct
in iÃ«
Ġ194 4
ĠMart ijn
Ġde gelijke
Ġoverd reven
ell i
Ġom roep
ĠGlob al
Ġeven ts
ĠS ommigen
Ġb oeiend
io x
Ġbeh eerd
inten do
h aar
Ġger inge
Ġnoord elijke
bij t
m elk
ĠNok ia
schrij vingen
Ġstart ers
0 5
Ġh olland
ĠKonink lijk
ĠLes b
Ġblijven de
mail s
re atie
Ġtra d
Ġhyg iÃ«ne
l op
Ġst ijf
ĠF oundation
ĠSp oor
k je
in komen
end am
ĠR iet
Ġsp oel
Ġgede kt
ge erd
ig i
ĠH S
ĠH ill
ut ions
ĠRoer mond
Ġl ap
Ġp p
at her
Ġso und
Ġbew eren
ĠM ur
Ġresponden ten
3 3
Ġhier toe
bru ikt
ĠHug o
Ġd ader
Ġduidelijk er
Ġverstel baar
ĠIntern ationaal
ett ingen
ĠSn ijd
Ġkant ine
Ġher nieuw
Ġkost bare
Ġopv alt
Ġcha os
ĠL ocatie
ĠSche ven
ĠS he
ĠD un
Ġin put
og raph
Ġbeoog de
Ġfl auw
ro oi
Ġwen k
Ġgeschil derd
ĠN orth
ĠZ en
Ġislam itische
Ġdorp jes
a ub
pl ank
Ġgerelat eerd
Ġwerk ten
Ġp assage
pakk etten
Ġbel eefd
ĠJaar lijks
c orpor
Ġgeb ogen
ĠAd am
Ġyog hurt
Ġ16 5
Ġparkeer plaatsen
ING EN
ĠLang s
ĠNoor der
r els
Ġsl aagt
Ġcl ip
ĠT E
Ġfran ch
Ġuitge gaan
Ġ198 2
erm ijn
Ġb aar
Ġte voor
ĠMag azine
de d
ĠBrussel se
Ġvakantie huizen
Ġaanbev elen
Ġadem ben
sl acht
Ġdoos je
ĠL inda
aties ysteem
ĠK ra
ĠG ij
ĠEl s
Ġsport school
ĠT oel
Ġvoedings middelen
ĠJ azz
Ġverw orven
Ġer af
Ġopbreng sten
Ġecht genote
Ġsl aven
ĠMatt h
Ġdringen d
ĠBout erse
Ġbevor dert
ĠK r
Ġgerenomm eerde
ĠM ike
ĠPre cies
ĠBar b
Ġbev alt
Ġt rib
Ġover weegt
ĠEr fgoed
Ġsport ers
ĠF M
Ġgep rijs
ĠL ong
Ġindire ct
Ġredelijk erwijs
Ġprem ium
Ġilleg aal
Ġon her
ĠSinds dien
Ġsp in
Ġvoor gelegd
ĠGem aakt
ĠPet rus
Ġzo ontje
ĠRes ort
att le
Ġvrijwill ige
hand ig
Ġtevoor schijn
Ġh arige
p are
Ġuit slagen
Ġvoor deur
Ġgecertific eerde
Ġverwij dering
lo zen
actie ve
ĠSp an
Ġbenodig d
off ie
install aties
ĠE p
daag s
ĠB urg
Ġverv alt
Ġover gewicht
te gels
ĠLaur a
at ic
ĠTh is
Ġoper ationele
ĠD Ã©
Ġgew ijd
j i
Ġver houdingen
Ġavond je
Ġtoe behoren
Ġafge beeld
Ġmoeitel oos
Ġing reep
Ġlink se
G E
iv eerde
ĠB oe
Ġet n
ĠFran ce
Ġwein ige
plant ing
g ische
Ġprakt ijken
Ġinter face
ĠJong eren
Ġh il
Ġs ource
ĠEen s
oedd h
pp e
Ġop ruimen
ĠK ijken
w art
ĠKl anten
ĠKL M
ĠAl melo
ĠL ar
Ġgez ongen
el ie
Ġc osmet
over last
Ġteleur gesteld
Ġb ug
Ġro b
Ġvier kant
Ġspectacul air
Ġop maken
Ġmed aille
ĠC ount
ĠSant a
Ġuit wisseling
ĠNet werk
Ġproduc enten
Ġlast iger
ĠZ uider
ze m
ed itie
Ġuit l
ver houding
al on
Ġu t
Ġontwikkel aars
Ġtegen komen
Ġgemen gd
ĠG arden
Ġstap te
app ers
Ġopricht er
Ġged aald
ĠBre ed
Ġaf wisseling
beh oefte
ĠDem oc
Ġsy ste
h oeken
Ġdist rict
Ġn ier
Ġafw achten
Ġinzicht elijk
ens ion
ir aten
ond on
ik lin
Ġdiscrimin atie
Ġou derd
Ġaf leggen
Ġeigentijd se
Ġgeorganis eerde
G e
Ġad opt
Ġ if
Ġzorg aanbie
Ġimp uls
Ġb ran
Ġstop te
al istische
Ġbrood je
ug gen
Ġverste v
stell ings
ĠHou dt
s recht
Ġaange gaan
Ġkarakter istieke
ak elijke
jectie ve
Ġafwiss elend
C h
Ġsch ouw
wee fsel
ĠEen voudig
Ġaf halen
Ġf le
ĠTex el
Ġbev el
Ġer ectie
Ġstruct urele
Ġged ownload
l ines
Ġkon ijn
ĠCent re
ĠV P
aar sen
Ġom heen
Ġintellig entie
spl aats
sh of
ol ten
AR T
Ġgere d
Ġco unt
Ġm p
dra ger
ĠH ere
Ġverkocht e
Ġverlen ging
sc ode
Ġver gez
ob el
Ġtoeg ankelijke
Ġo om
Ġzijn e
ĠAl p
Ġaange sproken
Ġp aleis
ĠJans sen
ĠD ia
Ġ ^
Ġv ulling
Ġra zen
ares se
ĠH EER
ĠGG Z
Ġhart slag
ail able
aan tal
Ġbepalen d
Ġro of
Ġd aden
l ocaties
Ġoverb odig
ĠP eters
Ġfinanc iÃ«n
gev aar
ĠBi bliotheek
st ichting
ĠDen nis
ark eerd
Ġe y
Ġeeuw ig
ĠCura Ã§
B ritt
Ġj oodse
ĠK re
og d
aan wijzing
ĠR ing
Ġverd rag
Ġ" )
z al
Ġcompl iment
ĠOu der
Ġnabij heid
p orno
Ġr ib
Ġk inky
Ġverlie p
Ġab out
Ġisol eren
K S
Ġ' )
ĠSch iedam
ph one
Ġaanspreek punt
Ġinten se
Ġwebshop s
Ġbek ro
ĠNet flix
v uur
Ġboek ing
od ge
il ling
p rise
ĠâĢĻ )
ĠK ampen
Ġhard loop
Ġrec ensies
ĠWash ington
Ġvoor rang
Ġcan vas
gro ot
Ã³ n
Ġaange d
ĠArch itect
iot ica
ĠB aren
Ġstat ement
ĠL age
Ġaut on
Ġop zij
Ġc afe
end aal
on iÃ«
Ġartie st
Ġmen gen
Ġgest imuleerd
Ġbel ach
se d
Ġz onen
Ġm ess
c ker
op ter
sb urg
Ġverpakk ingen
ĠWilhel m
ĠB io
Ġec ologische
Ġs ou
Ġsp eed
ĠHeu vel
ĠH og
pen d
Ġgang bare
Ġgedeel de
Ġtoel aat
Ġpl assen
ĠTele graaf
Ġtranspar antie
Ġmann etje
Ġpot ten
Ġoverw eld
Ġabs or
ch ron
ĠP rijzen
he ugen
Ġgeslacht s
Ġmig ratie
eeuw s
Ġuit en
Ġhand tekening
int on
reg lement
Â ©
Ġover sch
T P
Ġz ucht
Ġporte feuille
k ol
ĠW onder
Ġmuzik aal
Ġslijt age
Ġrond reis
g ord
Ġbereik baarheid
Ġzw angere
Ġc iv
ĠB ach
ĠZ utphen
d oos
Ġc annab
t elefoon
en ergie
ĠM ind
t v
Ġg old
Ġge advis
Ġk ist
ĠG ames
Ġover gebracht
Ġaanwez igen
Ġlegend arische
ĠPool se
Ġcompens atie
Ġ19 00
ĠTim mer
Ġl innen
ĠHe in
Ġmast urberen
Ġz zp
ĠVerk oop
Ġg angen
ide e
Ġkn el
Ġkn ow
Ġt ast
ĠAut oriteit
Ġloun ge
ĠC M
Ġnodig t
Ġdert ien
Ġstat uten
Ġseg ment
Ġverantwoordelijk heden
Ġh ing
oefen ingen
ĠP in
Ġpaar se
ĠKrij g
Ġterrein en
land schap
jar igen
ĠD ru
Ġgesch atte
Ġeven veel
ĠHa ha
Ġy e
Ġcorrig eren
Ġgel iefd
Ġconcl ude
Ġantwoord de
Ġall ergie
zw embad
p re
Ġwereld kampioen
Ġpos ition
Ġversch affen
Ġeen zelfde
sche iden
Ġact rice
ĠB roe
Ġwed uwe
Ġpsych ologie
3 1
Ġgevarie erde
Ġd as
ijd rage
bl iot
ĠN intendo
Ġspring t
ĠTha i
0 9
ĠT osc
Ġvest igen
reg istratie
Ġwenk bra
Ġimm uun
ĠPrem ium
ĠSt ijl
ĠAr den
Ġb urea
pro bleem
Ġagr arische
ock et
zig de
ĠAv onds
ĠAma zon
Ġspont ane
ĠOnt werp
Ġmeren deel
Ġuitgang spunten
ĠLand bouw
Ġwagen s
Ġh as
ĠB ier
Ġaf gelegd
ĠS yl
vl oeren
Ġlij sten
Ġgerest au
Ġru iken
Ġaanger aden
ĠP ad
Ġonafhankelijk heid
Ġint ieme
Ġbeheer st
c i
Ġaanget rokken
Ġdrie hoek
Ġt enten
Ġhoof de
Ġz wee
ĠA ard
ha us
Ġkunst gras
Ġster f
ip e
he il
Ġverle id
t r
Ġin breng
ĠV M
ge erde
Ġnam iddag
ĠGe org
Ġom vatten
ĠK B
Ġopdracht nemer
ent w
z ige
hebben den
ett eren
ĠT ube
ĠZ iggo
ĠV ac
ĠLuc as
ee dt
ĠKort rijk
Ã¡ n
n omen
Ġpublic eerde
Ġre volution
pan eel
b onden
Ġrom antisch
Ġ= "
Ġsilic onen
ĠP H
ĠL ittle
h aalt
ĠM u
Ġ197 5
U UR
Ðµ Ð
Ġwint ers
Ġaf vragen
Ġc ilinder
Ġprem ies
Ġfull time
Ġk eken
Ġseni or
Ġform ele
Ġw im
r r
» ¿
ï »¿
Ġtele vis
a is
Ġuit laat
al ie
Ġbak ker
ĠN r
Ġex tern
ĠHu a
ĠD elf
Ġw oede
Ġneut rale
Ġ* **
Ġto ele
Ġbegraaf plaats
Ġbesp aring
Ġstroom t
he ad
Ġge plaatste
Ġvert oont
ĠB K
Ġon veil
Ġinteg rale
ĠP ure
op ol
Ġsp ie
Ġm asse
ĠRij pe
Ġverw aar
I ON
Ġperiode s
Ġhoofd stukken
ĠW A
Ġmonit oren
ĠHoog te
ĠgeÃ¯sole erd
Ġonver h
v y
Ġroy ale
am el
Ġkwal ificatie
Ġsubt iel
be schrijving
Ġbr un
and o
Ġleef omgeving
Ġleuk s
Ġc ity
Ġvier t
ĠM ET
Ġ198 3
Ġonder nemings
T B
Ġgep erson
ĠF em
Ġass istent
Ġwel vaart
ĠD icht
ĠO ss
ĠL oon
Ġsong s
Ġkl okken
Ġhar ten
Ġprie ster
ĠF en
Ġverl aagd
ĠN PO
Ġle vel
ĠC R
Ġmet ing
ĠV orm
Ġverd achten
Ġwezen s
Ġverwel komen
ĠOekra Ã¯ne
Ġverb azen
Ġ..... ....
ien nes
ĠKu ip
Ġuplo aden
ĠP ensioen
ĠKe vin
Ġuitge zet
Ġnabij e
Ġe sp
Ġbr oed
Ġverzam elt
ĠRoo sendaal
Ġnaad loos
b ach
Ġd urende
Ġvriend jes
Ġonder gebracht
ĠSec urity
ĠJ oe
l eten
ĠP ijn
wijz iging
Ġern st
Ġaankomen de
Ġfundament ele
Ġimplement eren
ĠK ad
ĠDigit al
Ġ12 00
sh ip
anne ke
ry sl
C ompany
Ġbutt on
ĠSp a
ĠHengel o
Ġbeg aan
Ġhuis jes
Ġuitgever ij
Ġtele com
p g
i enten
Ġaan wijzing
aas je
sch uld
m edia
Ġzorg v
ĠZ oeken
Ġsp raken
Ġg ist
bliot he
Ġp ut
n orm
elat eerde
Ġmag ne
ĠT abel
Ġdocument atie
geh ele
ĠR ac
Ġl obby
Ñ Į
iep ing
Ġnaar mate
Ġconcent reren
ĠK it
ĠKun sten
Ġben ut
Ġcons ul
Ġst ar
Ġgast vrijheid
ĠWill iam
Ġverle iden
Ġneg er
Ġverwar men
Ġaan nemers
Ġdynam iek
Ġvle ugel
Ġalbum s
ĠPier re
ĠG iet
ĠW ith
Ġoper a
ĠT oy
Ġf oss
Ġgl ijden
Ġapp els
ĠMe isje
Ġ!!! !
s oorten
Ġk achel
Ġdemonstr atie
rij dt
enn y
Ġeng in
r oren
Ġmee ge
Ġsymp ath
Ġwoon huis
ĠAdvoc aten
Ġaansluit ingen
Ġorganis eerde
Ġd iplom
f en
ĠJ um
Ġtoe slagen
ĠAm eland
Ġfunction eert
Ġbest rijding
Ġh akken
Ġ anten
Ġru ilen
Ġdim ensie
ore aanse
Ġcarnav al
Ġkle uters
Ġbinnen zijde
d al
ĠN EN
ĠR oom
Ġfamilie bedrijf
Ġmaat je
Ġdu el
Ġc rypt
Ġvoer ing
str alen
ĠLaat st
ĠT ar
Ġvoor genomen
ĠJ aren
m ars
Ġas falt
ĠO ma
Ġvoor ganger
ĠHeer lijke
Ġuitvoer t
ĠGesch iedenis
Ġtegen aan
kl ier
Ġs af
Ġwe blog
Ġboven al
Ġbewon er
ĠJ oris
Ġfi ctie
ol ine
Ġsl anke
ard o
Ġgezicht s
ĠK rist
ĠP aris
Ġdo zen
ĠDe scription
Ġmus ical
Ġgok kasten
Ġpil ot
b ollen
unt u
st udio
c ing
Ġvarie ert
Ġverm eer
get jes
ĠSt ock
o erk
Ġco Ã¶per
ĠO oit
wee kend
ĠM ah
Ġs etting
ĠS W
ĠVerwij der
stand igheid
m eld
I B
ĠHum an
h als
Ġvi agra
Ġsex contact
Ġin gebouwd
Ġle ent
Ġhor ec
be v
Ġgem erkt
Ġelast ische
ĠEx cel
Ġbe denk
ĠEm ma
Ġreg ist
ov a
ĠD agen
Ġprofit eert
ĠIsraÃ«l ische
ĠBrabant se
ĠOp merk
Ġvlak ke
ĠH O
Ġk rassen
Ġzons onder
Ġsloten maker
Ġgeact iveerd
Ġgesch ied
ĠJac obs
ilj oen
ĠIJ sland
Ġ11 5
Ġca o
Ġenerg iek
Ġgeh uwd
Ġdrink water
z alen
er ijen
Ġbestur ingssysteem
Ġinst ituut
ĠKl ass
Ġv rijk
ĠDigit ale
Ġmy th
ĠC ond
ĠJ ak
bl ijft
Ġklass ieker
Ġint elligen
gram m
ĠOosten de
Ġ Ñģ
roe gen
Ġvide oc
Ġopge heven
Ġle ase
meth oden
ĠH ann
ĠÂ ±
Ġgesch onken
Ġro uter
Ġgest ructure
ress o
oven de
Ġcont ant
Ġvol gers
steun d
Ġongev allen
Ġsch uin
ron ten
ĠW erkt
se weg
Ġuitger oepen
Ġhand doek
ĠbeÃ«ind iging
neem bare
Ġa merik
Ġgru w
Ġkru ipen
Ġmig ranten
Ġkort om
Ġpick n
ro o
Ġsec urity
Ġdro ger
Ġverwij der
Ġmeub elen
ĠT yp
Ġaankond iging
spart ner
ĠProdu cten
Ġ12 3
Ġreg ime
Ġin genomen
Ġblok jes
cijf er
Ġst repen
oog d
Ġfi les
Ġgede fin
ug h
kk ings
de erd
Ġbegele iders
Ġge index
Ġp oorten
Ġklein schalige
Ġverg unningen
vest eerd
Ġaf v
Ġger aken
ib le
Ġbescherm de
ĠJ oop
Ġbel oond
Ġonbe wust
Ġtoel ating
or iÃ«nt
meub elen
chn iek
Ġcadeaut je
ĠR E
ĠE c
ĠPriv Ã©
Ġonge d
iet je
ĠG olden
Ġgesp annen
Ġze ge
ĠâĢ º
Ġgeb lok
Ġcon versie
opdracht en
ĠStef an
ken ing
ĠKoning in
ĠO F
ĠMo ham
Ġp age
Ġwerk omgeving
ĠGebruik er
Ġcru ise
Ġn oot
Ġbier tje
B R
Ġk rok
Ġvernieuw en
Ġoverst appen
Ġrefle ctie
Ġkart on
Ġf onte
Ġinf l
Ġuit brengen
Ġp s
Ġbl ikken
markt en
Ġreferend um
ĠM oor
at i
verb od
Ġra p
ĠB ag
Ġgeg ooid
Ġgeregist reerde
Ġuitgev oerde
st ond
ran sport
Ġd ossiers
ort ing
ess el
Ġs int
Ġproduct iviteit
Ġv uist
Ġ'' ,
houds opgave
Ġerg ste
ĠCuraÃ§ ao
201 6
g racht
ĠBijzonder e
Ġwel be
ĠZ es
Ġe vol
ĠOb ama
te ams
Ġopst arten
ĠLimburg se
Ġbeg raf
ĠAfmet ingen
anc es
ort el
k achel
ĠRe izen
j obs
p age
Ġgev ulde
ĠUl tra
ĠEurope an
Ġpsych ologische
b uurt
sp oor
z ings
ven ster
ĠRu ud
Ġhorizont ale
le uk
ĠH on
ĠTra ining
ĠCol omb
Ġp ic
Ġverdw een
Ġop inie
k es
Ġverzam elde
c an
bij eenkomst
ĠPro te
ĠÃ¼ berhaupt
Ġgemeen schappelijk
ĠD ynam
n g
ĠN oorden
v ond
Ġball onnen
Ġwerkloos heid
Ġbrieven bus
richt ingen
ĠPl ant
Ġverwer ven
bor stel
ĠKar in
Ġgenees middel
aard igheid
ĠBouw jaar
kt akel
Ġ196 8
Ġvriend je
Ġproc essor
Ġal ert
Ġtoil etten
Ġbeste k
Ġun it
Ġachter laten
ins on
ĠEl len
ĠA OW
Ġzorgverzeker aars
Ġuit oefening
ĠN ed
ĠT a
Ġincass o
ĠD iensten
Ġfeder ale
ĠL ondon
ar etten
ĠK rim
Ġrecht spersoon
Ġsem i
Ġru we
Ġlie deren
ĠV ogel
Ġdaar buiten
Ġb onen
org aan
ĠMe vrouw
ĠContin ue
itu aties
v uil
d aal
ĠK ut
Ġbre ak
Ġbet onnen
T ree
put eerde
Ġfotograf en
Ġreiz iger
Ã ±
Ġsm al
clus ie
acc essoires
in houd
Ġrot terdam
Ġst ere
Ġh uurt
Ġstruct uren
Ġ197 8
b ast
uro ver
Ġzet els
bur ger
Ġb len
gt ijd
us den
ĠV II
ĠÐ ¿
Ġst agia
Ġopv ragen
Ġweb design
Ġorg anische
ĠI r
Ġre validatie
streek se
aag den
Ġj assen
af onds
pro vis
Ġgelijk tijdig
Ġzaterdag avond
Ġchauff eurs
Ġfysiot herapeut
Ġingewikkel de
Ġom schrijven
ĠF el
ĠMen g
Ġ12 8
Ġ17 7
Ġhe up
Ġprov iders
Ġindividu en
Ġgast heer
l anders
ol o
em end
Ġart istieke
ĠefficiÃ«nt ie
ĠGezond heid
Ġon volle
Ġsterk ste
othe ken
me den
l l
erem onie
ĠToe zicht
ĠÃ³ f
Ġwee g
p older
Ġal gehele
ĠSte ve
ĠInd iase
Ġregion aal
Ġ198 1
Ġperson al
ĠA y
Ġs ort
ĠVerk rij
Ġnegent iende
Ġsol ide
ĠB le
ĠAbra ham
ĠDe v
AT IE
ĠSp ring
Ġwaar genomen
Ġne ven
Ġpersonen auto
Ġon ly
Ġop een
Ġontb inding
Ġac ryl
Ġp res
entw intig
Ġreken t
Ġinzet baar
ol ing
Ġver maken
Ġhandh aving
huis je
Ġondergrond se
Ġexamen s
b orgd
Ġf riet
ĠN eu
ĠInf o
Ġt ag
Ġbedre igd
Ġkon ijnen
Ġver p
ĠFer r
Ġpark ing
v ier
Ġsch and
Ġvoer de
ĠD EN
Ġhuis kamer
aan deel
sp ieren
Ġperson age
Ġ11 2
Ġondernemer schap
Ġkn us
Ġzuin ig
Ġcent ra
gr im
Ġleer jaar
te k
Ġruim ten
ot je
er ver
Ġafwijken de
Ġkl onk
Ġcamp agnes
Ġge ass
Ġzonn ig
wet se
de coratie
Ġn ostal
Ġste kker
Ġb oll
w ets
Ġbij t
p oeder
Ġverspre iding
sk osten
Ġp aste
Ġopgev angen
Ġvl akken
Ġblok keren
Ġin acht
ĠW are
Ġmot iveren
j uiste
Ġalle daagse
ĠC ari
Ġcurs isten
Ġter ugt
Ġliefde s
ĠR oe
Ġhoofd kantoor
ĠB C
Ġk weken
Ġ+ +
ĠJ am
Ġv oc
ĠAd res
ĠTechn iek
Ġmeub ilair
ĠA uteur
aaf de
anc a
ĠAp ril
Ġintegr iteit
ĠIn tussen
Ġlij dt
bele ving
g eren
ĠKl im
neem baar
er ry
Ġred elijkheid
ĠE X
Ġcon dens
ron om
Ġvoor schot
ĠP O
u len
Ġ197 9
J an
ĠOnt vang
Ġborst voeding
Ġfabriek s
Ġleef de
Ġd rive
iel id
Ġburger lijke
Ġbe werking
Ġmot ie
Ġk aal
Ġrecht vaard
Ġvoor spel
Ġsch eep
Ġo ct
Ġprivacy verklaring
ĠX xx
Ġbeur zen
ĠB ri
Ġafsp reken
ĠDon ald
ĠR ick
Ġsc an
Ġk ermis
Ġim plic
ĠMed isch
schap en
ĠT am
cy cle
kw artier
onder steuning
ĠT iel
m aar
Ġh ockey
schrij ver
geb re
Ġp ract
k inderen
v akken
ĠP A
ĠS O
Ġst oren
Ġafsp elen
Ġst oten
open de
recht elijk
bl aas
s ers
ĠZ omer
Ġe qu
Ġj agen
gev at
Ġsl aaf
ĠÐ ²
ĠZwits erse
Ġform aten
Ġinteress es
ĠAn th
le eft
Ġr end
ic iteit
ĠVoor zitter
smaat regelen
ĠUit ste
Ġelektron ica
ĠP y
nem end
Ġzoek machines
Ġl of
Ġb oost
Ġsin aas
Ġover eind
sp raktijk
Ġjuist heid
F T
ĠChin ees
Ġbest aand
ĠO sc
ĠD ur
Ġhybr ide
ĠEn gin
Ġgewaar borgd
vak anties
ĠS ign
Ġop win
Ġvij anden
Ġinnov atief
Ġbeg reep
g elen
eer baar
Ġgevangenis straf
Ġafk oelen
ings wet
Ġman ip
res h
ĠN T
Ġkost prijs
Ġvergoed ingen
aa ie
ĠEx pert
Ġvergelijk t
Ġeett afel
Ġte elt
Ġhum an
9 5
ĠC atal
ĠSt a
ĠC N
zij l
Ġdaadwerk elijke
ĠA bs
riter ium
Ġalleen staande
ĠRen ault
Ġm Ã©Ã©r
Ġwerk ervaring
ĠM E
erk ast
Ġarrange ment
ĠW E
ok kel
ell ak
Ġgev raagde
Ġtradit ies
Ġev t
sproces sen
v ogel
Britt anniÃ«
ĠS ig
Ġop doen
Ġheil ig
Ġp ur
Ġaanv rager
ĠL ine
Ġverstand elijke
Ġar riv
Ġm uizen
gev ol
Ġkl oof
Ġhe ette
ĠC oll
ĠViet nam
Ġhand doeken
m bo
ĠOnt wikkel
part ners
Ġgew richten
Ġvat baar
is d
Ġinform ele
ĠB an
ĠM ode
ot on
Ġrazen ds
ort eerd
ull etjes
Ġann o
Ġgirl s
ver anciers
Ġvrijwilligers werk
ĠJo y
ĠBe ver
L EN
Ġgek wal
Ġbel oofde
Ġvere isten
ĠSu pport
p resident
Ġdoor gevoerd
Ġsp rekers
Ġbro ertje
Ġverk ond
ĠMich iel
ĠBlijk baar
se arch
ĠHooge veen
ĠEn ige
Ġinciden ten
Ġinst ap
ĠR i
Ġiv m
gele iden
ra men
prest atie
Ġverniet igen
ĠR ose
ĠSn ap
Ã¨ nes
Ġm art
Ġomgek eerd
Ġunivers um
ĠA st
Ġcom bi
stij len
Ġopl etten
m ont
Ġmoe iz
Ġinacht neming
Ġsp ijker
Ġmee maken
Ġgeh akt
schil der
ĠBo ys
ĠPers on
Ġbe et
u eren
ĠC all
ĠRo ad
Ġag ressie
Ġontle end
Ġhe ide
ĠC ra
ĠEst her
Ġuitvoer ig
Ġl ar
ĠIn vest
f ast
kom mer
Ġcontrole ert
Ġ(! )
Ġm essen
Ġvermeld t
ĠSt raat
Ġru ikt
ĠW is
Ġstij ve
Ġgehandicap ten
at ien
Ġcy clus
st oot
Ġgep akt
Ġbr ilj
r onden
Ġmedever dachte
um en
Ġ) )
Ġkol om
ag a
ĠVl aard
ĠBe auty
Ġproe ft
Ġauthent iek
ĠBlauw e
Ġstij gende
ĠV V
ĠA and
end om
st oten
Ġspe akers
Ġmisd aad
Ġkop iÃ«ren
ĠMari anne
Ġrits sluiting
ĠDe ense
ĠL ode
ĠFran sen
Ġgraf isch
rouw de
W A
Ġver over
ven de
Ġm arket
Ġic oon
Ġch in
Ġhe us
door n
Ġdoel punt
ĠNoord wijk
Ġge financier
or derd
ĠModer ne
Ġgeheim en
Ġall ocht
ĠUitgever ij
Ġpl ast
ĠRe den
mm et
Ġgeadvis eerd
h age
ringen de
Ġwiss elende
op ro
Ġkee per
v ia
ĠF u
re ens
Ġkanton rechter
Ġaller eerst
Ġbest r
Ġj l
Ġstr aling
Ġblog gen
Ġgemeente huis
Ġpol iklin
Ġw ay
Ġ ï»¿
ple et
Ġport ie
ĠS CH
Ġbetre den
Ġo blig
h ande
k oor
onie me
Ġz ui
ĠW iel
Ġbl ock
h h
l i
Ġeenvou d
Ġl ijk
Ġvoor handen
rom ingen
ic iÃ«nt
ĠT ok
ett a
Ġgel aden
Ġovertu igend
auw en
Ġvis um
ĠEcht e
isten te
ĠCol or
Ġd iÃ«
Ġiet wat
Ġde clar
Ġbl ues
Ġzorg verleners
Ġacht ste
ak i
Ġaan le
ĠR io
Ġd uiden
verb aal
ontste king
Ġd oods
Ġre ading
ĠT ol
per centage
commun icatie
er ve
Ġged ood
ĠOp merking
Ġzuiver e
Ġv als
ĠP ra
Ġaanb ouw
Ġsem in
Ġaanvullen d
g oten
Ġtro ost
Ġonder vinden
Ġdriet al
Ġtot stand
ĠJ es
Ġtwee Ã«n
ĠH ee
Ġzwaar te
Ġon juiste
ĠWat t
Ġzijk anten
Ġre k
houder ij
Ġcl ient
Ġl int
ir s
ĠÂ Ń
v aar
Ġsm ooth
arte menten
Ġoptim alisatie
ĠT S
ĠM ill
Ġbenoem ing
u iving
Ġst rekt
st an
ĠGe Ã¯n
ĠSp ir
ĠP M
ĠScheven ingen
Ġkeert je
Ġmo sk
Ġvolst rekt
Ġie ders
Ġfre el
Ġchamp agne
ĠP ok
Ġinspir erend
Ġ196 0
os m
Ġerot iek
Ġger ing
ĠHua wei
Ġc ro
Ġople ggen
Ġbereik te
Ġsl ank
Ġscheids rechter
in tegratie
ĠO ct
Ġsp ijs
Ġlaw aai
j am
ĠLu ik
Ġbest uderen
Ġverwij dert
Ġsh ampoo
ace ut
ĠH TC
ĠS em
Ġbek leed
deren de
Ġverd ragen
0 4
Ġaf zuig
Ġhand boek
Ġdeskun digheid
Ġdem o
aut oriteit
Ã¢ n
Ġint iem
Ġdemoc ratische
h orn
spre ker
ĠK as
ĠG eeft
r ikt
c ke
Ġsle pen
fact or
ĠLeer lingen
Ġaard gas
Ġli quid
ĠC amb
t hop
B N
ig erd
0 2
Ġin woner
Ġj ust
Ġh avo
Ġh ee
he u
Ġfe b
Ġtom aat
v r
ĠL oc
ĠSing les
an on
P ro
Ġadvert eren
Ġtab blad
Ġst ellingen
Ġcontinu Ã¯teit
Ġgelov igen
Ġom gaat
B E
Ġkruis ing
Ġgesch ieden
ĠK unt
Ġb aat
P A
Ġvertrouw elijk
Ġperiod iek
Ġrespect eren
gro otte
Ġovernacht ing
ĠG og
ĠAn nem
ĠPalest ijnse
Ġinle veren
ĠAl hoewel
Ġhartst ikke
ĠVer w
iter atuur
Ġwereld s
Ġdiscip line
ab els
Ġbegrijp elijk
Ġmonument ale
ĠWil de
schak eling
Ġgemen gde
Ġpap rika
ĠCh r
3 6
ĠYou tube
Ġb oze
Ġcol or
Ġvier ing
Ġvan g
aller y
Ġ19 50
Ġcre aties
Ġst aken
it im
Ġ196 9
Ġverk ozen
Ġrij d
Ġbl aadjes
Ġsex film
ĠA le
Ġcontact eren
ul pen
Ġlaag drempel
ĠProf ess
ĠThe Company
ĠTheCompany Tree
Ġkor tere
be vestiging
ac ao
Ġaangev allen
4 8
ĠG oe
Ġbenad rukken
ĠSlaap kamer
s oort
ĠHal f
Ġaant oon
0 6
ĠP unt
Ġgroot schalige
Ġmot ief
Ġver ven
ĠVoed sel
Ġv ries
Ġto ere
Ġb ass
ĠE L
Ġv aders
Ġnot itie
un ter
ĠBal i
Ġziek tes
ĠCh ic
b uilding
g olf
IJ N
Ġeen malige
Ġsur in
f les
Ġf ut
special isten
Ġb aten
y bal
Ġuit le
Ġaan sluitend
ĠHeer len
Ġplant aardige
ĠD aan
Ġt s
Ġfaill iet
ra ject
ing se
ĠIn tel
Ġle deren
Ġeen heden
ĠVolle dig
Ġon regel
Ġverbouw d
Ġsp ee
Ġp aren
Ġkost te
red acteur
Ġhel den
Ġdoel punten
bal ans
Ġontste king
P C
Ġw id
Ġel ite
Ġg amma
Ġhand elt
Ġ197 6
ĠMer c
Ġor th
ĠA rie
Ġz weven
Ġkind jes
Ġaan houden
ĠO pl
ĠM aakt
aand am
d ay
ĠM ix
ab iliteit
Ġvermen ig
Ġz end
zend ingen
ĠSing le
Ġst oep
Ġat mos
Ġzelf moord
Ġdat eert
ĠSy steem
W est
Ġbuiten wereld
Ġbre uk
mom ent
n oot
Ġambul ance
utt ers
Ġneut raal
Ġpunt je
Ġnat ur
Ġkijk ers
ĠNoord zee
Ġverz innen
Ġsch u
gev olge
Ġbik ini
ra ining
rest eerd
Ġmot ieven
ĠSp el
Ġouder wetse
ĠKe y
ĠÐ ¸
Ġoverle ef
M W
Ġchar me
ĠMaat schappij
Ġbedrijven terrein
ĠS ir
ĠCook ies
Ġom standigheid
ak els
Ġcontact persoon
ĠX box
yp es
Ġeet le
ĠV D
Ġtegen komt
ĠPart ners
iere cht
Ġk we
s ma
h onden
Ġstraf baar
ed y
Ġexcurs ies
p ese
p aden
av es
Ġdraag vlak
Ġsex dating
Ġbev onden
Ġpl uim
Ġverzorg ings
H ertogenbosch
Ġfunction aliteiten
ĠP il
k rij
Ġm aa
ĠHeer e
Ġbasis onderwijs
ĠFijn e
is ion
ingsver gunning
ĠAntwerp se
ber ry
ĠB ast
ĠK eer
over dracht
Ġbak je
Ġover gebleven
or i
b uff
ra ppen
Ġreken ingen
Ġver werk
Ġrij en
Ġviru ssen
ĠGe heel
ĠU RL
P D
be kleding
onder neming
ĠO x
Ġverv elen
ĠK roon
ter ras
Ġbl azen
Ġvers ieren
ent eerde
prof ession
ĠV ent
Ġverniet iging
ĠD uid
Ġsn or
ne veld
ant iek
Ġzogenaam d
Ġverwarm d
Ġde fect
ublic aties
Ġko zen
Ġdu ivel
ĠG esp
Ġpakk etje
opt ies
ĠVerk eer
Ġwoon den
Ġf alen
mer ing
ĠM ann
Ġlate x
u sten
instru menten
Ġwandel aars
u euze
Ġvorm de
Ġun der
Ġopt reedt
n ota
Ġpro staat
Ġwee fsel
ĠL EG
Ġink open
Ġfinanc ieren
ou ds
Ġacht eren
Ġstier f
ĠB L
ĠChrist ian
Ġgeloof s
Ġbe ssen
meub el
anal ys
ĠL ake
Ġp ups
ole ster
Ġasiel zoekers
Ġfl u
ful ness
ĠD uin
Ġj r
besp aren
Ġvrij gezellen
ĠPost bus
way s
Ġonder st
ĠK racht
q uis
os h
Ġwij ten
ĠAN P
Ġindire cte
Ġbrun ette
Ġp y
Ġcomp ositie
Ġbaar moeder
Ġaanv aardt
Ġb ots
Ġachter aan
ĠMiddel burg
Ġd rast
Ġplaat ste
ĠS ov
ĠH ind
ou le
Ġverb ruikt
Ġarrange menten
Ġse k
Ġont binden
ĠgeÃ¯n vesteerd
in y
c ium
Ġachter gelaten
b ell
ĠD ra
Ġfeat ures
ras h
Ġon w
ĠRu ben
G en
Ġcre d
Ġde ad
ĠÃ ¢
isc us
Ġnakom ing
Ġnation aliteit
Ġp ag
Ġkerst boom
Ġ Ã³Ã³
ne ur
Ġbel uisteren
ple ging
Ġged et
ĠY e
Ġwat ersport
ĠK V
ĠEn ter
Ġexc uses
Ġhelder heid
ĠLand elijke
Ġanal yt
Ġdr inkt
Ġv wo
Ġ.) ,
Ġb dsm
ell ings
Ġp it
ĠSt an
ar l
Ġtoe geven
Ġselect eert
Ġmiddel grote
Ġbev rijding
Ġwarmte pomp
Ġad apter
Ġvoorbe houd
m aster
Ġweig ert
Ġstu c
ĠG raf
sb rieven
ĠC ase
Ġon d
Ġuit sch
ĠN ord
Ġrond borstige
Ġwiel ren
Ġgrond ige
res erv
Ġg ooit
ĠGu y
ze f
de ed
Ġal om
ĠKN VB
Ġhand vatten
Ġsn ow
ĠP interest
Ġgew ap
Ġgep aste
Ġdrupp els
Ġverle ent
ĠK aart
Ġgeconstat eerd
Ġeigen aars
Ġl ifestyle
ver z
Ġvl otte
Ġvroe gtijd
Ġte zamen
ĠVe cht
Ġthuis zorg
Ġvliegt ickets
spl ant
Ġdou ane
Ġ? .
Ġro s
wonen den
Ġafw as
kl as
ĠPart ijen
Ġdiv isie
G O
Ġwij zer
Ġkennis geving
ul pt
Ġdes gewenst
Ġgene zing
gew one
Ġlanc ering
Ġbezicht igen
Ġh uil
ĠbeÃ«ind igd
ig heden
Ġhier uit
l im
eloos heid
ad oor
Ġsp ek
ĠW ood
Ġsamen v
ĠT C
stro ok
ram p
Ġontwikkel aar
Ġvis ueel
s ign
6 9
Ġmosk ee
ĠR od
Ġval uta
Ġpitt ige
ĠB oy
Ġsch ijnen
Ġri ol
Ġwh is
ĠTh ijs
yr ight
ĠOnt wikkeling
Ġex otische
Ġvl oerk
S p
Ġch allenge
d raad
Ġkie zers
ĠLand elijk
Ġwe kken
Ġp ompen
f rag
ĠAgent schap
ĠB uss
itu eerd
Ġafge zet
Ġ13 5
ĠÃ³Ã³ k
ĠAl pen
Ġgecon cent
ĠSport s
ĠR oemen
Ġmo dus
Ġachter een
Ġecht paar
ĠAan melden
me st
Ġre sten
b elt
Ġmee brengt
s nede
ĠD et
f ig
O osten
Ġg oden
ĠL ow
Ġkleink inderen
ĠEventu eel
Ġverdien de
ĠF R
Ġopmerk elijke
Ġk itten
Ġkont je
Ġonbe w
ver ij
Ġboek houding
ĠGG D
Ġp ikken
out ing
Ġdruk werk
ĠP resident
ĠWat ch
oe ders
Ġle en
Ġuitge komen
Ġ197 7
ag h
ĠH elen
Ġet appe
beheer sing
Ġuit rusting
De al
m ap
Ġbest eedt
Ġsp anningen
ĠGeme enten
Ġspe aker
sp oren
Ġver zetten
Ġprik kel
ĠG ijs
Ġc ast
bru ggen
aken s
Ġprec ieze
Ġesc orte
Ġsn ell
im edia
hoe ve
ĠSt rand
Ġgebruiks vriendelijk
Ġrechts bijstand
Ġste entje
Ġbegraf enis
ent rum
Ġmoeilijk heden
uk aart
Ġwer elden
Ġvers ierd
Ġsche uren
Ġbew eert
Ã¯ st
ĠK ook
ĠSn elle
weten schappen
Ġverv oerd
Ġmass ief
Ġgenomin eerd
vou d
ĠPort uge
ha vens
Ġs orry
zi atisch
Ġchal et
Ġ197 2
Ġkap per
Ġschrijf ster
auff eur
Ġbal ie
0 7
sp at
Ġreal istische
ĠForm ule
nel heid
Ġfietsp ad
w ich
Ġsoep ele
Ġs etje
d oelen
Ġt urn
ĠV U
a ise
Ġk raa
ĠD oen
ĠK oper
ĠM Ã¼n
Ġbestuur slid
Ġgeh alte
ĠTal ent
sem ble
Ġip hone
Ġinvester ings
Ġmin isters
Ġkalender jaar
Ġsu pers
Ġcrimin aliteit
Ġon kruid
Ġsp am
Ġspons oren
ĠA ugust
Ġto eren
Ġverw iss
Ġautom obil
ĠMo z
ĠRijs wijk
ĠAf beelding
Ġgewe igerd
Ġsch utting
ĠIn n
q ui
Ġ19 20
Ġk ras
Ġuit je
Ġwij zig
Ġover gaan
Ġs we
Ġk ick
Ġtheor etische
Ġmis ver
Ġbuiten af
nem ens
ĠIn ge
m ag
Ġwh at
Ġwereld ber
ĠSh ell
Ġspeel s
Ġh bo
pt ische
kleur ig
Ġcur ator
k ader
Ġk us
Ġgevorder de
Ġ197 4
Ġbeelden de
Ġaf gevoerd
iz z
Ġzonsonder gang
Ġvl inders
ĠP os
n ingen
skun de
Ġtro f
Ġbu igen
Ġle ken
ĠB esl
Ġaange steld
Ġmor ele
ru ck
B B
us sy
Ġhand vat
Ġwe ide
ar iÃ«rs
Ġschol ing
te ch
ĠPr int
Ġverd ie
Ġcamp ings
ĠAd obe
ĠF ar
Ġverwarm ings
Ġbas ic
ĠL il
ocht ans
ĠAn aal
ĠJuni or
Ġwinnen de
ĠF A
m ijnen
Ġtoe gelicht
Ġlang ste
Ġprem iÃ¨re
Ġaanbe steding
Ġge per
Ġleiding geven
ĠR oze
Ġo ur
ru is
Ġsch etsen
ĠJo zef
Ġversl aving
Ġp iep
Ġkonink rijk
Ġbeh eert
Ġinsp ire
Ġ197 3
ĠN eg
0 3
Ġgek leed
ĠY v
Ġna leving
Ġklin ische
Ġvoor nemen
Ġrep et
Ġres ident
ĠFil ip
ĠK ool
ĠU K
ĠL ijn
O n
Ġeen zaamheid
Ġcadeaut jes
Ġf at
ĠZ om
Ġk oorts
ĠMar io
m s
s feer
Ġgoedkop ere
l ink
ĠT eken
p alen
ĠN eer
Ġer kent
ĠVal ken
Ġgal erij
Ġselect eer
Ġnederland s
st aart
Ġneder laag
Ġmethode s
ch a
ruim ing
ĠÂ §
Ġklin iek
ĠK aap
Ġzen ders
Ġdie genen
Ġtw eeling
ĠW eert
ĠAl f
Ġvel gen
oe ide
ĠWhats App
Ġkinder kamer
Ġprofit eer
conc ert
ĠBern ard
ĠR v
ĠA udio
Ġf ix
Ġwer ven
ĠMe ub
Ġget reden
Ġonde u
Ġgast vrij
ĠVer antwoord
ĠPas en
Ġbeschad igingen
Ġverminder de
Ġben aming
Ġadequ aat
Ġk ogel
Ġhe use
Ġcompl imenten
Ġm aker
ĠL oo
Ġschud den
ĠF r
Ġl oge
Ġpu ber
sl ijn
Ġtest ament
ĠGe k
Ġverle gen
gebruik er
Ġgem acht
rie sland
Ġger uchten
aver nij
Ġsch em
Ġkap itein
Ġachtt ien
ĠL ijst
ĠJ O
ilis atie
Ġbe komen
ĠK asteel
Ġmonte ur
t im
Ġover dekte
be ker
its ing
y on
Ġad ult
old aat
Ġaange st
ĠS outh
B L
Ġp oint
Ġbij draagt
ĠA ank
Ġarbeids voorwaarden
ĠL P
ĠR ou
Ġl ullen
ĠSch akel
ack ers
Ġgroep jes
Ġgew oond
ĠTe kst
Ġbloem ist
ĠA x
Ġge stemd
Ġmagne et
w all
ĠW omen
Ġstr aalt
or kest
Ġb aai
Ġpar el
Ġbeschermen de
Ġleven dig
st udenten
Ġ10 1
ĠH ow
Ġuitzonder ingen
Ġzoveel ste
Ġpak je
Ġevalu eren
Ġzonne bril
ĠH ang
Ġwor ld
erm at
Ġl oy
ĠJ ol
Ġtwijf els
Ġsch ijven
Ġst elen
Ġzeld zaam
Ġinsp ecteur
il ers
ĠA H
Ġkeram ische
Ġfl y
Ġvracht wagens
ĠS H
str aten
Ġbedrijfsp and
Ġvert aal
ĠRome inen
Ġvrouw tje
ĠSe ptember
Ġass oci
Ġinvest eerders
ĠSand ra
k ist
l ichten
ĠN K
Ġre pl
ĠA I
ow ers
ss ituatie
Ġaan zet
sluit ingen
Ġge steund
Ġ, .
Ġv ieze
ĠDon ker
Ġopge sch
k g
Ġkn uts
Ġbe er
ĠC J
Ġz orgel
sp rekers
over schrij
Ġpen ning
ok ke
d rank
sch ijf
vol king
ĠCB D
ix el
te kst
h agen
Ġgeform uleerd
Ġteken s
mom enten
Ġten en
Ġkunst matige
G raven
ver antwoord
Ġheft ige
Ġd ay
Ġl acht
de skundige
Ġvers us
ĠL ady
f ood
Ġvocht ig
aam de
Ġb oor
Ġbe ach
re y
Ġgek ookt
Ġaf slag
Ġher vorm
ĠV ond
Ġsch imm
ĠH uizen
ĠPar ad
ĠS erie
ĠAf stand
Ġonn odige
Ġdash board
min istr
Ġvan ille
Ġsm eer
ĠM uur
Ġd id
Ġaanm oed
ĠPost NL
iz ers
ĠZe ist
Ġlicht jes
ĠJe ff
Ġaccept atie
Ġstre aming
Ġexcurs ie
ec e
Ġzen den
Ġdro p
ĠA wards
Ġg or
d ouche
Ġh ut
Ġcarnav als
Ġj ac
ĠSm ith
con ferentie
ab o
ĠAl i
Ġoneind ig
ĠOr de
ĠN aakte
Ġmo le
Ġverw oest
Ġtwintig ste
ĠV elen
ult urele
Ġpl ace
Ġrecht ers
ĠVerkrij gbaar
Ġhoriz on
r ich
ĠcoÃ¶rdin ator
Ġarbeidsongeschikt heid
an ie
b t
v illa
Ġb ollen
Ġbehoe ft
Ġneer zetten
Ġbasis scholen
ĠSch er
ĠF otos
act erie
Ġb ijn
Ġonro erend
Ġmee geleverd
Ġstem t
ĠS ales
Ġsp a
Ġingrijpen de
ĠCanade se
Ġ196 7
ĠBinnen landse
at ure
ĠBru in
ĠC AO
Ġvar ken
ĠDe kker
ool s
Ġherinn ert
ĠG h
Ġhotel kamer
sn iveau
ĠD raag
ĠMar y
Ġtol er
Ġk roeg
ĠL isa
Ġsn acks
Ġr im
Ġph p
Ġcruc iale
Ġvoor gestelde
8 8
ĠD anny
oe zie
Ġgloed nieuwe
Ġrelax en
Ġnabij gelegen
ĠVictor ia
Ġverl os
ĠDuur zaam
ule erde
Ġout let
ĠConc ert
Ġgev els
Ġhulp verleners
ui le
Ġtoezicht houder
ĠcoÃ¶rdin atie
Ġcontain ers
ib et
ĠV ar
Ġsoc i
ĠH E
Ġinfl atie
ost aat
lie den
ree uwen
Ġv een
ĠW oerden
Ġgemeenter aads
Ġsch uren
b oten
autom aat
Ġgedetail leerd
Ġafle veringen
ien e
ĠTra in
ĠToel ichting
Ġind iase
Ġbereken ingen
ĠF ro
ĠArden nen
Ġcharm ante
h eren
Ġvoor kom
ĠP el
L im
ĠSch rift
ĠGe f
STER DAM
m eren
t eren
Ġon tere
Ġcl ips
ĠTim es
voor stelling
ĠB ah
rie m
Ġwoon wijk
Ġb achelor
ĠS orry
e ven
Ġij sk
ĠZ iet
abon nement
oe slag
Ġg y
ĠTelefoon gids
Ġbel de
ĠD own
Ġzwij gen
Ġport retten
ĠF ront
or er
ĠPart ner
Ġb ul
Ġro mp
Ġhy drat
Ġp aas
ĠSc ience
Ġk aders
iet y
ĠSim pel
Ġjaar verslag
Ġuitgest rekte
Ġsens oren
Ġsch eeps
Ġber ust
ĠE vent
ĠOpdracht nemer
Ġin it
Ġvl am
Ġbewerk stell
Ġverzoek er
ĠD og
ĠCari b
ĠD ier
sp lein
Ġsk ige
Ġgeweld dad
an ch
M P
Ġgest orven
ĠV iew
Ġdiam ant
Ġparas ol
Ġbuur vrouw
Ġhuur prijs
Ġbro m
Ġbot ten
Ġen velop
ĠSar ah
ĠB ell
Ġvibr ator
ĠAanv ullen
ize d
Ġboter ham
ĠAM STERDAM
Ġkleur rijk
Ġwer pen
ubl icatie
id iscipl
ie ds
Ġin stel
w is
Ġerv arings
I Z
Ġkl anken
Ġval lei
enn ers
Ġgaat jes
ĠMult i
Ġcannab is
Ġaandu iding
Ġprogramm eren
Ġkr alen
Ġcon vent
ĠFl ash
ĠL ink
Ġneg eren
st ruct
Ġwind ows
Ġmijn e
ĠVl oer
Ġgereed schappen
ĠM ak
Ġdoorb reken
Ġmyster ieuze
Ġdoor sn
Ġopger uimd
Ġger uim
kk ingen
ĠT L
ke d
Ġl y
ĠK y
Ġverw end
Ġindustrie el
Ġterm ijnen
ĠInd ische
Ġuitdagen d
Ġfet ish
herap euten
Ġvoor dracht
201 5
Ġkut jes
ĠL ag
Ġwoon ruimte
Ġspecialis atie
aute uil
Ġter reur
Ġgra an
ar me
ac a
ĠM ama
el ig
over n
Ġfil men
Ġ( )
kl ap
IE UW
unct uur
Ġma y
Ġren overen
Ġbloot stelling
U K
Ġdat ac
Ġopl aad
Ġtotstand koming
ĠOu dere
Ġb ind
Ġherken bare
Ġpost ers
Ġ197 1
Ġruim en
Ġondersteun ende
om i
Ġw end
Ġzo enen
ĠPet ra
Ġc row
ig ranten
Ġupgra de
Ġopzeg ging
ĠAss oci
ĠD j
ĠLekker e
Ġschoor steen
c ed
Ġm uts
bliothe ken
w ell
Ġan onieme
ĠDoc ument
ĠMiddel landse
Ġdonderdag avond
om a
gere den
Ġbek ost
Ġlim burg
ĠH TM
Ġge optim
ff ingen
ver gelijk
Ġuitwiss elen
ath an
Ġpers bericht
ge sloten
orte ur
iz igers
ake hol
Ġfel icit
op per
se g
Ġgen oot
V ER
Ġbelach elijk
Ġdirig ent
zijd ige
ĠSt raf
i ram
ĠK ab
Ġver bergen
urover eenkomst
Ġact iva
ĠAP K
c s
Ġv iool
Ġonder uit
Ġdeel tjes
ic il
S E
Ġer door
ĠMe i
ĠRe view
Ġvoorst ander
Ġwaar toe
ĠL O
Ġb ilj
Ġiemand s
waard elijke
Ġget oetst
Ġverschijn ing
spl annen
Ġont kennen
ĠHall oween
Ġt ric
ĠFin land
and y
Ġt illen
vaard ing
W O
ĠH onden
AG E
Ġbez ittingen
Ġop zeggen
ĠL eeft
Ġst en
ĠLa uren
Ġprint s
ĠE euw
voor schriften
n as
ĠZ oo
ĠMon ique
Ġimport eren
Ġgister avond
ĠDire cteur
ĠNov ember
ant se
Ġgere cycle
Ġsp ulletjes
film d
Ġwoon achtig
ĠOp nieuw
ĠG L
akt ers
ĠVer halen
ic eerd
Ġonmiddel lijke
Ġonro erende
ist offen
gesch oten
Ġcorru ptie
Ġd uwen
com merce
gr id
Ġonder goed
Ġval k
Ġaf druk
Ġpe sten
Ġleef stijl
Ġdoor brengen
ĠBro wn
Ġambitie uze
ĠAD HD
ij sten
Ġver duidelijk
Ġbijzonder s
ĠVrij will
begele ider
r atisch
pp y
Ġro oms
Ġop namen
ĠE sp
ĠVeen endaal
Ġuit werken
m ie
Ġkoff ers
Ġp alen
u v
Ġgebouw de
ĠGel oof
ĠChar l
Ġsh irts
ĠV est
Ġ196 5
l ander
Ġrecht streekse
rag on
arch ief
Ġm it
appar aten
Ġvin yl
Ġle erm
ĠK h
omm un
Ġexper imenten
ud o
ĠCh rome
Ġgeb ak
Ġgok kast
Ġuit schakelen
ĠJ im
Ġvert ol
ĠInsp ectie
Ġparoch ie
Ġpad den
Ġgev oeld
ĠSe a
Ñģ ÑĤ
Ġbeveil igen
Ġcorresp onden
I CHT
Ġe ver
dra ul
Ġhem els
igheid s
duc eren
oe il
I ST
ĠD ik
Ġcode s
Ġover komt
Ġz ad
ver schil
Ġfir st
Ġj ungle
Ġ, '
Ġhuis vrouw
Ġbek n
rek ingen
Ġopen staande
Ġbas ket
ĠJ ones
ĠW IL
Ġgeb it
Ġverlen gde
Ġt eller
Ġtien de
Ġk eerde
Ġop rit
bl oemen
Ġopen lucht
Ġacc enten
Ġrobu ust
Ġvreem deling
Ġbroe der
Ġm akelaars
c ategorie
Ġaf gelegen
n r
Ġcomplex iteit
Ġl ow
Ġgel ieve
Ġrot sen
ĠM agn
ite uren
Ġform uleren
Ġsp rint
Ġprivacy beleid
Ġge fl
ĠLeeuw en
ude er
Ġz ussen
ĠVolks gezondheid
Ġsch omm
Ġzo chten
ĠKl achten
Ġgeblok k
ĠK euze
Ġaller hande
in eerde
Ġb id
ĠA ri
sp reken
Ġbl inde
ĠSn eek
oo le
ush i
Ġsu ikers
ĠApp artement
Ġoe ver
p annen
Ġvuil nis
Ġambacht elijke
Ġeng elen
ĠP K
at iÃ«
ic ure
h oot
Ġsens uele
Ġt act
Ġbestuurs leden
Ġst ruiken
6 7
ĠH erv
or ia
Ġg ad
ĠHar der
on ica
Ġschol ieren
Ġker el
cont ain
t se
ĠM ade
Ġte pels
k ind
Ġf ont
Ġk athol
Ġt racht
Ġin get
atie ke
ĠEconom ie
Ġop komen
Ġs he
Ġtoepass elijke
Ġtrac ks
ĠBe schik
Ġaangek ocht
dire cteur
Ġstand aarden
Z uid
Ġvan ochtend
Ġp ond
ĠOnder nemers
Ġtop kwaliteit
Ġtest s
Ġpix els
aad pleegd
Ġr und
Ġvergez eld
Ġpil oot
Ġl elijk
Ġfl its
ĠContact gegevens
Ġk ne
Ġm Ã©t
Ġuit sluiting
Ġocc as
ĠJ ou
st ri
ge wijs
ĠZw em
Ġ196 4
a ert
ĠH aan
Ġsch aap
Ġv aas
Ġcertific aten
Ġvervang t
Ġinst alle
Ġaardbe ien
Ġr itten
Ġj pg
Ġople vering
Ġ18 00
ĠEx tre
ant je
Ġm asc
Ġnaa ste
Ġind rukken
vaard igd
ĠG ang
Ġontmoet ingen
Ġwerk zame
arch itect
Ġgebre ke
ĠR U
Ġpar ap
verd ieping
Ġbeh art
ĠI ris
Ġbew ol
Ġgepl akt
book s
ĠO ceaan
Ġgelukk ige
met ing
Ġterugk erende
Ġvoor nemens
ud de
5 5
Ġbewust wording
AN T
gemeen te
Ġverl ichten
uz zi
Ġaanvraag formulier
ĠC ust
Ġkamp eren
ĠEnerg y
4 2
ĠP s
Ġgr iep
camp agne
ĠIn houdsopgave
ette s
ent oon
G Z
an istan
ĠM eg
we d
ĠAustral ische
Ġb aard
ĠConne ct
ĠZ aan
Ġw omen
of oon
Ġonder ver
Ġpot entie
Ġl ik
Ġhand s
der obe
ĠG S
Ġz wer
Ġteleur stelling
duc atie
Ġakoest ische
techn ieken
ill ingen
Ġbeschad igen
H E
Ġbel eeft
Ġi ct
st yle
Ġ(âĢ ľ
Ġet her
Ġraad zaam
ĠDetail s
Ġa del
h ot
Ġp uin
ĠVlaard ingen
Ġaf stemming
Ġint rig
Ġzorg den
Ġaanget ast
alt y
ĠC hem
Ġru ss
wee kt
Ġmech an
Ġqu ote
ĠGeweld ige
ĠN or
Ġonder handelen
el p
Ġgesch rift
Ġsignific ant
Ġdiv idend
sp ositie
ĠS ara
uch on
ĠGog h
Ġbevestig ings
Ġform ulieren
te d
Ġgeruim e
ĠB D
ish ing
ĠR apport
Lim burg
ĠAr th
Ġw ik
ĠAv ailable
Ġf o
Ã ¸
ĠZ aandam
Ġaccess oire
Ġjong etje
Ġwat eren
Ġbijge houden
Ġlesb iennes
Ġgra p
Ġal hoewel
Ġdos ering
ĠSp eed
Ġkl appen
ĠGriek s
sp an
Ġvaria bele
ĠN ote
Ġbele mm
Ġtentoon stellingen
ĠMos kou
Ġr enners
Ġvis u
Ġthr iller
sm useum
ĠP oort
Ġeerst volgende
ĠHolland s
ĠW assen
ĠChrist elijke
Ġpre stig
ĠHit ler
ĠRand stad
Ġspecial istische
Ġoverhem d
pers oneel
Ġgew as
Ġbesp reking
m erend
ĠG oes
Ġbed roeg
Ġact u
Ġk aak
sp ring
w i
Ġge grond
ĠSt rip
ĠR D
Ġwonen de
Ġdus danig
gel den
Ġpens ion
Ġnatuur steen
Ġlekker der
Ġsig aretten
Ġsn appen
ĠCath arina
ĠJac ques
Ġb oy
Ġpl ot
Ġtoepas baar
ĠB udget
j u
Ġd oeken
ĠL A
Ġin tre
ĠBezoek ers
oven d
ĠT antra
ĠDe ut
lief hebber
Ġp oos
ĠIn g
c risis
Ġwillekeur ig
Ġstad huis
Ġbru isende
ĠD R
Ġwonder en
ĠE y
Ġbe wegende
Ġtussen komst
Ġspre ker
Ġweek je
Ġserv ies
ĠHom o
Ġinternet verbinding
Ġsch aar
ĠH orst
Ġregen t
Ġinter ventie
Ġst ick
her stel
itt ard
ĠF S
Ġi T
ruk king
Ġcontin ent
Ġform atie
ĠE ast
ĠW ay
ĠFir st
g al
Ġintelligen te
Ġde als
Ġzon es
Ġdruk ker
ic aties
Ġpolit icus
Ġver veel
Ġf air
Ġover dekt
Ġk week
draa i
Ġgep ol
ĠAN WB
ĠStart pagina
ĠDoor n
Ġparall el
ĠInter ieur
ĠB oot
Ġk olen
Ġzw aard
Ġin getrokken
Ġb amboe
ĠV IP
Ġparkeer gelegenheid
ĠPor sche
Ġopen heid
Ġstand punten
Ġbo ard
a es
oor deeld
Ġst yle
Ġtoets ing
Ġl aars
Ġeeuwen oude
ro oms
ap ore
Ġoog t
ĠDaar op
f outen
ĠG ec
Ġl ady
0 8
Ġdoor slag
Ġrecht spraak
ĠÐ ½
ĠN M
ĠV iv
Ġgod delijke
Ġgef eliciteerd
Ġe cho
Ġdoor bl
ĠSch ade
Ġfac etten
ĠO ld
ĠEr n
atch er
Ġg mail
Ġgene igd
we ar
Ġouderd om
Ġletsel schade
Ġf os
Ġuitgek ozen
Ġsc annen
Ġgez w
ac on
us ion
r ine
c urs
ge in
ĠKro atiÃ«
Ġverkie zings
Ġverb randen
Ġkn al
Ġonzicht baar
ĠâĢĻ âĢĻ
Ġleven se
ĠSpec ificaties
Ġomgek eerde
Ġfact ur
nis sen
Ġuit keringen
Ġautom atis
ĠH erken
uden t
f i
Ġverschijn sel
Ġwat t
Ġcontrol ler
om eter
ĠKem pen
Ġon tevreden
c ams
h oor
Ġbi ografie
fac iliteiten
ĠMeer dere
Ġcommand o
ĠVre de
Z eeland
ĠAn ale
al eren
instru ment
pl us
Ġzul ks
all ige
te x
v ari
ĠZil ver
d op
itie me
oes em
Ġvitam inen
sb eek
Ġnieuw kom
ĠWik ipedia
Ġ antie
Ġverw ond
Ġtegen woord
d iploma
be werking
ĠE sc
ĠR K
Ġuitger uste
ĠM akkelijk
6 4
Ġbe ugel
Ġp igment
Ġbroe ken
I ES
Ġt amelijk
ĠSe bast
ul ine
ss on
mp eld
Ġmob ile
Ġn ie
Ġwijn gaarden
Ġopv atting
Ġstr etch
Ġcont ributie
ĠAn im
Ġsp eer
n ooien
b ier
ĠD w
Ġaan zetten
k raan
Ġterug betaling
Ġhoog uit
ĠS oft
Ġproduct ies
ĠHor eca
ĠGew icht
Ġricht ingen
Ġgefinancier d
Ġl oep
Ġkar akters
ĠSpec iale
Ġonbep aalde
Ġte werk
ouw e
ĠP U
Ġongel of
Ġd ad
Ġt rie
ver schillen
Ġp illen
Ġleu gen
ĠCategorie Ã«n
ill ers
Ġdicht e
ĠAct iviteiten
Ġform eel
ĠD ans
ĠN l
wat ch
ĠCh allenge
re dig
orn uis
Ġs en
beste ding
Ġvrie zer
ak a
Ġbe ffen
ĠintuÃ¯ t
Ġvreem delingen
ĠE D
Ġbebouw ing
Ġhe ads
Ġtra mp
Ġintens iteit
ĠE ssen
ĠMe iden
ĠSchot land
Ġbre dere
Ġbekw aam
ĠDub bel
Ġ10 4
Ġvertegenwoord igt
ĠL is
Ġpraat je
l oo
Ġor ders
su pp
Ġraakt en
Ġsl avernij
ĠK W
Ġst akehol
Ġsl ots
wet geving
Ġkost baar
cent r
Ġbless ure
ĠâĢĻ :
Ġop neemt
f amil
Ġbezuin igingen
Ġl ost
ĠF ocus
Ġbelasting dienst
Ġhe kel
ne kk
Ġonvermijd elijk
Ġstof zuiger
Ġst ief
ĠNog maals
oen ing
Ġad d
Ġjal oers
sp ar
Ġon gere
z ang
Ġacc ur
ĠIb iza
ĠKe izer
Ġvoortd urende
Ġbesp aar
ĠV uur
os ium
av iljoen
Ġcoach es
Ġwaarb innen
ĠBit coin
Ġge dat
ĠT y
at oe
Ġk oren
spro f
Ġaud it
Ġbev rijden
Ġd ys
Ġc ell
Ġverk opers
s amen
Ġkat hedraal
Ġtoeschouw ers
ĠI erse
P oint
Ġstr ik
ĠPop ul
reg n
Ġcy ber
comp etitie
Ġdeel tijd
l os
Ġp oetsen
ui ze
Ġbew aken
st one
Ġher roep
Ġvervuil ing
m assa
ob ile
Ġsch ets
Ġmotor rij
Ġkerk elijke
Ġver zen
c rÃ¨me
Ġst rekken
Ġgit arist
Ġerf enis
Ġconst ru
Ġa kker
Ġ16 8
c us
ĠL um
ĠAchter hoek
wend ige
Ġwint erse
gem akkelijk
Ġverd uur
Ġw eld
Ġwar mer
ill y
pakk ing
Ġgedefin ieerd
Ġp oes
wen sen
H e
Ġgerecht elijke
iden ce
6 8
ĠA re
ĠBeg ele
ĠB oon
Ġe b
ĠKle uren
b uren
Ġsex chat
Ġgesl apen
m alen
ĠE vangel
Ġvervol gd
ors ele
Ġb out
Ġfab ric
Ġklimaat verandering
oet e
Ġn ylon
Ġre de
Ġgemot iveerde
Ġk ado
uni vers
Ġabon n
Ġk aarsen
zeg ging
K orea
m aanden
Ġsch ors
m g
Ġambassade ur
oe stel
ff ect
Ġv aardigheid
Ġversch aft
Ġfietst ocht
Ġver overen
ger elateerde
Ġhen gel
ĠLode wijk
Ġorganisator ische
Ġtoen eemt
u ik
orm ulier
es is
Ġmo vie
Ġgere g
Ġbev rijd
ĠEx p
Ġade men
ĠS ven
00 3
wijd ing
Ġident ificatie
Ġon ru
Ġloodg ieter
ĠBrazil iaanse
re es
Ġlaptop s
prest aties
ĠDuur zame
ind eling
Ġgedrag s
Ġfascin erende
Ġhe vige
Ġmag n
am ingen
Ġsch reven
Ġzint uigen
Ġer onder
wor kshop
Ġpsychiat rische
Ġover win
Ġb ochten
ĠT oegang
Ġm iste
b ok
ĠMul der
ĠQu een
ĠEigen dom
ih i
p ompen
Ġc rit
re sten
ĠN IEUW
rien ds
Ġdienst verband
ĠDe fin
d ru
ĠCas a
ĠV irtu
Ġprobleem loos
Ġben a
af spraken
Ġsch aatsen
Ġo x
ĠGe west
Ġt att
Ġvl oog
Ġantie ke
ĠX P
ĠVer vang
Ġprodu kt
ĠKat wijk
od atie
ĠAfgh anistan
pp ro
Ġfl ash
Ġh oorden
p u
Ġverv uld
gel uid
Ġi Deal
combin atie
ĠN am
Ġmarkt plaats
Ġcrimin ele
il les
ĠK v
ĠTr io
techn ische
ĠZ eeuwse
it eerd
h oge
Ġbed oelen
Ġac ute
ĠLeid se
anc o
ĠG ooi
Ġabs ur
Ġeduc atieve
ĠK offie
Ġbinnen komst
inder ing
Ġgest ort
Ġop d
ĠT urn
Ġher kend
ang st
Ġsecret ariaat
Ġra uwe
ĠS MS
Ġment or
Ġpomp oen
Ġbuiten lucht
ven ant
l ot
Ġinsp elen
Ġb ise
Ġbe sten
ĠVal ley
Ġtra uma
Ġbe ken
ĠD orps
ĠZ ul
ĠD D
Ġbij gedragen
ov o
ien d
Ġbl aden
Ġstam men
ĠMar g
Ġrazends nel
iment atie
an st
os oof
Ġteken t
iel and
ĠP ack
Ġmen stru
Ġhyg iÃ«n
Ġcade aus
ĠInnov atie
ul lingen
Ġg sm
Ġz onden
Ġvre zen
ĠLEG O
sy n
der nis
Ġr ie
Ġh elling
pro v
Ġma chin
ĠT R
Ġwed den
reken ingen
ĠC orpor
Ġspra y
Ġuitge drukt
ĠFun ctie
Ġgl itter
Ġgrond water
Ġgig antisch
Ġgeindex eerd
Ġlab els
zicht ige
Ġop getrokken
Ġrechter lijke
Ġleg itim
ĠPol y
ĠB oeren
over s
Ġwel komst
Ġgeh andeld
Ġafval stoffen
off ers
3 8
Ġle sm
Ġaan een
ĠCombin eer
Ġherken ning
al iter
Ġbez ochten
ĠR oll
Ġtoe gestuurd
ĠR iver
Ġsolid ariteit
Ġges ign
Ġ25 00
m il
kl in
ĠMe ijer
schad uw
Ġch olester
Ġlich amen
waard elijk
Ġm ank
Ġinter rac
Ġge iten
Ġinst eek
Ġbe voor
Ġon beh
ĠgeÃ¯ m
Ġwer kend
ĠHem el
ĠV E
let iek
Ġrac isme
ĠDeel nemers
ĠGemeen schap
Ġna z
Ġsche p
Ġeffectie ver
erse y
ch ange
i ater
Ġbeeld houw
ĠJas per
Ġsnel heden
Ġinge stelde
Ġse par
Ġinfra rood
Ġautover huur
ĠT oepass
Ġh oo
ĠBe ij
el bare
ĠA ction
ĠL ed
an us
Ġfacil iteren
lo yd
ĠOC MW
n etje
Ġbew aart
Ġsc Ã¨ne
che ster
Ġ. ;
ĠAnt woord
Ġgesch oren
alt a
c eel
duc eerde
ĠG rijs
al i
Ġet age
ĠD U
l ers
Ġaf ronden
Ġl ist
Ġprevent ief
Ġonsch uldig
Ġmass eren
i res
ĠD iv
Ġbese ft
Ġgebruiks aanwijzing
ouver neur
ĠM es
Ġmet al
ĠOsc ar
Ġab stra
Ġdi ffer
Ġan ker
Ġz aag
Ġeind eloze
ĠVal k
ĠP ant
ĠB eelden
Ġb ull
Ġkap it
Ġlekk age
ber ts
sl ijst
ĠNoor se
7 7
ri um
ine zen
Ġopge wekt
Ġneer gelegd
ben en
ĠOl den
el o
if er
Ġhorizont aal
Ġbe kennen
Ġko ele
Ġgroot st
Ġk et
ĠArgent iniÃ«
Ġf ax
Ġsk iÃ«n
Ġorg ie
d ragers
Ġkop pen
Ġomgev ingen
Ġkinder dag
eem se
Ġd aalde
pens ioen
Ġbelang stellen
Ġcade aub
bouw er
och em
os a
Ġbinnen landse
Ġon ont
verh oging
un ie
ĠO og
Ġbet rof
ĠL uister
Ġconfigur atie
Ġnag ellak
Ġban anen
Ġcom pro
ĠHen ry
Ġwoensdag avond
bro w
Ġzom erm
it em
Ġboet es
Ġkond igde
Ġkw ast
g rijs
ĠV ir
ĠSh ar
ĠW mo
Ġveel bel
ĠSte m
ac comm
sluiten de
Ġbehouden s
ĠK i
Ġru iten
ĠT ony
ol er
Ġwereld oorlog
Ġgeprijs d
Ġment aal
Ġterror isme
ĠUr ban
Ġlig ht
Ġdoorb raak
ell ow
Ġrealis eert
Ġthuis be
ĠWoon kamer
ĠO L
Ġhard nekk
pl afond
Ġnieuw sbrieven
Ġbeant woordt
ĠSch oenen
Ġuitvals basis
ĠL iving
Ġvakkun dige
beh andelingen
ĠC aro
Ġse p
ĠR C
ac ademie
ĠN iels
Ġimmuun systeem
Ġz gn
ĠSk ype
ĠNieuw ste
ER E
Ġmus ic
Ġuitge zocht
ĠO ef
Ġstra ffen
vru chten
ĠD ark
Ġmaat st
Ġdr iek
it us
Ġdoor ge
Ġbor der
Ġpant y
yl l
L AND
Ġon ger
sco ach
in iti
ĠSer ver
Ġna re
Ġaanv oelen
Ġinkomsten belasting
ĠG un
Ġanal oge
Ġsollicit eren
ĠreÃ« le
Ġop kn
Ġlief ste
pare erd
Ġw olf
ĠB ie
ĠSchil der
ĠDec ember
ĠIn schrijven
Ġpoliklin iek
pap er
Ġwandel t
kant oren
ett ings
Ġlunch en
Ġuit gelezen
ĠTra dit
Ġonderbouw ing
ĠFreder ik
ĠKle ding
w ogen
Ġges itueerd
er aal
ĠSt or
Ġleg aal
osc open
Ġuitvoer ings
Ġdoor st
ĠP P
ib el
ste am
Ġmil de
Ġop e
ĠN ut
ĠVl issingen
ĠF ris
Ġc r
beheer ders
dt im
Ġge schapen
ĠCub a
Ġopge groeid
or ial
Ġpr enten
ik opter
Ġgr ind
Ġbeschouw ing
Ġbis schop
ĠN E
Ġk ron
i ams
ĠGe il
Ġkennis sen
ot isch
Ġdre iging
ĠG SM
ĠVerk l
Ġprioriteit en
ĠKer n
colle ge
Ġall round
ĠP raag
uit stoot
ĠS ong
oge en
Ġsp ul
ĠOnt bijt
Ġv d
Ġsle ep
Ġprec isie
Ġer ed
Ġw raak
ĠGar antie
Ġwaar nemen
Ġadministr atief
Ġc lose
Ġ22 5
rysl Ã¢n
Ġnauwkeur ige
Ġthe aters
ett elijke
in ch
Ġsnell ere
water staat
Ġonder tekenen
Ġ.âĢĻ âĢĻ
yc ling
l opers
Ġ10 9
sp rak
ĠB es
Ġbouw de
ĠT OP
ĠBrit ten
dem oc
Ġk ooi
rik ant
ĠV od
T e
i kend
Ġx x
Ġcontrole er
Ġhoek je
Ġgedeel telijke
Ġparkeer garage
ĠO kt
get rouw
Ġwinkel wagen
Ġmag ie
Ġonder meer
Ġkle den
Ġc our
ĠD orp
ĠUit gang
ĠgeÃ¯nt im
ĠVeiligheid s
Ġachter in
ĠNeem t
Ġhoor n
Ġf asen
Ġhorm onen
Ġspel regels
b lem
g oederen
Ġaanvaard ing
w orp
ĠOn ge
ĠAv ond
ĠInter ess
Ġschak elt
Ġg ooi
Ġst ip
Ġongewen st
Ġverhuis de
ĠAnder zijds
buff et
Ġ> <
Ġspijs ver
on isch
Ġvloei bare
ĠD im
Ġaan winst
ist entie
ĠPl at
ĠDan ce
Ġ14 5
ĠSy rische
ĠSl ow
lie d
Ġecht scheiding
ve y
Ġmat rassen
Ġk ikker
tra ject
g i
ĠR ozen
ec o
ĠGen ees
vriend elijkheid
Ġbar st
w andeling
Ġgener aal
ĠRec ent
Ġverb ind
Ġover weging
Ġveren igings
Ġmee werken
del s
Ġinter venties
Ġconst ructies
bo de
ĠReg ering
Ġre search
rel aties
Ġverdriet ig
Ġste ile
ĠIndu str
ĠProf iel
ĠT ai
ma ge
Ġuitstap jes
ale er
ĠChamp ions
Ġmisl ukte
Ġgebruiks gemak
ĠBelang rijke
Ġverkleed kleding
af spraak
ĠSn ij
Ġversch ijns
ss ysteem
Ġdome inen
Ġo t
Ð ²
ĠRuim e
Ġn oe
ĠBB C
Ġwoning corpor
Ġaanbev eling
Ġpitt ores
ĠRuss isch
Ġst allen
ĠPer u
Ġkonink lijke
Ġbeleven is
ij gen
ĠNieuwe gein
Ġsn ijd
Ġ10 8
Ġang sten
Ġverwij t
Ġeen d
Ġmult idiscipl
Ġgepass ion
ĠS ittard
ach ine
Ġillust ratie
aa ier
Ġon duid
3 9
v c
l of
Ġdurf de
as i
Ġbord uur
Ġcogn itieve
s oftware
gro ene
Ġbedien d
Ġuit gaat
l ights
Ġelekt ra
ialis me
Ġoor bellen
ĠBo urg
ĠDub ai
ĠToy ota
ĠArth ur
Ġvoor treff
g irl
Ġzorgv uldige
Ġverschijns elen
Ġrel at
Ġauteurs recht
ru il
ĠZ H
ĠS in
ĠJan e
ĠAl len
Ġv aten
Ġperc elen
Ġtab ak
Ġred ding
Ġacadem ische
Ġ... "
ĠV v
Ġver pl
Ġdess ert
eu ge
Ġjeugd zorg
Ġge gener
gel de
ĠVre emd
Ġover wegingen
Ġb oeien
Ġgew richt
Ġv aag
ĠT u
ro ductie
perk ing
Ġgewij zigde
ĠToe v
ĠC ees
gro und
Ġbel icht
Ġe e
Ġnacht rust
Ġkort ste
ĠC ob
Ġrecht op
Ġonge kende
ĠR ik
Ġdok ters
Ġver gemakkelijk
Ġduister nis
Ġs ab
Ġsc ene
Ġcal cium
Ġschoon gemaakt
ĠWillem s
Ġorden ing
Ġinz am
Ġstem pels
Ġban aan
ĠHoll ywood
Ġd armen
3 7
Ġpap er
ĠCle an
get reden
Ġuit stel
Ġd aders
ar g
Ġoog punt
Ġwaarschuw t
k ost
z ag
ut sel
Ġcomp ilatie
Ġvoordel iger
ĠN AS
ass o
ĠKen merken
ĠcreÃ« er
doc umenten
Ġte goed
ien ne
ĠF ox
Ġlangs komen
ograf isch
ĠD in
Ġdra ger
at om
m olens
Ġment aliteit
ĠP im
Ġoper eren
Ġl ongen
mat igheid
ĠAl fa
Ġinter im
ĠF al
c uit
Ġsn apt
ĠIndu strie
Ã¶ n
ĠW orden
Ġle kken
zek erd
Ġtext uur
Ġin leg
Ġgen en
Ġkr ingen
Ġf al
Ġb ieren
Ġbron s
Ġber ucht
gl ans
Ġcon vers
Ġbesp reekt
Ġfysiot herapie
Ġin een
besten dige
ĠModer n
ĠC MS
od ox
Ġi i
rie zen
Ġantib iotica
houden d
Ġdinsdag avond
Ġu ien
ore x
Ġinb oedel
Ġbe ek
ĠIn deling
sc en
le id
Ġkle p
gor it
ĠBe denk
ĠG es
Ġvrij en
Ġblad zijde
Ġvern oemd
Ġont g
Ġopge hangen
Ġbelang hebbenden
Ġvervangen de
ĠDan iÃ«l
ĠâĢĿ )
school se
p eel
Ġboek jaar
Ġij zeren
Ġbed ank
Ġraads el
Ġverpleeg kundigen
Ġuitn odigen
Ġpen nen
Ġreger ings
ĠVrij wel
Ġwaarschuw en
k king
ĠOl iv
k it
ĠK ost
Ġeduc atie
Ġafge wisseld
Ġr oem
Ġaf zet
Ġf rit
ĠI d
Ġsm akelijk
AN G
Ġaf rekenen
Ġhorm oon
ĠPar am
ĠA ru
Ġgan se
Ġprestig ieuze
ra cten
Ġuit gaande
ĠNe xt
sver lies
ĠWest land
ru sten
Ġbez orgt
be wegingen
ĠC F
ĠPiet ers
Ġw iet
ong eren
ĠF ruit
Ġhou se
ĠAn deren
mak ings
Ġkl etsen
ĠH ay
Ġaan ste
Ġged iplom
waar der
W e
b udget
Ġwat ert
th ese
ele ment
ten sie
Ġpl ukken
ĠK eulen
ĠLie ver
Ġbinnen land
Ġmantelzorg ers
kl ist
ubsid ie
dro ger
brug ge
Ġop maak
Ġdeel genomen
be kw
ĠJ en
ier t
Ġverm een
Ġamateur s
Ġvle ug
ĠLeeft ijd
stra ject
ĠPo sted
Ġhu urovereenkomst
Ġfrustr atie
Ġl iving
Ġmacht iging
Ġdier lijke
ail les
Ġpresent eerde
ĠVan zelf
ĠHarder wijk
Ġafsp eelt
z uiver
k in
Ġopzet telijk
OR D
Ġz uig
Ġbud g
Ġonder nomen
ĠIn grid
ĠMach ine
ĠM all
Ġver oordeling
verst rek
ĠJ un
ĠP rakt
4 1
Ġu k
Ġrand je
Ġsch eren
ĠComp uter
In d
Ġbl u
ĠAtl ant
ĠFant ast
Ġavontuur lijke
Ġrond lopen
b ussen
Ġatmos feer
ro oster
Ġfac ul
Ġkat oenen
gevol g
ĠcafÃ© s
Ġvermeld ingen
Ġoverzicht elijke
ge me
Ġzu ivel
Ġst anden
ĠB uur
ĠW a
Ġz usters
Ġplatte grond
Ġaan voer
Ġs ize
Ġsl ijm
Ġinh uren
Ġgesl oopt
Ġeen duid
Ġpij pt
Ġgemeente bestuur
Ġfol ders
Ġit al
Ġmill imeter
ell ers
sterk te
ĠG ras
all ers
Ġged uurd
ro se
ĠThe ma
Ġbel gie
ĠVeg as
ĠOpen bare
Ġbl ouse
Ġu trecht
Ġk oord
ru cht
erk erk
z aakt
Ġbord je
Ġtoegankelijk heid
Ġomgev ings
Ġsne aker
Ġontspannen de
Ġ19 14
Ġvernieuw ende
Ġ194 8
Ġst roming
Ġmed io
ĠG elijk
Ġdem ont
ĠSol utions
Ġpro tot
ĠAanv ankelijk
ĠSing apore
Ġpedagog isch
Ġbless ures
Ġleer zaam
Ġsche pping
Ġsamenwerk ings
lie p
ĠE co
ĠRicht lijn
Ġbrouw erij
Ġz ielen
ĠSov jet
ĠH aak
Ġa rab
Ġperiod ieke
Ġblog post
Ġim pos
ĠT her
ĠOver leg
Ġversn ellen
Ġg rachten
ber gt
Ġsucces sen
erm in
ĠOu den
bel ast
ĠChristen Unie
Ġkle intjes
itu te
o les
ch ain
Ġon gelijk
ĠB EL
spro cedure
Ġslag room
Ġonderbouw d
ĠT omm
man agers
lem ma
Ġdekbed over
ĠVer warm
Ġvolwassen e
eter a
ĠHier op
ĠValent ijn
ĠA sh
OR M
ĠLang zaam
Ġopt ische
ĠLa w
Ġzen uwen
code s
ĠA K
Ġopst art
ĠEventu ele
Ġinv als
af one
ĠvariÃ« rend
ĠD ream
Ġw ax
Ġvak bonden
ul f
eu vre
ĠSec ret
Ġstik stof
ĠGesl acht
Ġbe macht
Ġpanor am
Ġdoor gebracht
Ġopt ioneel
ĠF ol
ĠRy an
agen da
ĠP oet
Ġfamil ielid
i qu
ĠW es
sp e
Pl us
Ġho sp
y o
Ġouder wets
c ken
Â »
st ract
ĠV alen
ĠVoor lop
ĠR oute
Ġmag nes
ett y
fun ction
Ġverw ant
ĠV VV
Ġmy st
ĠSo und
Ġheu pen
Ġho stel
Ġop geleide
Ġgar derobe
Ġamb t
Ġbl ow
Ġzon wering
Ġb oeg
Ġst aaf
Ġbro k
ĠJon gens
Ġbemiddel ing
Ġbestuurs recht
Ġzo danige
ĠBarb ara
Ġgal erie
Ġcal am
del ige
Ã ¥
Ġnatuur gebieden
ĠOnder werp
Ġmoest uin
advert enties
ĠSp e
Ġoverb odige
ĠRijks waterstaat
ĠL yn
ĠHe ide
Ġmonte urs
ĠVer st
Ġgebruik ten
Ġzondag middag
Ġverh uurd
Ġautom atisering
Ġde e
voor de
Ġu sb
ĠJ oke
Ġ196 6
Ġver slaan
Ġmet sel
ĠHen ri
ĠMede werkers
ĠI ke
ĠF ietsen
Ġopzicht en
Ġd olf
h aak
cent ages
Ġobst akels
Ġe ist
Ġuit zetten
ĠSt uk
Ġsu ite
ĠBox tel
Ġverle ende
Ġb oren
sch oots
ĠPrins es
Ġte kende
ĠL ut
Ġru ige
Ġe zel
ĠBre ak
ĠC ON
ĠT rend
Ġdes ondanks
Ġw onnen
ĠU IT
ĠZuid oost
Ġaanv oelt
Ġdier bare
ĠSte ph
Ġintroduc eert
ĠP E
Ġsier aad
Ġt ub
Ġge al
ĠiP od
f its
Ġb ont
Ġwat ers
Ġonverm inderd
Ġbek leding
ĠDatings ite
Ġaan merk
ĠL it
ĠVer a
Ġmagnes ium
ro b
sc ontrole
Ġzomerm aanden
Ġfl uit
pe ctie
Ġdi lemma
Ġlad der
ĠC T
Ġsp ar
Ġhalf jaar
ĠGent se
Ġdel ic
ĠP uur
Ġgro etjes
Ġgl orie
Ġgespre ks
H O
te kens
ĠJum bo
Ġknuts elen
Ã ®
ĠS oest
Ġwen den
Ġkl itten
ĠPers onen
ĠBl onde
Ġverz w
Ġdecor atieve
aan val
Ġonbe g
Ġ15 5
ĠAl t
Ġv atten
Ġmeer prijs
az ijn
ĠL iss
leeft ijd
Ġmult in
Ġsuggest ie
Ġhe ffing
Ġgr and
Ġtelefon ische
Ġdep artement
Ġbem anning
ĠiT unes
ĠAd vis
ex amen
Ġmar ine
it eld
Ġrot onde
p rik
Ġpl afonds
Ġmilj arden
Ġbon ussen
Ġam us
Ġopen lijk
Ġmonit oring
Ġvriend inn
ball ers
Ġkwest ies
Ġspoor weg
Ġsp ins
ran e
ov ing
ĠHTM L
ĠO d
Ġmiddel eeuwen
ĠFl oren
Ġversn elling
ĠP alm
ĠoriÃ«nt atie
Ġresult eerde
Ġp alm
DE AL
ĠS R
ĠAF M
il eren
un ingen
ĠDes ondanks
ĠB ok
Ã¨ res
ĠWor kshop
m i
Ġblack jack
ĠSp ace
chn ologie
Ġknel punten
ĠM oon
Ġzal ig
Ġs mer
ĠV int
Ġsp elling
ĠEdit ion
Ġaan geleverd
Ġintern ets
ĠG ord
Ġsecund aire
ĠR as
webs ite
k as
Ġdoor gang
Ġpitt ig
or ium
ĠVanzelf sprekend
Ġbesp reekbaar
Ġexc uus
ĠD ries
Ġg idsen
Ġ400 0
ĠAl ice
Ġwenkbra uwen
Ġbed rukt
Ġte weeg
Ġop hang
Ġuit pakken
ĠHa w
ite ur
Ġdoorlopen d
Ġh ul
ĠS ha
ĠWal ter
Ġb aro
ĠT and
ne uzen
sk racht
Ġproductie proces
autom aten
v ries
Ġlopen d
ij pt
op breng
ĠBe etje
Ġbuiten zijde
Ġb oeddh
ĠP AR
ĠMarkt plaats
ĠWh at
Ġruim schoots
ĠS hemale
ree pt
7 2
P al
Ġtegen deel
ĠSol ar
Ġem mer
Ġte ef
Ġben ch
ĠBe iden
Ġ196 3
ĠProvinc iale
Ġspe ktakel
ĠVit amine
uld igen
d own
in ema
ĠAal st
ro ze
Ġvakantie woningen
Ġbev red
ol is
Ġbetw ist
ĠAbs ol
Ġin door
um es
Ġo ld
Ġprob eerden
Ġvol waardige
bep aling
Ġmar gin
Ġmee sle
Ġstr ips
ĠP oint
Ġb oe
Ġnar c
ĠSe arch
Ġte ch
Ġst okje
Ġhen nep
ank ing
Ġover brengen
ĠRoemen iÃ«
Ġaut os
Ġmar ge
Ġover loop
con cept
ĠV ene
Ġkantoor ruimte
Ġ194 2
ĠOostenrijk se
Ġ19 30
Ġliefde volle
Ġuit val
Ġoverwegen d
ĠT afel
Ġspir aal
keur de
Ġgeg oten
uk i
d ossier
Ġbet rapt
Ġjaar gang
Ġrelatie gesch
ĠAngel es
ra ce
Ġgeass oc
Ġout s
Ġstakehol ders
ĠG ig
Ġsch ier
r t
Ġb h
ĠGre at
ank a
ĠCit ro
Ġill usie
f ers
ĠN er
201 4
Ġbal ken
ĠW andel
od el
Ġverb ieden
Ġdr ang
Ġpast oor
ĠEH BO
Ġp iste
ĠFerr ari
ĠF NV
ĠO lie
Ġvol ken
Ġweg gelegd
Ġz ink
Ġwinkel tjes
kopp eling
Ġstrateg ieÃ«n
Ġtabl etten
ĠP roef
Ġhouden d
Ġgec or
Ġsyn droom
Ġaantrekkelijk er
Ġconfront atie
Ġmon sters
Ġcertific ering
ĠWeten schap
Ġuit gesteld
ĠN C
lin ks
Ġgeblokk eerd
stal ig
Ġfab rieken
St ation
ĠB un
leg ger
ĠE v
ĠO ce
Ġcrimin elen
stellen d
Ġbl ank
á »
{ "
Ġwij de
Ġasp er
re de
ĠKl ooster
ĠZw embad
Ġfa una
Æ Ĵ
rank rijk
Ġf ract
ĠNatuur lijke
Ġ6 50
Ġk uur
Ġvol staat
ĠNederland sche
Ġge esten
ĠT T
gel eerd
ĠColle ctie
Ġverst oord
ĠSex date
Ġaf weging
ĠL CD
z out
Ġe indt
Ġversl eten
Ġsl angen
ĠT ay
Ġinstru cteur
kl ass
Ġdom me
Ġvervol gen
Ġra uw
Ġtele fonie
m aten
treff end
ĠK ris
Ġob jectieve
ge heugen
Ü ³
Ġsch elen
Ġgeh uurd
sl anden
ĠÃ©cht e
ĠAft er
sc ont
Ġgarn alen
ĠN aties
Ġfarm aceut
Ġvoor schrift
Ġtussentijd s
Ġjal oezie
Ġsh oot
Ġrecht erkant
Ġw es
ĠTur ks
b onen
sch rijf
Ġkenmer kende
ĠCons erv
heim er
ĠBro od
Ġtegemoet koming
ring t
Ġvoor doet
Ġconsult ant
ĠAr ts
ĠJul ia
Ġm un
ĠP rix
ĠB ow
Ġpel grim
Ġkrist al
ĠC amera
ro os
Ġre v
Ġchrist endom
Ġreport age
Ġaang ren
Ġaccept eert
ĠW out
Ġk raak
Ġgerestau reerd
Ġdoor gaat
Ġq uiz
ĠPortuge se
zet ter
chn ieken
ĠS pl
Ġvoet gangers
ĠGed rag
Ġt ja
oo dt
over eenkomsten
Ġstappen plan
p sych
Ġaf geven
Ġo euvre
cul atie
ĠG all
Ġafge k
ĠP rest
sp aar
Ġwe kker
ad ig
Ġdesign s
oe stellen
z ones
Ġt rachten
ĠR GB
ĠN ab
ĠÃ¨ n
Ġk oeken
Ġaft er
Ġcent er
Ġh anger
ken baar
ĠW enen
Ġadequ ate
ĠP ublic
re ctie
ĠTsjech iÃ«
Ġge in
oord elingen
Ġtoe staan
Ġtr ig
Ġwaar naar
ĠL er
ĠGirl s
Ġsl ing
mod ule
Ġsch akelaar
Ġim age
am an
Gen eraal
Ġpenning meester
Ġrechts zaak
Ġbev ond
Ġl onen
Ġpannenk oeken
ĠTe xt
sn aam
Ġdef ensie
ĠH ab
ĠV oel
ic ip
ĠA W
is ering
Ġdoel man
ail y
ĠMag ic
sc omm
Ġsp oelen
EL IJK
ay er
ĠSamen vatting
ve d
ĠBeat rix
ĠMoham med
st on
ĠS au
Ġeen zaam
af druk
Ġbehoor de
ĠW auw
ĠPur merend
Ġmail s
Ġsynth etische
u eerd
Ġbesm et
ĠB em
actie k
ĠL inden
ĠN iks
ĠD erde
ĠSh are
Ġgeautomatis eerde
Ġmat te
p reventie
Ġmult ic
om ot
oft en
Ġdru ppel
je b
alis eert
Ġtro tse
Ġbena deelde
Ġbew ogen
Ġkon ings
Ġsp ouw
Ġest h
ateg or
Ġarch ieven
ĠG aan
Ġb a
Ġstads centrum
Ġgebruikers naam
n u
Ġdoorsn ee
Ġverwij zingen
ĠWilhelm ina
ĠL uk
ĠM oze
Ġkeram iek
heu vel
Ġzit hoek
ĠPro test
ĠResult aat
Ġker nen
Ġkal f
Ġhe f
Ġcab ine
io den
Ġst rijken
Ġfun d
Ġre us
Ġafle veren
ĠH andel
Ġdeb ut
Ġ!!! !!
Ġonder stel
Ġelast iek
Ġschoon heids
ĠSoph ie
ĠDoet inchem
len s
Ġkook plaat
over y
Ġim provis
ĠS ix
Ad visor
Ġontbij ten
ĠMe ppel
Ġcl own
Ġkennis makings
ĠV H
Ġvern eder
Ġvervang er
Ġopgev ol
Ð½ Ð¸
ĠPe eters
past a
Ġop stap
ĠHoofd dorp
ĠSil ver
Ġhal te
cy cl
Ġboek jes
4 7
m aakte
Ġprevent ieve
Ġdron e
Ġcirc us
Ġl on
Ġzen ding
ĠDe p
Ġuitb un
EN D
ĠTechn ology
Ġtem pl
r in
Ġgep raat
v s
Ġor thop
Ġmet erkast
Ġchrist elijk
ste k
Ġwerk zoeken
d et
ĠRaad pleeg
Ġenerg iele
Ġfranch ise
Ġcap uchon
6 1
Ġvak mensen
b aring
oen de
Ġverdie pt
Ġdak bedekking
Ġtijd loze
ul ar
ĠM D
ak eld
ĠCom itÃ©
Ġoper ationeel
ĠS av
Ġevangel ie
beh oe
Ġsch enk
Ã© Ã©l
ĠMoze s
Ġaft rekken
Ġspl it
Ġt ut
ĠAfmet ing
EM A
Ġmo dem
ĠSE X
Ġontere cht
Ġover grote
ĠF arm
certific aat
Ġomgev ingsvergunning
Ġhand bereik
oll ig
vorm ig
Ġjonge man
b bel
Ġlog ica
he orie
Ġon wijs
Ġin houden
slaan de
ĠIl l
vl uchten
ma kende
ĠB I
Ġontwer pt
Ġoverw innen
s bergen
Ġst elden
k ade
ĠRog er
Ġopgest art
sp ots
ĠD erg
ĠUp date
le pen
Ġop hangen
oed ig
Ġvitam ines
kel et
ijn e
Ġdin eren
Ġan y
er y
Ġstraat jes
Ġom wonenden
Ġvert oeven
Ġaccount s
Ġbouw werk
Ġaanged reven
ĠFinanc ieel
ings mogelijkheden
ĠGron inger
ĠF und
Ġan us
Ġvervol gt
ĠWill iams
Ġmaandag avond
Ġverkle inen
sens or
F S
oorde vol
Ġwezen lijk
Ġvoor zet
ĠD M
Ġbuiten gewone
ĠCon cept
h ok
Ġop vangen
x it
Ġdre igen
Ġko elen
Ġ16 00
Ġst ore
ann etje
Ġhy draul
Ġlink erkant
Ġachter ste
Ġoversch reden
sch ieten
Ġpresent ator
ĠVers ie
X L
Ġklassiek ers
Ġtoe spraak
Ġsl or
Ġonder water
vallen de
Ġstort ing
ĠG M
Ġaf neemt
univers iteit
Ġving eren
Ġzon g
Ġa kt
kussen s
Ġover gegaan
Ġbi bliotheken
ĠR oc
Ġweg g
Ġprof eet
anc eerde
Ġsamen gevat
k ans
Ġverzorg ers
Ġthuis ontvangst
ĠUit gebre
Ġgem at
Ġro mans
Ġdon atie
af stoten
Ġt ikken
Ġuit ingen
Z W
Ġbe oefenen
Ġgar anties
Ġinschrij vingen
rij ze
ĠOper a
ĠT ap
Ġdak terras
Ġuitstap je
adres sen
ĠL ook
Ġgroot e
ĠGef eliciteerd
Ġver geven
iv els
ĠB is
ĠI mm
Ġpro spect
ĠSm ilde
Ġ19 18
Ġonder dak
ĠSt udie
Ġbel oven
rijp elijk
ĠBaren drecht
ij de
o uren
een se
Ġtro on
Ġuit bouw
Ġglan zend
ĠD A
Ġopgevol gd
Ġk rom
is ers
ĠMob iel
Ġgesch oven
Ġinformatie ve
Ġleven smiddelen
Ġoog sten
gen ot
sp ullen
u cc
Ġmacht ig
ĠT oek
ĠSt ro
advis eurs
ab s
Ġd iale
ag d
Ġbel anden
ijk erk
Ġdat zelfde
Ġmiddel punt
Ġde kt
Ġ< /
= =
h arige
Ġsch reeuwen
Ġgo al
is hed
ĠOkt ober
Ġf ire
ann el
aart je
ĠMil aan
c ase
Ġr ange
ure erd
Ġtegenst rij
Ġs app
ĠMet een
re p
iere geling
over heid
Ġsteden bouw
Ġaf stemmen
Ġkast je
pat iÃ«nten
Ġnaa sten
al ine
Ġmilieu vriendelijk
Ġversterk er
Ġon gebruik
Ġzak jes
um atische
den berg
ĠAqu a
is el
D uit
sm on
ĠAr c
Ġgeperson aliseerde
Ġst ock
Ã £
Ġhier naast
Ġonder zijde
Ġlever ings
plicht ige
st ocht
ĠL ET
Ġfl ow
Ġstro ok
ĠL aan
Ġal fab
ĠA tt
ĠL ub
Ġs aaie
pro c
ĠTrip Advisor
Ġop komende
Ġp ier
EL D
Ġmisd rijf
ĠS SL
ĠKl opt
Ġ aap
ĠE T
ven d
Ġvers iering
ĠAchter af
ĠCaliforn iÃ«
ooi ing
in igd
Ġs oldaat
Ġkan eel
ĠVenet iÃ«
Ġmal ware
ĠAl dus
ĠW S
j assen
Ġsamen gewerkt
ĠGar age
Ġgehe cht
Ġkwaliteit seisen
ĠMar ine
ul um
sprak elijkheid
ĠF all
ĠSch uur
Ġdienst verlener
ran de
Ġs ele
Ġjur ken
ĠVer sch
Ġtelefoon tje
entoon stelling
Ġopslag ruimte
ĠU den
Ġgedroog de
4 3
ut el
ĠVl iet
Ġt un
zen ders
k aar
p ack
Ġversl aafd
Ġl elijke
Ġl opers
Ġwaar neming
Ġopl age
Ġspot ten
Ġbeg l
Ġlig bad
Ġom he
Ġ196 2
Ġh ind
valu atie
Ġmarkt leider
eer lijk
Ġto et
Ġ/ >
on ia
Ġconcl uderen
ĠSl ag
ĠM arket
Ġmet af
Ġopgel aden
Ġvul kaan
ĠOu deren
Ġtegenover gestelde
ĠM aan
n ood
Ġgere inigd
Ġ) !
be schouw
r etje
Ġvert icaal
Ġz n
ĠW aren
ĠÃ ĺ
Ġgord ijn
fra ctie
Ġbou levard
Ġg ooide
Ġgek ost
Ġgep re
ĠSt orm
fot ograaf
Ġpublic iteit
g sel
Ġhe ffen
Ġkap sel
w riter
ra ine
Ġ193 9
pectie ven
Ġvoortvl oeiende
M obile
ĠSch olen
ĠCont ent
ĠFrit s
Ġwer f
Ġlid staat
ĠG erecht
Ġde zen
ina zie
wijf el
ĠOp el
l ife
Ġband jes
Ġdrast isch
z itters
Ġanten ne
behoe ften
Ġvoorn oemde
be schikking
Ġqu e
ĠMar ieke
Ġseizoen s
ĠVint age
Ġander halve
Ġsc ores
Ġlangzamer hand
Ġkop telefoon
Ġall erm
Ġk oer
je wel
Ġfacul teit
Ġbijge staan
Ġtherm ostaat
4 9
Ġzwaar dere
Ġrond jes
Ġre ad
art ikel
ĠR ussen
iss a
Ġok Ã©
ze ilen
Ġkru llen
Ġgev orderd
v elt
Ġt Ã©
bem iddel
Ġbep aal
Ġgevangen en
hand els
ĠI e
Ġoef ent
ĠTax i
Ġhoud baar
Ġbroe ders
ug ht
b ul
ĠFl y
Ġopge sloten
Ġgere pareerd
gevoel ige
Ġgemeent elijk
ĠEd win
Ġdoel treffend
ab ine
ĠP aas
ĠC e
Ġpopul atie
it atieve
ĠRec l
sc on
uit es
Ġkolon iale
Ġv mbo
af il
Ġh ob
Ñ ĩ
len en
ĠInd ivid
Ġop houden
raa kt
Ġk ub
Ġmultifunct ionele
ro ck
Ġ10 7
Ġduur dere
et y
Ġwhis ky
Ġaan recht
Ġges n
ĠD G
ĠK O
Ġconc ern
Ġh ent
comm issaris
ĠVod afone
zonder d
Ġa ten
ich es
ĠM elk
Ġbeoor deelt
h l
Ġb aden
Ġp ush
ĠMed i
Ġbl iks
g om
Ġverl iet
Ġbun delen
kings kracht
Ġbizar re
ĠAdri aan
Ġk rie
Ġinventaris atie
Ġm ol
el ige
Ġzelfstand igen
Ġgeld ige
Ġbr illen
ĠH op
g ooid
ĠN ummer
Ġcust om
E n
Ġbet over
Ġre cher
Ġbij lagen
v aste
ĠPalest ijnen
Ġben de
w erende
Ġbinden d
Ġrapport ages
Ġatt ent
Ġbouw jaar
Ġinvest eert
de ment
ĠF ut
ĠC art
Ġgel eefd
Ġinf ecties
o oms
richt lijn
ĠRe gen
ĠZil veren
Ġmee geleverde
ings dienst
Ġbi od
prem ie
Ġg oot
Ġgeh uurde
Ġcab aret
Ġ ans
ĠD rive
Ġschijn baar
ĠUb untu
aan slag
Ġmenstru atie
Ġklein schalig
l lust
Ġmuzik ant
ĠFranc iscus
ĠG oo
Ġkom kommer
otos hop
ĠOp leiding
k open
ĠSt one
Ġag ressief
Ġd onder
ĠS anne
ĠMar j
et a
iot herapie
ĠC A
IS CH
Ġbetre ffen
Ġachter hoofd
Ã¡ Ã¡
Ġbou illon
ĠVan morgen
p aard
ĠBe staande
ĠBar neveld
Ġgeb ieds
Ġvrij gegeven
ĠK inky
Ġdiep ste
Ġstee vast
ie kt
ĠR ap
Ġoper aties
ĠgeÃ¯nteress eerden
ĠHaarlem mer
Ġv uile
kw al
Ġop z
Ġmyster ie
ĠGel uid
ĠG ister
Ġz eem
ĠW en
Ġpred ikant
euge ot
Ġs oul
ĠVer huur
ks els
ĠB IJ
Ġkn allen
f ox
Ġhyp oth
ver tegenwoord
ĠWill y
Ġsch een
Ġkonink lijk
ĠJ ess
Ġou ds
ĠGeh uwd
aan gifte
sc anner
Ġle gende
Ġvoel den
lijst je
Ġbloot gesteld
ren ovatie
ĠLig ging
ĠFloren ce
Ġfl ora
ĠEm il
af hankelijk
ĠIS BN
ĠWint ers
ks on
ĠJacob us
ĠC RM
x us
is j
Ġland ing
ĠR ic
Ġon belangrijk
Ġgewoon weg
um ps
Ġrout ine
od or
Ġdraaien de
ĠInform eer
Ġbevor dering
ĠRoel of
F F
Ġ11 9
pr aat
c over
Ġkoel ing
Ġwaterd ichte
ĠMar gr
ĠG A
Ġz akt
Ġna bur
Ġjournalist iek
Ġbron zen
ĠL ier
ĠFranc isco
ĠAd ministr
ĠM ega
Ġdier entuin
Ġbeleg ging
ĠK os
stij ging
Ġtax atie
plicht ingen
ĠAru ba
ĠT ob
Ġij sb
eel tje
v elen
ĠL etter
b ike
ĠGen k
ĠMex icaanse
Ġventil ator
Ġelast isch
bo ards
Ġbeg ren
ara van
histor ische
ĠKl inkt
Ġwaterv al
brand t
Ġbeg rot
eff ect
Ġinwerking treding
Ġpan el
on na
Ġop bergen
ĠDire ctor
ĠJ elle
au de
Ġpen et
Ġvervaard igen
ĠZand voort
Ġal gorit
Ġna den
aft rek
unn y
ĠInstall atie
kun sten
Ġboer derijen
ker n
ft eling
Ġetik et
Amerik aanse
ĠEn tertainment
Ġgl aasje
ing el
Ġd amp
Ġonder druk
l an
Ġwat ch
ĠDaar toe
Ġverb inten
Ġnieuwsgier igheid
Ġlees baar
Ġslim mer
Ġporno sterren
ru i
cent er
ĠK ath
Ġzo al
ĠM atch
ĠUit voering
ĠIn stellingen
ĠSn ow
Ġgemeen schappen
Ġsc reens
ĠInst itute
ĠGe de
m arketing
Ġk urk
u xe
Ġinsp ect
Ġdeel de
Ġmacht ige
ĠOoster hout
Ġf eel
Ġaan hanger
Ġbi om
oll ow
Ġwerk druk
Ġgoed s
recht ers
Ġvervol ging
ĠS eg
ĠM its
ĠGez ellig
Ġintroduc eren
ĠM un
Ġmelk vee
Ġbenodigd heden
Ġon uit
pe il
Ġleer zame
zeker heid
ĠCl aud
ign on
Ġat leten
ĠGener al
ĠB our
b ijdrage
ĠAd ult
ĠW illen
Ġovereen komt
Ü Ĳ
ĠNet work
Ġl ade
Ġgrens overschrij
ĠT i
Ġnag aan
ĠOran ge
e ge
ĠDe b
Ġgra ph
Ġgev oed
ĠAf ge
Ġafzuig kap
sch akelaar
Ġ194 6
Ġvari aties
Ġstads deel
al ers
Ġverh olpen
Ġopge d
ĠB od
ĠKampioen schap
schil d
Ġle pel
Ġger aadpleegd
ver sl
ĠR ug
ĠJul ian
genees kunde
Ġrob ots
Ġuit kijken
Ġrespons ive
ĠJ av
Ġgr ie
ĠVoor deel
mod us
Ġpast or
ĠG reg
ĠAR T
blem atiek
Ġuitsp reken
ĠTh erm
Ġprost itutie
weten schap
Ġbe kenden
Ġamb ts
Ġdoor lopende
cte d
bo ur
Ġann ulering
pro of
Ġbas il
M L
Ġbloem etjes
Ġachter wege
Ġin name
Ġc ock
Ġc eremonie
ĠKru id
gren zen
Ġverfijn de
i ous
ĠVol gend
Ġn ieren
EL F
Ġhoop te
ĠgeÃ¯ mp
ĠMÃ¼n chen
Ġzee f
Ġverrijk t
op ie
pos it
ĠK ent
ens ap
Ġparap lu
Ġ194 3
Ġsupp lementen
Ġsmaak vol
Ġafger onde
Ġleef baarheid
Ġre ductie
rein en
ĠPay Pal
ĠRec e
ĠAl b
gel ingen
Ġinv ult
Ġ5 50
comp uter
ĠÐ ¾
ĠW C
ĠAmer ica
eed schap
az el
Ġone ven
Ġpall et
Ġbeh oef
l asten
Ġc ore
Ġl act
ĠA ff
ogelijk heden
Ġhand gemaakte
Ġrecht vaardig
Ġl ib
n i
Ġinstall ateur
ĠBl ond
ĠM om
Ġs ax
ĠBas ic
B ER
Ġkortingscode s
Ġop druk
Ġlamp je
d ans
Ġborst kanker
Ġuitge oefend
Ġsm eren
geb ruikt
Ġvoortvl oeien
ĠIke a
Ġ16 9
ĠW oud
ere d
uc king
ĠAnn ie
Ġverk eert
ĠM ain
Ġstralen de
Ġbe ige
201 9
Ġonzicht bare
Ġb ow
Ġwin sten
o a
Ġse arch
Ġkostuum s
Ġmann elijk
inf rastructuur
ĠJohn ny
gek regen
Ġsn oeien
her lands
ĠT P
Ġvleug je
Ġklus jes
Ġont vingen
Ġfot ob
Ġst yl
Ġ15 8
ĠErv aring
ĠStaats secretaris
wor ds
Ġdit maal
Ġprik kels
Ġtuin bouw
I X
Ġ%) ,
ĠMar gar
Ġdw ar
Ġtaf er
Ġnak omen
Ġvoor ouders
Ġhand om
ĠAw b
em bl
Ġinform eert
id i
ent s
Ġgear resteerd
Ġk avel
Ġgebas eerde
yl an
Ġf us
Ġgeoptim aliseerd
Ġin stemming
ruim ten
Ġve ele
Ġgroot se
wijd te
ĠPat iÃ«nten
ĠNik on
Ġproject leider
ĠH U
Ġver vl
Ġr atten
ĠC ash
ĠV il
Ġre uze
ĠOn ly
Ġreage er
Ġkool stof
Ġmail box
Ġonverh oopt
ĠK ong
ĠM aleis
advert entie
Ġvl og
Ġopl os
w s
Ġdu ikt
Ġfil osoof
pol is
Ġhandom draai
ĠH ub
ĠG uid
Ġbewerkstell igen
ĠKl imaat
Ġsal ades
w innen
Ġruim telijk
Ġsan cties
Ġverwezenlijk en
Ġaf rond
oor deel
Ġopge wonden
ĠL ad
bere iding
ĠF ryslÃ¢n
mp jes
ĠStr ateg
Ġmondeling e
ĠOor spron
Ġlever ingen
raa ien
wee s
ĠVer tel
Ġ21 0
Ġvl oot
Ġwaterv allen
em de
Ġkast elen
Ġpromin ente
Ġsch uift
Ġveer kracht
Ġhome op
Ġd wer
Ġkers en
Ġp oot
ĠPlay Station
kel oos
rie d
Ġsl uis
Ġbom bar
Ġst uw
g aaf
df un
Ġzu igt
Ġmac ro
Ġ194 7
Ġconsequ ent
Ġafwiss elende
ĠFe it
Ġa ward
s omm
Ġverbonden heid
Ġonderver deeld
k or
s ites
Ġgenot eerd
Ġmat ige
ĠDe velopment
bu ds
ĠZ u
ĠLiss abon
he ide
Ġ15 9
Ġna zi
Ġvakantie park
Ġel le
ĠCong res
Ġsp r
g assen
ĠP ijp
IN E
Ġm aagd
Ġbruik bare
Ġdr ingt
Ġcompens eren
ĠRol and
Ġgrond wet
ĠA ven
Ġeen persoons
Ġpat ro
ĠBe v
Ġtrac king
ĠWest erse
Ġgast vrouw
Ġwat erm
ĠAren a
ĠVerg adering
ĠCh ild
Ġ+ /
Ġb acterie
uist ere
Ġbre ien
Ġcircul aire
ĠMan chester
Ġgewe kt
gen amen
Ġweig erde
ĠS ne
Ġafgest udeerd
ien ing
Ġk ater
Ġrond uit
Ġwater stof
Ġdod elijke
Ġleid raad
hol m
dig d
Ġmilieu vriendelijke
Ġex ecut
Ġl ant
ĠS ee
Ġopvol ging
Ġconvent ionele
h olland
Ã Ĺ
du iken
Ġtoevoeg ingen
Ġaantrek kingskracht
Ġopvol gen
Ġbinnen komen
arbe id
Ġbij wonen
Ġseks ualiteit
w apen
Ġco urg
ĠDeel name
oper atie
verd rag
ĠInsp iratie
Ġam andel
ett ig
Ġ195 8
Ġrecre atieve
uiden d
Ġschrik ken
ĠGoe ie
jeb lieft
Ġcurs ist
Ġgeassoc ieerd
Ġsch ulde
pl ussers
ĠW ifi
aa ide
ĠA U
Ġj o
gev ingen
Ġontmoet te
an sen
Ġko zijn
ag u
kan alen
ar range
zijd se
ĠS ask
qu entie
ĠPrem ier
Ġfeest jes
sluit er
w ielen
ip er
Ġsp innen
alen d
Ġingen ieurs
Ġaan hef
Ġth aise
Ġpot lood
Ġweder zijds
oss er
Ġvoor ste
Ġgerecht vaardigd
l oor
Ġgedat eerd
Ġaansp reekt
Ġsl ager
Ġsl aagde
ubl ike
Ġgra ppen
Ġverou derd
kan sen
verb indingen
Ġgen ood
in ingen
ĠGeb oorte
ĠD ies
Ġrechthoek ige
Ġkan o
Ġzorgel oos
z iet
Ġchron isch
il et
o ien
Ġa zijn
vl oe
Ġovereenkomst ige
ĠCornel ia
ĠTe un
ĠBouw vorm
Ġont heffing
ĠI j
Ġglan zende
Ġcoll age
Ġu ser
ĠAnt i
Ġkleur plaat
an ium
ĠRome o
Ġgelijk matig
oc a
Ġbinnen komt
ic ken
ic ipatie
Ġb oordevol
Ġst yling
ĠHond a
Ġkring loop
Ġw r
ĠRecht bank
ĠAf rik
ĠCon f
ĠM ake
ĠIndones ische
ĠFlor ida
Ġkruis punt
Ġant iek
Ġs ide
Ġjuni or
Ġe itjes
Ġbesch aving
ĠA str
Ġdiep ere
Ġsyste matisch
Ġvloerk leed
at ings
Ġgesp oten
an as
Ġgehand h
Ġetn ische
up unctuur
Ġfiets er
Ġbl oeiende
ĠR ee
Ġgaat je
Ġinsch atting
ĠColomb ia
Ġuit betaald
ĠGen oeg
Ġwee ke
ĠâĢĺ âĢĻ
Ġgem ber
lok aal
ou k
ĠOm roep
b reken
f ys
we ide
Ġkrij t
ĠValken burg
ĠP ijpen
Ġvorm den
ge haald
ĠKv K
j agen
Ġzacht er
ged raaid
om schrijving
Ġgepass eerd
Ġfil teren
ĠSer ies
Ġuitm unten
Ġh ere
Ġing repen
ĠSamen werking
Ġkn ik
ĠCharl otte
be zoeken
Ġchem ical
ĠD L
Ġafwe zig
ĠG len
ĠC ursus
ĠSpot ify
Ġple id
Ġtw ist
Ġdat es
4 6
Ġbewonder ing
profession als
Ġhe ad
Ġaan verw
Ġreinig ings
Ġbezig houden
ĠVer zam
gek eerd
Ġcass atie
ĠJord an
Ġgebrek k
is ing
Ġriol ering
Ġkleur tjes
Ġbev roren
Ġge ad
Ġinz itten
ha ve
ĠS A
Ġ: .
Ġschimm els
Ġ195 3
roe pt
ĠUn der
Ġst reken
Ġon gest
ĠH C
Ġpittores ke
c are
Ġzenuw stelsel
ion al
Ġbed rukte
Ġherzien ing
Ġproc ess
Ġwaar nemingen
Ġsport hal
Ġver deel
uit er
Ġcoach en
ar ct
l ler
ik o
Ġ10 2
Ġdrijven de
Ġver ouder
Ġ( *
is es
Ġverv ulling
Ġvermeen de
Ġautom aat
Ġtra pl
ĠT ess
im in
Ġhuur woningen
ĠOpt im
Ġl ym
Ġnas ch
Ġleidinggeven den
Ġrijk er
ab ility
Ġje uk
Ġgro eten
Ġmee denken
Ġrec y
Ġprop ag
ie der
il ter
Ġ195 6
ĠL amp
Ã« r
Ġuitv allen
ĠK P
Ġzorgvuldig heid
splant atie
Ġongel ukken
ĠPol itiek
ĠKar l
Ġnu cle
ĠB urgers
Ġbouw werken
Ġbericht geving
re er
Ġgenood zaakt
Ġoverleden e
Ġfun dering
Ġhelp desk
Ġbi oscopen
Ġdigit al
iet st
ĠC oe
Ġaansp raken
Ġstre amen
ĠS el
ĠBang kok
Ġ: ...
z oden
ut ies
ĠApp el
ĠAth ene
h ield
ĠV ista
ĠC yp
ĠNieuw sbrief
Ġin ject
Ġwereldber oemde
ĠSc ott
Ġrok je
Ġl auw
ĠHD MI
ĠSt aal
Ġvertal ingen
ant oor
Ġher be
Ġtijd loos
ĠHe ine
brow ser
Ġtaal gebruik
Ġbere idt
Ġgest icht
ĠAd ministratie
ĠA genda
Ġhor ror
S P
Ġmag ere
Ġpsych iater
Ġkap otte
ĠN amens
ĠC ad
Ġsj abl
Ġgez onden
ĠPe ople
Ġcholester ol
lo ge
ĠOut look
Ġal inea
Ġvor k
ĠF at
Ġdra den
Ġen gels
st ore
Ġro ad
ĠD rachten
ĠP ir
ĠC ass
be houd
w itte
ĠTe ch
ver pleeg
l ichaam
ĠBl oed
su les
Ġterug gebracht
Ġprost itu
Ġonbe v
rid ge
ĠB ree
Ġmech anisme
ĠJud ith
sp ie
Ġon gen
ff ings
Ġaf sl
Ġaanhang ers
n d
Ġbekro ond
Ġj oh
ĠH ip
f o
Ġpersoneels leden
Ġbrand ing
h m
ĠDerg elijke
Ġtoe gest
ĠR eeds
ĠR OC
Ġwin den
Ġirrit atie
c d
Ġp oule
Ġhoofd persoon
del oos
Ġstr ikte
Ġonrecht matig
Ġolif anten
ĠB orst
Ġzit plaatsen
arch ie
Ġc ement
Ġluid sprekers
Ġonge grond
ĠToek omst
ĠHar de
ĠC er
eef s
Ġrom antiek
Ġmo ge
ett erk
ĠSystem s
Ġamb iance
Ġgel uisterd
Ġschaam te
Ġlucht ig
a ffing
ĠO O
Ġover blijf
ĠP i
ĠZo veel
beur ten
Ġbew aakt
Ġuitgek eerd
ff ic
Ġher denking
ĠAM RO
ĠVer wacht
del ings
Ġklass ement
Ġcount ry
Ġin trekken
Ġproces kosten
ĠBe waar
Ġj am
Ġsc Ã¨nes
an gens
Ġtwijf elt
Ġspect rum
ĠG ust
Ġliefde vol
Ġboek handel
ĠLat ijn
Ġess ay
Ġcompos ities
ĠRond om
itu de
ĠBelg ium
Ġhe vig
Ġovertu igingen
st il
ĠAand acht
ĠV oord
ha i
Ġdomin ante
Ġpop p
Ġbeschad igde
Ġsyn chron
Ġsp ook
ĠGor inchem
Ġoppervl akk
Ġn oden
ĠPok Ã©
Ġbl oeien
ĠW end
g asten
ĠOnder staand
ĠBor sten
Ġsl etje
sp ons
Ġbeeld materiaal
Ġviss erij
ĠPlan et
Ġjeug dige
ĠEr gens
vocht igheid
Ġwiel er
Ġnot eren
Ġi DEAL
en z
Ġtar we
Ġgebruiks vriendelijke
Ġfijn er
ĠFl oris
Ġbra zil
Ġr idder
Ġfen omen
st eren
der tijd
ĠHier uit
Ġwim pers
Ġth ai
lex ie
Ġadvert eerders
Ġonge kend
Ġover schot
ard in
ĠOnder deel
S CH
Ġbesp aard
ĠC ore
Ġhebben de
ier p
Ġstarten de
Ġdroog te
Ġe ye
ĠKant oor
Ġovereen komen
Ġsubst antie
el iers
ĠVoorlop ig
ĠS ri
Ġlesb isch
Ġbeschrij vingen
ĠG az
Ġbeelden d
oc ado
Ġrad ic
fact oren
Ġmeet ing
Ġlim iet
b racht
Ġdi ers
se y
uro p
Ġland s
et werk
an ker
Ġklin isch
Ġuitge vers
Ġonder he
ĠYv onne
ĠTot dat
ur ig
Ġst reet
Ġinzien s
Ġvereen voudig
Ġz werf
at ra
Ġz aaien
Ġcond ition
len ing
Ġzand strand
[...]
