{
  "version": "1.0",
  "truncation": null,
  "padding": null,
  "added_tokens": [
    {
      "id": 0,
      "content": "<pad>",
      "single_word": false,
      "lstrip": false,
      "rstrip": false,
      "normalized": false,
      "special": true
    },
    {
      "id": 1,
      "content": "<s>",
      "single_word": false,
      "lstrip": false,
      "rstrip": false,
      "normalized": false,
      "special": true
    },
    {
      "id": 2,
      "content": "</s>",
      "single_word": false,
      "lstrip": false,
      "rstrip": false,
      "normalized": false,
      "special": true
    },
    {
      "id": 3,
      "content": "<unk>",
      "single_word": false,
      "lstrip": false,
      "rstrip": false,
      "normalized": false,
      "special": true
    },
    {
      "id": 4,
      "content": "<mask>",
      "single_word": false,
      "lstrip": false,
      "rstrip": false,
      "normalized": false,
      "special": true
    }
  ],
  "normalizer": null,
  "pre_tokenizer": {
    "type": "ByteLevel",
    "add_prefix_space": false,
    "trim_offsets": true,
    "use_regex": true
  },
  "post_processor": null,
  "decoder": {
    "type": "ByteLevel",
    "add_prefix_space": true,
    "trim_offsets": true
  },
  "model": {
    "type": "BPE",
    "dropout": null,
    "unk_token": null,
    "continuing_subword_prefix": null,
    "end_of_word_suffix": null,
    "fuse_unk": false,
    "vocab": {
      "<pad>": 0,
      "<s>": 1,
      "</s>": 2,
      "<unk>": 3,
      "<mask>": 4,
      "!": 5,
      "\"": 6,
      "#": 7,
      "$": 8,
      "%": 9,
      "&": 10,
      "'": 11,
      "(": 12,
      ")": 13,
      "*": 14,
      "+": 15,
      ",": 16,
      "-": 17,
      ".": 18,
      "/": 19,
      "0": 20,
      "1": 21,
      "2": 22,
      "3": 23,
      "4": 24,
      "5": 25,
      "6": 26,
      "7": 27,
      "8": 28,
      "9": 29,
      ":": 30,
      ";": 31,
      "<": 32,
      "=": 33,
      ">": 34,
      "?": 35,
      "@": 36,
      "A": 37,
      "B": 38,
      "C": 39,
      "D": 40,
      "E": 41,
      "F": 42,
      "G": 43,
      "H": 44,
      "I": 45,
      "J": 46,
      "K": 47,
      "L": 48,
      "M": 49,
      "N": 50,
      "O": 51,
      "P": 52,
      "Q": 53,
      "R": 54,
      "S": 55,
      "T": 56,
      "U": 57,
      "V": 58,
      "W": 59,
      "X": 60,
      "Y": 61,
      "Z": 62,
      "[": 63,
      "\\": 64,
      "]": 65,
      "^": 66,
      "_": 67,
      "`": 68,
      "a": 69,
      "b": 70,
      "c": 71,
      "d": 72,
      "e": 73,
      "f": 74,
      "g": 75,
      "h": 76,
      "i": 77,
      "j": 78,
      "k": 79,
      "l": 80,
      "m": 81,
      "n": 82,
      "o": 83,
      "p": 84,
      "q": 85,
      "r": 86,
      "s": 87,
      "t": 88,
      "u": 89,
      "v": 90,
      "w": 91,
      "x": 92,
      "y": 93,
      "z": 94,
      "{": 95,
      "|": 96,
      "}": 97,
      "~": 98,
      "¡": 99,
      "¢": 100,
      "£": 101,
      "¤": 102,
      "¥": 103,
      "¦": 104,
      "§": 105,
      "¨": 106,
      "©": 107,
      "ª": 108,
      "«": 109,
      "¬": 110,
      "®": 111,
      "¯": 112,
      "°": 113,
      "±": 114,
      "²": 115,
      "³": 116,
      "´": 117,
      "µ": 118,
      "¶": 119,
      "·": 120,
      "¸": 121,
      "¹": 122,
      "º": 123,
      "»": 124,
      "¼": 125,
      "½": 126,
      "¾": 127,
      "¿": 128,
      "À": 129,
      "Á": 130,
      "Â": 131,
      "Ã": 132,
      "Ä": 133,
      "Å": 134,
      "Æ": 135,
      "Ç": 136,
      "È": 137,
      "É": 138,
      "Ê": 139,
      "Ë": 140,
      "Ì": 141,
      "Í": 142,
      "Î": 143,
      "Ï": 144,
      "Ð": 145,
      "Ñ": 146,
      "Ò": 147,
      "Ó": 148,
      "Ô": 149,
      "Õ": 150,
      "Ö": 151,
      "×": 152,
      "Ø": 153,
      "Ù": 154,
      "Ú": 155,
      "Û": 156,
      "Ü": 157,
      "Ý": 158,
      "Þ": 159,
      "ß": 160,
      "à": 161,
      "á": 162,
      "â": 163,
      "ã": 164,
      "ä": 165,
      "å": 166,
      "æ": 167,
      "ç": 168,
      "è": 169,
      "é": 170,
      "ê": 171,
      "ë": 172,
      "ì": 173,
      "í": 174,
      "î": 175,
      "ï": 176,
      "ð": 177,
      "ñ": 178,
      "ò": 179,
      "ó": 180,
      "ô": 181,
      "õ": 182,
      "ö": 183,
      "÷": 184,
      "ø": 185,
      "ù": 186,
      "ú": 187,
      "û": 188,
      "ü": 189,
      "ý": 190,
      "þ": 191,
      "ÿ": 192,
      "Ā": 193,
      "ā": 194,
      "Ă": 195,
      "ă": 196,
      "Ą": 197,
      "ą": 198,
      "Ć": 199,
      "ć": 200,
      "Ĉ": 201,
      "ĉ": 202,
      "Ċ": 203,
      "ċ": 204,
      "Č": 205,
      "č": 206,
      "Ď": 207,
      "ď": 208,
      "Đ": 209,
      "đ": 210,
      "Ē": 211,
      "ē": 212,
      "Ĕ": 213,
      "ĕ": 214,
      "Ė": 215,
      "ė": 216,
      "Ę": 217,
      "ę": 218,
      "Ě": 219,
      "ě": 220,
      "Ĝ": 221,
      "ĝ": 222,
      "Ğ": 223,
      "ğ": 224,
      "Ġ": 225,
      "ġ": 226,
      "Ģ": 227,
      "ģ": 228,
      "Ĥ": 229,
      "ĥ": 230,
      "Ħ": 231,
      "ħ": 232,
      "Ĩ": 233,
      "ĩ": 234,
      "Ī": 235,
      "ī": 236,
      "Ĭ": 237,
      "ĭ": 238,
      "Į": 239,
      "į": 240,
      "İ": 241,
      "ı": 242,
      "Ĳ": 243,
      "ĳ": 244,
      "Ĵ": 245,
      "ĵ": 246,
      "Ķ": 247,
      "ķ": 248,
      "ĸ": 249,
      "Ĺ": 250,
      "ĺ": 251,
      "Ļ": 252,
      "ļ": 253,
      "Ľ": 254,
      "ľ": 255,
      "Ŀ": 256,
      "ŀ": 257,
      "Ł": 258,
      "ł": 259,
      "Ń": 260,
      "en": 261,
      "er": 262,
      "Ġd": 263,
      "an": 264,
      "Ġv": 265,
      "in": 266,
      "et": 267,
      "Ġ.": 268,
      "el": 269,
      "ij": 270,
      "Ġo": 271,
      "Ġh": 272,
      "Ġde": 273,
      "aa": 274,
      "or": 275,
      "Ġm": 276,
      "st": 277,
      "Ġw": 278,
      "Ġb": 279,
      "Ġg": 280,
      "ie": 281,
      "Ġt": 282,
      "Ġe": 283,
      "Ġ,": 284,
      "ch": 285,
      "Ġa": 286,
      "Ġz": 287,
      "at": 288,
      "Ġvan": 289,
      "Ġen": 290,
      "is": 291,
      "Ġk": 292,
      "Ġn": 293,
      "aar": 294,
      "Ġeen": 295,
      "it": 296,
      "oor": 297,
      "Ġin": 298,
      "on": 299,
      "ing": 300,
      "Ġhet": 301,
      "le": 302,
      "Ġs": 303,
      "Ġge": 304,
      "Ġp": 305,
      "de": 306,
      "der": 307,
      "re": 308,
      "den": 309,
      "oe": 310,
      "ig": 311,
      "Ġop": 312,
      "ĠD": 313,
      "Ġj": 314,
      "Ġte": 315,
      "Ġbe": 316,
      "cht": 317,
      "Ġver": 318,
      "ro": 319,
      "Ġis": 320,
      "Ġvoor": 321,
      "ijk": 322,
      "al": 323,
      "Ġu": 324,
      "ar": 325,
      "ijn": 326,
      "ken": 327,
      "Ġl": 328,
      "ee": 329,
      "ge": 330,
      "gen": 331,
      "Ġon": 332,
      "om": 333,
      "Ġal": 334,
      "Ġmet": 335,
      "eer": 336,
      "ik": 337,
      "Ġaan": 338,
      "ur": 339,
      "ver": 340,
      "ĠH": 341,
      "Ġst": 342,
      "il": 343,
      "ra": 344,
      "iet": 345,
      "un": 346,
      "Ġje": 347,
      "ol": 348,
      "Ġdat": 349,
      "and": 350,
      "ot": 351,
      "id": 352,
      "Ġc": 353,
      "te": 354,
      "am": 355,
      "ou": 356,
      "ĠDe": 357,
      "Ġzijn": 358,
      "ven": 359,
      "ze": 360,
      "Ġom": 361,
      "as": 362,
      "og": 363,
      "ĠA": 364,
      "ĠB": 365,
      "ĠM": 366,
      "elijk": 367,
      "ok": 368,
      "aat": 369,
      "ĠE": 370,
      "ct": 371,
      "sch": 372,
      "ĠS": 373,
      "Ġdie": 374,
      "Ġer": 375,
      "Ġ1": 376,
      "ru": 377,
      "ĠI": 378,
      "Ġf": 379,
      "Ġuit": 380,
      "âĢ": 381,
      "ĠV": 382,
      "Ġhe": 383,
      "Ġniet": 384,
      "op": 385,
      "ent": 386,
      "es": 387,
      "Ġwor": 388,
      "ĠW": 389,
      "rij": 390,
      "ers": 391,
      "ele": 392,
      "ĠâĢ": 393,
      "ft": 394,
      "Ġof": 395,
      "ĠO": 396,
      "Ġ2": 397,
      "ste": 398,
      "Ġbij": 399,
      "Ġwe": 400,
      "Ġre": 401,
      "he": 402,
      "us": 403,
      "ien": 404,
      "Ġ(": 405,
      "ier": 406,
      "ag": 407,
      "aan": 408,
      "atie": 409,
      "ĠN": 410,
      "erk": 411,
      "Ġ)": 412,
      "Ġle": 413,
      "aal": 414,
      "uw": 415,
      "Ġover": 416,
      "Ġ:": 417,
      "eld": 418,
      "ant": 419,
      "sen": 420,
      "Ġook": 421,
      "Ġik": 422,
      "ĠG": 423,
      "nen": 424,
      "ak": 425,
      "ĠT": 426,
      "len": 427,
      "Ġals": 428,
      "ul": 429,
      "ĠP": 430,
      "ingen": 431,
      "Ġzo": 432,
      "Ġdoor": 433,
      "Ġheb": 434,
      "dt": 435,
      "eren": 436,
      "ad": 437,
      "Ġkun": 438,
      "kt": 439,
      "je": 440,
      "im": 441,
      "ĠC": 442,
      "Ġmo": 443,
      "Ġdan": 444,
      "ten": 445,
      "ang": 446,
      "Ġze": 447,
      "ĠHet": 448,
      "icht": 449,
      "em": 450,
      "Ġwaar": 451,
      "Ġmaar": 452,
      "eel": 453,
      "se": 454,
      "ic": 455,
      "ap": 456,
      "ĠL": 457,
      "Ġonder": 458,
      "ĠZ": 459,
      "uur": 460,
      "Ġnaar": 461,
      "sp": 462,
      "ige": 463,
      "Ġgeb": 464,
      "Ġsp": 465,
      "Ġsch": 466,
      "ĠK": 467,
      "ond": 468,
      "ĠR": 469,
      "Ġaf": 470,
      "Ġpro": 471,
      "Ġworden": 472,
      "Ġkan": 473,
      "eeft": 474,
      "isch": 475,
      "ĠIn": 476,
      "Ġdeze": 477,
      "lijk": 478,
      "be": 479,
      "Ġalle": 480,
      "ĠJ": 481,
      "Ġheeft": 482,
      "oen": 483,
      "ist": 484,
      "ter": 485,
      "Ġr": 486,
      "oo": 487,
      "ke": 488,
      "oed": 489,
      "Ġwat": 490,
      "elen": 491,
      "ander": 492,
      "ite": 493,
      "ijd": 494,
      "..": 495,
      "Ġ!": 496,
      "Ġwel": 497,
      "oek": 498,
      "Ġmeer": 499,
      "Ġnog": 500,
      "heid": 501,
      "Ġtot": 502,
      "Ġwordt": 503,
      "Ġ?": 504,
      "orm": 505,
      "uit": 506,
      "pen": 507,
      "ast": 508,
      "raa": 509,
      "ve": 510,
      "Ġ'": 511,
      "erd": 512,
      "00": 513,
      "Ġont": 514,
      "acht": 515,
      "ben": 516,
      "oon": 517,
      "Ġvol": 518,
      "ut": 519,
      "elf": 520,
      "sl": 521,
      "Ġwas": 522,
      "ind": 523,
      "Ġdit": 524,
      "zen": 525,
      "um": 526,
      "omen": 527,
      "Ġhebben": 528,
      "ĠF": 529,
      "Ġ3": 530,
      "Ġander": 531,
      "een": 532,
      "Ġma": 533,
      "art": 534,
      "ker": 535,
      "ieuw": 536,
      "igen": 537,
      "ĠâĢĻ": 538,
      "ort": 539,
      "ĠAl": 540,
      "Ġme": 541,
      "Ġpl": 542,
      "Ã©": 543,
      "ia": 544,
      "od": 545,
      "ies": 546,
      "Ġbet": 547,
      "Ġgro": 548,
      "ich": 549,
      "Ġdaar": 550,
      "os": 551,
      "Ġ/": 552,
      "ische": 553,
      "ere": 554,
      "eten": 555,
      "Ġbl": 556,
      "Ã«": 557,
      "ion": 558,
      "Ġcon": 559,
      "ouw": 560,
      "Ġkunnen": 561,
      "jes": 562,
      "onder": 563,
      "Ġ-": 564,
      "Ġwil": 565,
      "Ġ...": 566,
      "ĠIk": 567,
      "Ġ20": 568,
      "Ġgem": 569,
      "Ġjaar": 570,
      "sten": 571,
      "Ġmee": 572,
      "Ġuw": 573,
      "Ġhij": 574,
      "Ġgew": 575,
      "Ġtoe": 576,
      "land": 577,
      "Ġgr": 578,
      "Ġwerk": 579,
      "Ġgebru": 580,
      "Ġmen": 581,
      "stel": 582,
      "Ġkl": 583,
      "ĠU": 584,
      "uis": 585,
      "gt": 586,
      "ip": 587,
      "aren": 588,
      "dat": 589,
      "Ġbed": 590,
      "ĠEen": 591,
      "Ġgeen": 592,
      "we": 593,
      "Ġter": 594,
      "Ġhier": 595,
      "ff": 596,
      "Ġveel": 597,
      "aten": 598,
      "gel": 599,
      "Ġgev": 600,
      "Ġgoed": 601,
      "aak": 602,
      "ine": 603,
      "elijke": 604,
      "Ġnieuw": 605,
      "ctie": 606,
      "amen": 607,
      "Ġ5": 608,
      "uk": 609,
      "Ġeer": 610,
      "af": 611,
      "pl": 612,
      "racht": 613,
      "Ġcom": 614,
      "men": 615,
      "iteit": 616,
      "Ġzich": 617,
      "Ġ4": 618,
      "Ġwij": 619,
      "aakt": 620,
      "du": 621,
      "inder": 622,
      "oc": 623,
      "Ġse": 624,
      "Ġna": 625,
      "wee": 626,
      "Ġmijn": 627,
      "iek": 628,
      "aam": 629,
      "rouw": 630,
      "Ġons": 631,
      "hou": 632,
      "oop": 633,
      "Ġonze": 634,
      "oord": 635,
      "Ġkle": 636,
      "ĠEn": 637,
      "werk": 638,
      "Ġhaar": 639,
      "wij": 640,
      "innen": 641,
      "eder": 642,
      "Ġweer": 643,
      "ale": 644,
      "Ġandere": 645,
      "Ġ\"": 646,
      "ac": 647,
      "oel": 648,
      "Ġzelf": 649,
      "voor": 650,
      "Ġ201": 651,
      "Ġhoe": 652,
      "iÃ«": 653,
      "Ġwer": 654,
      "ide": 655,
      "chter": 656,
      "ab": 657,
      "Ġbel": 658,
      "gev": 659,
      "ir": 660,
      "Ġgebruik": 661,
      "Ġsl": 662,
      "del": 663,
      "Ġmaken": 664,
      "eerd": 665,
      "ug": 666,
      "aard": 667,
      "alen": 668,
      "ber": 669,
      "Ġper": 670,
      "Ġbest": 671,
      "Ġbeg": 672,
      "ank": 673,
      "Ġto": 674,
      "Ġkunt": 675,
      "ings": 676,
      "Ġeigen": 677,
      "ma": 678,
      "Ġhun": 679,
      "raag": 680,
      "als": 681,
      "baar": 682,
      "Ġgen": 683,
      "Ġru": 684,
      "Ġgez": 685,
      "iv": 686,
      "Ġ;": 687,
      "ann": 688,
      "Ġel": 689,
      "ren": 690,
      "ed": 691,
      "ass": 692,
      "Ġben": 693,
      "ub": 694,
      "open": 695,
      "per": 696,
      "ĠâĢĺ": 697,
      "Ġnu": 698,
      "Ġmoet": 699,
      "ec": 700,
      "uren": 701,
      "age": 702,
      "oog": 703,
      "org": 704,
      "ĠOp": 705,
      "ĠWe": 706,
      "res": 707,
      "ĠSt": 708,
      "ief": 709,
      "Ġgaan": 710,
      "kel": 711,
      "Ġtwee": 712,
      "Ġman": 713,
      "Ġro": 714,
      "ĠDit": 715,
      "geven": 716,
      "Ġar": 717,
      "Ġsn": 718,
      "act": 719,
      "bij": 720,
      "ogelijk": 721,
      "schap": 722,
      "Ġtijd": 723,
      "Ġtegen": 724,
      "agen": 725,
      "Ġversch": 726,
      "Ġex": 727,
      "Ġzou": 728,
      "atuur": 729,
      "roe": 730,
      "Ġdi": 731,
      "form": 732,
      "uid": 733,
      "ks": 734,
      "ĠNeder": 735,
      "Ġdus": 736,
      "ĠVoor": 737,
      "ussen": 738,
      "oren": 739,
      "Ġhad": 740,
      "ui": 741,
      "Ġbeh": 742,
      "oer": 743,
      "Ġkw": 744,
      "eg": 745,
      "Ġgaat": 746,
      "Ġnieuwe": 747,
      "ĠOn": 748,
      "ijden": 749,
      "ĠAls": 750,
      "Ġzal": 751,
      "Ġplaat": 752,
      "Ġmogelijk": 753,
      "Ġwerd": 754,
      "ĠDeze": 755,
      "ĠDat": 756,
      "nem": 757,
      "Ġged": 758,
      "mer": 759,
      "tijd": 760,
      "uiten": 761,
      "kken": 762,
      "Ġbesch": 763,
      "ĠNederland": 764,
      "oet": 765,
      "ĠJe": 766,
      "Ġ19": 767,
      "Ġeven": 768,
      "Ġcont": 769,
      "Ġ6": 770,
      "Ġverk": 771,
      "Ġbez": 772,
      "wer": 773,
      "gens": 774,
      "Ġpers": 775,
      "Ġie": 776,
      "vol": 777,
      "geb": 778,
      "Ġsamen": 779,
      "ater": 780,
      "are": 781,
      "Ġhou": 782,
      "aag": 783,
      "onden": 784,
      "Ġdag": 785,
      "Ġmensen": 786,
      "Ġvin": 787,
      "ds": 788,
      "Ġverb": 789,
      "rijk": 790,
      "ger": 791,
      "pp": 792,
      "Ġkrij": 793,
      "Ġ).": 794,
      "oven": 795,
      "Ġkom": 796,
      "Ġdoen": 797,
      "Ġor": 798,
      "Ġbinnen": 799,
      "ne": 800,
      "Ġou": 801,
      "els": 802,
      "van": 803,
      "ont": 804,
      "Ġkomen": 805,
      "ell": 806,
      "iets": 807,
      "Ġko": 808,
      "Ġmoo": 809,
      "Ġpr": 810,
      "eu": 811,
      "Ġeerste": 812,
      "Ġheel": 813,
      "Ġlang": 814,
      "dien": 815,
      "ĠMaar": 816,
      "Ġalleen": 817,
      "io": 818,
      "ult": 819,
      "ĠEr": 820,
      "iden": 821,
      "Ġinter": 822,
      "ĠâĢľ": 823,
      "ders": 824,
      "me": 825,
      "kom": 826,
      "Ġstaat": 827,
      "bs": 828,
      "maal": 829,
      "illen": 830,
      "Ġhand": 831,
      "ran": 832,
      "ragen": 833,
      "Ġgel": 834,
      "eem": 835,
      "ment": 836,
      "Ġzoals": 837,
      "rie": 838,
      "ess": 839,
      "ust": 840,
      "dig": 841,
      "zelf": 842,
      "ĠDaar": 843,
      "Ġlaat": 844,
      "dag": 845,
      "rijf": 846,
      "Ġ7": 847,
      "ĠVer": 848,
      "kend": 849,
      "ĠMet": 850,
      "beeld": 851,
      "Ġmoe": 852,
      "Ġgrote": 853,
      "itie": 854,
      "Ġmin": 855,
      "lie": 856,
      "Ġvrij": 857,
      "ce": 858,
      "heden": 859,
      "tal": 860,
      "of": 861,
      "ĠBe": 862,
      "Ã©n": 863,
      "Ġecht": 864,
      "ron": 865,
      "aties": 866,
      "Ġbelang": 867,
      "Ġad": 868,
      "ĠBij": 869,
      "Ġblij": 870,
      "amer": 871,
      "ree": 872,
      "Ġhele": 873,
      "Ġzw": 874,
      "Ġ8": 875,
      "Ġzit": 876,
      "oof": 877,
      "ling": 878,
      "ocht": 879,
      "Ġzien": 880,
      "ster": 881,
      "Ġprodu": 882,
      "ĠOok": 883,
      "Ġtussen": 884,
      "aast": 885,
      "lijke": 886,
      "if": 887,
      "Ġleven": 888,
      "akk": 889,
      "Ġgele": 890,
      "huis": 891,
      "ĠVan": 892,
      "Ġelk": 893,
      "Ġaltijd": 894,
      "Ġnatuur": 895,
      "ow": 896,
      "Ġvert": 897,
      "Ġsnel": 898,
      "Ġden": 899,
      "int": 900,
      "ert": 901,
      "ss": 902,
      "Ġhuis": 903,
      "pt": 904,
      "uro": 905,
      "Ġterug": 906,
      "Ġkomt": 907,
      "Ġhel": 908,
      "iss": 909,
      "Ġgroot": 910,
      "Ġkinder": 911,
      "cten": 912,
      "Ġverschillen": 913,
      "stand": 914,
      "Ġzij": 915,
      "eek": 916,
      "ijdens": 917,
      "ens": 918,
      "zien": 919,
      "komen": 920,
      "Ġaut": 921,
      "rek": 922,
      "Ġvia": 923,
      "deel": 924,
      "oeken": 925,
      "Ġmij": 926,
      "Ġrecht": 927,
      "ool": 928,
      "ard": 929,
      "formatie": 930,
      "iding": 931,
      "zet": 932,
      "odig": 933,
      "Ġ0": 934,
      "all": 935,
      "Ġ9": 936,
      "anis": 937,
      "Ġbep": 938,
      "anden": 939,
      "ding": 940,
      "zoek": 941,
      "ation": 942,
      "iddel": 943,
      "Ġachter": 944,
      "Ġ%": 945,
      "Ġgesch": 946,
      "unt": 947,
      "Ġieder": 948,
      "atis": 949,
      "Ġhem": 950,
      "Ġtra": 951,
      "au": 952,
      "Ġ10": 953,
      "Ġdeel": 954,
      "ri": 955,
      "ame": 956,
      "Ġvrouw": 957,
      "ullen": 958,
      "ĠWij": 959,
      "Ġtoch": 960,
      "allen": 961,
      "ĠÃ©": 962,
      "Ġplaats": 963,
      "Ġprob": 964,
      "aart": 965,
      "oede": 966,
      "oep": 967,
      "Ġiets": 968,
      "av": 969,
      "erg": 970,
      "zicht": 971,
      "ijken": 972,
      "ĠAn": 973,
      "Ġwebs": 974,
      "ĠGe": 975,
      "wel": 976,
      "Ġmoeten": 977,
      "oten": 978,
      "Ġnet": 979,
      "ade": 980,
      "ram": 981,
      "Ġch": 982,
      "Ġeens": 983,
      "Ġverg": 984,
      "Ġher": 985,
      "Ġuur": 986,
      "eert": 987,
      "oeg": 988,
      "Ġverschillende": 989,
      "Ġ200": 990,
      "ood": 991,
      "Ġhoog": 992,
      "Ġfot": 993,
      "eerde": 994,
      "wik": 995,
      "Ġken": 996,
      "ied": 997,
      "ĠZe": 998,
      "Ġverh": 999,
      "door": 1000,
      "eest": 1001,
      "est": 1002,
      "Ġweg": 1003,
      "Ġlaten": 1004,
      "Ġlig": 1005,
      "woord": 1006,
      "ĠZo": 1007,
      "aliteit": 1008,
      "Ġruim": 1009,
      "Ġ00": 1010,
      "ark": 1011,
      "enten": 1012,
      "ĠÃ©Ã©n": 1013,
      "Ġvl": 1014,
      "Ġomdat": 1015,
      "ĠHij": 1016,
      "eur": 1017,
      "Ġinformatie": 1018,
      "cc": 1019,
      "ĠâĢĿ": 1020,
      "anneer": 1021,
      "Ġopen": 1022,
      "ĠâĢĵ": 1023,
      "bl": 1024,
      "iel": 1025,
      "ruk": 1026,
      "erm": 1027,
      "ost": 1028,
      "aad": 1029,
      "Ġart": 1030,
      "ill": 1031,
      "andel": 1032,
      "oot": 1033,
      "ikt": 1034,
      "Ġgemaakt": 1035,
      "amp": 1036,
      "ieden": 1037,
      "ud": 1038,
      "ellen": 1039,
      "Ġaantal": 1040,
      "eft": 1041,
      "anten": 1042,
      "iken": 1043,
      "Ġbuiten": 1044,
      "ina": 1045,
      "Ġsu": 1046,
      "Ġbeste": 1047,
      "assen": 1048,
      "Ġsex": 1049,
      "mee": 1050,
      "rien": 1051,
      "ĠHier": 1052,
      "Ġzonder": 1053,
      "Ġbev": 1054,
      "orgen": 1055,
      "ĠSp": 1056,
      "Ġstaan": 1057,
      "cl": 1058,
      "Ġbelangrijk": 1059,
      "over": 1060,
      "Ġstee": 1061,
      "Ġgek": 1062,
      "rijs": 1063,
      "ijf": 1064,
      "Ġra": 1065,
      "Ġgeh": 1066,
      "ggen": 1067,
      "Ġverder": 1068,
      "erv": 1069,
      "Ġvolgen": 1070,
      "Ġwin": 1071,
      "Ġvak": 1072,
      "Ġorg": 1073,
      "ieren": 1074,
      "Ġgoede": 1075,
      "oem": 1076,
      "Ġten": 1077,
      "Ġaange": 1078,
      "Ġalles": 1079,
      "ader": 1080,
      "oort": 1081,
      "Ġnodig": 1082,
      "Ġspec": 1083,
      "ĠOm": 1084,
      "line": 1085,
      "onen": 1086,
      "Ġvinden": 1087,
      "pro": 1088,
      "Ġbedrijf": 1089,
      "rijven": 1090,
      "ichting": 1091,
      "Ġjon": 1092,
      "Ġkinderen": 1093,
      "Ġdien": 1094,
      "ov": 1095,
      "Ġpersoon": 1096,
      "ĠCh": 1097,
      "Ġnl": 1098,
      "staan": 1099,
      "elt": 1100,
      "Ġ&": 1101,
      "Ġwaren": 1102,
      "ĠWat": 1103,
      "Ġweten": 1104,
      "Ġpart": 1105,
      "Ġzeer": 1106,
      "ay": 1107,
      "Ġerg": 1108,
      "arm": 1109,
      "Ġder": 1110,
      "anc": 1111,
      "antie": 1112,
      "Ġgeven": 1113,
      "ĠSch": 1114,
      "ilm": 1115,
      "Ġsteeds": 1116,
      "Ġtijdens": 1117,
      "tra": 1118,
      "Ġelkaar": 1119,
      "uin": 1120,
      "Ġcontact": 1121,
      "Ġple": 1122,
      "oofd": 1123,
      "ire": 1124,
      "nis": 1125,
      "Ġverl": 1126,
      "omm": 1127,
      "gevens": 1128,
      "Ġ),": 1129,
      "Ġcomp": 1130,
      "Ġkeer": 1131,
      "plaat": 1132,
      "Ġlu": 1133,
      "Ġontwik": 1134,
      "bare": 1135,
      "ari": 1136,
      "end": 1137,
      "Ġgeld": 1138,
      "voorbeeld": 1139,
      "cent": 1140,
      "Ġmaakt": 1141,
      "man": 1142,
      "Ġboven": 1143,
      "ob": 1144,
      "Ġverz": 1145,
      "Ġland": 1146,
      "Ġhebt": 1147,
      "Ġ18": 1148,
      "kker": 1149,
      "iging": 1150,
      "Ġverw": 1151,
      "olle": 1152,
      "Ġverm": 1153,
      "aken": 1154,
      "ure": 1155,
      "Ġwereld": 1156,
      "igheid": 1157,
      "ink": 1158,
      "Ġvast": 1159,
      "Ġvorm": 1160,
      "pe": 1161,
      "Ġthe": 1162,
      "ieke": 1163,
      "Ġjaren": 1164,
      "stelling": 1165,
      "Ġgratis": 1166,
      "vl": 1167,
      "Ġber": 1168,
      "bo": 1169,
      "Ġmag": 1170,
      "Ġzeker": 1171,
      "aas": 1172,
      "qu": 1173,
      "Ġwerken": 1174,
      "na": 1175,
      "emen": 1176,
      "vang": 1177,
      "Ġsle": 1178,
      "king": 1179,
      "Ġbent": 1180,
      "Ġvaak": 1181,
      "deren": 1182,
      "Ġwebsite": 1183,
      "ffen": 1184,
      "orn": 1185,
      "Ġstr": 1186,
      "delen": 1187,
      "Ġrond": 1188,
      "etten": 1189,
      "Ġpre": 1190,
      "waar": 1191,
      "Ġdire": 1192,
      "iÃ«n": 1193,
      "Ġkeu": 1194,
      "Ġmis": 1195,
      "achten": 1196,
      "Ġerv": 1197,
      "gaan": 1198,
      "Ġwant": 1199,
      "ect": 1200,
      "Ġapp": 1201,
      "Ġger": 1202,
      "houden": 1203,
      "Ġorganis": 1204,
      "Ġ15": 1205,
      "alis": 1206,
      "eil": 1207,
      "mat": 1208,
      "Ġbijvoorbeeld": 1209,
      "Ġgraag": 1210,
      "sc": 1211,
      "iaal": 1212,
      "etje": 1213,
      "voer": 1214,
      "âĤ": 1215,
      "Ġwillen": 1216,
      "weg": 1217,
      "âĤ¬": 1218,
      "Ġbere": 1219,
      "vers": 1220,
      "chn": 1221,
      "ees": 1222,
      "gem": 1223,
      "Ġfoto": 1224,
      "Ġwater": 1225,
      "Ġlever": 1226,
      "les": 1227,
      "ive": 1228,
      "Ġvind": 1229,
      "veel": 1230,
      "oning": 1231,
      "Ġbesl": 1232,
      "Ġminder": 1233,
      "ĠLe": 1234,
      "ĠNa": 1235,
      "Ġ12": 1236,
      "Ġbas": 1237,
      "ode": 1238,
      "Ġreg": 1239,
      "Ġzorg": 1240,
      "Ġkrijgen": 1241,
      "ef": 1242,
      "ĠDoor": 1243,
      "Ã¯": 1244,
      "lo": 1245,
      "tre": 1246,
      "Ġpol": 1247,
      "Ġgl": 1248,
      "rag": 1249,
      "tu": 1250,
      "uz": 1251,
      "Ġ[": 1252,
      "Ġmil": 1253,
      "Ġmeest": 1254,
      "dere": 1255,
      "doen": 1256,
      "Ġstuk": 1257,
      "Ġmooie": 1258,
      "Ġmooi": 1259,
      "Ġdrie": 1260,
      "Ġgewoon": 1261,
      "stig": 1262,
      "iz": 1263,
      "Ġjul": 1264,
      "gele": 1265,
      "zonder": 1266,
      "ĠAm": 1267,
      "ans": 1268,
      "ett": 1269,
      "arte": 1270,
      "aring": 1271,
      "Ġres": 1272,
      "Ġvolle": 1273,
      "Ġvragen": 1274,
      "Ġrij": 1275,
      "gang": 1276,
      "Ġtoen": 1277,
      "Ġverd": 1278,
      "Ġvrien": 1279,
      "Ġnatuurlijk": 1280,
      "zaam": 1281,
      "Ġboek": 1282,
      "geving": 1283,
      "Ġweet": 1284,
      "gd": 1285,
      "arkt": 1286,
      "Ġmanier": 1287,
      "urs": 1288,
      "Ġbew": 1289,
      "Ġgesp": 1290,
      "Ġartik": 1291,
      "Ġhoofd": 1292,
      "Ġnemen": 1293,
      "mand": 1294,
      "Ġact": 1295,
      "Ġmaat": 1296,
      "Ġlaatste": 1297,
      "ieten": 1298,
      "ach": 1299,
      "Ġwelke": 1300,
      "aald": 1301,
      "Ġ.âĢ": 1302,
      "Ġregel": 1303,
      "Ġide": 1304,
      "one": 1305,
      "Ġproble": 1306,
      "mm": 1307,
      "Ġzullen": 1308,
      "Ġgebruikt": 1309,
      "Ġonline": 1310,
      "eken": 1311,
      "ĠâĤ¬": 1312,
      "Ġlekker": 1313,
      "Ġhouden": 1314,
      "Ġjouw": 1315,
      "ĠHoe": 1316,
      "ĠAr": 1317,
      "Ġstad": 1318,
      "gram": 1319,
      "Ġjij": 1320,
      "Ġzie": 1321,
      "ice": 1322,
      "Ġkn": 1323,
      "Ġaanb": 1324,
      "Ġbr": 1325,
      "gest": 1326,
      "Ġmom": 1327,
      "slag": 1328,
      "Ġget": 1329,
      "ĠWil": 1330,
      "akkelijk": 1331,
      "str": 1332,
      "oos": 1333,
      "Ġsy": 1334,
      "Ġzoek": 1335,
      "Ġgere": 1336,
      "Ġth": 1337,
      "Ġlicht": 1338,
      "ĠSe": 1339,
      "Ġgeeft": 1340,
      "ĠBel": 1341,
      "tje": 1342,
      "Ġgemeen": 1343,
      "houd": 1344,
      "Ġbren": 1345,
      "Ġweek": 1346,
      "ile": 1347,
      "eter": 1348,
      "Ġzodat": 1349,
      "Ġonderzoek": 1350,
      "Ġmed": 1351,
      "reken": 1352,
      "stellen": 1353,
      "Ġsh": 1354,
      "Ġinst": 1355,
      "Ġprof": 1356,
      "Ġgest": 1357,
      "wijs": 1358,
      "Ġ*": 1359,
      "Ġintern": 1360,
      "ĠRe": 1361,
      "Ġbasis": 1362,
      "Ġadv": 1363,
      "Ġvanaf": 1364,
      "ĠEuro": 1365,
      "Ġanders": 1366,
      "Ġtele": 1367,
      "Ġbeter": 1368,
      "Ġbeschik": 1369,
      "Ġgebruiken": 1370,
      "Ġleuk": 1371,
      "dracht": 1372,
      "ject": 1373,
      "Ġfun": 1374,
      "Ġmede": 1375,
      "Ġvindt": 1376,
      "zelfde": 1377,
      "Ġ30": 1378,
      "Ġaanv": 1379,
      "Ġslecht": 1380,
      "Ġdagen": 1381,
      "oss": 1382,
      "Ġvooral": 1383,
      "Ġkon": 1384,
      "Ġkleine": 1385,
      "Ġheer": 1386,
      "con": 1387,
      "ins": 1388,
      "Ġsm": 1389,
      "dige": 1390,
      "Ġextra": 1391,
      "Ġpaar": 1392,
      "Ġwanneer": 1393,
      "lingen": 1394,
      "Ġvolgende": 1395,
      "Ġpracht": 1396,
      "bru": 1397,
      "Ġfilm": 1398,
      "kele": 1399,
      "rit": 1400,
      "akken": 1401,
      "Ġauto": 1402,
      "Ġste": 1403,
      "Ġ]": 1404,
      "annen": 1405,
      "urg": 1406,
      "bouw": 1407,
      "Ġzelfs": 1408,
      "Ġim": 1409,
      "ĠPro": 1410,
      "ulp": 1411,
      "Ġcl": 1412,
      "Ġap": 1413,
      "Ġkwaliteit": 1414,
      "antwoord": 1415,
      "Ġoor": 1416,
      "rum": 1417,
      "gr": 1418,
      "ĠAan": 1419,
      "Ġelke": 1420,
      "ĠDan": 1421,
      "kamer": 1422,
      "ĠMar": 1423,
      "Ġeind": 1424,
      "zij": 1425,
      "reven": 1426,
      "olog": 1427,
      "ijnen": 1428,
      "leiding": 1429,
      "iale": 1430,
      "oeren": 1431,
      "ooit": 1432,
      "Ġfe": 1433,
      "Ġhelemaal": 1434,
      "ets": 1435,
      "ĠHe": 1436,
      "ĠTe": 1437,
      "uurt": 1438,
      "oms": 1439,
      "komst": 1440,
      "ga": 1441,
      "Ġwilt": 1442,
      "itu": 1443,
      "Ġbouw": 1444,
      "Ġzon": 1445,
      "Ġvraag": 1446,
      "amelijk": 1447,
      "zeker": 1448,
      "Ġprijs": 1449,
      "Ġligt": 1450,
      "raf": 1451,
      "uist": 1452,
      "ras": 1453,
      "iviteit": 1454,
      "ijkt": 1455,
      "ler": 1456,
      "Ġmaand": 1457,
      "Ġmoment": 1458,
      "Ġtre": 1459,
      "Ġkrijgt": 1460,
      "Ġun": 1461,
      "bin": 1462,
      "Ġvier": 1463,
      "Ġblijven": 1464,
      "Ġvoorzien": 1465,
      "kende": 1466,
      "Ġdirect": 1467,
      "oorden": 1468,
      "Ġopt": 1469,
      "ord": 1470,
      "gramma": 1471,
      "Ġ16": 1472,
      "ubl": 1473,
      "Ġga": 1474,
      "Ġ11": 1475,
      "Ġveil": 1476,
      "Ġdoel": 1477,
      "Ġleer": 1478,
      "Ġenkele": 1479,
      "bed": 1480,
      "ember": 1481,
      "ib": 1482,
      "ple": 1483,
      "ĠUit": 1484,
      "aanse": 1485,
      "Ġopl": 1486,
      "Ġlief": 1487,
      "Ġgeval": 1488,
      "naast": 1489,
      "Ġspeel": 1490,
      "Ġrel": 1491,
      "Ġuitge": 1492,
      "ate": 1493,
      "Ġschool": 1494,
      "ids": 1495,
      "ner": 1496,
      "werking": 1497,
      "angen": 1498,
      "agina": 1499,
      "co": 1500,
      "Ġcolle": 1501,
      "Ġhuid": 1502,
      "Ġnooit": 1503,
      "elden": 1504,
      "iÃ«le": 1505,
      "vou": 1506,
      "Ġallemaal": 1507,
      "Ġklein": 1508,
      "Ġgrond": 1509,
      "Ġduid": 1510,
      "igd": 1511,
      "atief": 1512,
      "Ġkop": 1513,
      "Ġcent": 1514,
      "alt": 1515,
      "ook": 1516,
      "Ġrest": 1517,
      "our": 1518,
      "Ġstand": 1519,
      "Ġ14": 1520,
      "sk": 1521,
      "Ġkant": 1522,
      "Ġ17": 1523,
      "Ġinge": 1524,
      "aden": 1525,
      "get": 1526,
      "Ġnaam": 1527,
      "chten": 1528,
      "Ġontwikkel": 1529,
      "Ġthuis": 1530,
      "ĠBl": 1531,
      "schien": 1532,
      "Ġkosten": 1533,
      "schapp": 1534,
      "Ġwoon": 1535,
      "Ġzitten": 1536,
      "oge": 1537,
      "Ġdoet": 1538,
      "Ġeerst": 1539,
      "Ġind": 1540,
      "Ġartikel": 1541,
      "Ġtechn": 1542,
      "Ġgegevens": 1543,
      "Ġele": 1544,
      "Ġwerden": 1545,
      "Ġtweede": 1546,
      "inds": 1547,
      "ĠAlle": 1548,
      "Ġechter": 1549,
      "ving": 1550,
      "Ġ25": 1551,
      "Ġbek": 1552,
      "Ġkennis": 1553,
      "Ġgroep": 1554,
      "aalde": 1555,
      "Ġafge": 1556,
      "isten": 1557,
      "Ġkie": 1558,
      "Ġkwam": 1559,
      "ium": 1560,
      "steem": 1561,
      "middel": 1562,
      "Ġproducten": 1563,
      "sterd": 1564,
      "Ġfl": 1565,
      "erie": 1566,
      "ogen": 1567,
      "eling": 1568,
      "Ġkijken": 1569,
      "ĠOnder": 1570,
      "Ġan": 1571,
      "Ġgroe": 1572,
      "Ġwaarin": 1573,
      "iedt": 1574,
      "Ġkleur": 1575,
      "Ġiedereen": 1576,
      "aakte": 1577,
      "mp": 1578,
      "ail": 1579,
      "ĠVol": 1580,
      "ĠEurop": 1581,
      "ĠDie": 1582,
      "raak": 1583,
      "Ġvrouwen": 1584,
      "Ġgehe": 1585,
      "Ġav": 1586,
      "Ġ100": 1587,
      "vangen": 1588,
      "ts": 1589,
      "rip": 1590,
      "Ġopge": 1591,
      "Ġfin": 1592,
      "Ġi": 1593,
      "Ġbeteken": 1594,
      "ange": 1595,
      "ergie": 1596,
      "Ġleu": 1597,
      "Ġdraa": 1598,
      "Ġbekend": 1599,
      "wijl": 1600,
      "oelen": 1601,
      "Ġeff": 1602,
      "ĠOver": 1603,
      "ĠEl": 1604,
      "Ġgemeente": 1605,
      "ĠGro": 1606,
      "uizen": 1607,
      "ĠNederlandse": 1608,
      "Ġmid": 1609,
      "Ġbele": 1610,
      "otel": 1611,
      "groe": 1612,
      "Ġeuro": 1613,
      "Ġwaardoor": 1614,
      "sterdam": 1615,
      "rokken": 1616,
      "nieuw": 1617,
      "hop": 1618,
      "Ġwaarbij": 1619,
      "sie": 1620,
      "Ġsc": 1621,
      "ummer": 1622,
      "Ġzowel": 1623,
      "entie": 1624,
      "oopt": 1625,
      "ys": 1626,
      "erkt": 1627,
      "Ġacc": 1628,
      "aling": 1629,
      "ign": 1630,
      "Ġmuz": 1631,
      "Ġverander": 1632,
      "Ġcre": 1633,
      "Ġduur": 1634,
      "Ġne": 1635,
      "Ġkre": 1636,
      "rijd": 1637,
      "Ġreken": 1638,
      "ijen": 1639,
      "rakt": 1640,
      "Ġvriend": 1641,
      "Ġseks": 1642,
      "assage": 1643,
      "ha": 1644,
      "Ġjullie": 1645,
      "ack": 1646,
      "sy": 1647,
      "amil": 1648,
      "ichten": 1649,
      "ijna": 1650,
      "ax": 1651,
      "icatie": 1652,
      "use": 1653,
      "Ġwit": 1654,
      "ĠThe": 1655,
      "Ġbijzonder": 1656,
      "mb": 1657,
      "sche": 1658,
      "ĠY": 1659,
      "aars": 1660,
      "Ġkort": 1661,
      "ĠKl": 1662,
      "Ġtop": 1663,
      "ĠAf": 1664,
      "ial": 1665,
      "ĠÂ": 1666,
      "Ġsterk": 1667,
      "Ġ13": 1668,
      "ces": 1669,
      "verse": 1670,
      "Ġniets": 1671,
      "Ġruimte": 1672,
      "leg": 1673,
      "osten": 1674,
      "bel": 1675,
      "daag": 1676,
      "Ġblijft": 1677,
      "Ġzorgen": 1678,
      "Ġactie": 1679,
      "clus": 1680,
      "Ġ50": 1681,
      "Ġkind": 1682,
      "Ġverst": 1683,
      "aire": 1684,
      "ute": 1685,
      "nemers": 1686,
      "orno": 1687,
      "out": 1688,
      "Ġbetre": 1689,
      "pte": 1690,
      "ĠOf": 1691,
      "Ġging": 1692,
      "Ġbiedt": 1693,
      "Ġresult": 1694,
      "air": 1695,
      "werp": 1696,
      "Ġjou": 1697,
      "Ġstap": 1698,
      "ĠAmsterdam": 1699,
      "EN": 1700,
      "Ġkeuze": 1701,
      "Ġbezoek": 1702,
      "kl": 1703,
      "Ġhadden": 1704,
      "Ġgebied": 1705,
      "orp": 1706,
      "foon": 1707,
      "Ġ|": 1708,
      "Ġneem": 1709,
      "room": 1710,
      "Ġdr": 1711,
      "genomen": 1712,
      "up": 1713,
      "Ġvele": 1714,
      "Ġwinkel": 1715,
      "vin": 1716,
      "Ġhelpen": 1717,
      "Ġvor": 1718,
      "Ġvolgens": 1719,
      "ick": 1720,
      "Ġ.âĢĿ": 1721,
      "Ġspel": 1722,
      "Ġvanuit": 1723,
      "ĠPl": 1724,
      "recht": 1725,
      "leden": 1726,
      "uiste": 1727,
      "Ġduidelijk": 1728,
      "Ġbieden": 1729,
      "Ġrol": 1730,
      "Ġgep": 1731,
      "oden": 1732,
      "uten": 1733,
      "zig": 1734,
      "ER": 1735,
      "Ġgevol": 1736,
      "Ġdruk": 1737,
      "sb": 1738,
      "Ã«n": 1739,
      "Ġiemand": 1740,
      "Ġtuin": 1741,
      "Ġbestaat": 1742,
      "Ġoude": 1743,
      "orgt": 1744,
      "Ġwerkt": 1745,
      "Ġzeggen": 1746,
      "rik": 1747,
      "Ġbre": 1748,
      "inig": 1749,
      "Ġlid": 1750,
      "Ġsoc": 1751,
      "andeling": 1752,
      "Ġvakantie": 1753,
      "Ġwie": 1754,
      "Ġproduct": 1755,
      "Ġeenvou": 1756,
      "gelopen": 1757,
      "Ġgedaan": 1758,
      "Ġeten": 1759,
      "Ġbijna": 1760,
      "erde": 1761,
      "Ġzat": 1762,
      "app": 1763,
      "Ġvoldoen": 1764,
      "Ġmater": 1765,
      "ong": 1766,
      "Ġlich": 1767,
      "ĠDen": 1768,
      "Ã¯n": 1769,
      "Ġbeetje": 1770,
      "orden": 1771,
      "ames": 1772,
      "Ġleuke": 1773,
      "ankelijk": 1774,
      "veren": 1775,
      "Ġbestaan": 1776,
      "Ġnamelijk": 1777,
      "ek": 1778,
      "ijst": 1779,
      "Ġ..": 1780,
      "ĠIs": 1781,
      "orte": 1782,
      "Ġdec": 1783,
      "Ġjuiste": 1784,
      "val": 1785,
      "unten": 1786,
      "Ġblijk": 1787,
      "oud": 1788,
      "ore": 1789,
      "Ġbro": 1790,
      "Ġspelen": 1791,
      "Ġbrengen": 1792,
      "Ġteam": 1793,
      "its": 1794,
      "Ġdiverse": 1795,
      "Ġvroe": 1796,
      "ĠDaarnaast": 1797,
      "Ġhal": 1798,
      "Ġhen": 1799,
      "Ġker": 1800,
      "Ġpas": 1801,
      "Ġvide": 1802,
      "Ġopdracht": 1803,
      "atieve": 1804,
      "nemen": 1805,
      "Ġongev": 1806,
      "ome": 1807,
      "Ġgeweest": 1808,
      "ĠWaar": 1809,
      "dacht": 1810,
      "ante": 1811,
      "Ġomgeving": 1812,
      "ente": 1813,
      "imaal": 1814,
      "olen": 1815,
      "pass": 1816,
      "erecht": 1817,
      "Ġx": 1818,
      "her": 1819,
      "min": 1820,
      "dst": 1821,
      "Ġvervol": 1822,
      "enen": 1823,
      "aap": 1824,
      "ĠGr": 1825,
      "aste": 1826,
      "Ġwoning": 1827,
      "Ġfamil": 1828,
      "ervice": 1829,
      "lex": 1830,
      "werken": 1831,
      "Ġtrain": 1832,
      "Ġcombin": 1833,
      "Ġ24": 1834,
      "aur": 1835,
      "Ġoff": 1836,
      "isc": 1837,
      "ĠMijn": 1838,
      "sel": 1839,
      "Ġziet": 1840,
      "oft": 1841,
      "Ġlater": 1842,
      "ijl": 1843,
      "Ġmaan": 1844,
      "Ġzom": 1845,
      "onde": 1846,
      "Ġeigenlijk": 1847,
      "Ġzegt": 1848,
      "ister": 1849,
      "Ġzetten": 1850,
      "Ġplek": 1851,
      "Ġkunst": 1852,
      "Ġvis": 1853,
      "ese": 1854,
      "ck": 1855,
      "spro": 1856,
      "goed": 1857,
      "Ġoud": 1858,
      "Ġprakt": 1859,
      "iode": 1860,
      "rift": 1861,
      "Ġlie": 1862,
      "oekt": 1863,
      "steun": 1864,
      "cept": 1865,
      "Ġmot": 1866,
      "auw": 1867,
      "Ġervaring": 1868,
      "Ġcomm": 1869,
      "elijks": 1870,
      "ĠBelg": 1871,
      "Ġverwij": 1872,
      "win": 1873,
      "Ġgelegen": 1874,
      "ĠWanneer": 1875,
      "Ġaanwe": 1876,
      "Ġtek": 1877,
      "Ġbedrijven": 1878,
      "az": 1879,
      "Ġmiddel": 1880,
      "Ġlucht": 1881,
      "Ġovereen": 1882,
      "ĠVl": 1883,
      "rak": 1884,
      "actie": 1885,
      "Ġdienst": 1886,
      "ator": 1887,
      "Ġ2018": 1888,
      "oerd": 1889,
      "erende": 1890,
      "abel": 1891,
      "Ġenergie": 1892,
      "Ġverv": 1893,
      "ris": 1894,
      "Ġbru": 1895,
      "Ġ000": 1896,
      "ionele": 1897,
      "Ġgenoeg": 1898,
      "burg": 1899,
      "inde": 1900,
      "Ġvolledig": 1901,
      "ĠMe": 1902,
      "ĠSex": 1903,
      "gesteld": 1904,
      "Ġgebeur": 1905,
      "Ġet": 1906,
      "Ġlijkt": 1907,
      "ĠOnze": 1908,
      "Ġstellen": 1909,
      "Ġsport": 1910,
      "Ġmilj": 1911,
      "Ġgelijk": 1912,
      "Ġmisschien": 1913,
      "Ġenige": 1914,
      "Ġplaatsen": 1915,
      "ering": 1916,
      "cte": 1917,
      "Ġkracht": 1918,
      "Ġmuziek": 1919,
      "ase": 1920,
      "ons": 1921,
      "Ġterwijl": 1922,
      "Ġtran": 1923,
      "Ġlangs": 1924,
      "Ġloc": 1925,
      "Ġidee": 1926,
      "Ġdes": 1927,
      "Ġverhaal": 1928,
      "ico": 1929,
      "Ġhard": 1930,
      "orie": 1931,
      "...": 1932,
      "Ġpat": 1933,
      "ĠBen": 1934,
      "Ġweinig": 1935,
      "Ġbegin": 1936,
      "och": 1937,
      "Ġdaarom": 1938,
      "Ġhart": 1939,
      "Ġprachtige": 1940,
      "ĠNieuw": 1941,
      "Ġvoet": 1942,
      "Ġgeweld": 1943,
      "Ġmarkt": 1944,
      "Ġjong": 1945,
      "Ġsoort": 1946,
      "Ġpos": 1947,
      "Ġlopen": 1948,
      "Ġdenken": 1949,
      "sloten": 1950,
      "Ġmaanden": 1951,
      "Ġint": 1952,
      "oemen": 1953,
      "rouwen": 1954,
      "Ġgebouw": 1955,
      "Ġhoge": 1956,
      "Ġdingen": 1957,
      "Ġkans": 1958,
      "Ġsuper": 1959,
      "Ġklanten": 1960,
      "cces": 1961,
      "Ġsoms": 1962,
      "Ġzorgt": 1963,
      "ĠZij": 1964,
      "omst": 1965,
      "ucht": 1966,
      "Ġslechts": 1967,
      "Ġbeeld": 1968,
      "aalt": 1969,
      "Ġble": 1970,
      "Ġperf": 1971,
      "ateg": 1972,
      "ĠDuit": 1973,
      "Ġuitgeb": 1974,
      "Ġminuten": 1975,
      "Ġpar": 1976,
      "mail": 1977,
      "Ġuiter": 1978,
      "vis": 1979,
      "rol": 1980,
      "Ġstart": 1981,
      "Ġorganisatie": 1982,
      "Ġgeschikt": 1983,
      "ĠNu": 1984,
      "oll": 1985,
      "aardig": 1986,
      "spraak": 1987,
      "Ġkiezen": 1988,
      "Ġlast": 1989,
      "Ġvoel": 1990,
      "Ġfinanc": 1991,
      "Ġklaar": 1992,
      "ips": 1993,
      "matig": 1994,
      "aris": 1995,
      "Ġpubl": 1996,
      "ĠAd": 1997,
      "Ġaandacht": 1998,
      "ry": 1999,
      "Ġleren": 2000,
      "Ġontvang": 2001,
      "Ġmeis": 2002,
      "Ġgeleden": 2003,
      "Ġlichaam": 2004,
      "ific": 2005,
      "Ġvoort": 2006,
      "elijkheid": 2007,
      "ĠWel": 2008,
      "Ġhoogte": 2009,
      "derd": 2010,
      "zak": 2011,
      "Ġwen": 2012,
      "ĠNiet": 2013,
      "Ġdenk": 2014,
      "Ġbeve": 2015,
      "Ġervoor": 2016,
      "vens": 2017,
      "Ġco": 2018,
      "Ġtien": 2019,
      "Ġdicht": 2020,
      "Ġsite": 2021,
      "nemer": 2022,
      "ruct": 2023,
      "Ġmax": 2024,
      "Ġbeschikbaar": 2025,
      "euw": 2026,
      "ging": 2027,
      "Ġgevoel": 2028,
      "Ġweken": 2029,
      "omp": 2030,
      "Ġreden": 2031,
      "vert": 2032,
      "Ġproject": 2033,
      "igh": 2034,
      "Ġprogramma": 2035,
      "ĠMeer": 2036,
      "Ġavond": 2037,
      "tern": 2038,
      "ĠJo": 2039,
      "Ġongeveer": 2040,
      "Ġbestuur": 2041,
      "ober": 2042,
      "lei": 2043,
      "Ġmogelijkheden": 2044,
      "att": 2045,
      "atten": 2046,
      "Ġactiviteit": 2047,
      "Ġhulp": 2048,
      "merik": 2049,
      "Ġfijn": 2050,
      "Ġ+": 2051,
      "Ġmoest": 2052,
      "Ġmeeste": 2053,
      "Ġtelefoon": 2054,
      "Ġeerder": 2055,
      "achte": 2056,
      "Ġbuurt": 2057,
      "onnen": 2058,
      "Ġmens": 2059,
      "Ġvandaag": 2060,
      "elde": 2061,
      "Ġreis": 2062,
      "waarden": 2063,
      "Ġpagina": 2064,
      "Ġkopen": 2065,
      "stellingen": 2066,
      "Ġinsp": 2067,
      "Ġtoek": 2068,
      "Ġgezien": 2069,
      "Ã³": 2070,
      "Ġklant": 2071,
      "ites": 2072,
      "ĠFran": 2073,
      "ĠX": 2074,
      "merk": 2075,
      "Ġlos": 2076,
      "Ġprobleem": 2077,
      "Ġprofess": 2078,
      "Ġ21": 2079,
      "Ġoploss": 2080,
      "werpen": 2081,
      "koop": 2082,
      "Ġsucces": 2083,
      "Ġnorm": 2084,
      "tjes": 2085,
      "iger": 2086,
      "ress": 2087,
      "Ġliggen": 2088,
      "mming": 2089,
      "Ġinternet": 2090,
      "Ġterecht": 2091,
      "Ġmassage": 2092,
      "oenen": 2093,
      "Ġpark": 2094,
      "yp": 2095,
      "ace": 2096,
      "Ġmedewerk": 2097,
      "ning": 2098,
      "beh": 2099,
      "raad": 2100,
      "Ġlange": 2101,
      "ilijk": 2102,
      "Ġgar": 2103,
      "dam": 2104,
      "Ġnaast": 2105,
      "reden": 2106,
      "Ġpolitie": 2107,
      "ratie": 2108,
      "Ġporno": 2109,
      "jaar": 2110,
      "ument": 2111,
      "Ġhotel": 2112,
      "off": 2113,
      "ukk": 2114,
      "Ġcons": 2115,
      "staande": 2116,
      "Ġgezond": 2117,
      "ĠLees": 2118,
      "ian": 2119,
      "Ġzaken": 2120,
      "plaats": 2121,
      "Ġinf": 2122,
      "Ã¨": 2123,
      "zetten": 2124,
      "Ġmodel": 2125,
      "kun": 2126,
      "red": 2127,
      "Ġstem": 2128,
      "keur": 2129,
      "sh": 2130,
      "Ġjuist": 2131,
      "punt": 2132,
      "Ġafgelopen": 2133,
      "Ġaller": 2134,
      "Ġkeuken": 2135,
      "ret": 2136,
      "ril": 2137,
      "Ġmakkelijk": 2138,
      "uni": 2139,
      "Ġvoed": 2140,
      "Ġontwikk": 2141,
      "Ġpop": 2142,
      "afel": 2143,
      "Ġkaart": 2144,
      "mers": 2145,
      "uele": 2146,
      "Ġzin": 2147,
      "Ġeenvoudig": 2148,
      "Ġ22": 2149,
      "resent": 2150,
      "Ġlezen": 2151,
      "Ġsinds": 2152,
      "Ġmeerdere": 2153,
      "Ġmogen": 2154,
      "gever": 2155,
      "Ġmoeilijk": 2156,
      "Ġstu": 2157,
      "stuk": 2158,
      "Ġverantwoord": 2159,
      "Ġwaarde": 2160,
      "reg": 2161,
      "Ġrekening": 2162,
      "own": 2163,
      "ix": 2164,
      "uil": 2165,
      "menten": 2166,
      "uld": 2167,
      "Ġred": 2168,
      "che": 2169,
      "Ġvijf": 2170,
      "th": 2171,
      "ijs": 2172,
      "vorm": 2173,
      "Ġwarm": 2174,
      "itter": 2175,
      "Ġbad": 2176,
      "Ġ199": 2177,
      "Ġdro": 2178,
      "Ġvoorkomen": 2179,
      "ationale": 2180,
      "Ġcm": 2181,
      "Ġhog": 2182,
      "Ġdezelfde": 2183,
      "ph": 2184,
      "standig": 2185,
      "oemd": 2186,
      "Ġmannen": 2187,
      "ww": 2188,
      "verd": 2189,
      "itt": 2190,
      "ulier": 2191,
      "Ġbepaalde": 2192,
      "gegevens": 2193,
      "ĠgeÃ¯n": 2194,
      "Ġgenieten": 2195,
      "Ġzouden": 2196,
      "Ġelekt": 2197,
      "ĠUn": 2198,
      "Ġondersteun": 2199,
      "gels": 2200,
      "oorten": 2201,
      "Ġgra": 2202,
      "Ġzoveel": 2203,
      "Ġgeheel": 2204,
      "ĠGod": 2205,
      "Ġwedst": 2206,
      "sm": 2207,
      "rijzen": 2208,
      "Ġmerk": 2209,
      "Ġgrootste": 2210,
      "vel": 2211,
      "Ġsitu": 2212,
      "Ġschoon": 2213,
      "Ġzoeken": 2214,
      "Ġfeest": 2215,
      "Ġtoekomst": 2216,
      "Ġform": 2217,
      "log": 2218,
      "cies": 2219,
      "amers": 2220,
      "Ġtoepass": 2221,
      "Ġrust": 2222,
      "sluit": 2223,
      "ruim": 2224,
      "ca": 2225,
      "Ġnov": 2226,
      "Ġouders": 2227,
      "Ġeeuw": 2228,
      "Ġbetekent": 2229,
      "Ġjan": 2230,
      "asting": 2231,
      "ident": 2232,
      "Ġfamilie": 2233,
      "indelijk": 2234,
      "bal": 2235,
      "deling": 2236,
      "pel": 2237,
      "Ġtro": 2238,
      "Ġwww": 2239,
      "ager": 2240,
      "Ġwet": 2241,
      "kant": 2242,
      "Ġheerlijk": 2243,
      "Ġkleuren": 2244,
      "ĠâĢĻ.": 2245,
      "Ġgroter": 2246,
      "Ġdo": 2247,
      "zorg": 2248,
      "Ġfeit": 2249,
      "schappen": 2250,
      "Ġvergelijk": 2251,
      "oppen": 2252,
      "mber": 2253,
      "Ġgast": 2254,
      "Ġdelen": 2255,
      "ectie": 2256,
      "Ġhoudt": 2257,
      "fort": 2258,
      "Ġindien": 2259,
      "Ġdoc": 2260,
      "Ġoog": 2261,
      "20": 2262,
      "plicht": 2263,
      "erdag": 2264,
      "ĠHeb": 2265,
      "schrij": 2266,
      "ĠJan": 2267,
      "Ġpriv": 2268,
      "ĠZw": 2269,
      "Ġbezig": 2270,
      "schijn": 2271,
      "oef": 2272,
      "Ġproblemen": 2273,
      "Ġ2017": 2274,
      "ĠTijdens": 2275,
      "kle": 2276,
      "pers": 2277,
      "eed": 2278,
      "ĠCl": 2279,
      "Ġpassen": 2280,
      "Ġenorm": 2281,
      "Ġgegeven": 2282,
      "Ġperiode": 2283,
      "iele": 2284,
      "oit": 2285,
      "Ġblijkt": 2286,
      "iveau": 2287,
      "Ġschade": 2288,
      "Ġvond": 2289,
      "Ġris": 2290,
      "Ġconc": 2291,
      "Ġtoege": 2292,
      "gericht": 2293,
      "Ġechte": 2294,
      "Ġfunct": 2295,
      "ĠEx": 2296,
      "Ġpersonen": 2297,
      "rist": 2298,
      "Ġgezell": 2299,
      "Ġleeft": 2300,
      "ptember": 2301,
      "Ġbegele": 2302,
      "ĠAmerik": 2303,
      "ima": 2304,
      "Ġbal": 2305,
      "Ġvlie": 2306,
      "tt": 2307,
      "sland": 2308,
      "Ġverzeker": 2309,
      "ende": 2310,
      "vent": 2311,
      "ologie": 2312,
      "Ġvre": 2313,
      "igit": 2314,
      "Ġmoeder": 2315,
      "gevoerd": 2316,
      "role": 2317,
      "uari": 2318,
      "Ġokt": 2319,
      "ath": 2320,
      "ukkig": 2321,
      "br": 2322,
      "Ġmeter": 2323,
      "ĠDus": 2324,
      "Ġgroen": 2325,
      "Ġslaap": 2326,
      "ity": 2327,
      "Ġnacht": 2328,
      "kk": 2329,
      "mid": 2330,
      "Ġuitgebre": 2331,
      "won": 2332,
      "Ġvervolgens": 2333,
      "Ġ@": 2334,
      "ware": 2335,
      "eeuw": 2336,
      "Ġvideo": 2337,
      "aurant": 2338,
      "ĠTh": 2339,
      "ĠZijn": 2340,
      "aut": 2341,
      "iment": 2342,
      "issie": 2343,
      "Ġgemakkelijk": 2344,
      "ommige": 2345,
      "Ġ40": 2346,
      "Ġbesp": 2347,
      "Ġenkel": 2348,
      "Ġ2016": 2349,
      "ctor": 2350,
      "Ġfor": 2351,
      "Ġy": 2352,
      "Ġontvangen": 2353,
      "Ġbetrokken": 2354,
      "ue": 2355,
      "Ġpast": 2356,
      "Ġleden": 2357,
      "Ġzet": 2358,
      "akt": 2359,
      "feer": 2360,
      "gelijk": 2361,
      "Ġwaarop": 2362,
      "Ġmei": 2363,
      "volle": 2364,
      "Ġperson": 2365,
      "werkt": 2366,
      "Ġass": 2367,
      "gemeen": 2368,
      "Ġkreeg": 2369,
      "Ġdient": 2370,
      "iÃ«nten": 2371,
      "Ġvers": 2372,
      "ioen": 2373,
      "hankelijk": 2374,
      "Ġseptember": 2375,
      "Ġboeken": 2376,
      "Ġneemt": 2377,
      "Ġonge": 2378,
      "Ġuitvoer": 2379,
      "erend": 2380,
      "Ġwilde": 2381,
      "wege": 2382,
      "Ġplan": 2383,
      "Ġ23": 2384,
      "oom": 2385,
      "Ġgec": 2386,
      "middels": 2387,
      "Ġontde": 2388,
      "Ġstud": 2389,
      "ondag": 2390,
      "Ġadvies": 2391,
      "Ġjanuari": 2392,
      "Ġnovember": 2393,
      "und": 2394,
      "Ġwee": 2395,
      "Ġjuni": 2396,
      "Ġant": 2397,
      "Ġtotaal": 2398,
      "ĠGel": 2399,
      "Ġcommun": 2400,
      "Ġwijze": 2401,
      "sluiten": 2402,
      "Ġnood": 2403,
      "ĠIndien": 2404,
      "Ġmeteen": 2405,
      "Ġpersoonlijke": 2406,
      "Ġ#": 2407,
      "iÃ«nt": 2408,
      "Ġ=": 2409,
      "zing": 2410,
      "Ġogen": 2411,
      "ivers": 2412,
      "Ġbeide": 2413,
      "conom": 2414,
      "Ġloop": 2415,
      "Ġopnieuw": 2416,
      "Ġactiviteiten": 2417,
      "ĠBru": 2418,
      "Ġcult": 2419,
      "urk": 2420,
      "Ġiedere": 2421,
      "Ġkijk": 2422,
      "iers": 2423,
      "Ġverwacht": 2424,
      "etjes": 2425,
      "leven": 2426,
      "ugd": 2427,
      "Ġacht": 2428,
      "slagen": 2429,
      "Ġ2015": 2430,
      "organis": 2431,
      "Ġaanwezig": 2432,
      "ype": 2433,
      "Ġoktober": 2434,
      "Ġschil": 2435,
      "Ġlin": 2436,
      "Ġheen": 2437,
      "Ġnad": 2438,
      "Ġsysteem": 2439,
      "raagt": 2440,
      "Ġbi": 2441,
      "Ġzwem": 2442,
      "Ġamb": 2443,
      "Ġkorte": 2444,
      "Ġarbe": 2445,
      "arige": 2446,
      "port": 2447,
      "Ġsub": 2448,
      "opt": 2449,
      "grond": 2450,
      "Ġwaarmee": 2451,
      "Ġlaag": 2452,
      "Ġlok": 2453,
      "uim": 2454,
      "Ġsche": 2455,
      "yn": 2456,
      "clusief": 2457,
      "gemen": 2458,
      "Ġvoldoende": 2459,
      "etail": 2460,
      "Ġeventu": 2461,
      "Ġvoorb": 2462,
      "dit": 2463,
      "Ġbrand": 2464,
      "mot": 2465,
      "bruik": 2466,
      "Ġvalt": 2467,
      "Ġdoe": 2468,
      "Ġbeginnen": 2469,
      "Ġhoor": 2470,
      "Ġblog": 2471,
      "Ġhoeveel": 2472,
      "Ġbetalen": 2473,
      "Ġwaarom": 2474,
      "ĠTer": 2475,
      "ieu": 2476,
      "Ġgeworden": 2477,
      "jecten": 2478,
      "Ġjonge": 2479,
      "Ġzee": 2480,
      "Ġonderwijs": 2481,
      "Ġdaarna": 2482,
      "Ġrec": 2483,
      "Ġkoff": 2484,
      "gemene": 2485,
      "Ġmoder": 2486,
      "Ġlog": 2487,
      "AN": 2488,
      "izoen": 2489,
      "Ġprecies": 2490,
      "ript": 2491,
      "stof": 2492,
      "deeld": 2493,
      "hand": 2494,
      "ĠNe": 2495,
      "iew": 2496,
      "Ġanderen": 2497,
      "Ġfiets": 2498,
      "ĠSte": 2499,
      "Ġweb": 2500,
      "Ġuite": 2501,
      "ring": 2502,
      "ĠRot": 2503,
      "Ġontwikkeling": 2504,
      "Ġdik": 2505,
      "ĠPr": 2506,
      "boek": 2507,
      "ĠMen": 2508,
      "Ġhalen": 2509,
      "avond": 2510,
      "ĠNoord": 2511,
      "oemde": 2512,
      "oeld": 2513,
      "Ġkrijg": 2514,
      "rank": 2515,
      "kop": 2516,
      "Ġ!!": 2517,
      "Ġoverzicht": 2518,
      "Ġteken": 2519,
      "Ġwaarvan": 2520,
      "groep": 2521,
      "maken": 2522,
      "inn": 2523,
      "Ġgehad": 2524,
      "Ġand": 2525,
      "Ġkru": 2526,
      "wijk": 2527,
      "ica": 2528,
      "Ġderde": 2529,
      "Ġwoord": 2530,
      "ĠQ": 2531,
      "rein": 2532,
      "anning": 2533,
      "ĠNaast": 2534,
      "Ġlocatie": 2535,
      "lem": 2536,
      "plaatst": 2537,
      "ĠSl": 2538,
      "reek": 2539,
      "licht": 2540,
      "Ġserie": 2541,
      "Ġmaart": 2542,
      "Ġverkl": 2543,
      "Ġbescherm": 2544,
      "Ġstond": 2545,
      "Ġhoeft": 2546,
      "zer": 2547,
      "Ġlanger": 2548,
      "inden": 2549,
      "Ġpap": 2550,
      "Ġtrouw": 2551,
      "Ġcombinatie": 2552,
      "Ġnieuws": 2553,
      "Ġproces": 2554,
      "Ġhanden": 2555,
      "anen": 2556,
      "Ġprocent": 2557,
      "ozen": 2558,
      "Ġberoep": 2559,
      "igde": 2560,
      "heids": 2561,
      "Ġgeldt": 2562,
      "Ġmogelijkheid": 2563,
      "schijnlijk": 2564,
      "oth": 2565,
      "Ġbelangrijke": 2566,
      "Ġzei": 2567,
      "gende": 2568,
      "eens": 2569,
      "Ġzaterdag": 2570,
      "met": 2571,
      "Ġgevonden": 2572,
      "offen": 2573,
      "Ġkost": 2574,
      "erken": 2575,
      "Ġhuidige": 2576,
      "Ġbor": 2577,
      "rekken": 2578,
      "Ġdank": 2579,
      "Ġmedewerkers": 2580,
      "Ġmon": 2581,
      "Ġautom": 2582,
      "Ġbank": 2583,
      "Ġrisico": 2584,
      "Ġno": 2585,
      "ah": 2586,
      "dra": 2587,
      "uldig": 2588,
      "markt": 2589,
      "fin": 2590,
      "Ġkamer": 2591,
      "ĠTot": 2592,
      "Ġdon": 2593,
      "Ġsamenwerking": 2594,
      "Ġmiljoen": 2595,
      "terdam": 2596,
      "ĠVeel": 2597,
      "Ġ>": 2598,
      "iep": 2599,
      "Ġapril": 2600,
      "Ġadres": 2601,
      "Ġ....": 2602,
      "wor": 2603,
      "hal": 2604,
      "izen": 2605,
      "ĠAnt": 2606,
      "ise": 2607,
      "Ġja": 2608,
      "uter": 2609,
      "Ġzak": 2610,
      "ooi": 2611,
      "Ġdaarbij": 2612,
      "anger": 2613,
      "staat": 2614,
      "raken": 2615,
      "Ġmob": 2616,
      "ain": 2617,
      "Ġpraktijk": 2618,
      "euken": 2619,
      "Ġles": 2620,
      "Ġgeme": 2621,
      "Ġkil": 2622,
      "umenten": 2623,
      "Ġhoop": 2624,
      "Ġbetreft": 2625,
      "Ġonbe": 2626,
      "ĠBoven": 2627,
      "Ġkerk": 2628,
      "Ġrestaurant": 2629,
      "Ġbehandeling": 2630,
      "Ġprijzen": 2631,
      "Ġ2014": 2632,
      "raal": 2633,
      "Ġdecember": 2634,
      "ograf": 2635,
      "Ġgeboren": 2636,
      "Ġcomfort": 2637,
      "Ġappar": 2638,
      "Ġbedrijfs": 2639,
      "Ġeinde": 2640,
      "rekking": 2641,
      "Ġvormen": 2642,
      "Ġnummer": 2643,
      "gebouw": 2644,
      "Ġaard": 2645,
      "Ġdiensten": 2646,
      "bank": 2647,
      "ĠToen": 2648,
      "wassen": 2649,
      "Ġsfeer": 2650,
      "Ġdigit": 2651,
      "rab": 2652,
      "Ġkap": 2653,
      "Ġuitv": 2654,
      "mper": 2655,
      "Ġrijden": 2656,
      "zier": 2657,
      "ino": 2658,
      "Ġonderdeel": 2659,
      "Ġqu": 2660,
      "Ġwerkzaam": 2661,
      "ement": 2662,
      "Ġhoren": 2663,
      "ijven": 2664,
      "ĠVolgens": 2665,
      "Ġvoer": 2666,
      "Ġopv": 2667,
      "Ġspecif": 2668,
      "Ġzwarte": 2669,
      "IN": 2670,
      "eef": 2671,
      "Ġvle": 2672,
      "Ġhalf": 2673,
      "ĠZuid": 2674,
      "DF": 2675,
      "pport": 2676,
      "ureau": 2677,
      "mak": 2678,
      "Ġveiligheid": 2679,
      "Ġvroeg": 2680,
      "bele": 2681,
      "straat": 2682,
      "iedenis": 2683,
      "Ġterm": 2684,
      "olland": 2685,
      "ox": 2686,
      "ĠDaarom": 2687,
      "Ġverplicht": 2688,
      "Ġzondag": 2689,
      "bren": 2690,
      "Ġmidden": 2691,
      "Ġzicht": 2692,
      "stemming": 2693,
      "Ġverzam": 2694,
      "Ġliefde": 2695,
      "Ġservice": 2696,
      "Ġafstand": 2697,
      "Ġ.\"": 2698,
      "richt": 2699,
      "Ġmedia": 2700,
      "ette": 2701,
      "Ġregelmatig": 2702,
      "aus": 2703,
      "Ġzoekt": 2704,
      "Ġbegint": 2705,
      "Ġent": 2706,
      "ĠOnt": 2707,
      "Ġband": 2708,
      "Ġstandaard": 2709,
      "Ġaanp": 2710,
      "Ġresultaat": 2711,
      "Ġstuden": 2712,
      "Ġeis": 2713,
      "ule": 2714,
      "Ġdieren": 2715,
      "ieken": 2716,
      "Ġtekst": 2717,
      "Ġbekijken": 2718,
      "Ġonver": 2719,
      "Ġleeftijd": 2720,
      "ĠHel": 2721,
      "apt": 2722,
      "loop": 2723,
      "bedrijf": 2724,
      "Ġnauw": 2725,
      "Ġverbl": 2726,
      "apen": 2727,
      "ĠRotterdam": 2728,
      "vloed": 2729,
      "berg": 2730,
      "urt": 2731,
      "ĠLaat": 2732,
      "Ġdisc": 2733,
      "Ġ.âĢĻ": 2734,
      "Ġmail": 2735,
      "isteren": 2736,
      "ĠNeem": 2737,
      "bet": 2738,
      "ĠSh": 2739,
      "Ġsituatie": 2740,
      "ĠEuropese": 2741,
      "ownlo": 2742,
      "Ġregio": 2743,
      "Ġdorp": 2744,
      "Ġslag": 2745,
      "oegen": 2746,
      "weer": 2747,
      "bon": 2748,
      "ĠJa": 2749,
      "Ġneer": 2750,
      "ash": 2751,
      "igers": 2752,
      "Ġziek": 2753,
      "ĠWie": 2754,
      "Ġdak": 2755,
      "gelegd": 2756,
      "ĠTwee": 2757,
      "kosten": 2758,
      "Ġleveren": 2759,
      "ime": 2760,
      "anks": 2761,
      "Ġwedstrijd": 2762,
      "lopen": 2763,
      "Ġmeestal": 2764,
      "uut": 2765,
      "ĠJoh": 2766,
      "ines": 2767,
      "Ġges": 2768,
      "Ġbus": 2769,
      "verlen": 2770,
      "Ġpopul": 2771,
      "Ġpositie": 2772,
      "Ġrichting": 2773,
      "Ġtoepassing": 2774,
      "Ġmaakte": 2775,
      "Ġkm": 2776,
      "ĠOmdat": 2777,
      "Ġprachtig": 2778,
      "Ġhuur": 2779,
      "rale": 2780,
      "rijden": 2781,
      "aarde": 2782,
      "Ġkoop": 2783,
      "Ġoplossing": 2784,
      "sych": 2785,
      "Ġjuli": 2786,
      "Ġinstall": 2787,
      "zame": 2788,
      "bad": 2789,
      "wegen": 2790,
      "Ġ28": 2791,
      "regen": 2792,
      "Ġat": 2793,
      "Ġgenomen": 2794,
      "Ġuitste": 2795,
      "Ġgehouden": 2796,
      "kelijk": 2797,
      "ider": 2798,
      "ruik": 2799,
      "gebied": 2800,
      "iter": 2801,
      "stad": 2802,
      "ikken": 2803,
      "Ġbedrag": 2804,
      "ĠVerder": 2805,
      "ĠIeder": 2806,
      "oogle": 2807,
      "Ġverkrij": 2808,
      "Ġsoorten": 2809,
      "Ġdru": 2810,
      "ĠâĢĿ,": 2811,
      "urende": 2812,
      "Ġtoegang": 2813,
      "Ġpresent": 2814,
      "wezen": 2815,
      "lang": 2816,
      "druk": 2817,
      "Ġinteress": 2818,
      "ĠPDF": 2819,
      "ssel": 2820,
      "Ġtw": 2821,
      "Ġcollectie": 2822,
      "ieve": 2823,
      "ruimte": 2824,
      "vrij": 2825,
      "Ġhoger": 2826,
      "Ġprima": 2827,
      "Ġkar": 2828,
      "Ġ27": 2829,
      "Ġaanbod": 2830,
      "Ġstijl": 2831,
      "Ġvader": 2832,
      "Ġooit": 2833,
      "roken": 2834,
      "ĠPar": 2835,
      "Ġlanden": 2836,
      "Ġpost": 2837,
      "Ġzomer": 2838,
      "Ġzichzelf": 2839,
      "book": 2840,
      "Ġlijst": 2841,
      "Ġwoorden": 2842,
      "Ġ26": 2843,
      "komt": 2844,
      "Ġvrienden": 2845,
      "Ġbijzondere": 2846,
      "Ġfile": 2847,
      "Ġjezelf": 2848,
      "name": 2849,
      "view": 2850,
      "ps": 2851,
      "Ġrechts": 2852,
      "trecht": 2853,
      "Ġwijn": 2854,
      "aby": 2855,
      "ĠNatuur": 2856,
      "Ġdu": 2857,
      "kast": 2858,
      "Ġuiteindelijk": 2859,
      "bre": 2860,
      "Ġgevallen": 2861,
      "Ġgenoemd": 2862,
      "Ġstil": 2863,
      "oi": 2864,
      "oegd": 2865,
      "Ã¶": 2866,
      "ots": 2867,
      "ugust": 2868,
      "schrift": 2869,
      "ieel": 2870,
      "Ġha": 2871,
      "ĠGeen": 2872,
      "Ġsociale": 2873,
      "df": 2874,
      "Ġzag": 2875,
      "Ġaangeb": 2876,
      "Ġtev": 2877,
      "ĠGratis": 2878,
      "istische": 2879,
      "Ġhetzelfde": 2880,
      "maat": 2881,
      "ount": 2882,
      "Ġmaak": 2883,
      "Ġ60": 2884,
      "par": 2885,
      "school": 2886,
      "Ġspeelt": 2887,
      "veld": 2888,
      "duc": 2889,
      "zel": 2890,
      "olf": 2891,
      "uss": 2892,
      "ĠWant": 2893,
      "lijn": 2894,
      "Ġveren": 2895,
      "Ġproberen": 2896,
      "Ġpunt": 2897,
      "oeien": 2898,
      "ift": 2899,
      "Ġinhoud": 2900,
      "ĠÃ": 2901,
      "Ġ2013": 2902,
      "Ġdaarmee": 2903,
      "roef": 2904,
      "useum": 2905,
      "Ġeconom": 2906,
      "Ġsim": 2907,
      "Ġmateriaal": 2908,
      "Ġbedoeld": 2909,
      "ude": 2910,
      "Ġster": 2911,
      "ĠâĢĻ,": 2912,
      "baarheid": 2913,
      "ĠBr": 2914,
      "Ġtal": 2915,
      "Ġopleiding": 2916,
      "Ġbar": 2917,
      "Ġinmiddels": 2918,
      "kijk": 2919,
      "ĠBer": 2920,
      "ged": 2921,
      "50": 2922,
      "Ġfunctie": 2923,
      "ĠOr": 2924,
      "âĢĿ": 2925,
      "chine": 2926,
      "Ġbevat": 2927,
      "Ġleggen": 2928,
      "Ġschrijven": 2929,
      "Ġwensen": 2930,
      "appen": 2931,
      "Ġdood": 2932,
      "ract": 2933,
      "Ġstrand": 2934,
      "Ġervan": 2935,
      "ake": 2936,
      "Ġople": 2937,
      "Ġpartijen": 2938,
      "Ġcamp": 2939,
      "Ġfiet": 2940,
      "Ġbur": 2941,
      "ĠFl": 2942,
      "Ġpijn": 2943,
      "Ġrelatie": 2944,
      "aand": 2945,
      "Ġfact": 2946,
      "vest": 2947,
      "Ġontstaan": 2948,
      "ffende": 2949,
      "Ġmat": 2950,
      "halen": 2951,
      "Ġseizoen": 2952,
      "Ġglas": 2953,
      "kw": 2954,
      "Ġzes": 2955,
      "ĠGen": 2956,
      "ĠMan": 2957,
      "ĠCent": 2958,
      "ĠApp": 2959,
      "Ġlen": 2960,
      "vinc": 2961,
      "Ġvoorwaarden": 2962,
      "Ġervaren": 2963,
      "inst": 2964,
      "rot": 2965,
      "Ġcurs": 2966,
      "geld": 2967,
      "Ġdeur": 2968,
      "ialen": 2969,
      "Ġtaal": 2970,
      "iliteit": 2971,
      "Ġexper": 2972,
      "mal": 2973,
      "Ġactief": 2974,
      "Ġcentrum": 2975,
      "Ġstelt": 2976,
      "spel": 2977,
      "ĠEuropa": 2978,
      "Ġlevens": 2979,
      "Ġontwerp": 2980,
      "Ġrijk": 2981,
      "Ġveroor": 2982,
      "Ġvrijdag": 2983,
      "Ġpartij": 2984,
      "Ġverbet": 2985,
      "Ġvallen": 2986,
      "jarige": 2987,
      "ient": 2988,
      "Ġontm": 2989,
      "Ġpass": 2990,
      "elect": 2991,
      "Ġleerlingen": 2992,
      "utt": 2993,
      "Ġthis": 2994,
      "dagen": 2995,
      "Ġloopt": 2996,
      "Ġlees": 2997,
      "will": 2998,
      "Ġhor": 2999,
      "Ġdames": 3000,
      "ĠUtrecht": 3001,
      "Ġstof": 3002,
      "uurd": 3003,
      "Ġclub": 3004,
      "oftware": 3005,
      "Ġspeciale": 3006,
      "Ġmaatschapp": 3007,
      "Ġbloed": 3008,
      "zijn": 3009,
      "Ġresp": 3010,
      "aarten": 3011,
      "script": 3012,
      "ock": 3013,
      "ĠGem": 3014,
      "Ġac": 3015,
      "Ġouder": 3016,
      "hem": 3017,
      "Ġvoordat": 3018,
      "Ġmotor": 3019,
      "Ġperfect": 3020,
      "ande": 3021,
      "ĠGoogle": 3022,
      "Ġallerlei": 3023,
      "EL": 3024,
      "Ġverschil": 3025,
      "zijde": 3026,
      "Ġgebracht": 3027,
      "ĠNet": 3028,
      "issen": 3029,
      "amera": 3030,
      "Ġgedeel": 3031,
      "ecte": 3032,
      "ĠKle": 3033,
      "ugustus": 3034,
      "ĠFrank": 3035,
      "Ġkoffie": 3036,
      "raagd": 3037,
      "gde": 3038,
      "pakk": 3039,
      "past": 3040,
      "Ġpersoneel": 3041,
      "idt": 3042,
      "ĠSamen": 3043,
      "Ġniveau": 3044,
      "Ġvlak": 3045,
      "spre": 3046,
      "fl": 3047,
      "aliseren": 3048,
      "sport": 3049,
      "Ġgesteld": 3050,
      "enn": 3051,
      "ĠNederlands": 3052,
      "stelde": 3053,
      "Ġkennen": 3054,
      "ĠCon": 3055,
      "kens": 3056,
      "Ġkonden": 3057,
      "imale": 3058,
      "ĠItal": 3059,
      "Ġcar": 3060,
      "ĠÃ©n": 3061,
      "Ġplezier": 3062,
      "zoeken": 3063,
      "hol": 3064,
      "Ġ31": 3065,
      "Ġuitgevoerd": 3066,
      "Ġbron": 3067,
      "ĠBelgiÃ«": 3068,
      "Ġsommige": 3069,
      "ble": 3070,
      "Ġhar": 3071,
      "Ġwachten": 3072,
      "Ġdaarvan": 3073,
      "Ġadvis": 3074,
      "Ġzwart": 3075,
      "Ġpot": 3076,
      "Ġbegrij": 3077,
      "ĠSu": 3078,
      "iks": 3079,
      "verzeker": 3080,
      "riend": 3081,
      "waard": 3082,
      "Ġbericht": 3083,
      "ĠEer": 3084,
      "eller": 3085,
      "Ġspeciaal": 3086,
      "Ġveilig": 3087,
      "Ġgevolg": 3088,
      "inding": 3089,
      "Ġpersoonlijk": 3090,
      "ĠVanaf": 3091,
      "bruari": 3092,
      "oeden": 3093,
      "Ġstraat": 3094,
      "Ġspra": 3095,
      "spron": 3096,
      "komsten": 3097,
      "ĠLu": 3098,
      "Ġcor": 3099,
      "Ġvolwassen": 3100,
      "oy": 3101,
      "Ġ2012": 3102,
      "atische": 3103,
      "Ġpdf": 3104,
      "raaf": 3105,
      "Ġantwoord": 3106,
      "Ġhiervoor": 3107,
      "Ġgeze": 3108,
      "Ġwaarschijnlijk": 3109,
      "Ġvorige": 3110,
      "Ġbelangrijkste": 3111,
      "istor": 3112,
      "eenkomst": 3113,
      "atisch": 3114,
      "Ġgeg": 3115,
      "Ġbepaald": 3116,
      "ĠArt": 3117,
      "Ġzaak": 3118,
      "etter": 3119,
      "Ġshort": 3120,
      "igin": 3121,
      "Ġgeluid": 3122,
      "vlak": 3123,
      "Ġdeed": 3124,
      "Ġkerst": 3125,
      "Ġalgemeen": 3126,
      "Ġbesluit": 3127,
      "Ġkwamen": 3128,
      "Ġopgenomen": 3129,
      "Ġup": 3130,
      "Ġbegon": 3131,
      "gend": 3132,
      "oeten": 3133,
      "dienst": 3134,
      "ivid": 3135,
      "Ġfant": 3136,
      "Ġpubliek": 3137,
      "Ġverkoop": 3138,
      "heb": 3139,
      "ĠâĢĿ.": 3140,
      "water": 3141,
      "scription": 3142,
      "waarde": 3143,
      "Ġvanwege": 3144,
      "ategorie": 3145,
      "Ġaansp": 3146,
      "Ġgesprek": 3147,
      "Ġwonen": 3148,
      "Ġdirecte": 3149,
      "Ġgeplaatst": 3150,
      "Ġgekomen": 3151,
      "ĠHeer": 3152,
      "Ġreed": 3153,
      "winkel": 3154,
      "ĠZelf": 3155,
      "spl": 3156,
      "Ġtafel": 3157,
      "Ġbestaande": 3158,
      "Ġ198": 3159,
      "Ġaugustus": 3160,
      "ric": 3161,
      "sn": 3162,
      "Ġvermeld": 3163,
      "Ġinv": 3164,
      "dering": 3165,
      "Ġhtt": 3166,
      "ung": 3167,
      "Ġapparte": 3168,
      "otheek": 3169,
      "dem": 3170,
      "arket": 3171,
      "Ġinzicht": 3172,
      "ĠHaar": 3173,
      "ight": 3174,
      "agement": 3175,
      "Ġunieke": 3176,
      "iti": 3177,
      "ete": 3178,
      "Ġ29": 3179,
      "ioneel": 3180,
      "Ġhout": 3181,
      "Ġmeisjes": 3182,
      "Ġfil": 3183,
      "Ġvolledige": 3184,
      "Ġaant": 3185,
      "Ġbestellen": 3186,
      "Ġfebruari": 3187,
      "ĠCont": 3188,
      "Ġsmaak": 3189,
      "band": 3190,
      "reekt": 3191,
      "Ġgedrag": 3192,
      "Ġmeld": 3193,
      "ĠMin": 3194,
      "Ġdating": 3195,
      "centrum": 3196,
      "Ġscher": 3197,
      "Ġtoon": 3198,
      "Ġbrengt": 3199,
      "Ġkleding": 3200,
      "orten": 3201,
      "Ġbeheer": 3202,
      "okken": 3203,
      "Ġwind": 3204,
      "ĠfinanciÃ«le": 3205,
      "Ġresultaten": 3206,
      "ĠiP": 3207,
      "Ġplat": 3208,
      "//": 3209,
      "ĠToch": 3210,
      "Ġbreed": 3211,
      "zijd": 3212,
      "Ġversie": 3213,
      "Ġverzorg": 3214,
      "Ġgesl": 3215,
      "isme": 3216,
      "anken": 3217,
      "Ġvij": 3218,
      "Ġvaste": 3219,
      "Ġbereiken": 3220,
      "nummer": 3221,
      "sgegevens": 3222,
      "Ġtevens": 3223,
      "Ġinspir": 3224,
      "ruit": 3225,
      "standigheden": 3226,
      "Ġwitte": 3227,
      "Ġgebruikers": 3228,
      "ĠBovendien": 3229,
      "Ġlinks": 3230,
      "gesch": 3231,
      "Ġ\",": 3232,
      "Ġsec": 3233,
      "ĠBekijk": 3234,
      "Ġthema": 3235,
      "Ġjeugd": 3236,
      "enties": 3237,
      "Ġetc": 3238,
      "Ġnot": 3239,
      "Ġnetwerk": 3240,
      "Ġblauw": 3241,
      "Ġ://": 3242,
      "acy": 3243,
      "xe": 3244,
      "Ġhelpt": 3245,
      "zaak": 3246,
      "Ġgericht": 3247,
      "part": 3248,
      "Ġarbeids": 3249,
      "Ġoffic": 3250,
      "elingen": 3251,
      "toe": 3252,
      "Ġschrij": 3253,
      "scort": 3254,
      "Ġpartner": 3255,
      "ĠBed": 3256,
      "Ġwon": 3257,
      "ars": 3258,
      "Ġbetrekking": 3259,
      "aringen": 3260,
      "igt": 3261,
      "Ġweekend": 3262,
      "Ġbekende": 3263,
      "Ġheerlijke": 3264,
      "Ġdragen": 3265,
      "woorden": 3266,
      "Ġanal": 3267,
      "Ġraad": 3268,
      "ull": 3269,
      "Ġoef": 3270,
      "Ġbeweg": 3271,
      "Ġpunten": 3272,
      "rent": 3273,
      "Ġdub": 3274,
      "Ġbu": 3275,
      "ialis": 3276,
      "Ġmerken": 3277,
      "inken": 3278,
      "Ġbos": 3279,
      "Ġarch": 3280,
      "Ġgeschiedenis": 3281,
      "Ġvoeren": 3282,
      "Ġinclusief": 3283,
      "ĠPer": 3284,
      "ane": 3285,
      "Ġbewust": 3286,
      "ĠHaag": 3287,
      "wijf": 3288,
      "Ġwist": 3289,
      "eelden": 3290,
      "tes": 3291,
      "Ġvolgt": 3292,
      "Ġtab": 3293,
      "Ġzwaar": 3294,
      "Ġzoon": 3295,
      "AR": 3296,
      "Ġdochter": 3297,
      "Ġrug": 3298,
      "nov": 3299,
      "Ġtoev": 3300,
      "ams": 3301,
      "Ġvervangen": 3302,
      "erse": 3303,
      "Ġwinter": 3304,
      "Ġbedoel": 3305,
      "Ġgebeurt": 3306,
      "itel": 3307,
      "elle": 3308,
      "inc": 3309,
      "oeding": 3310,
      "tegen": 3311,
      "ĠInd": 3312,
      "andelen": 3313,
      "Ġgekozen": 3314,
      "Ġtoer": 3315,
      "danks": 3316,
      "Ġtips": 3317,
      "Ġproductie": 3318,
      "Ġvooraf": 3319,
      "Ġ'.": 3320,
      "roep": 3321,
      "Ġwaaronder": 3322,
      "Ġuitvoering": 3323,
      "asse": 3324,
      "Ġvoorbij": 3325,
      "Ġindivid": 3326,
      "Ġsprake": 3327,
      "to": 3328,
      "Ġcollega": 3329,
      "Ġontsp": 3330,
      "loos": 3331,
      "ĠVand": 3332,
      "Ġbezoekers": 3333,
      "ĠSn": 3334,
      "Ġnatuurlijke": 3335,
      "Ġricht": 3336,
      "stal": 3337,
      "ners": 3338,
      "Ġmond": 3339,
      "istratie": 3340,
      "hous": 3341,
      "Ġontwikkelen": 3342,
      "sdag": 3343,
      "Ġpsych": 3344,
      "sluiting": 3345,
      "Ġcontrole": 3346,
      "aro": 3347,
      "icro": 3348,
      "akel": 3349,
      "Ġconst": 3350,
      "Ġcir": 3351,
      "Ġuitzicht": 3352,
      "oto": 3353,
      "wiss": 3354,
      "Ġverzoek": 3355,
      "reef": 3356,
      "sproken": 3357,
      "iemand": 3358,
      "daan": 3359,
      "ĠUw": 3360,
      "Ġklass": 3361,
      "com": 3362,
      "Ġcomputer": 3363,
      "Ġall": 3364,
      "ĠAmerikaanse": 3365,
      "Ġleiden": 3366,
      "kshop": 3367,
      "stem": 3368,
      "Ġkr": 3369,
      "Ġovereenkomst": 3370,
      "kaart": 3371,
      "Ġnamen": 3372,
      "otte": 3373,
      "Ġdonker": 3374,
      "Ġlokale": 3375,
      "Ġgezicht": 3376,
      "Ġvoorbeeld": 3377,
      "gew": 3378,
      "Ġeffect": 3379,
      "Ġpolit": 3380,
      "ĠTen": 3381,
      "Ġdescription": 3382,
      "âĢĻ": 3383,
      "Ġlag": 3384,
      "Ġ80": 3385,
      "cause": 3386,
      "Ġing": 3387,
      "Ġkomende": 3388,
      "Ġbecause": 3389,
      "Ġsexy": 3390,
      "wagen": 3391,
      "zend": 3392,
      "Ġbak": 3393,
      "Ġtermijn": 3394,
      "Ġuiteraard": 3395,
      "lement": 3396,
      "Ġdou": 3397,
      "Ġinfo": 3398,
      "onds": 3399,
      "Ġvertellen": 3400,
      "ish": 3401,
      "ĠGa": 3402,
      "ĠZoals": 3403,
      "Ġafsp": 3404,
      "Ġalgemene": 3405,
      "Ġmoderne": 3406,
      "ielen": 3407,
      "indt": 3408,
      "zingen": 3409,
      "Ġoverheid": 3410,
      "ĠWest": 3411,
      "ructuur": 3412,
      "prijs": 3413,
      "leet": 3414,
      "Ġlijn": 3415,
      "scherm": 3416,
      "ja": 3417,
      "stigd": 3418,
      "Ġvloer": 3419,
      "Ġstev": 3420,
      "Ġverdw": 3421,
      "Ġverhalen": 3422,
      "idingen": 3423,
      "neming": 3424,
      "Ġsal": 3425,
      "ortiment": 3426,
      "elk": 3427,
      "Ġvoorz": 3428,
      "onderdag": 3429,
      "ĠMis": 3430,
      "derdaad": 3431,
      "Ġinvloed": 3432,
      "Ġfilms": 3433,
      "itief": 3434,
      "Ġbouwen": 3435,
      "Ġwacht": 3436,
      "ĠVeren": 3437,
      "Ġkilom": 3438,
      "Ġvrijwill": 3439,
      "ologische": 3440,
      "Ġmm": 3441,
      "Ġwar": 3442,
      "ogelijke": 3443,
      "Ġhierbij": 3444,
      "arts": 3445,
      "Ġ35": 3446,
      "heen": 3447,
      "Ġmeisje": 3448,
      "oes": 3449,
      "Ġkantoor": 3450,
      "igingen": 3451,
      "ĠCar": 3452,
      "Ġrad": 3453,
      "Ġindruk": 3454,
      "ĠPh": 3455,
      "regelen": 3456,
      "landse": 3457,
      "acebook": 3458,
      "avor": 3459,
      "schrijving": 3460,
      "Ġzieken": 3461,
      "Ġgeloof": 3462,
      "Ġregen": 3463,
      "blad": 3464,
      "Ġprovinc": 3465,
      "Ġdetail": 3466,
      "repen": 3467,
      "ĠSc": 3468,
      "ĠHeeft": 3469,
      "acties": 3470,
      "Ġmaximaal": 3471,
      "Ġgezegd": 3472,
      "regel": 3473,
      "Ġ2011": 3474,
      "Ġmoeite": 3475,
      "Ġcas": 3476,
      "utie": 3477,
      "Ġgewen": 3478,
      "rom": 3479,
      "best": 3480,
      "teel": 3481,
      "uiden": 3482,
      "Ġbereik": 3483,
      "Ġeet": 3484,
      "ille": 3485,
      "ĠBinnen": 3486,
      "Ġafhankelijk": 3487,
      "ecten": 3488,
      "Ġdiep": 3489,
      "Ġvoelt": 3490,
      "Ġgener": 3491,
      "Ġgeve": 3492,
      "teken": 3493,
      "Ġorigin": 3494,
      "rische": 3495,
      "dus": 3496,
      "Ġname": 3497,
      "gave": 3498,
      "yl": 3499,
      "ĠSinds": 3500,
      "estiv": 3501,
      "ouwen": 3502,
      "ET": 3503,
      "gemaakt": 3504,
      "Ġbepalen": 3505,
      "elling": 3506,
      "Ġhond": 3507,
      "OR": 3508,
      "cont": 3509,
      "Ġtevreden": 3510,
      "Ġassortiment": 3511,
      "Ġbestelling": 3512,
      "Ġenthous": 3513,
      "Ġschilder": 3514,
      "arten": 3515,
      "oepen": 3516,
      "Ġbaby": 3517,
      "ĠAnd": 3518,
      "Ġcompl": 3519,
      "Ġdesign": 3520,
      "ipl": 3521,
      "Ġdata": 3522,
      "Ġdaarvoor": 3523,
      "azen": 3524,
      "ĠIntern": 3525,
      "Ġverkeer": 3526,
      "Ġnou": 3527,
      "ose": 3528,
      "ance": 3529,
      "Ġpakk": 3530,
      "Ġke": 3531,
      "Ġword": 3532,
      "Ġspecial": 3533,
      "Ġliefst": 3534,
      "arie": 3535,
      "ĠHierdoor": 3536,
      "Ġklim": 3537,
      "Ġdagelijks": 3538,
      "oensdag": 3539,
      "Ġstudenten": 3540,
      "Ġimmers": 3541,
      "...]": 3542,
      "ole": 3543,
      "handel": 3544,
      "Ġval": 3545,
      "ĠCom": 3546,
      "onie": 3547,
      "Ġonderdelen": 3548,
      "Ġkent": 3549,
      "ĠBar": 3550,
      "Ġ2010": 3551,
      "Ġvoelen": 3552,
      "Ġverantwoordelijk": 3553,
      "Ġit": 3554,
      "Ġ45": 3555,
      "net": 3556,
      "Ġafspraak": 3557,
      "Ġsoftware": 3558,
      "Ġlink": 3559,
      "inderen": 3560,
      "Ġderg": 3561,
      "Ġbleek": 3562,
      "xt": 3563,
      "Ġ500": 3564,
      "ĠZorg": 3565,
      "Ġ[...]": 3566,
      "ED": 3567,
      "Ġprest": 3568,
      "Ġoper": 3569,
      "Ġzonne": 3570,
      "aaf": 3571,
      "ĠâĢŀ": 3572,
      "iversiteit": 3573,
      "Ġas": 3574,
      "Ġbadkamer": 3575,
      "amb": 3576,
      "Ġstij": 3577,
      "houder": 3578,
      "Ġgezet": 3579,
      "woordig": 3580,
      "Ġvoorbere": 3581,
      "ĠMed": 3582,
      "igens": 3583,
      "Ġjongeren": 3584,
      "houding": 3585,
      "Ġerot": 3586,
      "oest": 3587,
      "ĠGron": 3588,
      "Ġeil": 3589,
      "Ġrustig": 3590,
      "Ġadvert": 3591,
      "Ġ.)": 3592,
      "genaam": 3593,
      "Ġwerkzaamheden": 3594,
      "ueel": 3595,
      "Ġenz": 3596,
      "Ġafbeeld": 3597,
      "fer": 3598,
      "Ġbeschikt": 3599,
      "Ġtrekken": 3600,
      "Ġnat": 3601,
      "ĠSm": 3602,
      "Ġspreken": 3603,
      "middelen": 3604,
      "Ġser": 3605,
      "Ġcultuur": 3606,
      "Ġruime": 3607,
      "ows": 3608,
      "Ġspecifieke": 3609,
      "iste": 3610,
      "Ġjaarlijk": 3611,
      "rassen": 3612,
      "Ġjur": 3613,
      "Ġdem": 3614,
      "ĠAut": 3615,
      "Ġfavor": 3616,
      "itten": 3617,
      "Ġartikelen": 3618,
      "Ġgekregen": 3619,
      "Ġob": 3620,
      "treden": 3621,
      "Ġmaterialen": 3622,
      "Ġstappen": 3623,
      "Ġern": 3624,
      "Ġrechter": 3625,
      "Ġkat": 3626,
      "Ġinternationale": 3627,
      "ĠKijk": 3628,
      "Ġmaandag": 3629,
      "Ġfab": 3630,
      "ĠVia": 3631,
      "Ġbeperk": 3632,
      "ama": 3633,
      "Ġtype": 3634,
      "Ġbaan": 3635,
      "ĠChrist": 3636,
      "stemen": 3637,
      "idd": 3638,
      "Ġdaardoor": 3639,
      "ĠSint": 3640,
      "Ġpe": 3641,
      "adering": 3642,
      "Ġdownlo": 3643,
      "Ġbeoord": 3644,
      "Ġvoorn": 3645,
      "Ġabs": 3646,
      "Ġca": 3647,
      "Ġhelaas": 3648,
      "Ġcommunicatie": 3649,
      "oze": 3650,
      "Ġoveral": 3651,
      "Ġene": 3652,
      "Ġgelukkig": 3653,
      "Ġcompleet": 3654,
      "huizen": 3655,
      "oond": 3656,
      "ST": 3657,
      "Ġgingen": 3658,
      "Ġsturen": 3659,
      "ly": 3660,
      "keken": 3661,
      "Ġtemper": 3662,
      "gaande": 3663,
      "Ġbetreffende": 3664,
      "Ġnoodzak": 3665,
      "kennen": 3666,
      "wet": 3667,
      "ĠPa": 3668,
      "Ġstat": 3669,
      "Ġtrans": 3670,
      "leggen": 3671,
      "anders": 3672,
      "Ġpersoonsgegevens": 3673,
      "iete": 3674,
      "ieur": 3675,
      "Ġtraining": 3676,
      "Ġreactie": 3677,
      "Ġbeveil": 3678,
      "gere": 3679,
      "Ġmogelijke": 3680,
      "oper": 3681,
      "ĠEngel": 3682,
      "kort": 3683,
      "rim": 3684,
      "Ġpan": 3685,
      "ationaal": 3686,
      "Ġgeweldig": 3687,
      "Ġbegonnen": 3688,
      "Ġfunction": 3689,
      "Ġ\".": 3690,
      "ĠGebruik": 3691,
      "ĠDank": 3692,
      "Ġonderhoud": 3693,
      "Ġvreem": 3694,
      "Ġreeds": 3695,
      "Ġkut": 3696,
      "Ġvoordeel": 3697,
      "ĠcreÃ«": 3698,
      "ĠWilt": 3699,
      "ĠMaak": 3700,
      "Ġregels": 3701,
      "Ġcook": 3702,
      "Ġbelasting": 3703,
      "hoek": 3704,
      "gebruik": 3705,
      "punten": 3706,
      "Ġroute": 3707,
      "Ġgaf": 3708,
      "Ġcamera": 3709,
      "Ġuitgebreid": 3710,
      "ĠAlleen": 3711,
      "Ġlevert": 3712,
      "ĠTra": 3713,
      "Ġhelft": 3714,
      "Ġmacht": 3715,
      "gegeven": 3716,
      "arketing": 3717,
      "Ġperfecte": 3718,
      "Ġontwikkeld": 3719,
      "Ġsk": 3720,
      "woners": 3721,
      "Ġtegelijk": 3722,
      "Ġgeest": 3723,
      "Ġdeelnemers": 3724,
      "Ġgebe": 3725,
      "Ġ197": 3726,
      "Ġgang": 3727,
      "pos": 3728,
      "hode": 3729,
      "Ġgoedkop": 3730,
      "Ġvertrouwen": 3731,
      "Ġstudie": 3732,
      "ippen": 3733,
      "Ġprojecten": 3734,
      "gbaar": 3735,
      "Ġpens": 3736,
      "Ġfys": 3737,
      "Ġklachten": 3738,
      "esl": 3739,
      "oeder": 3740,
      "herap": 3741,
      "vast": 3742,
      "Ġ70": 3743,
      "Ġbetaal": 3744,
      "Ġgeschreven": 3745,
      "vering": 3746,
      "Ġindu": 3747,
      "Ġvraagt": 3748,
      "ĠÂ·": 3749,
      "rast": 3750,
      "ĠComm": 3751,
      "Ġoverleden": 3752,
      "ourn": 3753,
      "Ġmocht": 3754,
      "Ġondersteuning": 3755,
      "Ġworkshop": 3756,
      "Ġverband": 3757,
      "ĠGer": 3758,
      "Ġneg": 3759,
      "richting": 3760,
      "ĠDuitsland": 3761,
      "Ġdigitale": 3762,
      "Ġinderdaad": 3763,
      "ĠEU": 3764,
      "Ġgegaan": 3765,
      "Ã¼": 3766,
      "Ġvocht": 3767,
      "Ġmar": 3768,
      "old": 3769,
      "Ġaanzien": 3770,
      "vaart": 3771,
      "Ġhang": 3772,
      "10": 3773,
      "Ġsteun": 3774,
      "gte": 3775,
      "dek": 3776,
      "Ġniks": 3777,
      "Ġorganisaties": 3778,
      "Ġbeelden": 3779,
      "Ġondersche": 3780,
      "blijven": 3781,
      "Ġiniti": 3782,
      "ser": 3783,
      "Ġleg": 3784,
      "anje": 3785,
      "ĠTw": 3786,
      "RO": 3787,
      "ĠVlaam": 3788,
      "pervlak": 3789,
      "Ġkader": 3790,
      "ĠStichting": 3791,
      "Ġleiding": 3792,
      "systeem": 3793,
      "insdag": 3794,
      "Ġzacht": 3795,
      "Ġnadat": 3796,
      "Ġgeleverd": 3797,
      "Ġhandig": 3798,
      "meester": 3799,
      "Ġprofessionele": 3800,
      "Ġinnov": 3801,
      "ertific": 3802,
      "Ġrode": 3803,
      "Ġverkopen": 3804,
      "sver": 3805,
      "Ġsluiten": 3806,
      "ĠKom": 3807,
      "Ġkamp": 3808,
      "ike": 3809,
      "ĠDaarna": 3810,
      "ities": 3811,
      "Ġluxe": 3812,
      "Ġziekte": 3813,
      "ĠMisschien": 3814,
      "ĠNatuurlijk": 3815,
      "ĠBo": 3816,
      "Ġ90": 3817,
      "ĠÐ": 3818,
      "wikkel": 3819,
      "olie": 3820,
      "ampen": 3821,
      "Ġenorme": 3822,
      "Ġgezondheid": 3823,
      "Ġbezoeken": 3824,
      "akter": 3825,
      "Ġverdien": 3826,
      "Ġnoemen": 3827,
      "kamers": 3828,
      "Ġwelkom": 3829,
      "let": 3830,
      "Ġveroorz": 3831,
      "Ġbood": 3832,
      "ĠSur": 3833,
      "Ġgevaar": 3834,
      "Ġgehele": 3835,
      "AT": 3836,
      "ĠVrij": 3837,
      "eeld": 3838,
      "Ġtest": 3839,
      "Ġolie": 3840,
      "uigen": 3841,
      "ĠOpen": 3842,
      "Ġvest": 3843,
      "Ġnam": 3844,
      "Ġbloemen": 3845,
      "omenteel": 3846,
      "Ġcategorie": 3847,
      "Ġtent": 3848,
      "visie": 3849,
      "ĠKlik": 3850,
      "Ġout": 3851,
      "ĠElke": 3852,
      "ĠNog": 3853,
      "Ġ36": 3854,
      "rekt": 3855,
      "Ġdonderdag": 3856,
      "Ġhy": 3857,
      "Ġverblijf": 3858,
      "cedu": 3859,
      "Ġkast": 3860,
      "do": 3861,
      "Ġverbeteren": 3862,
      "Ġprivacy": 3863,
      "date": 3864,
      "Ġbehulp": 3865,
      "kracht": 3866,
      "ĠHar": 3867,
      "Ġbetere": 3868,
      "agn": 3869,
      "Ġbrief": 3870,
      "Ġspannen": 3871,
      "Ġniemand": 3872,
      "aardigheden": 3873,
      "Ġzover": 3874,
      "Ġovertu": 3875,
      "Ġontb": 3876,
      "ĠKort": 3877,
      "Ġprem": 3878,
      "hoog": 3879,
      "Ġgezellig": 3880,
      "film": 3881,
      "Ġaccount": 3882,
      "ĠNew": 3883,
      "roon": 3884,
      "ĠHer": 3885,
      "inter": 3886,
      "Ġeisen": 3887,
      "ĠGoed": 3888,
      "iddelde": 3889,
      "ĠRaad": 3890,
      "Ġoverleg": 3891,
      "Ġdefin": 3892,
      "Ġhistor": 3893,
      "Ġkwart": 3894,
      "orst": 3895,
      "Ġuitvoeren": 3896,
      "ditie": 3897,
      "ai": 3898,
      "Ġvaker": 3899,
      "Ġontvangt": 3900,
      "inen": 3901,
      "Ġverlen": 3902,
      "ijnt": 3903,
      "baan": 3904,
      "Ġbeleid": 3905,
      "Ġliet": 3906,
      "ĠKamer": 3907,
      "des": 3908,
      "ĠKon": 3909,
      "Ġliever": 3910,
      "Ġgedurende": 3911,
      "Ġneuken": 3912,
      "Ġkoel": 3913,
      "Ġerop": 3914,
      "inkt": 3915,
      "Ġgebas": 3916,
      "ĠWet": 3917,
      "Ġoffer": 3918,
      "ĠQu": 3919,
      "Ġgroeien": 3920,
      "ijt": 3921,
      "Ġzwembad": 3922,
      "Ġwandel": 3923,
      "Ġslacht": 3924,
      "enk": 3925,
      "tussen": 3926,
      "Ġhoort": 3927,
      "Ġgepro": 3928,
      "dom": 3929,
      "Ġminister": 3930,
      "Ġstrijd": 3931,
      "ĠDuitse": 3932,
      "ield": 3933,
      "ages": 3934,
      "Ġeventueel": 3935,
      "rend": 3936,
      "Ġergens": 3937,
      "Ġdacht": 3938,
      "ĠMon": 3939,
      "hout": 3940,
      "worpen": 3941,
      "ateriaal": 3942,
      "estival": 3943,
      "Ġbovendien": 3944,
      "pleeg": 3945,
      "Ġoorspron": 3946,
      "Ġverwijderen": 3947,
      "by": 3948,
      "Ġbetrouw": 3949,
      "Ġoorlog": 3950,
      "Ġverbonden": 3951,
      "Ġopnemen": 3952,
      "Ġnormaal": 3953,
      "ĠVandaag": 3954,
      "illa": 3955,
      "Ġpartic": 3956,
      "schak": 3957,
      "Ġwoensdag": 3958,
      "hoven": 3959,
      "Ġvlucht": 3960,
      "lijst": 3961,
      "ammer": 3962,
      "Ġduurzaam": 3963,
      "ĠWaarom": 3964,
      "ĠWer": 3965,
      "aagd": 3966,
      "Ġdienen": 3967,
      "Ġvoetbal": 3968,
      "hone": 3969,
      "Ġsluit": 3970,
      "Ġ2009": 3971,
      "Ġinstru": 3972,
      "ics": 3973,
      "Ġoverl": 3974,
      "Ġsmart": 3975,
      "gez": 3976,
      "Ġaanbie": 3977,
      "vriend": 3978,
      "sluitend": 3979,
      "Ġprovincie": 3980,
      "plaatsen": 3981,
      "mogelijk": 3982,
      "vak": 3983,
      "Ġwerking": 3984,
      "Ġslot": 3985,
      "Ġhiervan": 3986,
      "Ġdier": 3987,
      "kelijke": 3988,
      "Ġ\\": 3989,
      "Ġvrije": 3990,
      "ĠPers": 3991,
      "Ġgroene": 3992,
      "Ġwijz": 3993,
      "Ġschrift": 3994,
      "Ġtradit": 3995,
      "Ġinzet": 3996,
      "gent": 3997,
      "ĠWor": 3998,
      "ĠII": 3999,
      "tens": 4000,
      "Ġsneller": 4001,
      "Ġomstandigheden": 4002,
      "ĠLa": 4003,
      "Ġneder": 4004,
      "Ġaangeboden": 4005,
      "Ġdenkt": 4006,
      "produ": 4007,
      "ĠFacebook": 4008,
      "sid": 4009,
      "aster": 4010,
      "gro": 4011,
      "Ġ194": 4012,
      "Ġaltern": 4013,
      "ene": 4014,
      "elijkse": 4015,
      "ringen": 4016,
      "Ġfietsen": 4017,
      "Ġgezin": 4018,
      "Ġwebshop": 4019,
      "park": 4020,
      "Ġkarakter": 4021,
      "Ġgebeuren": 4022,
      "ĠLand": 4023,
      "Ġhouten": 4024,
      "Ġfantast": 4025,
      "Ġtel": 4026,
      "que": 4027,
      "Ġwett": 4028,
      "Ġliter": 4029,
      "akker": 4030,
      "Ġmass": 4031,
      "ĠGrote": 4032,
      "Ġautomatisch": 4033,
      "Ġpak": 4034,
      "Ġvar": 4035,
      "istr": 4036,
      "adres": 4037,
      "bum": 4038,
      "programma": 4039,
      "Ġplannen": 4040,
      "Ġterras": 4041,
      "Ġgevolgen": 4042,
      "Ġrapport": 4043,
      "unch": 4044,
      "Ġhonder": 4045,
      "Ġgeile": 4046,
      "Ġkilometer": 4047,
      "ĠAlles": 4048,
      "Ġimp": 4049,
      "ĠâĢ¢": 4050,
      "Ġpij": 4051,
      "bert": 4052,
      "ĠPol": 4053,
      "ĠHoewel": 4054,
      "Ġsterke": 4055,
      "ermen": 4056,
      "Ġflex": 4057,
      "Ġplanten": 4058,
      "verlening": 4059,
      "reerd": 4060,
      "Ġbrood": 4061,
      "Ġcade": 4062,
      "Ġstroom": 4063,
      "Ġvog": 4064,
      "Ġgrotere": 4065,
      "incip": 4066,
      "Ġorde": 4067,
      "Ġverleden": 4068,
      "ĠEven": 4069,
      "Ġaanvraag": 4070,
      "Ġaldus": 4071,
      "uig": 4072,
      "Ġinform": 4073,
      "Ġboot": 4074,
      "ĠGroningen": 4075,
      "Ġmooiste": 4076,
      "Ġzult": 4077,
      "Ġverkrijgbaar": 4078,
      "201": 4079,
      "denken": 4080,
      "Ġverlie": 4081,
      "ors": 4082,
      "Ġberg": 4083,
      "zi": 4084,
      "Ġcursus": 4085,
      "code": 4086,
      "ĠEind": 4087,
      "ĠSy": 4088,
      "ĠGl": 4089,
      "Ġongel": 4090,
      "Ġvuur": 4091,
      "ulling": 4092,
      "tegr": 4093,
      "Ġtv": 4094,
      "Ġontbij": 4095,
      "Ġgemiddelde": 4096,
      "Ġveranderen": 4097,
      "Ġtechnische": 4098,
      "Ġrood": 4099,
      "Ġhot": 4100,
      "Ġoptreden": 4101,
      "Ġport": 4102,
      "Ġvari": 4103,
      "Ġ196": 4104,
      "Ġgevraagd": 4105,
      "Ġ32": 4106,
      "iner": 4107,
      "Ġwijk": 4108,
      "Ġmilieu": 4109,
      "cties": 4110,
      "Ġscherm": 4111,
      "Ġverkocht": 4112,
      "ĠInst": 4113,
      "Ġweder": 4114,
      "Ġrele": 4115,
      "Ġhoek": 4116,
      "Ġbijdra": 4117,
      "ote": 4118,
      "ikte": 4119,
      "schreven": 4120,
      "ĠReg": 4121,
      "Ġgasten": 4122,
      "Ġbijdrage": 4123,
      "Ġsol": 4124,
      "Ġtoestemming": 4125,
      "Ġeventuele": 4126,
      "ĠKan": 4127,
      "ĠFrankrijk": 4128,
      "Ġadmin": 4129,
      "ĠNieuwe": 4130,
      "Ġreger": 4131,
      "Ġgebaseerd": 4132,
      "Ġwarme": 4133,
      "oefte": 4134,
      "beheer": 4135,
      "ĠKun": 4136,
      "Ġ2008": 4137,
      "gezet": 4138,
      "comm": 4139,
      "Ġvoorl": 4140,
      "uff": 4141,
      "Ġwiss": 4142,
      "Ġlive": 4143,
      "leving": 4144,
      "outen": 4145,
      "Ġparkeer": 4146,
      "Ġpapier": 4147,
      "ĠHolland": 4148,
      "Ġspelers": 4149,
      "odige": 4150,
      "zending": 4151,
      "Ġleef": 4152,
      "gekomen": 4153,
      "Ġgroepen": 4154,
      "Ġvorig": 4155,
      "Ġgeweldige": 4156,
      "Ġvere": 4157,
      "Ġwaard": 4158,
      "Ġjongens": 4159,
      "Ġbewon": 4160,
      "vrouw": 4161,
      "Ġwebsites": 4162,
      "ld": 4163,
      "reen": 4164,
      "Ġslachtoff": 4165,
      "reep": 4166,
      "Ġuitdag": 4167,
      "Ġstukje": 4168,
      "Ġontmoet": 4169,
      "Ġescort": 4170,
      "Ġident": 4171,
      "Ġontvangst": 4172,
      "ON": 4173,
      "rijke": 4174,
      "Ġbedien": 4175,
      "Ġeigenaar": 4176,
      "reeks": 4177,
      "Ġvac": 4178,
      "Ġrondom": 4179,
      "Ġheren": 4180,
      "ssen": 4181,
      "Ġbehoor": 4182,
      "skun": 4183,
      "rest": 4184,
      "ĠSport": 4185,
      "ges": 4186,
      "iaanse": 4187,
      "ppen": 4188,
      "Ġdankzij": 4189,
      "omin": 4190,
      "Ġbeperkt": 4191,
      "dragen": 4192,
      "Ġhieronder": 4193,
      "Ġaanm": 4194,
      "Ġdw": 4195,
      "ĠZie": 4196,
      "Ġbod": 4197,
      "Ġret": 4198,
      "Ġronde": 4199,
      "irt": 4200,
      "Ġappartement": 4201,
      "Ġgoe": 4202,
      "Ġsnelle": 4203,
      "Ġang": 4204,
      "Ġvertelt": 4205,
      "Ġvervoer": 4206,
      "rib": 4207,
      "Ġvermogen": 4208,
      "Ġvergeten": 4209,
      "Ġvooruit": 4210,
      "Ġkorting": 4211,
      "Ġbot": 4212,
      "Ġprett": 4213,
      "oude": 4214,
      "Ġverle": 4215,
      "machine": 4216,
      "opp": 4217,
      "Ġasp": 4218,
      "Ġsteden": 4219,
      "Ġzeven": 4220,
      "Ġtitel": 4221,
      "Ġuitstr": 4222,
      "Ġ',": 4223,
      "Ġgelegenheid": 4224,
      "Ġwens": 4225,
      "Ġbetaling": 4226,
      "ats": 4227,
      "aats": 4228,
      "Ġwarmte": 4229,
      "Ġcentraal": 4230,
      "vinden": 4231,
      "Ġreizen": 4232,
      "Ġbesloten": 4233,
      "iness": 4234,
      "ĠOost": 4235,
      "Ġzeg": 4236,
      "ĠSoms": 4237,
      "Ġbehoe": 4238,
      "kn": 4239,
      "Ġmaatregelen": 4240,
      "Ġallen": 4241,
      "ikel": 4242,
      "Ġmening": 4243,
      "west": 4244,
      "Ġterrein": 4245,
      "gl": 4246,
      "tegenwoord": 4247,
      "ara": 4248,
      "Ġrand": 4249,
      "zus": 4250,
      "Ġervaringen": 4251,
      "CH": 4252,
      "Ġkamers": 4253,
      "ĠNederl": 4254,
      "Ġgef": 4255,
      "Ġlage": 4256,
      "Ġabsol": 4257,
      "merken": 4258,
      "ĠWerk": 4259,
      "Ġbehandel": 4260,
      "zek": 4261,
      "ĠOnline": 4262,
      "Ġheet": 4263,
      "Ġdinsdag": 4264,
      "Ġcijf": 4265,
      "Ġschreef": 4266,
      "Ġgemeenten": 4267,
      "Ġuitgebreide": 4268,
      "Ġverf": 4269,
      "Ġonaf": 4270,
      "Ġgeorganis": 4271,
      "eerden": 4272,
      "Ġdrinken": 4273,
      "Ġgas": 4274,
      "Ġeffectie": 4275,
      "Ġaang": 4276,
      "ctief": 4277,
      "inner": 4278,
      "oster": 4279,
      "vallen": 4280,
      "Ġminimaal": 4281,
      "ĠGelukkig": 4282,
      "ĠHieronder": 4283,
      "Ġla": 4284,
      "Ġbetaald": 4285,
      ").": 4286,
      "Ġve": 4287,
      "Ġwinnen": 4288,
      "xx": 4289,
      "Ġhuw": 4290,
      "IJ": 4291,
      "stoffen": 4292,
      "stra": 4293,
      "Ġvern": 4294,
      "ones": 4295,
      "ingsver": 4296,
      "Ġdroog": 4297,
      "odem": 4298,
      "IS": 4299,
      "Ġvlees": 4300,
      "Ġbesliss": 4301,
      "Ġcomplex": 4302,
      "Ġdatum": 4303,
      "Ġfijne": 4304,
      "ĠFin": 4305,
      "ĠÂ»": 4306,
      "imum": 4307,
      "Ġdikke": 4308,
      "ancier": 4309,
      "Ġgebouwd": 4310,
      "Ġnoodzakelijk": 4311,
      "adem": 4312,
      "ĠOns": 4313,
      "Ġaanra": 4314,
      "ront": 4315,
      "Ġverbeter": 4316,
      "Ġmuur": 4317,
      "Ġzen": 4318,
      "Ġfac": 4319,
      "Ġmoesten": 4320,
      "mateur": 4321,
      "Ġdergelijke": 4322,
      "Ġhyp": 4323,
      "CT": 4324,
      "Ġwinst": 4325,
      "Ġletter": 4326,
      "Ġideaal": 4327,
      "Ġstuur": 4328,
      "AL": 4329,
      "Ġorganiseren": 4330,
      "Ġhonden": 4331,
      "Ġaanwez": 4332,
      "ooien": 4333,
      "Ġeiland": 4334,
      "Ġgesloten": 4335,
      "ocol": 4336,
      "ĠPiet": 4337,
      "ĠCan": 4338,
      "Ġbegeleiding": 4339,
      "Ġpakken": 4340,
      "Ġsign": 4341,
      "Ġpad": 4342,
      "Ġonderwerp": 4343,
      "kers": 4344,
      "urf": 4345,
      "arch": 4346,
      "ĠPaul": 4347,
      "ĠMocht": 4348,
      "Ġpen": 4349,
      "Ġfruit": 4350,
      "Ġgewicht": 4351,
      "Ġbescherming": 4352,
      "Ġmaal": 4353,
      "Ġtr": 4354,
      "iddeld": 4355,
      "pagina": 4356,
      "Ġemot": 4357,
      "Ġgeef": 4358,
      "unning": 4359,
      "Ġgezellige": 4360,
      "Ġrecept": 4361,
      "Ġwerknemers": 4362,
      "haven": 4363,
      "ius": 4364,
      "Ġcorre": 4365,
      "OS": 4366,
      "Ġdaad": 4367,
      "Ġpraten": 4368,
      "Ġwinkels": 4369,
      "Ġgoedkoop": 4370,
      "gelegen": 4371,
      "Ġ75": 4372,
      "ĠPart": 4373,
      "Ġhoogste": 4374,
      "Ġset": 4375,
      "ĠMil": 4376,
      "Ġtoil": 4377,
      "Ġverwachten": 4378,
      "Ġerf": 4379,
      "Ġideale": 4380,
      "Ġkunsten": 4381,
      "Ġbloem": 4382,
      "Ġstra": 4383,
      "aans": 4384,
      "30": 4385,
      "ĠHuis": 4386,
      "Ġoptie": 4387,
      "Ġzul": 4388,
      "Ġopmerk": 4389,
      "ES": 4390,
      "Ġopenbaar": 4391,
      "Ġvliegt": 4392,
      "Ġcookies": 4393,
      "Ġgerust": 4394,
      "oorte": 4395,
      "Ġduurzame": 4396,
      "Ġkregen": 4397,
      "udget": 4398,
      "Ġenthousi": 4399,
      "Ġopzicht": 4400,
      "Ġ.'": 4401,
      "Ġachtergrond": 4402,
      "Ġstraf": 4403,
      "Ġ.,": 4404,
      "esse": 4405,
      "komstig": 4406,
      "ĠBrussel": 4407,
      "ouden": 4408,
      "oorn": 4409,
      "plic": 4410,
      "ĠWillem": 4411,
      "randen": 4412,
      "Ġvoordelen": 4413,
      "Ġaantrek": 4414,
      "reet": 4415,
      "Ġving": 4416,
      "Ġmiddag": 4417,
      "ĠPark": 4418,
      "Ġwetenschapp": 4419,
      "Ġflexib": 4420,
      "gers": 4421,
      "Ġvernieuw": 4422,
      "wekken": 4423,
      "Ġaarde": 4424,
      "Ġstarten": 4425,
      "ĠDenk": 4426,
      "Ġgelden": 4427,
      "ĠLim": 4428,
      "Ġgerecht": 4429,
      "Ġuitzonder": 4430,
      "itect": 4431,
      "ures": 4432,
      "uleren": 4433,
      "Ġstim": 4434,
      "Ġveld": 4435,
      "ĠNee": 4436,
      "ĠLet": 4437,
      "Ġinterieur": 4438,
      "19": 4439,
      "Ġaansprak": 4440,
      "Ġgekocht": 4441,
      "Ġpensioen": 4442,
      "Ġfris": 4443,
      "Ġgewerkt": 4444,
      "Ġgroei": 4445,
      "Ġgespec": 4446,
      "Ġzichtbaar": 4447,
      "Ġvereniging": 4448,
      "ressie": 4449,
      "ĠIN": 4450,
      "electie": 4451,
      "eters": 4452,
      "Ġeffic": 4453,
      "Ġrechtbank": 4454,
      "Ġpolitieke": 4455,
      "apan": 4456,
      "Ġsimpel": 4457,
      "Ġkern": 4458,
      "Ġstop": 4459,
      "ĠHelaas": 4460,
      "Ġdoordat": 4461,
      "ĠAb": 4462,
      "ĠVal": 4463,
      "andid": 4464,
      "ĠHand": 4465,
      "Ġdocument": 4466,
      "ĠEigen": 4467,
      "Ġuren": 4468,
      "Ġabon": 4469,
      "Ġfra": 4470,
      "Ġcontrol": 4471,
      "ĠBet": 4472,
      "wijd": 4473,
      "ĠMich": 4474,
      "ĠHeel": 4475,
      "eden": 4476,
      "Ġrechten": 4477,
      "AM": 4478,
      "rabant": 4479,
      "Ġprincip": 4480,
      "ografie": 4481,
      "Ġoverigens": 4482,
      "richten": 4483,
      "Ġplant": 4484,
      "pan": 4485,
      "ĠDaarbij": 4486,
      "ĠBelgische": 4487,
      "stukken": 4488,
      "Ġscholen": 4489,
      "Ġtoegev": 4490,
      "Ġtiener": 4491,
      "Ġproduc": 4492,
      "erij": 4493,
      "rukt": 4494,
      "Ġshow": 4495,
      "ĠWind": 4496,
      "ĠUS": 4497,
      "Ġ.....": 4498,
      "Ġdeb": 4499,
      "Ġkwij": 4500,
      "iders": 4501,
      "Ġwerkgever": 4502,
      "Ġaanbe": 4503,
      "doet": 4504,
      "ĠInter": 4505,
      "Ġol": 4506,
      "Ġlastig": 4507,
      "andeld": 4508,
      "Ġ95": 4509,
      "Ġmobiele": 4510,
      "Ġmult": 4511,
      "ĠBrit": 4512,
      "Ġtegenwoordig": 4513,
      "Ġren": 4514,
      "Ġredelijk": 4515,
      "plan": 4516,
      "Ã¡": 4517,
      "ĠUiter": 4518,
      "Ġcap": 4519,
      "ĠFranse": 4520,
      "ĠiPhone": 4521,
      "Ġvroeger": 4522,
      "Ġbevol": 4523,
      "Ġtechnologie": 4524,
      "Ġbevindt": 4525,
      "ankt": 4526,
      "BO": 4527,
      "Ġ2007": 4528,
      "ĠHa": 4529,
      "ĠJezus": 4530,
      "sbe": 4531,
      "Ġ300": 4532,
      "Ġvertrouw": 4533,
      "Ġbeweging": 4534,
      "Ġtemperatuur": 4535,
      "udio": 4536,
      "Ġhoeveelheid": 4537,
      "Ġinwoners": 4538,
      "vester": 4539,
      "Ġpublic": 4540,
      "Ġlekkere": 4541,
      "Ġerotische": 4542,
      "Ġmeub": 4543,
      "Ġvoorraad": 4544,
      "Ġmorgen": 4545,
      "uze": 4546,
      "Ġtegenover": 4547,
      "Ġbleef": 4548,
      "zie": 4549,
      "volgens": 4550,
      "Ġstrateg": 4551,
      "Ġvoeding": 4552,
      "Ġsing": 4553,
      "ĠBeg": 4554,
      "Ġmodellen": 4555,
      "Ġziekenhuis": 4556,
      "ĠSuper": 4557,
      "ĠideeÃ«n": 4558,
      "ema": 4559,
      "rukken": 4560,
      "Ġstoppen": 4561,
      "ĠBest": 4562,
      "ĠNaar": 4563,
      "streeks": 4564,
      "Ġfout": 4565,
      "Ġflink": 4566,
      "Ġbewoners": 4567,
      "Ġvoedsel": 4568,
      "verzekering": 4569,
      "Ġkrit": 4570,
      "Ġarm": 4571,
      "verk": 4572,
      "Ã³Ã³": 4573,
      "alingen": 4574,
      "Ġinteressant": 4575,
      "oriteit": 4576,
      "ĠSoc": 4577,
      "Ġontspannen": 4578,
      "Ġontbijt": 4579,
      "aanderen": 4580,
      "Ġprofession": 4581,
      "Ġalsof": 4582,
      "gene": 4583,
      "veen": 4584,
      "Ġwoningen": 4585,
      "Ġhangen": 4586,
      "Ġoplossingen": 4587,
      "Ġdraagt": 4588,
      "Ġoverige": 4589,
      "Ġrepar": 4590,
      "Ġwelk": 4591,
      "Ġkiest": 4592,
      "Ġ!!!": 4593,
      "yt": 4594,
      "Ġdre": 4595,
      "bers": 4596,
      "Ġtwijf": 4597,
      "Ġblok": 4598,
      "ici": 4599,
      "yse": 4600,
      "ĠHoog": 4601,
      "Ġbehoefte": 4602,
      "ĠMart": 4603,
      "Ġuitstraling": 4604,
      "Ġgrens": 4605,
      "opend": 4606,
      "Ġzand": 4607,
      "Ġbodem": 4608,
      "IT": 4609,
      "ĠDes": 4610,
      "Ġgedeelte": 4611,
      "wacht": 4612,
      "Ġtieten": 4613,
      "Ġkeur": 4614,
      "Ġpakket": 4615,
      "Ġcontract": 4616,
      "Ġklik": 4617,
      "Ġcoach": 4618,
      "eiden": 4619,
      "bureau": 4620,
      "Ġgewenste": 4621,
      "Ġgemeent": 4622,
      "Ġbellen": 4623,
      "Ġoefen": 4624,
      "Ġverzekering": 4625,
      "atter": 4626,
      "itte": 4627,
      "Ġpolitiek": 4628,
      "Ġafspraken": 4629,
      "ĠpatiÃ«nten": 4630,
      "alist": 4631,
      "Ġess": 4632,
      "ĠNad": 4633,
      "Ġvoorzitter": 4634,
      "Ġmomenteel": 4635,
      "Ġsmartph": 4636,
      "kering": 4637,
      "ĠJac": 4638,
      "ĠBuiten": 4639,
      "ĠRes": 4640,
      "Ġinc": 4641,
      "Ġschoenen": 4642,
      "ĠPe": 4643,
      "ĠGew": 4644,
      "Ġwellicht": 4645,
      "riek": 4646,
      "Ġvolk": 4647,
      "ĠIJ": 4648,
      "doende": 4649,
      "pjes": 4650,
      "Ġpositieve": 4651,
      "Ġtyp": 4652,
      "ions": 4653,
      "Ġaanpak": 4654,
      "ict": 4655,
      "ummers": 4656,
      "Ġtoeg": 4657,
      "Ġregering": 4658,
      "resident": 4659,
      "ĠBra": 4660,
      "Ġkwal": 4661,
      "rem": 4662,
      "ĠWater": 4663,
      "anne": 4664,
      "Ġkwijt": 4665,
      "Ġproef": 4666,
      "Ġvrijwilligers": 4667,
      "Ġtotale": 4668,
      "Ġverj": 4669,
      "gevers": 4670,
      "ĠIedereen": 4671,
      "Ġverspre": 4672,
      "mede": 4673,
      "Ġnabij": 4674,
      "achtig": 4675,
      "haald": 4676,
      "Ġmarketing": 4677,
      "za": 4678,
      "Ġcontin": 4679,
      "ĠprivÃ©": 4680,
      "Ġoriginele": 4681,
      "ieuwd": 4682,
      "kan": 4683,
      "Ġgeniet": 4684,
      "kunde": 4685,
      "Ġopdrachtgever": 4686,
      "Ġharde": 4687,
      "ĠCO": 4688,
      "iot": 4689,
      "Ġij": 4690,
      "Ġmanieren": 4691,
      "Ġslim": 4692,
      "Ġgespecialis": 4693,
      "Ġleidt": 4694,
      "Ġvit": 4695,
      "Ġkont": 4696,
      "Ġdraaien": 4697,
      "Ġverzek": 4698,
      "Ġvertegenwoord": 4699,
      "malige": 4700,
      "ube": 4701,
      "Ġverdiep": 4702,
      "Ã¨re": 4703,
      "Ġcond": 4704,
      "iker": 4705,
      "Ġaangegeven": 4706,
      "Ġtrein": 4707,
      "Ġgarantie": 4708,
      "Ġam": 4709,
      "naam": 4710,
      "ĠTweede": 4711,
      "Ġvrijwel": 4712,
      "Ġgevestigd": 4713,
      "Ġaanleiding": 4714,
      "ĠTele": 4715,
      "Ġbegrip": 4716,
      "neem": 4717,
      "houdt": 4718,
      "ĠCo": 4719,
      "ĠRijk": 4720,
      "ĠVooral": 4721,
      "Ġhttp": 4722,
      "ries": 4723,
      "ING": 4724,
      "ertijd": 4725,
      "Ġgeorganiseerd": 4726,
      "Ġton": 4727,
      "Ġmiddelen": 4728,
      "mod": 4729,
      "Ġgraf": 4730,
      "Ġconcur": 4731,
      "idden": 4732,
      "Ġoptimaal": 4733,
      "ĠPorno": 4734,
      "Ġontworpen": 4735,
      "ĠAir": 4736,
      "ĠDel": 4737,
      "leed": 4738,
      "ĠApple": 4739,
      "Ġrealiseren": 4740,
      "Ġuitsluitend": 4741,
      "iedingen": 4742,
      "ĠDag": 4743,
      "Ġduizen": 4744,
      "ĠPas": 4745,
      "Ġkijkt": 4746,
      "Ġontwikkelingen": 4747,
      "Ġtonen": 4748,
      "ije": 4749,
      "agne": 4750,
      "ational": 4751,
      "12": 4752,
      "Ġuniek": 4753,
      "Ġbuitenland": 4754,
      "etting": 4755,
      "steen": 4756,
      "Ġbezit": 4757,
      "vuldig": 4758,
      "Ġnr": 4759,
      "vat": 4760,
      "Ġingericht": 4761,
      "Ġ,,": 4762,
      "rachten": 4763,
      "waardige": 4764,
      "ting": 4765,
      "ĠSurin": 4766,
      "Ġonderzoeken": 4767,
      "Ġmate": 4768,
      "elende": 4769,
      "ustr": 4770,
      "Ġbereikt": 4771,
      "gra": 4772,
      "Ġhoef": 4773,
      "icit": 4774,
      "heer": 4775,
      "Ġontdekken": 4776,
      "Ġonderneming": 4777,
      "Ġderden": 4778,
      "merc": 4779,
      "Ġsubsid": 4780,
      "ĠWereld": 4781,
      "Ġerbij": 4782,
      "Ġadvoc": 4783,
      "Ġbeschikking": 4784,
      "Ġbegrijpen": 4785,
      "cel": 4786,
      "tie": 4787,
      "ĠcreÃ«ren": 4788,
      "Ġstukken": 4789,
      "dan": 4790,
      "ÂŃ": 4791,
      "ĠIsra": 4792,
      "Ġfavoriete": 4793,
      "Ġprofiel": 4794,
      "Ġontstaat": 4795,
      "ĠBouw": 4796,
      "ĠUiteraard": 4797,
      "meer": 4798,
      "Ġwoonkamer": 4799,
      "kundige": 4800,
      "put": 4801,
      "ĠVervolgens": 4802,
      "ĠMensen": 4803,
      "ĠBent": 4804,
      "Ġdrank": 4805,
      "ĠTevens": 4806,
      "Ġondernemers": 4807,
      "unn": 4808,
      "elend": 4809,
      "Ġgoud": 4810,
      "intig": 4811,
      "Ġhiermee": 4812,
      "Ġlager": 4813,
      "cedure": 4814,
      "Ġgezamen": 4815,
      "Ġzwanger": 4816,
      "ĠAp": 4817,
      "Ġtoel": 4818,
      "inten": 4819,
      "persoon": 4820,
      "Ġthee": 4821,
      "Ġapparaat": 4822,
      "Ġvergelijken": 4823,
      "ness": 4824,
      "hang": 4825,
      "veil": 4826,
      "Ġvoren": 4827,
      "Ġgraden": 4828,
      "Ġaanget": 4829,
      "Ġvoeten": 4830,
      "oires": 4831,
      "Ġtrots": 4832,
      "Ġwh": 4833,
      "Ġgewone": 4834,
      "Ġonderstaande": 4835,
      "mans": 4836,
      "leur": 4837,
      "Ġselectie": 4838,
      "Ġenig": 4839,
      "ĠTop": 4840,
      "Ġaute": 4841,
      "Ġuitger": 4842,
      "Ġhom": 4843,
      "Ġstrak": 4844,
      "pakt": 4845,
      "Ġsamenleving": 4846,
      "Ġoordeel": 4847,
      "ĠDankzij": 4848,
      "Ġverbinding": 4849,
      "Ġwaarvoor": 4850,
      "duid": 4851,
      "beleid": 4852,
      "Ġtechniek": 4853,
      "Ġaankoop": 4854,
      "AS": 4855,
      "ĠTegen": 4856,
      "Ġliep": 4857,
      "Ġgezonde": 4858,
      "nement": 4859,
      "ementen": 4860,
      "ðŁ": 4861,
      "ĠDon": 4862,
      "Ġblad": 4863,
      "Ġhete": 4864,
      "ĠPeter": 4865,
      "Ġjongen": 4866,
      "Ġinstallatie": 4867,
      "Ġhuren": 4868,
      "Ġeenmaal": 4869,
      "ĠWh": 4870,
      "Ġinitiatief": 4871,
      "urele": 4872,
      "gar": 4873,
      "IE": 4874,
      "zettend": 4875,
      "ĠBas": 4876,
      "din": 4877,
      "ĠVrouwen": 4878,
      "Ġsoep": 4879,
      "Ġafle": 4880,
      "aai": 4881,
      "Ġhogere": 4882,
      "derij": 4883,
      "Ġheden": 4884,
      "box": 4885,
      "Ġdaarin": 4886,
      "ating": 4887,
      "Ġgeboorte": 4888,
      "Ġvrijblijven": 4889,
      "ĠVerk": 4890,
      "Ġvet": 4891,
      "schuw": 4892,
      "Ġnaakt": 4893,
      "ublic": 4894,
      "Ġtemp": 4895,
      "ĠMo": 4896,
      "ĠGez": 4897,
      "Ġkab": 4898,
      "ĠAll": 4899,
      "Ġrit": 4900,
      "Ġbier": 4901,
      "Ġ2006": 4902,
      "slaan": 4903,
      "ĠSpec": 4904,
      "verb": 4905,
      "chtend": 4906,
      "proces": 4907,
      "ĠCD": 4908,
      "kte": 4909,
      "Ġ33": 4910,
      "Ġbeneden": 4911,
      "Ġsleut": 4912,
      "feest": 4913,
      "Ġafdeling": 4914,
      "Ġeindelijk": 4915,
      "Ġverzorgen": 4916,
      "Ġkeren": 4917,
      "Ġinstellingen": 4918,
      "Ġab": 4919,
      "mon": 4920,
      "Ġbestand": 4921,
      "ĠKies": 4922,
      "pje": 4923,
      "middag": 4924,
      "Ġverdachte": 4925,
      "Ġvoorkeur": 4926,
      "Ġmy": 4927,
      "Ġ):": 4928,
      "cam": 4929,
      "iegel": 4930,
      "Ġkaarten": 4931,
      "Ġriv": 4932,
      "Ġdaarnaast": 4933,
      "older": 4934,
      "Ġhoud": 4935,
      "Ġdis": 4936,
      "Ġvoornamelijk": 4937,
      "wijze": 4938,
      "verl": 4939,
      "Ġuitstekende": 4940,
      "ĠHotel": 4941,
      "Ġtijden": 4942,
      "Ġaansch": 4943,
      "Ġalbum": 4944,
      "Ġtoilet": 4945,
      "kleur": 4946,
      "Ġinkomen": 4947,
      "Ġchat": 4948,
      "ĠProf": 4949,
      "Ġplekken": 4950,
      "kleding": 4951,
      "Ġbestemming": 4952,
      "Ã«l": 4953,
      "brengen": 4954,
      "Ġslaapkamer": 4955,
      "omein": 4956,
      "Ġporn": 4957,
      "Ġcompet": 4958,
      "ana": 4959,
      "langs": 4960,
      "Ġcomplete": 4961,
      "ĠHierbij": 4962,
      "Ġ2000": 4963,
      "club": 4964,
      "Ġsocial": 4965,
      "Ġnieuwste": 4966,
      "Ġgespeeld": 4967,
      "Ġherinner": 4968,
      "Ġcasino": 4969,
      "Ġmezelf": 4970,
      "Ġcamping": 4971,
      "Ġsector": 4972,
      "ĠVrouw": 4973,
      "Ġgeregeld": 4974,
      "ĠPort": 4975,
      "laag": 4976,
      "ĠTV": 4977,
      "ĠStaten": 4978,
      "ussie": 4979,
      "Ġzogenaam": 4980,
      "ork": 4981,
      "ĠDE": 4982,
      "Ġgeluk": 4983,
      "ĠðŁ": 4984,
      "zw": 4985,
      "ouder": 4986,
      "Ġzware": 4987,
      "Ġzil": 4988,
      "ĠKn": 4989,
      "wit": 4990,
      "Ġding": 4991,
      "Ġgebruikte": 4992,
      "gebouwd": 4993,
      "Ġeerlijk": 4994,
      "Ġnodige": 4995,
      "schrijven": 4996,
      "Ġverwerkt": 4997,
      "Ġdagelijkse": 4998,
      "Ġgevangen": 4999,
      "ĠMer": 5000,
      "Ġgebruiker": 5001,
      "ĠSk": 5002,
      "Ġtrouwens": 5003,
      "Ġverloren": 5004,
      "voering": 5005,
      "Ġlevering": 5006,
      "Ġaangezien": 5007,
      "wijzen": 5008,
      "anties": 5009,
      "essoires": 5010,
      "rika": 5011,
      "Ġbeschermen": 5012,
      "gaat": 5013,
      "ĠKen": 5014,
      "Ġbord": 5015,
      "Ġlunch": 5016,
      "alve": 5017,
      "ĠColle": 5018,
      "Ġbeschrij": 5019,
      "Ġochtend": 5020,
      "Ġfles": 5021,
      "ower": 5022,
      "chines": 5023,
      "Ġdirecteur": 5024,
      "nog": 5025,
      "mel": 5026,
      "Ġsnelheid": 5027,
      "Ġpopulair": 5028,
      "Ġvro": 5029,
      "Ġstro": 5030,
      "ĠOl": 5031,
      "gebracht": 5032,
      "VD": 5033,
      "Ġinvester": 5034,
      "oging": 5035,
      "Ġondanks": 5036,
      "pr": 5037,
      "Ġcode": 5038,
      "gemeester": 5039,
      "ugen": 5040,
      "rand": 5041,
      "Ġstoffen": 5042,
      "Ġdownloaden": 5043,
      "etsen": 5044,
      "Ġschad": 5045,
      "Ġherken": 5046,
      "uif": 5047,
      "ĠRob": 5048,
      "Ġgemiddeld": 5049,
      "Ġ34": 5050,
      "esp": 5051,
      "Ġduurt": 5052,
      "Ġgesproken": 5053,
      "Ġmethode": 5054,
      "Ġoudere": 5055,
      "ape": 5056,
      "Ġklassieke": 5057,
      "ĠVlaamse": 5058,
      "olatie": 5059,
      "ĠCol": 5060,
      "bus": 5061,
      "Ġsier": 5062,
      "Ġqua": 5063,
      "ux": 5064,
      "Ġavont": 5065,
      "ald": 5066,
      "Ġwith": 5067,
      "afÃ©": 5068,
      "Ġaanbieden": 5069,
      "Ġdouche": 5070,
      "Ġfig": 5071,
      "loze": 5072,
      "Ġlo": 5073,
      "Ġontzettend": 5074,
      "Ġkandid": 5075,
      "ĠSim": 5076,
      "hof": 5077,
      "Ġdraad": 5078,
      "houders": 5079,
      "ĠBre": 5080,
      "ĠArtikel": 5081,
      "iplom": 5082,
      "Ġredenen": 5083,
      "Ġstation": 5084,
      "itair": 5085,
      "Ġuitleg": 5086,
      "ĠJul": 5087,
      "Ġlengte": 5088,
      "Ġzuid": 5089,
      "Ġtaak": 5090,
      "ĠAntwerpen": 5091,
      "Ġelektrische": 5092,
      "Ġoppervlak": 5093,
      "Ġslapen": 5094,
      "Ġschrijft": 5095,
      "ouch": 5096,
      "haal": 5097,
      "Ġmuzik": 5098,
      "daagse": 5099,
      "Ġnag": 5100,
      "Ġwint": 5101,
      "Ġburger": 5102,
      "Ġreacties": 5103,
      "Ġdaarop": 5104,
      "fun": 5105,
      "Ġree": 5106,
      "stige": 5107,
      "Ġrespect": 5108,
      "Ġleert": 5109,
      "una": 5110,
      "Ġyou": 5111,
      "Ġpositief": 5112,
      "Ġboer": 5113,
      "vies": 5114,
      "Ġvriendin": 5115,
      "ĠJohn": 5116,
      "sw": 5117,
      "arming": 5118,
      "ĠKe": 5119,
      "eurs": 5120,
      "Ġverpakk": 5121,
      "Ġgoederen": 5122,
      "Ġgod": 5123,
      "orgd": 5124,
      "uiven": 5125,
      "Ġ39": 5126,
      "Ġlichte": 5127,
      "ĠFrans": 5128,
      "inke": 5129,
      "Ġeenvoudige": 5130,
      "ĠAlgemene": 5131,
      "ĠZod": 5132,
      "ition": 5133,
      "Ġnauwelijks": 5134,
      "Ġopgericht": 5135,
      "ĠMax": 5136,
      "Ġmeet": 5137,
      "Ġ38": 5138,
      "ynam": 5139,
      "geleverd": 5140,
      "Ġbehoren": 5141,
      "uters": 5142,
      "stijl": 5143,
      "Ġkoning": 5144,
      "Ġvergro": 5145,
      "ĠKonink": 5146,
      "boven": 5147,
      "Ġhangt": 5148,
      "Ġextre": 5149,
      "ham": 5150,
      "bak": 5151,
      "Ġleek": 5152,
      "Ġindividuele": 5153,
      "Ġnogal": 5154,
      "Ġkies": 5155,
      "mond": 5156,
      "Ġborst": 5157,
      "Ġviel": 5158,
      "formulier": 5159,
      "Ġfuncties": 5160,
      "arden": 5161,
      "wereld": 5162,
      "ĠComp": 5163,
      "Ġbereken": 5164,
      "Ġvanzelf": 5165,
      "ĠNij": 5166,
      "onderzoek": 5167,
      "Ġeveneens": 5168,
      "Ġbang": 5169,
      "Ġleeg": 5170,
      "Ġuitstekend": 5171,
      "Ġmont": 5172,
      "Ġtru": 5173,
      "ĠGemeen": 5174,
      "ĠWelke": 5175,
      "uliere": 5176,
      "ĠNL": 5177,
      "ĠEm": 5178,
      "Ġeconomische": 5179,
      "Ġcomfortabel": 5180,
      "aptop": 5181,
      "Ġbeschikken": 5182,
      "Ġplatform": 5183,
      "Ġbetekenis": 5184,
      "Ġstemmen": 5185,
      "Ġaangepast": 5186,
      "rimin": 5187,
      "ĠKar": 5188,
      "Ġreser": 5189,
      "Ġsites": 5190,
      "Ġbeschouw": 5191,
      "Ġondernemer": 5192,
      "Ġrecl": 5193,
      "aarden": 5194,
      "ĠSeks": 5195,
      "Ġgisteren": 5196,
      "Ġraden": 5197,
      "Ġkopp": 5198,
      "Ġlijken": 5199,
      "arief": 5200,
      "Ġbehouden": 5201,
      "bedrijven": 5202,
      "asten": 5203,
      "ĠGroot": 5204,
      "aardag": 5205,
      "Ġsterren": 5206,
      "Ġnormale": 5207,
      "ĠArn": 5208,
      "Ã³Ã³r": 5209,
      "Ġbudget": 5210,
      "passen": 5211,
      "Ġkook": 5212,
      "Ġtoestel": 5213,
      "Ġofferte": 5214,
      "verg": 5215,
      "ĠWindows": 5216,
      "Ġnoem": 5217,
      "Ġvrijheid": 5218,
      "Ġvoertu": 5219,
      "Ġrente": 5220,
      "naar": 5221,
      "Ġaangev": 5222,
      "Ġware": 5223,
      "Ġvriendelijk": 5224,
      "ĠTurk": 5225,
      "ĠEngels": 5226,
      "Ġvolg": 5227,
      "ala": 5228,
      "ĠVaak": 5229,
      "acte": 5230,
      "11": 5231,
      "Ġpaard": 5232,
      "Ġtraditionele": 5233,
      "ĠAc": 5234,
      "Ġklimaat": 5235,
      "Ġdek": 5236,
      "Ġenerg": 5237,
      "Ġbehoorlijk": 5238,
      "Ġlessen": 5239,
      "Ġklas": 5240,
      "itaire": 5241,
      "ony": 5242,
      "aliseerd": 5243,
      "Ġboom": 5244,
      "strie": 5245,
      "go": 5246,
      "ĠKer": 5247,
      "Ġdraag": 5248,
      "Ġgeopend": 5249,
      "ĠHou": 5250,
      "Ġstel": 5251,
      "Ġ150": 5252,
      "Ã¶r": 5253,
      "Ġinspiratie": 5254,
      "Ġhistorische": 5255,
      "isterie": 5256,
      "Ġdaadwerk": 5257,
      "vraag": 5258,
      "Ġaft": 5259,
      "test": 5260,
      "ĠVanuit": 5261,
      "Ġmuseum": 5262,
      "Ġblik": 5263,
      "ĠMag": 5264,
      "Ġgede": 5265,
      "Ġpand": 5266,
      "Ġbevest": 5267,
      "ĠDoe": 5268,
      "ĠIS": 5269,
      "Ġevenement": 5270,
      "Ġdetails": 5271,
      "ulden": 5272,
      "Ġsociaal": 5273,
      "alm": 5274,
      "asc": 5275,
      "Ġonderhouden": 5276,
      "Ġgecon": 5277,
      "Ġvijft": 5278,
      "Ġ55": 5279,
      "Ġverrassen": 5280,
      "Ġ195": 5281,
      "Ġbon": 5282,
      "Ð¾": 5283,
      "Ġopties": 5284,
      "sters": 5285,
      "Ġvergoeding": 5286,
      "Ġafval": 5287,
      "Ġmelk": 5288,
      "Ġopenbare": 5289,
      "Ġtax": 5290,
      "Ġkruis": 5291,
      "roeven": 5292,
      "Ġlat": 5293,
      "Ġbeschad": 5294,
      "Ġaangesloten": 5295,
      "Ġgren": 5296,
      "Ġgedachten": 5297,
      "Ġbereid": 5298,
      "Ġamateur": 5299,
      "Ġverwerken": 5300,
      "Ġlied": 5301,
      "Ġstab": 5302,
      "ĠFrie": 5303,
      "Ġvoedings": 5304,
      "Ġhelder": 5305,
      "Ġvullen": 5306,
      "ĠStad": 5307,
      "Ġzonn": 5308,
      "Ġcijfers": 5309,
      "Ġconcept": 5310,
      "Ġrot": 5311,
      "Ġaanvragen": 5312,
      "Ġrelatief": 5313,
      "Ġnationale": 5314,
      "Ġaanbiedingen": 5315,
      "kten": 5316,
      "eloos": 5317,
      "Ġondersteunen": 5318,
      "reis": 5319,
      "Ġuitbre": 5320,
      "aderen": 5321,
      "Ġverlies": 5322,
      "Ġakk": 5323,
      "halve": 5324,
      "ĠRec": 5325,
      "zers": 5326,
      "ĠLimburg": 5327,
      "ton": 5328,
      "Ġmedische": 5329,
      "Ġontwerpen": 5330,
      "Ġverkie": 5331,
      "Ġvastgesteld": 5332,
      "Ġaanvullen": 5333,
      "Ġlandschap": 5334,
      "Ġverantwoordelijkheid": 5335,
      "ommod": 5336,
      "Ġpod": 5337,
      "Ġdroom": 5338,
      "Ġwegen": 5339,
      "Ġ65": 5340,
      "ĠPost": 5341,
      "Ġbomen": 5342,
      "ĠSommige": 5343,
      "Ġdraait": 5344,
      "dert": 5345,
      "Ġadem": 5346,
      "breng": 5347,
      "Ġvierde": 5348,
      "Ġcam": 5349,
      "Ġcollege": 5350,
      "ructie": 5351,
      "Ġdeuren": 5352,
      "fon": 5353,
      "Ġspoor": 5354,
      "zo": 5355,
      "Ġvoelde": 5356,
      "Ġtelevisie": 5357,
      "lijnen": 5358,
      "Ã©l": 5359,
      "Ġslechte": 5360,
      "akers": 5361,
      "rans": 5362,
      "Ġgenoemde": 5363,
      "Ġtrek": 5364,
      "zijds": 5365,
      "Ġzachte": 5366,
      "zaken": 5367,
      "Ġlegt": 5368,
      "ih": 5369,
      "Ġintegr": 5370,
      "Ġvormt": 5371,
      "Ġhierdoor": 5372,
      "zocht": 5373,
      "matige": 5374,
      "Ġuitdaging": 5375,
      "ossen": 5376,
      "aciteit": 5377,
      "Ġuiterlijk": 5378,
      "Ġkust": 5379,
      "ĠZeker": 5380,
      "Ġsteen": 5381,
      "Ġvi": 5382,
      "Ġrem": 5383,
      "ĠVraag": 5384,
      "Ġingev": 5385,
      "Ġvoordel": 5386,
      "Ġuitspraak": 5387,
      "Ġhaal": 5388,
      "Ġzomaar": 5389,
      "stap": 5390,
      "auto": 5391,
      "Ġverde": 5392,
      "vd": 5393,
      "ĠJapan": 5394,
      "Ġfotos": 5395,
      "bergen": 5396,
      "appar": 5397,
      "ĠBV": 5398,
      "Ġcommerc": 5399,
      "Ġverhoog": 5400,
      "Ġgun": 5401,
      "uziek": 5402,
      "Ġvoorbeelden": 5403,
      "Ġvisie": 5404,
      "Ġ<": 5405,
      "Ġtransport": 5406,
      "Ġselect": 5407,
      "irl": 5408,
      "ĠNadat": 5409,
      "blemen": 5410,
      "Ġexpert": 5411,
      "Ġarchitect": 5412,
      "Ġloon": 5413,
      "Ġinvest": 5414,
      "ĠMa": 5415,
      "ĠJon": 5416,
      "riet": 5417,
      "lig": 5418,
      "urgers": 5419,
      "Ġtand": 5420,
      "Ġcentrale": 5421,
      "Ġkor": 5422,
      "Ġprint": 5423,
      "Ġbestel": 5424,
      "ique": 5425,
      "aker": 5426,
      "herapie": 5427,
      "Ġrekenen": 5428,
      "Ġspreekt": 5429,
      "ĠAt": 5430,
      "Ġgevolgd": 5431,
      "Ġfoc": 5432,
      "Ġsneeuw": 5433,
      "ĠMicro": 5434,
      "Ġnetjes": 5435,
      "Ġveroorzaakt": 5436,
      "Ġopening": 5437,
      "Ġbewijs": 5438,
      "Ġangst": 5439,
      "rel": 5440,
      "verde": 5441,
      "Ġlaptop": 5442,
      "ageren": 5443,
      "Ġstress": 5444,
      "astic": 5445,
      "Ġschrijf": 5446,
      "Ġvoorzieningen": 5447,
      "Ġlas": 5448,
      "Ġâ": 5449,
      "Ġpartners": 5450,
      "oken": 5451,
      "Ġverdere": 5452,
      "18": 5453,
      "Ġsyn": 5454,
      "atting": 5455,
      "ĠBro": 5456,
      "Ġwagen": 5457,
      "Ġbenieuwd": 5458,
      "umin": 5459,
      "ĠYou": 5460,
      "Ġvonden": 5461,
      "Ġball": 5462,
      "ĠDu": 5463,
      "ilen": 5464,
      "wen": 5465,
      "hel": 5466,
      "ĠMassage": 5467,
      "Ġ48": 5468,
      "Ġtenzij": 5469,
      "uwe": 5470,
      "achtige": 5471,
      "Ġbetaalt": 5472,
      "ifte": 5473,
      "Ġgebouwen": 5474,
      "ĠHen": 5475,
      "wedst": 5476,
      "Ġhopen": 5477,
      "Ġdate": 5478,
      "aagde": 5479,
      "vaard": 5480,
      "oorlog": 5481,
      "datum": 5482,
      "Ġwedstrijden": 5483,
      "kamp": 5484,
      "Ġref": 5485,
      "Ġalweer": 5486,
      "ye": 5487,
      "cy": 5488,
      "Ġomhoog": 5489,
      "Ġonderwerpen": 5490,
      "Ġhum": 5491,
      "EM": 5492,
      "Ġbatter": 5493,
      "belasting": 5494,
      "Ġbevolking": 5495,
      "Ġlangzaam": 5496,
      "Ġschip": 5497,
      "Ġjaarlijks": 5498,
      "Ġ2005": 5499,
      "Ġbeschreven": 5500,
      "geen": 5501,
      "Â°": 5502,
      "rus": 5503,
      "Ġgeur": 5504,
      "ĠBur": 5505,
      "vereniging": 5506,
      "Ġkansen": 5507,
      "Ġ37": 5508,
      "Ġgame": 5509,
      "Ġhandel": 5510,
      "Ġcombineren": 5511,
      "Ġtoegevoegd": 5512,
      "Ġconcurr": 5513,
      "cohol": 5514,
      "Ġcol": 5515,
      "ĠKw": 5516,
      "Ġingezet": 5517,
      "Ġserv": 5518,
      "Ġopenen": 5519,
      "ieuze": 5520,
      "ĠHoofd": 5521,
      "Ġterugk": 5522,
      "Ġverandering": 5523,
      "Ġei": 5524,
      "ĠVen": 5525,
      "Ġhuizen": 5526,
      "Ġdubbel": 5527,
      "Ġsmartphone": 5528,
      "uste": 5529,
      "Ġreview": 5530,
      "ooie": 5531,
      "Ġknop": 5532,
      "Ġbrede": 5533,
      "Ġvervang": 5534,
      "teg": 5535,
      "Ġgene": 5536,
      "Ġafbeeldingen": 5537,
      "alisatie": 5538,
      "pens": 5539,
      "Ġzogenaamde": 5540,
      "Ġtrap": 5541,
      "Ġverjaardag": 5542,
      "iÃ«ren": 5543,
      "Ġwaarna": 5544,
      "ĠHall": 5545,
      "Ġschitt": 5546,
      "obby": 5547,
      "gesp": 5548,
      "merking": 5549,
      "Ġul": 5550,
      "ĠGu": 5551,
      "ĠPat": 5552,
      "dr": 5553,
      "Ġveilige": 5554,
      "Ġwoont": 5555,
      "stens": 5556,
      "Ġvent": 5557,
      "Ġberichten": 5558,
      "ĠGra": 5559,
      "Ġvacat": 5560,
      "ĠAchter": 5561,
      "techn": 5562,
      "ĠZonder": 5563,
      "gist": 5564,
      "Ġblauwe": 5565,
      "oorde": 5566,
      "ysteem": 5567,
      "Ġafw": 5568,
      "Ġsymb": 5569,
      "Ġtoegankelijk": 5570,
      "Ġther": 5571,
      "Ġingred": 5572,
      "ideo": 5573,
      "Ġcontent": 5574,
      "ĠDi": 5575,
      "bu": 5576,
      "olang": 5577,
      "ĠTijd": 5578,
      "atieven": 5579,
      "affen": 5580,
      "Ġelektron": 5581,
      "gestelde": 5582,
      "Ġinteresse": 5583,
      "ĠKerk": 5584,
      "ĠEindhoven": 5585,
      "Ġbeleven": 5586,
      "ous": 5587,
      "houds": 5588,
      "Ġlamp": 5589,
      "Ġexamen": 5590,
      "ificatie": 5591,
      "Ġhuwelijk": 5592,
      "Ġaccept": 5593,
      "Ġopzichte": 5594,
      "OC": 5595,
      "schriften": 5596,
      "owel": 5597,
      "Ġverslag": 5598,
      "Ġplus": 5599,
      "telijk": 5600,
      "Ġvoorstellen": 5601,
      "woning": 5602,
      "Ġopvallen": 5603,
      "Ġ99": 5604,
      "da": 5605,
      "Ġteksten": 5606,
      "staand": 5607,
      "Ġmachine": 5608,
      "essie": 5609,
      "Ġmelden": 5610,
      "groepen": 5611,
      "ĠvÃ³Ã³r": 5612,
      "chen": 5613,
      "Ġraken": 5614,
      "ĠLeu": 5615,
      "bar": 5616,
      "Ġstonden": 5617,
      "Ġprincipe": 5618,
      "Ġgebieden": 5619,
      "Ġafgesloten": 5620,
      "Ġnoord": 5621,
      "Ġmicro": 5622,
      "Ġdiscussie": 5623,
      "Ġsens": 5624,
      "Ġwezen": 5625,
      "Ġvru": 5626,
      "alk": 5627,
      "Ġprettig": 5628,
      "Ġtoezicht": 5629,
      "ley": 5630,
      "Ġvolwassenen": 5631,
      "Ġwettelijke": 5632,
      "Ġadviseren": 5633,
      "beg": 5634,
      "Ġtas": 5635,
      "genda": 5636,
      "nes": 5637,
      "pten": 5638,
      "Ġem": 5639,
      "abele": 5640,
      "Ġlesb": 5641,
      "Ġaccommod": 5642,
      "Ġnee": 5643,
      "Ġteveel": 5644,
      "Ġhttps": 5645,
      "Ġrichten": 5646,
      "wikkeling": 5647,
      "Ġuiteen": 5648,
      "ĠEd": 5649,
      "ipp": 5650,
      "Ġlook": 5651,
      "ĠMaria": 5652,
      "ĠTim": 5653,
      "Ġwand": 5654,
      "aft": 5655,
      "ĠGroen": 5656,
      "Ġdecor": 5657,
      "Ġdans": 5658,
      "Ġpraktische": 5659,
      "Ġbehandeld": 5660,
      "Ġbehalve": 5661,
      "Ġinterview": 5662,
      "ĠVerenigde": 5663,
      "Ġlach": 5664,
      "ĠErot": 5665,
      "Ġgaten": 5666,
      "ĠAv": 5667,
      "Ġbevoegd": 5668,
      "Ġgeloven": 5669,
      "Ġslaan": 5670,
      "Ġgebeurten": 5671,
      "Ġmedewerker": 5672,
      "ĠVS": 5673,
      "ĠFe": 5674,
      "rust": 5675,
      "Ġgeleid": 5676,
      "ym": 5677,
      "Ġtransp": 5678,
      "Ġeruit": 5679,
      "bas": 5680,
      "Ġtentoon": 5681,
      "rekening": 5682,
      "Ġfre": 5683,
      "ĠgeÃ¯nter": 5684,
      "ĠChina": 5685,
      "Ġmiljard": 5686,
      "oring": 5687,
      "ĠTerwijl": 5688,
      "Ġgehaald": 5689,
      "eland": 5690,
      "zigingen": 5691,
      "ĠTechn": 5692,
      "ĠNou": 5693,
      "Ġabonnement": 5694,
      "organisatie": 5695,
      "Ġpopulaire": 5696,
      "Ġeconomie": 5697,
      "ĠOosten": 5698,
      "ID": 5699,
      "ĠZowel": 5700,
      "ĠZelfs": 5701,
      "Ġvoldoet": 5702,
      "uchten": 5703,
      "Ġpassie": 5704,
      "Ġdienstverlening": 5705,
      "diensten": 5706,
      "Ġverhuur": 5707,
      "beurt": 5708,
      "ĠGent": 5709,
      "Ġgelezen": 5710,
      "Ġtwintig": 5711,
      "ĠOndanks": 5712,
      "Ġbelast": 5713,
      "Ġbewegen": 5714,
      "Ġexter": 5715,
      "Ġhers": 5716,
      "Ġarts": 5717,
      "Ġbevor": 5718,
      "overeenkomst": 5719,
      "ologisch": 5720,
      "Ġbeleg": 5721,
      "materiaal": 5722,
      "Ġtaken": 5723,
      "Ġitem": 5724,
      "Ġdoorgaan": 5725,
      "Ġtijdje": 5726,
      "Ġwandelen": 5727,
      "schoenen": 5728,
      "Ġlul": 5729,
      "Ġgebruiks": 5730,
      "Ġraam": 5731,
      "Ġmaten": 5732,
      "Ġwerkelijk": 5733,
      "Ġ400": 5734,
      "Ġeditie": 5735,
      "Ġverdieping": 5736,
      "40": 5737,
      "Ġfraa": 5738,
      "Ġtrend": 5739,
      "Ġgenees": 5740,
      "voorzien": 5741,
      "Ġspeler": 5742,
      "Ġschuld": 5743,
      "Ġherstel": 5744,
      "Ġonmiddel": 5745,
      "Ġspecialist": 5746,
      "Ġklacht": 5747,
      "rop": 5748,
      "ankelijke": 5749,
      "ĠUniversiteit": 5750,
      "Ġgoedkope": 5751,
      "Ġlogo": 5752,
      "Ġaandeel": 5753,
      "Ġduidelijke": 5754,
      "ĠHans": 5755,
      "Ġmedic": 5756,
      "Ġluisteren": 5757,
      "Ġalvast": 5758,
      "Ġmakkelijker": 5759,
      "iende": 5760,
      "Ġabsoluut": 5761,
      "Ġklinkt": 5762,
      "Ġbesteld": 5763,
      "Ġvrijblijvend": 5764,
      "Ġomzet": 5765,
      "boom": 5766,
      "Ġtoevoegen": 5767,
      "Ġreeks": 5768,
      "Ġslaapkamers": 5769,
      "ĠBus": 5770,
      "osc": 5771,
      "ochten": 5772,
      "Ġindustrie": 5773,
      "Ġgespecialiseerd": 5774,
      "uminium": 5775,
      "Ġ42": 5776,
      "Ġgolf": 5777,
      "ĠOu": 5778,
      "ukt": 5779,
      "Ġspullen": 5780,
      "Ġzout": 5781,
      "ĠPhil": 5782,
      "back": 5783,
      "Ġinteressante": 5784,
      "ith": 5785,
      "splan": 5786,
      "Ġbevatten": 5787,
      "Ġbeslissing": 5788,
      "Ġijs": 5789,
      "Ġopgel": 5790,
      "Ġmix": 5791,
      "bord": 5792,
      "ĠVlaanderen": 5793,
      "Ġradio": 5794,
      "eth": 5795,
      "Ġharte": 5796,
      "uwen": 5797,
      "Ġrestaurants": 5798,
      "ales": 5799,
      "Ġbo": 5800,
      "Ġbv": 5801,
      "schil": 5802,
      "Ġstevig": 5803,
      "ĠHome": 5804,
      "Ġspoed": 5805,
      "Ġ2019": 5806,
      "Ġmanagement": 5807,
      "Ġintro": 5808,
      "iat": 5809,
      "result": 5810,
      "maak": 5811,
      "ĠJong": 5812,
      "ĠSa": 5813,
      "Ġreageren": 5814,
      "Ġdist": 5815,
      "Ġbedoeling": 5816,
      "Ġdert": 5817,
      "Ġhalve": 5818,
      "Ġtij": 5819,
      "pot": 5820,
      "aanb": 5821,
      "duceerd": 5822,
      "Ġelementen": 5823,
      "Ġingang": 5824,
      "Ġstructuur": 5825,
      "activiteit": 5826,
      "Ġhoeven": 5827,
      "ĠBos": 5828,
      "ĠSpanje": 5829,
      "ĠFor": 5830,
      "Ġair": 5831,
      "oost": 5832,
      "AG": 5833,
      "ĠCas": 5834,
      "Ġbelangen": 5835,
      "Ġgedacht": 5836,
      "Ġgezocht": 5837,
      "Ġmann": 5838,
      "Ġstichting": 5839,
      "Ġstoel": 5840,
      "Ġpaarden": 5841,
      "sbr": 5842,
      "ĠKortom": 5843,
      "Ġomt": 5844,
      "Ġverdienen": 5845,
      "Ġjammer": 5846,
      "Ġslachtoffer": 5847,
      "Ð°": 5848,
      "ĠIsraÃ«l": 5849,
      "Ġakkoord": 5850,
      "Ġdubbele": 5851,
      "Ġverzekerd": 5852,
      "Ġheil": 5853,
      "Ġdeskun": 5854,
      "Ðµ": 5855,
      "ĠWeb": 5856,
      "Ġhaven": 5857,
      "oegde": 5858,
      "alle": 5859,
      "ĠDire": 5860,
      "stijd": 5861,
      "Ġprobeert": 5862,
      "ductie": 5863,
      "Ġverklaring": 5864,
      "ĠJer": 5865,
      "ĠVor": 5866,
      "Ġaank": 5867,
      "Ġbereikbaar": 5868,
      "Ġmomenten": 5869,
      "Ġhandige": 5870,
      "Ġsituaties": 5871,
      "Ġdun": 5872,
      "aler": 5873,
      "ĠHoge": 5874,
      "Ġopbouw": 5875,
      "ĠChin": 5876,
      "erkant": 5877,
      "mis": 5878,
      "Ġ193": 5879,
      "Ġby": 5880,
      "ĠStaat": 5881,
      "Ġpresident": 5882,
      "Ġgram": 5883,
      "ĠZoek": 5884,
      "Ġill": 5885,
      "Ġbalans": 5886,
      "Ġgeheim": 5887,
      "ĠLeiden": 5888,
      "uf": 5889,
      "ĠEcht": 5890,
      "Ġonvol": 5891,
      "Ġneus": 5892,
      "Ġverlichting": 5893,
      "Ġjurid": 5894,
      "Ġwerknemer": 5895,
      "Ġvolgend": 5896,
      "Ġbuik": 5897,
      "iefde": 5898,
      "Ġreage": 5899,
      "Ġexc": 5900,
      "Ġzaal": 5901,
      "Ġtoegestaan": 5902,
      "Ġrechtstreeks": 5903,
      "Ġexpl": 5904,
      "ices": 5905,
      "aads": 5906,
      "riter": 5907,
      "ĠFoto": 5908,
      "plant": 5909,
      "Ġcontroleren": 5910,
      "Ġlocaties": 5911,
      "ieÃ«n": 5912,
      "ella": 5913,
      "ical": 5914,
      "Ġmaatschappelijke": 5915,
      "ĠDr": 5916,
      "Ġgecom": 5917,
      "Ġgehoord": 5918,
      "Ġdel": 5919,
      "ĠHiermee": 5920,
      "ĠGed": 5921,
      "entieel": 5922,
      "Ġwegens": 5923,
      "ife": 5924,
      "Ġdaadwerkelijk": 5925,
      "Holland": 5926,
      "ĠOff": 5927,
      "Ġverlaten": 5928,
      "Ġafkomstig": 5929,
      "Ġerin": 5930,
      "Ġtoont": 5931,
      "ott": 5932,
      "Ġconsument": 5933,
      "retaris": 5934,
      "Ġroze": 5935,
      "Ġschaal": 5936,
      "Ġgebrek": 5937,
      "Ġdame": 5938,
      "Ġwol": 5939,
      "Ġformulier": 5940,
      "Ġjurk": 5941,
      "ĠLang": 5942,
      "Ġineens": 5943,
      "Ġbureau": 5944,
      "Ġwonder": 5945,
      "vloer": 5946,
      "Ġoven": 5947,
      "oris": 5948,
      "PS": 5949,
      "empl": 5950,
      "Ġtrekt": 5951,
      "Ġalcohol": 5952,
      "Ġvliegen": 5953,
      "Ġkoud": 5954,
      "gek": 5955,
      "ĠHem": 5956,
      "Ġkol": 5957,
      "Ġonderste": 5958,
      "Ġmaximale": 5959,
      "Ġtechnieken": 5960,
      "aaien": 5961,
      "raan": 5962,
      "Ġstads": 5963,
      "ona": 5964,
      "Ġbinnenkort": 5965,
      "ora": 5966,
      "valu": 5967,
      "ĠEÃ©n": 5968,
      "zins": 5969,
      "ction": 5970,
      "Ġmeen": 5971,
      "Ġnutt": 5972,
      "Ġintens": 5973,
      "ĠDating": 5974,
      "Ġkeek": 5975,
      "ĠOude": 5976,
      "ĠContact": 5977,
      "Ġtelefon": 5978,
      "bli": 5979,
      "Ġdoelen": 5980,
      "waardig": 5981,
      "nodig": 5982,
      "Ġ01": 5983,
      "Ġversl": 5984,
      "iem": 5985,
      "duur": 5986,
      "Ġregeling": 5987,
      "Ġvoorlop": 5988,
      "Ġbracht": 5989,
      "Ġmaatschappij": 5990,
      "Ġklasse": 5991,
      "Ġburgers": 5992,
      "avan": 5993,
      "Ġsystemen": 5994,
      "Ġgay": 5995,
      "ĠMooie": 5996,
      "station": 5997,
      "Ġaccessoires": 5998,
      "Ã¶rdin": 5999,
      "Ġeigenschappen": 6000,
      "spec": 6001,
      "Ġner": 6002,
      "ĠBeste": 6003,
      "Ġenthousiast": 6004,
      "Ġtoegepast": 6005,
      "Ġwerkte": 6006,
      "ĠGal": 6007,
      "anda": 6008,
      "Ġspeelde": 6009,
      "Ġverminder": 6010,
      "Ġschriftelijk": 6011,
      "bere": 6012,
      "lopende": 6013,
      "Ġuitgang": 6014,
      "ĠCons": 6015,
      "eltje": 6016,
      "Ġevenementen": 6017,
      "ĠRen": 6018,
      "Ġpresentatie": 6019,
      "ĠDav": 6020,
      "Ġgras": 6021,
      "beren": 6022,
      "iezen": 6023,
      "Ġbroek": 6024,
      "arieven": 6025,
      "olpen": 6026,
      "Ġprim": 6027,
      "Ġmodern": 6028,
      "onk": 6029,
      "cepten": 6030,
      "ĠHof": 6031,
      "Ġtelkens": 6032,
      "ĠMac": 6033,
      "verm": 6034,
      "Ġchem": 6035,
      "ĠRad": 6036,
      "roffen": 6037,
      "risis": 6038,
      "Ġvergelijking": 6039,
      "Ġaanpass": 6040,
      "able": 6041,
      "inet": 6042,
      "Ġverwijderd": 6043,
      "Ġapart": 6044,
      "yle": 6045,
      "ĠHun": 6046,
      "ĠgeÃ¯": 6047,
      "ĠSE": 6048,
      "Ġgrij": 6049,
      "maker": 6050,
      "Ġzus": 6051,
      "Ġhierover": 6052,
      "Ġkwest": 6053,
      "ĠIT": 6054,
      "Ġemail": 6055,
      "Ġ08": 6056,
      "Ġvoorstel": 6057,
      "isen": 6058,
      "ĠIde": 6059,
      "partij": 6060,
      "Ġgebeurd": 6061,
      "Ġontst": 6062,
      "Ġ2004": 6063,
      "ĠpatiÃ«nt": 6064,
      "Ġgewonnen": 6065,
      "cm": 6066,
      "leider": 6067,
      "Ġzelfstandig": 6068,
      "Ġvaardigheden": 6069,
      "rieven": 6070,
      "Ġ44": 6071,
      "ĠZeer": 6072,
      "ining": 6073,
      "gelaten": 6074,
      "Ġacties": 6075,
      "Ġoorzaak": 6076,
      "Ġhoewel": 6077,
      "Ġaangem": 6078,
      "Ġtegenst": 6079,
      "Ġkoper": 6080,
      "nam": 6081,
      "Ġ(âĤ¬": 6082,
      "Ġjourn": 6083,
      "rok": 6084,
      "Ġrelig": 6085,
      "play": 6086,
      "Ġrep": 6087,
      "Ġveranderingen": 6088,
      "Ġconclus": 6089,
      "positie": 6090,
      "Ġregelen": 6091,
      "genoot": 6092,
      "Ġvolop": 6093,
      "Ġfan": 6094,
      "cul": 6095,
      "Ġfase": 6096,
      "Ġopslag": 6097,
      "ĠJohann": 6098,
      "ĠLekker": 6099,
      "Ġraakt": 6100,
      "ĠofficiÃ«le": 6101,
      "Ġvlieg": 6102,
      "oloog": 6103,
      "Ġdichter": 6104,
      "Ġexterne": 6105,
      "vingen": 6106,
      "ĠAss": 6107,
      "ĠHend": 6108,
      "anciers": 6109,
      "Ġrom": 6110,
      "ranche": 6111,
      "orde": 6112,
      "Ġbenen": 6113,
      "km": 6114,
      "vle": 6115,
      "Ġnummers": 6116,
      "kwaliteit": 6117,
      "Ġcirca": 6118,
      "war": 6119,
      "Ġzakelijke": 6120,
      "isse": 6121,
      "zinn": 6122,
      "erland": 6123,
      "Ġdefinitie": 6124,
      "broek": 6125,
      "digen": 6126,
      "iÃ«r": 6127,
      "ĠST": 6128,
      "ĠGesch": 6129,
      "rechten": 6130,
      "rig": 6131,
      "voorwaarden": 6132,
      "Ġlandelijke": 6133,
      "Ġstraks": 6134,
      "Ġ''": 6135,
      "Ġverzamelen": 6136,
      "Ġeffecten": 6137,
      "Ġ09": 6138,
      "ĠWoon": 6139,
      "Ġkunststof": 6140,
      "Ġ`": 6141,
      "ĠSol": 6142,
      "ĠItaliÃ«": 6143,
      "elder": 6144,
      "otos": 6145,
      "iere": 6146,
      "stoel": 6147,
      "ften": 6148,
      "ĠBijvoorbeeld": 6149,
      "Ġxxx": 6150,
      "Ġfit": 6151,
      "Ġlandbouw": 6152,
      "reerde": 6153,
      "weet": 6154,
      "Ġsleutel": 6155,
      "Ġler": 6156,
      "soft": 6157,
      "ĠRo": 6158,
      "Ġburgemeester": 6159,
      "ĠNederlanders": 6160,
      "Ġrivier": 6161,
      "Ġverra": 6162,
      "Ġprofit": 6163,
      "Ġafbeelding": 6164,
      "Ġsupermarkt": 6165,
      "Ġcit": 6166,
      "Ġhield": 6167,
      "Ġverliezen": 6168,
      "hebbers": 6169,
      "entiÃ«le": 6170,
      "Ġdoll": 6171,
      "Ġprestaties": 6172,
      "iering": 6173,
      "Ġveranderd": 6174,
      "Ġback": 6175,
      "Ġgeslacht": 6176,
      "oei": 6177,
      "ĠDrie": 6178,
      "Ġhotels": 6179,
      "esluit": 6180,
      "Ġreclame": 6181,
      "oods": 6182,
      "Ġactieve": 6183,
      "Ġvertrek": 6184,
      "Ġbijdragen": 6185,
      "Ġstevige": 6186,
      "Ġtijdelijk": 6187,
      "oint": 6188,
      "ĠCor": 6189,
      "idings": 6190,
      "Ġalsnog": 6191,
      "ituut": 6192,
      "ĠSexy": 6193,
      "cteur": 6194,
      "Ġbezwaar": 6195,
      "omgeving": 6196,
      "ĠMuseum": 6197,
      "sbrief": 6198,
      "ĠCre": 6199,
      "geet": 6200,
      "Ġcadeau": 6201,
      "regeling": 6202,
      "Ġtegelijkertijd": 6203,
      "Ġboodschap": 6204,
      "ĠBerg": 6205,
      "ĠAmerika": 6206,
      "Ġone": 6207,
      "Ġstam": 6208,
      "ĠTom": 6209,
      "ĠSams": 6210,
      "etel": 6211,
      "Ġmor": 6212,
      "ĠLeeuw": 6213,
      "ĠElk": 6214,
      "eukt": 6215,
      "ini": 6216,
      "ĠMiddel": 6217,
      "Ġluid": 6218,
      "Ġjaarlijkse": 6219,
      "ĠDeel": 6220,
      "eelt": 6221,
      "Ġtheater": 6222,
      "Ġsta": 6223,
      "Ġbrug": 6224,
      "Ġ250": 6225,
      "aming": 6226,
      "Ġbehandelen": 6227,
      "ĠSP": 6228,
      "Ġinrichting": 6229,
      "behoren": 6230,
      "Ġgit": 6231,
      "ĠRuim": 6232,
      "Ġprobeer": 6233,
      "Ġfree": 6234,
      "tel": 6235,
      "ĠSan": 6236,
      "commissie": 6237,
      "Ġgereed": 6238,
      "Ġverwerking": 6239,
      "Ġbehoort": 6240,
      "uiver": 6241,
      "Ġgeil": 6242,
      "Ġtesten": 6243,
      "ĠBi": 6244,
      "Ġregion": 6245,
      "Ġdatings": 6246,
      "Ġminstens": 6247,
      "Ġconf": 6248,
      "ura": 6249,
      "ĠStand": 6250,
      "Ġpub": 6251,
      "oers": 6252,
      "Ġvoortd": 6253,
      "Ġafsche": 6254,
      "Ġleest": 6255,
      "ĠBoek": 6256,
      "zaal": 6257,
      "maatschapp": 6258,
      "Ġmeiden": 6259,
      "ensie": 6260,
      "Ġmobiel": 6261,
      "ĠUite": 6262,
      "Ġwandeling": 6263,
      "Ġactuele": 6264,
      "ĠLeuk": 6265,
      "Ġoptim": 6266,
      "Ġuitdruk": 6267,
      "ultuur": 6268,
      "auff": 6269,
      "Ġ192": 6270,
      "centage": 6271,
      "ĠAcc": 6272,
      "Ġvideos": 6273,
      "EG": 6274,
      "Ġminuut": 6275,
      "Ġoptimale": 6276,
      "lin": 6277,
      "Ġborsten": 6278,
      "ĠMaat": 6279,
      "ĠHil": 6280,
      "rieken": 6281,
      "Ġopgeslagen": 6282,
      "fst": 6283,
      "roepen": 6284,
      "Ġouderen": 6285,
      "Ġtablet": 6286,
      "Ġbese": 6287,
      "Ġbeurt": 6288,
      "Ġsuccesvol": 6289,
      "Ġwereldwijd": 6290,
      "bliotheek": 6291,
      "Ġhandelen": 6292,
      "Ġfeiten": 6293,
      "Ġbeant": 6294,
      "Ġgelegd": 6295,
      "Ġscherp": 6296,
      "Ġhypotheek": 6297,
      "Ġhonderd": 6298,
      "Ġgerechten": 6299,
      "cle": 6300,
      "gs": 6301,
      "ĠHD": 6302,
      "igings": 6303,
      "vorming": 6304,
      "Ġaanpassen": 6305,
      "way": 6306,
      "ĠInmiddels": 6307,
      "Ġmenu": 6308,
      "ĠEle": 6309,
      "Ġaardig": 6310,
      "ĠSal": 6311,
      "ada": 6312,
      "Ġhetgeen": 6313,
      "megen": 6314,
      "ĠRed": 6315,
      "kap": 6316,
      "UR": 6317,
      "15": 6318,
      "Ġ%.": 6319,
      "Ġtool": 6320,
      "ĠGemeente": 6321,
      "kerk": 6322,
      "Ġrustige": 6323,
      "essen": 6324,
      "Ġgeregist": 6325,
      "Ġkabel": 6326,
      "ĠVeil": 6327,
      "asme": 6328,
      "ĠFilm": 6329,
      "ĠEN": 6330,
      "Ġverkrijgen": 6331,
      "Ġfinancieel": 6332,
      "Ġlangere": 6333,
      "Ġagenda": 6334,
      "ĠingrediÃ«nten": 6335,
      "Ġafd": 6336,
      "lage": 6337,
      "Ġonderweg": 6338,
      "Ġweergegeven": 6339,
      "Ġinteractie": 6340,
      "Ġwerkelijkheid": 6341,
      "Ġlij": 6342,
      "ĠLED": 6343,
      "Ġprogram": 6344,
      "Ġavonds": 6345,
      "Ġontdekt": 6346,
      "ĠJaar": 6347,
      "Ġbenodig": 6348,
      "Ġidentiteit": 6349,
      "ĠUiteindelijk": 6350,
      "Ġbedraagt": 6351,
      "Ġgenoten": 6352,
      "ĠMooi": 6353,
      "ĠHu": 6354,
      "Ġjas": 6355,
      "ukken": 6356,
      "roid": 6357,
      "raat": 6358,
      "Ġaluminium": 6359,
      "pas": 6360,
      "hoe": 6361,
      "gevende": 6362,
      "any": 6363,
      "wat": 6364,
      "Ġonderscheiden": 6365,
      "Ġgekeken": 6366,
      "schot": 6367,
      "danig": 6368,
      "Ġconsumenten": 6369,
      "Ġwilden": 6370,
      "ĠDaarmee": 6371,
      "week": 6372,
      "Ġtotdat": 6373,
      "urend": 6374,
      "Ġbalk": 6375,
      "Ġexempl": 6376,
      "ĠEg": 6377,
      "Ġapparatuur": 6378,
      "Ġzagen": 6379,
      "dur": 6380,
      "Ġchec": 6381,
      "indingen": 6382,
      "ĠEerste": 6383,
      "bron": 6384,
      "ĠEchter": 6385,
      "Ġconcent": 6386,
      "Ġzorgvuldig": 6387,
      "Ġkg": 6388,
      "Ġaanmerking": 6389,
      "Ġavontuur": 6390,
      "ĠGeef": 6391,
      "Ġdocumenten": 6392,
      "--": 6393,
      "Ġleerling": 6394,
      "gevoel": 6395,
      "Ġchocol": 6396,
      "ĠOpdracht": 6397,
      "Ġgestart": 6398,
      "bescherm": 6399,
      "ĠWas": 6400,
      "Ġgemak": 6401,
      "ĠAB": 6402,
      "Ġcommunic": 6403,
      "Ġteams": 6404,
      "vragen": 6405,
      "Ġwijzigen": 6406,
      "Ġeffectief": 6407,
      "ochtend": 6408,
      "ĠGoede": 6409,
      "som": 6410,
      "Ġir": 6411,
      "Ġlukt": 6412,
      "urn": 6413,
      "riÃ¨re": 6414,
      "Ġbeurs": 6415,
      "ĠParijs": 6416,
      "Ġwest": 6417,
      "Ġbroer": 6418,
      "Ġspanning": 6419,
      "Ġvertelde": 6420,
      "Ġsteken": 6421,
      "Ġzijde": 6422,
      "Ġtheorie": 6423,
      "ĠHaarlem": 6424,
      "ĠRuss": 6425,
      "Ġmode": 6426,
      "Ġverpakking": 6427,
      "Ġaparte": 6428,
      "Ġcompon": 6429,
      "ory": 6430,
      "ĠDoordat": 6431,
      "Ġvreemd": 6432,
      "Ġinstantie": 6433,
      "ĠAM": 6434,
      "Ġlagere": 6435,
      "vig": 6436,
      "Ġonderling": 6437,
      "ĠIedere": 6438,
      "ĠâĨ": 6439,
      "ĠItaliaanse": 6440,
      "ziatische": 6441,
      "hent": 6442,
      "eni": 6443,
      "Ġgewe": 6444,
      "ĠPC": 6445,
      "Ġtekort": 6446,
      "ĠPS": 6447,
      "ĠZee": 6448,
      "ĠProdu": 6449,
      "Ġgesprekken": 6450,
      "asteel": 6451,
      "Ġso": 6452,
      "Ġcertific": 6453,
      "Ġfantastisch": 6454,
      "Ġbox": 6455,
      "Ġvul": 6456,
      "genen": 6457,
      "Ġlieve": 6458,
      "Ġspannend": 6459,
      "ĠVerd": 6460,
      "Ġur": 6461,
      "ĠBelang": 6462,
      "Ġwakker": 6463,
      "Ġzodra": 6464,
      "Ġ);": 6465,
      "genoten": 6466,
      "ĠEerst": 6467,
      "utten": 6468,
      "Ġuitsp": 6469,
      "Ġopgev": 6470,
      "Ġorganiseert": 6471,
      "roeg": 6472,
      "ĠChar": 6473,
      "wisseling": 6474,
      "ĠKru": 6475,
      "Ġdynam": 6476,
      "Ġsuiker": 6477,
      "Ġbun": 6478,
      "Ġonlangs": 6479,
      "Ġdeelnemen": 6480,
      "ĠgeÃ¯nteress": 6481,
      "Ġcal": 6482,
      "hebben": 6483,
      "Ġaspecten": 6484,
      "ossier": 6485,
      "gebieden": 6486,
      "ĠMark": 6487,
      "trekken": 6488,
      "Ġomtrent": 6489,
      "ĠBritse": 6490,
      "ĠKoop": 6491,
      "rijding": 6492,
      "Ġwetenschap": 6493,
      "ĠVind": 6494,
      "achter": 6495,
      "opl": 6496,
      "ĠToe": 6497,
      "ĠInternet": 6498,
      "Ġrook": 6499,
      "Ġgezondheids": 6500,
      "Ġbuur": 6501,
      "Ġspecifiek": 6502,
      "ĠbeÃ¯n": 6503,
      "nacht": 6504,
      "Ġinzetten": 6505,
      "Ġgemeenschap": 6506,
      "....": 6507,
      "ĠSuriname": 6508,
      "ĠPersoon": 6509,
      "ĠVolks": 6510,
      "Ġaanrader": 6511,
      "periode": 6512,
      "Ġpodium": 6513,
      "Ġvervolg": 6514,
      "istisch": 6515,
      "Ġdep": 6516,
      "aders": 6517,
      "Ġ06": 6518,
      "Ġonmiddellijk": 6519,
      "ĠGar": 6520,
      "riciteit": 6521,
      "pakket": 6522,
      "ĠICT": 6523,
      "Ġbrow": 6524,
      "ĠMy": 6525,
      "zake": 6526,
      "mogelijkheden": 6527,
      "Ġoverw": 6528,
      "Ġbespreken": 6529,
      "ĠVO": 6530,
      "Ġ43": 6531,
      "Ġschak": 6532,
      "Ġadvertenties": 6533,
      "plein": 6534,
      "ĠLeg": 6535,
      "ĠAN": 6536,
      "weging": 6537,
      "Ġbanden": 6538,
      "ĠBT": 6539,
      "Ġspons": 6540,
      "Ġ!)": 6541,
      "Ġfestival": 6542,
      "ize": 6543,
      "amine": 6544,
      "Ġeigendom": 6545,
      "ĠRecht": 6546,
      "Ġuniversiteit": 6547,
      "fab": 6548,
      "Ġbepaalt": 6549,
      "Ġverse": 6550,
      "spunt": 6551,
      "malig": 6552,
      "uts": 6553,
      "Ġkeuzes": 6554,
      "ĠHR": 6555,
      "Ġnegatieve": 6556,
      "antische": 6557,
      "Ġzekerheid": 6558,
      "Ġforum": 6559,
      "Ġkanten": 6560,
      "Ġlaatst": 6561,
      "fit": 6562,
      "Ġvoormalige": 6563,
      "Ġapparaten": 6564,
      "ĠgeÃ«": 6565,
      "Ġmod": 6566,
      "ĠMicrosoft": 6567,
      "Ġopst": 6568,
      "Ġkleinere": 6569,
      "Ġrein": 6570,
      "ĠClub": 6571,
      "Ġfa": 6572,
      "Ġbusiness": 6573,
      "Ġbanken": 6574,
      "Ġpromot": 6575,
      "Ġgepublic": 6576,
      "Ġtranspar": 6577,
      "akantie": 6578,
      "Ġfabrik": 6579,
      "Ġcreatieve": 6580,
      "ild": 6581,
      "Ġbezocht": 6582,
      "Ġvogels": 6583,
      "ĠBlack": 6584,
      "Ġmast": 6585,
      "Ġalternatief": 6586,
      "Ġ$": 6587,
      "macht": 6588,
      "Ġhant": 6589,
      "ĠBal": 6590,
      "aven": 6591,
      "Ġ\":": 6592,
      "Ġbergen": 6593,
      "Ġinternationaal": 6594,
      "ĠVis": 6595,
      "Ġpassende": 6596,
      "Ġzwangerschap": 6597,
      "ĠLeer": 6598,
      "ba": 6599,
      "iliteiten": 6600,
      "Ġafloop": 6601,
      "Ġversn": 6602,
      "Ġ2003": 6603,
      "Ġplastic": 6604,
      "Ġbetekenen": 6605,
      "Ġadvocaat": 6606,
      "stemd": 6607,
      "Ġ49": 6608,
      "ters": 6609,
      "Ġbedragen": 6610,
      "cor": 6611,
      "Ġgrenzen": 6612,
      "ĠMidden": 6613,
      "Ġann": 6614,
      "entijd": 6615,
      "hy": 6616,
      "Ġ46": 6617,
      "Ġfactuur": 6618,
      "elletjes": 6619,
      "Ġonvoldoende": 6620,
      "Ġverpleeg": 6621,
      "Ġvoorkomt": 6622,
      "IL": 6623,
      "aller": 6624,
      "icus": 6625,
      "Ġheu": 6626,
      "achel": 6627,
      "Ġinb": 6628,
      "minste": 6629,
      "Ġplaatsvinden": 6630,
      "Ġgevel": 6631,
      "huur": 6632,
      "Ġverdeeld": 6633,
      "Ġhorlo": 6634,
      "Ġ{": 6635,
      "iploma": 6636,
      "ollen": 6637,
      "ificaties": 6638,
      "Ġondertussen": 6639,
      "Ġonafhankelijk": 6640,
      "ouders": 6641,
      "rive": 6642,
      "nemingen": 6643,
      "ffing": 6644,
      "aardoor": 6645,
      "contact": 6646,
      "Ġverricht": 6647,
      "Ġantwoorden": 6648,
      "kenning": 6649,
      "Ġgroeps": 6650,
      "ĠÌ": 6651,
      "Ġinstelling": 6652,
      "ĠOran": 6653,
      "ĠRond": 6654,
      "Ġbegeleiden": 6655,
      "Ġserieus": 6656,
      "Ġinterne": 6657,
      "Ġexp": 6658,
      "Ġaandoen": 6659,
      "Ġdonkere": 6660,
      "Ġdeden": 6661,
      "Ġkwalit": 6662,
      "Ġkool": 6663,
      "ĠKunst": 6664,
      "Ġmilf": 6665,
      "Ġcommissie": 6666,
      "Ġtaf": 6667,
      "Ġvlag": 6668,
      "Ġwijzen": 6669,
      "Ġbesloot": 6670,
      "hangen": 6671,
      "ads": 6672,
      "ĠAD": 6673,
      "Ġletterlijk": 6674,
      "ĠcliÃ«nt": 6675,
      "ĠChe": 6676,
      "gaven": 6677,
      "Ġnederland": 6678,
      "Ġbeoordeling": 6679,
      "Ġpil": 6680,
      "aalf": 6681,
      "schade": 6682,
      "ĠIP": 6683,
      "Ġverstand": 6684,
      "Ġadministratie": 6685,
      "Ġhof": 6686,
      "delingen": 6687,
      "Ġhierin": 6688,
      "Ġbijv": 6689,
      "ustitie": 6690,
      "ĠChristus": 6691,
      "Ġcontinu": 6692,
      "Ã©t": 6693,
      "Ġboeren": 6694,
      "Ġsan": 6695,
      "Ġsa": 6696,
      "ĠBrabant": 6697,
      "Ġgeneratie": 6698,
      "aim": 6699,
      "gemaakte": 6700,
      "Ġrelaties": 6701,
      "bewijs": 6702,
      "Ġprofessioneel": 6703,
      "Ġkijkje": 6704,
      "Ġhaalt": 6705,
      "ructies": 6706,
      "Ġformaat": 6707,
      "arig": 6708,
      "Ġvoorsp": 6709,
      "Ġuitgerust": 6710,
      "groeid": 6711,
      "pap": 6712,
      "Ġfantastische": 6713,
      "Ġhigh": 6714,
      "Ġeng": 6715,
      "Ġverstrekt": 6716,
      "oets": 6717,
      "Ġinkomsten": 6718,
      "poort": 6719,
      "Ġment": 6720,
      "Ġgids": 6721,
      "vloeden": 6722,
      "Ġverzorgd": 6723,
      "VV": 6724,
      "ollicit": 6725,
      "diend": 6726,
      "ĠKinder": 6727,
      "ĠTil": 6728,
      "Ġaccu": 6729,
      "Ġtient": 6730,
      "ĠRus": 6731,
      "Ġwijzigingen": 6732,
      "ĠRijn": 6733,
      "Ġstren": 6734,
      "Ġhemel": 6735,
      "ipt": 6736,
      "Ġag": 6737,
      "Ġ1000": 6738,
      "Ġfysieke": 6739,
      "ĠAndere": 6740,
      "Ġveert": 6741,
      "ĠCal": 6742,
      "Ġopzet": 6743,
      "ĠNijmegen": 6744,
      "Ġyog": 6745,
      "Ġvergadering": 6746,
      "ĠTussen": 6747,
      "ĠHol": 6748,
      "Ġafmet": 6749,
      "Ġdichtbij": 6750,
      "Ġdra": 6751,
      "ulieren": 6752,
      "Ġnergens": 6753,
      "Ġbody": 6754,
      "vo": 6755,
      "Ġleider": 6756,
      "Ġvoegen": 6757,
      "Ġafger": 6758,
      "Ġveg": 6759,
      "ume": 6760,
      "ĠStel": 6761,
      "Ġbevinden": 6762,
      "Ġaandelen": 6763,
      "Ġrecente": 6764,
      "ÑĤ": 6765,
      "ekend": 6766,
      "ontrole": 6767,
      "Ġopdrachten": 6768,
      "liggende": 6769,
      "niveau": 6770,
      "opelijk": 6771,
      "Ġ190": 6772,
      "Ġsubsidie": 6773,
      "Ġinz": 6774,
      "17": 6775,
      "Ġwaarden": 6776,
      "plement": 6777,
      "etters": 6778,
      "Ġkruiden": 6779,
      "Ġdoos": 6780,
      "ĠArnhem": 6781,
      "Ġvoert": 6782,
      "Ġwaarschuw": 6783,
      "Ġfisc": 6784,
      "lam": 6785,
      "ex": 6786,
      "ustral": 6787,
      "ĠFinanc": 6788,
      "Ġboord": 6789,
      "oelens": 6790,
      "Ġlot": 6791,
      "Ġpik": 6792,
      "ĠNoor": 6793,
      "Ġ}": 6794,
      "Ġkoken": 6795,
      "Ġgedragen": 6796,
      "werkers": 6797,
      "elaar": 6798,
      "ferentie": 6799,
      "sje": 6800,
      "deur": 6801,
      "iber": 6802,
      "Ġvereist": 6803,
      "Ġgeholpen": 6804,
      "ney": 6805,
      "ooster": 6806,
      "schakeld": 6807,
      "iefd": 6808,
      "panelen": 6809,
      "Ġofficieel": 6810,
      "Ġwaarb": 6811,
      "Ġtrainingen": 6812,
      "ĠdÃ©": 6813,
      "ĠDuits": 6814,
      "Ġdoelgroep": 6815,
      "ĠPet": 6816,
      "Ġhoogwaardige": 6817,
      "ading": 6818,
      "Ġkwestie": 6819,
      "Ġwijziging": 6820,
      "goeding": 6821,
      "ĠCommissie": 6822,
      "Ġgouden": 6823,
      "Ġdigitaal": 6824,
      "Ġaanvullende": 6825,
      "Ġchrist": 6826,
      "Ġ52": 6827,
      "Ġverandert": 6828,
      "ĠYork": 6829,
      "uck": 6830,
      "ĠZodra": 6831,
      "ĠJij": 6832,
      "Ġflinke": 6833,
      "Ġwaarheid": 6834,
      "zichtig": 6835,
      "Ġkenmerken": 6836,
      "Ġpraat": 6837,
      "Ġtalent": 6838,
      "afond": 6839,
      "ĠMaas": 6840,
      "ĠAnn": 6841,
      "Ġworkshops": 6842,
      "atal": 6843,
      "Ġbovenstaande": 6844,
      "Ġduizenden": 6845,
      "ĠLin": 6846,
      "Ġziel": 6847,
      "stroom": 6848,
      "Ġomgaan": 6849,
      "boeken": 6850,
      "eca": 6851,
      "ĠâĢĶ": 6852,
      "Ġappell": 6853,
      "Ġvieren": 6854,
      "vante": 6855,
      "Ġgeleerd": 6856,
      "16": 6857,
      "Ġindrukwekken": 6858,
      "Ġopgesteld": 6859,
      "Ġgarage": 6860,
      "ĠNieuws": 6861,
      "Ġsporten": 6862,
      "Ġlossen": 6863,
      "Ġhoofdstuk": 6864,
      "Ġtoetsen": 6865,
      "Ð¸": 6866,
      "Ġhap": 6867,
      "etische": 6868,
      "ĠAfgelopen": 6869,
      "Ġappartementen": 6870,
      "ĠVi": 6871,
      "Ġzaten": 6872,
      "Ġverniet": 6873,
      "Ġtext": 6874,
      "Ġuitzondering": 6875,
      "ĠHart": 6876,
      "Ġinformeren": 6877,
      "stenen": 6878,
      "Ġstaal": 6879,
      "atoren": 6880,
      "Ġcru": 6881,
      "ĠMeest": 6882,
      "Ġamp": 6883,
      "ocatie": 6884,
      "neemt": 6885,
      "ĠLo": 6886,
      "arische": 6887,
      "ĠSamsung": 6888,
      "ĠAct": 6889,
      "ĠPrijs": 6890,
      "Ġ05": 6891,
      "standen": 6892,
      "atiek": 6893,
      "Ġram": 6894,
      "irtu": 6895,
      "Ġbetrouwbare": 6896,
      "pat": 6897,
      "Ġdur": 6898,
      "zee": 6899,
      "ĠRome": 6900,
      "Ġomvang": 6901,
      "stro": 6902,
      "ĠEngelse": 6903,
      "Ġ47": 6904,
      "Ġhoof": 6905,
      "fect": 6906,
      "Ġdivers": 6907,
      "Ġdollar": 6908,
      "dorp": 6909,
      "Ġbesluiten": 6910,
      "ross": 6911,
      "ownload": 6912,
      "Ġglazen": 6913,
      "Ġring": 6914,
      "ĠVers": 6915,
      "slotte": 6916,
      "ĠSle": 6917,
      "ĠcliÃ«nten": 6918,
      "Ġbedre": 6919,
      "Ġzuiden": 6920,
      "Ġkrant": 6921,
      "ickets": 6922,
      "zon": 6923,
      "Ġglad": 6924,
      "ĠRu": 6925,
      "Ġfinale": 6926,
      "raam": 6927,
      "Ġinstalleren": 6928,
      "dro": 6929,
      "ĠKinderen": 6930,
      "va": 6931,
      "Ġgeselect": 6932,
      "ĠOrg": 6933,
      "Ġsuccesvolle": 6934,
      "ror": 6935,
      "ĠAange": 6936,
      "Ġaanbieding": 6937,
      "geleid": 6938,
      "maals": 6939,
      "Ġ,...": 6940,
      "gaand": 6941,
      "Ġprofessionals": 6942,
      "Ġkoelkast": 6943,
      "Ġimpact": 6944,
      "Ġ??": 6945,
      "Ġanalys": 6946,
      "werkingen": 6947,
      "80": 6948,
      "antal": 6949,
      "Ġberoeps": 6950,
      "rid": 6951,
      "Ġaansluit": 6952,
      "Ġaanwezigheid": 6953,
      "ita": 6954,
      "ĠSchool": 6955,
      "beelden": 6956,
      "producten": 6957,
      "reedt": 6958,
      "ikelen": 6959,
      "ĠMob": 6960,
      "ilj": 6961,
      "Ġtarief": 6962,
      "Ġwenst": 6963,
      "Ġprocedure": 6964,
      "Ġauthent": 6965,
      "Ġkoude": 6966,
      "voet": 6967,
      "istiek": 6968,
      "Ġrub": 6969,
      "Ġplots": 6970,
      "ienst": 6971,
      "ĠMedia": 6972,
      "Ġlosse": 6973,
      "fonds": 6974,
      "ĠCorn": 6975,
      "Ġtoets": 6976,
      "edia": 6977,
      "ĠArch": 6978,
      "Ġopgebouwd": 6979,
      "bi": 6980,
      "Ġvrouwelijke": 6981,
      "Ġblijf": 6982,
      "informatie": 6983,
      "Ġbijk": 6984,
      "Ġaansluiting": 6985,
      "Ġtip": 6986,
      "ĠNo": 6987,
      "ĠbeÃ«": 6988,
      "Ġleerk": 6989,
      "Ġkaas": 6990,
      "slim": 6991,
      "Ġven": 6992,
      "Ġanalyse": 6993,
      "Ġleverancier": 6994,
      "Ġnoch": 6995,
      "Ġmelding": 6996,
      "Ġtelefoonnummer": 6997,
      "Ġmaaltijd": 6998,
      "RA": 6999,
      "vrije": 7000,
      "eeland": 7001,
      "zil": 7002,
      "Ġhouding": 7003,
      "Ġploeg": 7004,
      "Ġvelen": 7005,
      "ĠAndroid": 7006,
      "Ġverkeerde": 7007,
      "ĠErotische": 7008,
      "ĠHerm": 7009,
      "elat": 7010,
      "ordening": 7011,
      "bro": 7012,
      "Ġtoekomstige": 7013,
      "Ġopvol": 7014,
      "zin": 7015,
      "amin": 7016,
      "ira": 7017,
      "VO": 7018,
      "Ġaantrekkelijk": 7019,
      "Ġvoorbereiding": 7020,
      "Ġlijf": 7021,
      "Ġontbreken": 7022,
      "schappelijke": 7023,
      "ĠPriv": 7024,
      "Ġramen": 7025,
      "ĠZaken": 7026,
      "Ġgecombin": 7027,
      "oul": 7028,
      "igend": 7029,
      "Ġkoers": 7030,
      "ĠCamp": 7031,
      "ĠTwitter": 7032,
      "Ġbeoor": 7033,
      "Ġdeels": 7034,
      "lieke": 7035,
      "ĠMad": 7036,
      "rÃ¨": 7037,
      "Ġtwijfel": 7038,
      "Ġoma": 7039,
      "ĠCentrum": 7040,
      "Ġ07": 7041,
      "Ġmissen": 7042,
      "Ġherfst": 7043,
      "osof": 7044,
      "Ġnauwkeur": 7045,
      "Ġverbetering": 7046,
      "denk": 7047,
      "ĠPracht": 7048,
      "Ġgames": 7049,
      "mijn": 7050,
      "Ġfotograf": 7051,
      "ulde": 7052,
      "vriendelijk": 7053,
      "plichting": 7054,
      "ooft": 7055,
      "ĠEuropees": 7056,
      "Ġherstellen": 7057,
      "ĠKoning": 7058,
      "tende": 7059,
      "Ġtegenstelling": 7060,
      "Ġcur": 7061,
      "Ġverplichtingen": 7062,
      "ĠMot": 7063,
      "ovatie": 7064,
      "Ġfocus": 7065,
      "Ġboet": 7066,
      "Ġconcert": 7067,
      "Ġzilver": 7068,
      "vakantie": 7069,
      "Ġbijeen": 7070,
      "ograaf": 7071,
      "Ġfunctioneren": 7072,
      "Ġspannende": 7073,
      "zitter": 7074,
      "Ġvoldaan": 7075,
      "Ġalsmede": 7076,
      "Ġlangdur": 7077,
      "Ġwiel": 7078,
      "ola": 7079,
      "Ġzolang": 7080,
      "wongen": 7081,
      "Ġgezamenlijk": 7082,
      "BS": 7083,
      "Ġrollen": 7084,
      "Ġverschijnen": 7085,
      "Ġ600": 7086,
      "neden": 7087,
      "Ġzuur": 7088,
      "Ġrijdt": 7089,
      "ka": 7090,
      "Ġnieuwsbrief": 7091,
      "Ġdrukken": 7092,
      "Ġverbouw": 7093,
      "Ġbeperking": 7094,
      "Ġkleiner": 7095,
      "Ġmiddels": 7096,
      "60": 7097,
      "Ġbevestigd": 7098,
      "Ġbekeken": 7099,
      "Ġoorspronkelijke": 7100,
      "agers": 7101,
      "Ġlagen": 7102,
      "ĠService": 7103,
      "gewicht": 7104,
      "Ġaangebracht": 7105,
      "Ġgeheugen": 7106,
      "Ġlijnen": 7107,
      "Ġaccommodatie": 7108,
      "Ġmeester": 7109,
      "Ġonmogelijk": 7110,
      "Ġkwaad": 7111,
      "Ġcapaciteit": 7112,
      "Ġcomfortabele": 7113,
      "Ġverhouding": 7114,
      "wicht": 7115,
      "Ġverster": 7116,
      "Ġbestanden": 7117,
      "beer": 7118,
      "aastricht": 7119,
      "ĠLog": 7120,
      "Ġ02": 7121,
      "werker": 7122,
      "itaal": 7123,
      "wijzing": 7124,
      "ilde": 7125,
      "Ġaansluiten": 7126,
      "Ġklus": 7127,
      "Ġweig": 7128,
      "Ġbeen": 7129,
      "Ġ2002": 7130,
      "ĠSche": 7131,
      "Ġbeslist": 7132,
      "Ġvuil": 7133,
      "wedstrijd": 7134,
      "Ġleger": 7135,
      "sex": 7136,
      "oefen": 7137,
      "Ġcontacten": 7138,
      "rouwd": 7139,
      "Ġkok": 7140,
      "ontwikkeling": 7141,
      "Ġbroe": 7142,
      "Ġnoemt": 7143,
      "Ġverdedig": 7144,
      "Ġoverlijden": 7145,
      "ants": 7146,
      "ĠGelder": 7147,
      "Ġverkeerd": 7148,
      "ĠPlay": 7149,
      "ĠAustral": 7150,
      "Ġglim": 7151,
      "Ġpijp": 7152,
      "arande": 7153,
      "roting": 7154,
      "Ġoudste": 7155,
      "verw": 7156,
      "uiken": 7157,
      "Ġschrijver": 7158,
      "opdracht": 7159,
      "Ġevenals": 7160,
      "Ġnader": 7161,
      "Ġkampioen": 7162,
      "Ġzelfstand": 7163,
      "Ġreparatie": 7164,
      "Ġculturele": 7165,
      "Ġsj": 7166,
      "Ġ120": 7167,
      "Ġseconden": 7168,
      "risten": 7169,
      "Ġ85": 7170,
      "Ġrende": 7171,
      "Ġverzend": 7172,
      "anner": 7173,
      "Ġmeerder": 7174,
      "OM": 7175,
      "Ġvandaan": 7176,
      "Ġgemaakte": 7177,
      "Ġhonderden": 7178,
      "DE": 7179,
      "ĠRon": 7180,
      "sector": 7181,
      "ĠLes": 7182,
      "ijft": 7183,
      "Ġbeschikbare": 7184,
      "Ġec": 7185,
      "Ġgrootte": 7186,
      "Ġtwaalf": 7187,
      "Ġklikken": 7188,
      "Ġq": 7189,
      "Ġfactoren": 7190,
      "Ġtarieven": 7191,
      "ĠBank": 7192,
      "Ġwebcam": 7193,
      "eesten": 7194,
      "Ġgemeenter": 7195,
      "Ġzwak": 7196,
      "ĠWill": 7197,
      "beek": 7198,
      "su": 7199,
      "Ġknap": 7200,
      "atte": 7201,
      "ĠDaardoor": 7202,
      "Ġkwets": 7203,
      "Ġvilla": 7204,
      "hankelijke": 7205,
      "Ġverrass": 7206,
      "ĠBosch": 7207,
      "kelen": 7208,
      "Ġaansprakelijk": 7209,
      "Ġunivers": 7210,
      "Ġverschijnt": 7211,
      "Ġfabriek": 7212,
      "Ġ2001": 7213,
      "Ġhierna": 7214,
      "oornis": 7215,
      "Ġvertrekken": 7216,
      "Ġbuitenlandse": 7217,
      "dex": 7218,
      "erkl": 7219,
      "IP": 7220,
      "Ġmodu": 7221,
      "Ġtelt": 7222,
      "Ġprive": 7223,
      "Ġmel": 7224,
      "Ġarbeid": 7225,
      "Ġbegrijp": 7226,
      "beerd": 7227,
      "ronen": 7228,
      "Ġstage": 7229,
      "ĠWi": 7230,
      "Ġ04": 7231,
      "Ġmagaz": 7232,
      "mailadres": 7233,
      "Ġmaakten": 7234,
      "regels": 7235,
      "uken": 7236,
      "Ġbezorgen": 7237,
      "ĠKleur": 7238,
      "Ġstimuleren": 7239,
      "Ġvertal": 7240,
      "Ġanti": 7241,
      "ĠPlus": 7242,
      "Ġrelevante": 7243,
      "ĠLonden": 7244,
      "ï¿": 7245,
      "ieven": 7246,
      "ĠHiervoor": 7247,
      "Ġadministr": 7248,
      "winning": 7249,
      "ï¿½": 7250,
      "rechter": 7251,
      "ĠÃł": 7252,
      "Ġbijge": 7253,
      "Ġbedankt": 7254,
      "Ġspe": 7255,
      "Ġvel": 7256,
      "ĠSchip": 7257,
      "ĠChinese": 7258,
      "Ġminimum": 7259,
      "Ġelektriciteit": 7260,
      "Ġpremie": 7261,
      "dijk": 7262,
      "uizing": 7263,
      "eleinden": 7264,
      "plek": 7265,
      "ĠEngeland": 7266,
      "AP": 7267,
      "Ġspir": 7268,
      "ĠOud": 7269,
      "Ġinten": 7270,
      "ĠAlex": 7271,
      "Ġsur": 7272,
      "Ġinzake": 7273,
      "isie": 7274,
      "Ġfouten": 7275,
      "Ġondernemen": 7276,
      "Ġexclusief": 7277,
      "ĠBeide": 7278,
      "Ġvoorstelling": 7279,
      "gelegenheid": 7280,
      "Ġverre": 7281,
      "Ġhiel": 7282,
      "acul": 7283,
      "Ġgrijs": 7284,
      "look": 7285,
      "fil": 7286,
      "aving": 7287,
      "Ġgoedkoper": 7288,
      "ĠAs": 7289,
      "Ġbeantwoorden": 7290,
      "board": 7291,
      "Ġfull": 7292,
      "Ġingesteld": 7293,
      "Ġonderhouds": 7294,
      "agram": 7295,
      "gier": 7296,
      "Ġlim": 7297,
      "Ġvariant": 7298,
      "ĠStart": 7299,
      "Ġprocessen": 7300,
      "brug": 7301,
      "Ġdemoc": 7302,
      "Ġwerkdagen": 7303,
      "afstand": 7304,
      "iff": 7305,
      "AC": 7306,
      "ĠKat": 7307,
      "Ġrecre": 7308,
      "Ġbesparen": 7309,
      "Ġhandels": 7310,
      "perk": 7311,
      "Ġgewij": 7312,
      "Ġbewaren": 7313,
      "Ġgepubliceerd": 7314,
      "Ġsug": 7315,
      "Ġarg": 7316,
      "ĠBB": 7317,
      "ĠHendrik": 7318,
      "daar": 7319,
      "14": 7320,
      "Ġdet": 7321,
      "ĠDesign": 7322,
      "ĠAL": 7323,
      "leerd": 7324,
      "ervaring": 7325,
      "ĠPieter": 7326,
      "ĠBred": 7327,
      "comp": 7328,
      "verkl": 7329,
      "Ġeeuwen": 7330,
      "Ġbeslag": 7331,
      "ĠInformatie": 7332,
      "Ġstudent": 7333,
      "teit": 7334,
      "Ġtempo": 7335,
      "Ġ03": 7336,
      "Ġbond": 7337,
      "Ġtelefonisch": 7338,
      "Ġsprak": 7339,
      "geh": 7340,
      "orens": 7341,
      "akelaar": 7342,
      "rends": 7343,
      "Ġontmoeten": 7344,
      "vergoeding": 7345,
      "lief": 7346,
      "bedrag": 7347,
      "bestuur": 7348,
      "ĠMod": 7349,
      "allig": 7350,
      "functie": 7351,
      "Ġgeschikte": 7352,
      "Ġontdek": 7353,
      "ĠSam": 7354,
      "Ġvracht": 7355,
      "Ġstenen": 7356,
      "films": 7357,
      "oeid": 7358,
      "Ġeentje": 7359,
      "Ġnadruk": 7360,
      "Ġverhogen": 7361,
      "Ġisolatie": 7362,
      "ĠWin": 7363,
      "ĠBTW": 7364,
      "Ġverwachting": 7365,
      "ĠRem": 7366,
      "eeds": 7367,
      "Ġtrainer": 7368,
      "Ġgekopp": 7369,
      "Ġstatus": 7370,
      "opleiding": 7371,
      "telijke": 7372,
      "ijns": 7373,
      "outer": 7374,
      "Ġhierboven": 7375,
      "Ġbesteed": 7376,
      "OT": 7377,
      "imm": 7378,
      "Ġeu": 7379,
      "ĠGods": 7380,
      "Ġbezien": 7381,
      "Ġkatoen": 7382,
      "pels": 7383,
      "ward": 7384,
      "Ġmochten": 7385,
      "Ġverhuis": 7386,
      "sprekend": 7387,
      "eep": 7388,
      "Ġkussen": 7389,
      "aamd": 7390,
      "Ġversterken": 7391,
      "instellingen": 7392,
      "Ġbeschouwd": 7393,
      "onderwijs": 7394,
      "Ġuiterst": 7395,
      "iler": 7396,
      "ĠThuis": 7397,
      "Ġverboden": 7398,
      "kantoor": 7399,
      "Ġgeraakt": 7400,
      "Ġvergunning": 7401,
      "zeg": 7402,
      "Ġgok": 7403,
      "ĠâĨĴ": 7404,
      "Ġernstige": 7405,
      "Ġdia": 7406,
      "Ġeiser": 7407,
      "ĠBart": 7408,
      "iro": 7409,
      "Ġonderzocht": 7410,
      "IC": 7411,
      "ĠZou": 7412,
      "Ġtenminste": 7413,
      "oh": 7414,
      "ĠSpaanse": 7415,
      "ideos": 7416,
      "Ġ180": 7417,
      "ĠKN": 7418,
      "istieke": 7419,
      "immer": 7420,
      "Ġstruct": 7421,
      "Ġtocht": 7422,
      "Ġhoorde": 7423,
      "Ġkatten": 7424,
      "Ġbewezen": 7425,
      "Ġgepl": 7426,
      "eet": 7427,
      "IG": 7428,
      "ĠSing": 7429,
      "Ġherkennen": 7430,
      "ĠVereniging": 7431,
      "Ġshop": 7432,
      "raven": 7433,
      "rete": 7434,
      "ĠBon": 7435,
      "Ġconfl": 7436,
      "Ġsamengesteld": 7437,
      "Ġrecent": 7438,
      "Ġvliegtuig": 7439,
      "Ġbatterij": 7440,
      "Ġschepen": 7441,
      "oere": 7442,
      "Ġbaas": 7443,
      "ĠMaastricht": 7444,
      "Ġapps": 7445,
      "Ġscherpe": 7446,
      "Ġroe": 7447,
      "schal": 7448,
      "Ġtijdst": 7449,
      "Ġventil": 7450,
      "Ġnamens": 7451,
      "nooi": 7452,
      "Ġ189": 7453,
      "Ġkrachtige": 7454,
      "ĠDis": 7455,
      "ĠOP": 7456,
      "Ġcrisis": 7457,
      "ierd": 7458,
      "athol": 7459,
      "Ġstreven": 7460,
      "Ġveelal": 7461,
      "ĠCollege": 7462,
      "rastructuur": 7463,
      "ĠKerst": 7464,
      "ĠSw": 7465,
      "ual": 7466,
      "Ġfantas": 7467,
      "Ġoefenen": 7468,
      "ĠFre": 7469,
      "ĠAnders": 7470,
      "Ġ?âĢĿ": 7471,
      "Ġlab": 7472,
      "ĠDa": 7473,
      "route": 7474,
      "Ġtherap": 7475,
      "Ġzwemmen": 7476,
      "draa": 7477,
      "Ġdroge": 7478,
      "Ġvissen": 7479,
      "Ġleveranciers": 7480,
      "ĠWord": 7481,
      "Ġkred": 7482,
      "ario": 7483,
      "oeiende": 7484,
      "anny": 7485,
      "ĠÌģ": 7486,
      "Ġvolt": 7487,
      "sec": 7488,
      "Ġnegen": 7489,
      "Ġblijkbaar": 7490,
      "ogel": 7491,
      "volutie": 7492,
      "Ġaanleg": 7493,
      "Ġbehoeve": 7494,
      "woningen": 7495,
      "ĠTilburg": 7496,
      "alender": 7497,
      "Ġaansprakelijkheid": 7498,
      "Ġbesproken": 7499,
      "ĠSer": 7500,
      "elding": 7501,
      "ĠbeÃ«ind": 7502,
      "Ġuitkering": 7503,
      "Ġspier": 7504,
      "Ġzingen": 7505,
      "pad": 7506,
      "ureel": 7507,
      "ooid": 7508,
      "la": 7509,
      "Ġbepalingen": 7510,
      "ĠBrand": 7511,
      "Ġopvang": 7512,
      "ĠMede": 7513,
      "ary": 7514,
      "Ġtap": 7515,
      "idde": 7516,
      "orpor": 7517,
      "iver": 7518,
      "Ġ64": 7519,
      "Ġped": 7520,
      "Ġdiagn": 7521,
      "Ġaankomst": 7522,
      "Ġartie": 7523,
      "ĠMinister": 7524,
      "gerecht": 7525,
      "ĠMus": 7526,
      "voerder": 7527,
      "ano": 7528,
      "ĠLuc": 7529,
      "Ġmeldt": 7530,
      "order": 7531,
      "ĠefficiÃ«nt": 7532,
      "Ġnaakte": 7533,
      "install": 7534,
      "Ġblijken": 7535,
      "model": 7536,
      "Ġinnovatie": 7537,
      "Ġgegeten": 7538,
      "ias": 7539,
      "Ġbestuurs": 7540,
      "Ġgevoelens": 7541,
      "Ġdiner": 7542,
      "Ġbehalen": 7543,
      "Ġimm": 7544,
      "ptie": 7545,
      "Ġcy": 7546,
      "Ġopbreng": 7547,
      "Ġgrapp": 7548,
      "ĠSec": 7549,
      "Ġvoorjaar": 7550,
      "Ġbeton": 7551,
      "Ġspiegel": 7552,
      "Ġtijde": 7553,
      "uring": 7554,
      "Ġafscheid": 7555,
      "icap": 7556,
      "Ġverzorging": 7557,
      "advis": 7558,
      "ĠTr": 7559,
      "Ġcan": 7560,
      "Ġpraktisch": 7561,
      "Ġuitzending": 7562,
      "Ġsteek": 7563,
      "ags": 7564,
      "Ġoppervlakte": 7565,
      "ĠEscort": 7566,
      "uilen": 7567,
      "opvang": 7568,
      "Ġmus": 7569,
      "Ġpublieke": 7570,
      "Ġvolks": 7571,
      "ĠBron": 7572,
      "okjes": 7573,
      "Ġbesteden": 7574,
      "Ġtekenen": 7575,
      "Ġgroeit": 7576,
      "Ġade": 7577,
      "Ġvoordelig": 7578,
      "Ġonzeker": 7579,
      "Ġspeelgoed": 7580,
      "Ġhuisarts": 7581,
      "Ġperc": 7582,
      "Ã¤": 7583,
      "Ġhobby": 7584,
      "pijn": 7585,
      "Ġduren": 7586,
      "son": 7587,
      "ĠZon": 7588,
      "Ġermee": 7589,
      "post": 7590,
      "Ġph": 7591,
      "Ġkutje": 7592,
      "Ġprov": 7593,
      "genoemde": 7594,
      "Ãª": 7595,
      "Ġdiam": 7596,
      "foto": 7597,
      "raktijk": 7598,
      "Ġtrok": 7599,
      "ĠAuto": 7600,
      "Ġnoorden": 7601,
      "ĠVerm": 7602,
      "Ġonrecht": 7603,
      "car": 7604,
      "Ġtechnisch": 7605,
      "Ġcompetitie": 7606,
      "activiteiten": 7607,
      "prof": 7608,
      "ado": 7609,
      "basis": 7610,
      "200": 7611,
      "Ġvrolijk": 7612,
      "Ġstrategie": 7613,
      "ava": 7614,
      "Ġafzonder": 7615,
      "Ġbronnen": 7616,
      "autom": 7617,
      "Ġmits": 7618,
      "Ġfiguur": 7619,
      "Ġspaar": 7620,
      "Ġ54": 7621,
      "Ġsalaris": 7622,
      "Ġernstig": 7623,
      "Ġsollicit": 7624,
      "Ġbedenken": 7625,
      "Ġinstrument": 7626,
      "iveerd": 7627,
      "Ġklopt": 7628,
      "ootschap": 7629,
      "Ġpatroon": 7630,
      "Ġbedacht": 7631,
      "Ġtrainen": 7632,
      "Ġspect": 7633,
      "Ġtoepassingen": 7634,
      "Ġministerie": 7635,
      "Ġvriendelijke": 7636,
      "Ġeraan": 7637,
      "aagt": 7638,
      "Ġduurzaamheid": 7639,
      "clusieve": 7640,
      "ĠMont": 7641,
      "Ġtom": 7642,
      "Ġgenot": 7643,
      "Ġ41": 7644,
      "ĠPvd": 7645,
      "Ġligging": 7646,
      "Ġgroenten": 7647,
      "Ġproduceren": 7648,
      "Ġupdate": 7649,
      "Ġverklaard": 7650,
      "ventie": 7651,
      "ĠServ": 7652,
      "Ġmaximum": 7653,
      "lange": 7654,
      "Ġplanning": 7655,
      "Ġmetalen": 7656,
      "Ġbeleids": 7657,
      "Ġappl": 7658,
      "ĠHeerlijk": 7659,
      "Ġconsult": 7660,
      "Ġmenselijke": 7661,
      "Ġfrisse": 7662,
      "Ġprik": 7663,
      "Ġambitie": 7664,
      "morgen": 7665,
      "Ġdos": 7666,
      "uc": 7667,
      "lamp": 7668,
      "Ġtijdelijke": 7669,
      "ĠOnderwijs": 7670,
      "Ġ53": 7671,
      "Ġkunstenaars": 7672,
      "uden": 7673,
      "ĠCV": 7674,
      "Ġdom": 7675,
      "Ġauteur": 7676,
      "lucht": 7677,
      "uinen": 7678,
      "Ġnon": 7679,
      "Ġaangeven": 7680,
      "foort": 7681,
      "Ġmini": 7682,
      "ĠNorm": 7683,
      "ĠHallo": 7684,
      "Ġraads": 7685,
      "Ġbeiden": 7686,
      "Ġfilmpje": 7687,
      "ĠDavid": 7688,
      "ĠUSB": 7689,
      "imeter": 7690,
      "ĠÃ©cht": 7691,
      "Ġhoofdstad": 7692,
      "entje": 7693,
      "ael": 7694,
      "ĠZwolle": 7695,
      "Ġboerderij": 7696,
      "lessen": 7697,
      "Ġgekleur": 7698,
      "ĠRusland": 7699,
      "Ġvastgelegd": 7700,
      "Ġ56": 7701,
      "Ġtentoonstelling": 7702,
      "Ġondergrond": 7703,
      "ĠCap": 7704,
      "ĠcafÃ©": 7705,
      "ilt": 7706,
      "Ġbeoordelen": 7707,
      "Ġbra": 7708,
      "Ġverschenen": 7709,
      "ĠTien": 7710,
      "Ġoverst": 7711,
      "range": 7712,
      "Ġgevuld": 7713,
      "Ġhip": 7714,
      "Ġgebleven": 7715,
      "Ġadvertentie": 7716,
      "Ġmeten": 7717,
      "gestuurd": 7718,
      "Ñģ": 7719,
      "pectief": 7720,
      "ern": 7721,
      "Ġgewenst": 7722,
      "ĠAangezien": 7723,
      "Ġconclusie": 7724,
      "Ġbeschermd": 7725,
      "Ġregelgeving": 7726,
      "Ġgeldig": 7727,
      "Ġstudio": 7728,
      "ĠWit": 7729,
      "Ġvergader": 7730,
      "Ġgegarande": 7731,
      "MS": 7732,
      "ĠZwarte": 7733,
      "Ġstaats": 7734,
      "ches": 7735,
      "Ġveiligheids": 7736,
      "ellingen": 7737,
      "Ġdromen": 7738,
      "Ġsingle": 7739,
      "Ġdegelijk": 7740,
      "Ġgedachte": 7741,
      "Ġvergroten": 7742,
      "ĠVul": 7743,
      "pret": 7744,
      "Â®": 7745,
      "Ġevalu": 7746,
      "ĠRijks": 7747,
      "eltjes": 7748,
      "Ġ!âĢĿ": 7749,
      "ĠZwits": 7750,
      "ĠRegel": 7751,
      "organisaties": 7752,
      "ago": 7753,
      "Ġverbinden": 7754,
      "Ġofwel": 7755,
      "ĠRij": 7756,
      "Ġtraject": 7757,
      "Ġzanger": 7758,
      "Ġspecialisten": 7759,
      "Ġvoortdurend": 7760,
      "bescherming": 7761,
      "Ġ.[": 7762,
      "Ġherinn": 7763,
      "Ġlood": 7764,
      "ĠBreda": 7765,
      "Ġkanker": 7766,
      "ksel": 7767,
      "Ġdertig": 7768,
      "ĠPlaats": 7769,
      "ĠNot": 7770,
      "ĠOnderzoek": 7771,
      "zaamheid": 7772,
      "ĠFC": 7773,
      "ĠDrent": 7774,
      "Ġoranje": 7775,
      "Ġgezel": 7776,
      "Ġbloot": 7777,
      "Ġoefeningen": 7778,
      "ĠRom": 7779,
      "azz": 7780,
      "Ġopleidingen": 7781,
      "Ġverrichten": 7782,
      "ĠHal": 7783,
      "Ġstelde": 7784,
      "Ġdiepe": 7785,
      "ĠCa": 7786,
      "ĠVel": 7787,
      "onom": 7788,
      "Ġverminderen": 7789,
      "ĠAg": 7790,
      "ibr": 7791,
      "Ġprom": 7792,
      "Ġzodanig": 7793,
      "Ġverdwijnen": 7794,
      "ĠÂ«": 7795,
      "Ġvrucht": 7796,
      "Ġdeelname": 7797,
      "Ġbeper": 7798,
      "Ġinnovatieve": 7799,
      "Ġnieuwbouw": 7800,
      "ugel": 7801,
      "Ġbenodigde": 7802,
      "anderen": 7803,
      "Ġbijeenkomst": 7804,
      "Ġbewonder": 7805,
      "ormd": 7806,
      "LE": 7807,
      "ĠWebs": 7808,
      "gemoet": 7809,
      "Ġrijke": 7810,
      "Ġverwar": 7811,
      "25": 7812,
      "Ġverzameld": 7813,
      "Ġmeid": 7814,
      "Ġonth": 7815,
      "ĠcarriÃ¨re": 7816,
      "hulp": 7817,
      "66": 7818,
      "Ġverwachtingen": 7819,
      "elier": 7820,
      "eerder": 7821,
      "Ġleukste": 7822,
      "zigd": 7823,
      "Ġgetoond": 7824,
      "Ġoperatie": 7825,
      "Ġsamenwerken": 7826,
      "maakt": 7827,
      "tw": 7828,
      "Ġverstandig": 7829,
      "Ġbijbehoren": 7830,
      "Ġregistratie": 7831,
      "pa": 7832,
      "ĠMarkt": 7833,
      "risch": 7834,
      "Ġgeren": 7835,
      "ĠNS": 7836,
      "Ġhome": 7837,
      "Ġstuks": 7838,
      "ĠPvdA": 7839,
      "Ġpresenteren": 7840,
      "Ġwild": 7841,
      "beste": 7842,
      "ush": 7843,
      "Ġboodschappen": 7844,
      "Ġkabinet": 7845,
      "ĠRT": 7846,
      "ĠCentraal": 7847,
      "Ġambten": 7848,
      "Ġmoed": 7849,
      "izer": 7850,
      "Ġmake": 7851,
      "keld": 7852,
      "Ġvoertuig": 7853,
      "Ġbem": 7854,
      "Ġgecombineerd": 7855,
      "ĠLou": 7856,
      "bei": 7857,
      "Ġ].": 7858,
      "intje": 7859,
      "Ġexperiment": 7860,
      "gegaan": 7861,
      "Ġcd": 7862,
      "ĠNV": 7863,
      "making": 7864,
      "ĠVeen": 7865,
      "Ġaardapp": 7866,
      "Ġkritiek": 7867,
      "ĠBijbel": 7868,
      "Ġ%)": 7869,
      "kru": 7870,
      "pak": 7871,
      "Ġgeregistreerd": 7872,
      "ĠVAN": 7873,
      "Ġgestuurd": 7874,
      "Ġil": 7875,
      "Ġgewend": 7876,
      "vriendelijke": 7877,
      "acc": 7878,
      "Ġreiz": 7879,
      "zels": 7880,
      "Ġmeegenomen": 7881,
      "Ġklin": 7882,
      "tekening": 7883,
      "Ġwinnaar": 7884,
      "odigd": 7885,
      "opers": 7886,
      "urb": 7887,
      "Ġverdwenen": 7888,
      "steld": 7889,
      "Ġzulke": 7890,
      "GB": 7891,
      "duidelijk": 7892,
      "Ġsloten": 7893,
      "zenden": 7894,
      "Ġcampagne": 7895,
      "ĠAlbert": 7896,
      "Ġinch": 7897,
      "OP": 7898,
      "Ġconstructie": 7899,
      "pert": 7900,
      "Ġbag": 7901,
      "Ġmeth": 7902,
      "Ġreguliere": 7903,
      "Ġislam": 7904,
      "orpen": 7905,
      "assa": 7906,
      "ĠEigenlijk": 7907,
      "leidingen": 7908,
      "Ġdegene": 7909,
      "Ġ59": 7910,
      "Ġjarenlang": 7911,
      "Ġfilmpjes": 7912,
      "ĠWorld": 7913,
      "13": 7914,
      "Ġuitst": 7915,
      "Ġdatab": 7916,
      "juist": 7917,
      "ifi": 7918,
      "lymp": 7919,
      "Ġgebeurde": 7920,
      "ĠAV": 7921,
      "Ġjuridische": 7922,
      "Ġachteraf": 7923,
      "pakken": 7924,
      "Ġarmen": 7925,
      "ups": 7926,
      "ĠBrug": 7927,
      "Ġtegemoet": 7928,
      "Ġheft": 7929,
      "Ġkoopt": 7930,
      "Ġverteld": 7931,
      "Ġtijdig": 7932,
      "Ġindustr": 7933,
      "Ġpian": 7934,
      "text": 7935,
      "Ġinvullen": 7936,
      "Ġovertuigd": 7937,
      "ament": 7938,
      "Ġdomein": 7939,
      "Ġvon": 7940,
      "ĠMartin": 7941,
      "ĠLen": 7942,
      "terrein": 7943,
      "ĠOh": 7944,
      "Ġwederom": 7945,
      "Ġfeestje": 7946,
      "Ġvaat": 7947,
      "Ġaangek": 7948,
      "Ġregionale": 7949,
      "rong": 7950,
      "ĠOranje": 7951,
      "Ġextreem": 7952,
      "Ġgedeeltelijk": 7953,
      "St": 7954,
      "artikelen": 7955,
      "Ġschen": 7956,
      "Ġbeperkte": 7957,
      "Ġrace": 7958,
      "boot": 7959,
      "ĠWal": 7960,
      "In": 7961,
      "gevonden": 7962,
      "ongen": 7963,
      "ellig": 7964,
      "ĠGriek": 7965,
      "ĠBad": 7966,
      "Ġstreek": 7967,
      "fiets": 7968,
      "Ġkilo": 7969,
      "Ġsat": 7970,
      "ieso": 7971,
      "Ġ57": 7972,
      "uum": 7973,
      "Ġeleg": 7974,
      "ĠHenk": 7975,
      "Ġvermoed": 7976,
      "Ġip": 7977,
      "Ġvervaard": 7978,
      "time": 7979,
      "ĠHot": 7980,
      "ĠJos": 7981,
      "Ġtoenemen": 7982,
      "Ġaanbren": 7983,
      "laat": 7984,
      "kaarten": 7985,
      "artsen": 7986,
      "haling": 7987,
      "ĠCity": 7988,
      "Ġminste": 7989,
      "Ġschouder": 7990,
      "ĠDelft": 7991,
      "ĠSil": 7992,
      "nie": 7993,
      "Ġnak": 7994,
      "ĠGo": 7995,
      "handeling": 7996,
      "ĠFriesland": 7997,
      "Ġgecontrole": 7998,
      "Ġdok": 7999,
      "ball": 8000,
      "blik": 8001,
      "rix": 8002,
      "Ġgereden": 8003,
      "Ġvaren": 8004,
      "gelijke": 8005,
      "brand": 8006,
      "Ġeerdere": 8007,
      "Ġvoorlopig": 8008,
      "nel": 8009,
      "ĠRoy": 8010,
      "Ġinvesteren": 8011,
      "voudig": 8012,
      "Ġberoemde": 8013,
      "Ġcorrect": 8014,
      "Ġpc": 8015,
      "Ġspre": 8016,
      "Ġwijs": 8017,
      "phen": 8018,
      "Ġelast": 8019,
      "bec": 8020,
      "ĠgeÃ¯nteresseerd": 8021,
      "uleerd": 8022,
      "ĠHy": 8023,
      "iveren": 8024,
      "Ġkrediet": 8025,
      "ĠAj": 8026,
      "othe": 8027,
      "Ġkandidaat": 8028,
      "Ġspellen": 8029,
      "Ġmech": 8030,
      "getrokken": 8031,
      "Ġaangewezen": 8032,
      "ĠKleine": 8033,
      "ĠOne": 8034,
      "weeg": 8035,
      "schillen": 8036,
      "II": 8037,
      "Ġspreek": 8038,
      "Ġbevestig": 8039,
      "ĠUnie": 8040,
      "vre": 8041,
      "Ġanim": 8042,
      "Ġsterker": 8043,
      "Ġpassend": 8044,
      "indust": 8045,
      "Ġondersteunt": 8046,
      "ariteit": 8047,
      "Ġbegrepen": 8048,
      "Ġluchthaven": 8049,
      "mere": 8050,
      "ĠBedrijf": 8051,
      "Ġvenn": 8052,
      "ĠNat": 8053,
      "hands": 8054,
      "US": 8055,
      "ĠPale": 8056,
      "Ġgekoppeld": 8057,
      "bond": 8058,
      "Ġteleur": 8059,
      "Ġverdient": 8060,
      "zonden": 8061,
      "ĠJeugd": 8062,
      "owieso": 8063,
      "pol": 8064,
      "Ġvolgde": 8065,
      "rant": 8066,
      "Ġfir": 8067,
      "wijfeld": 8068,
      "ĠiPad": 8069,
      "Ġmr": 8070,
      "Ġbediening": 8071,
      "Ġaanzienlijk": 8072,
      "md": 8073,
      "Ġwed": 8074,
      "sproces": 8075,
      "Ġcomment": 8076,
      "Ġkasteel": 8077,
      "spire": 8078,
      "ĠDuur": 8079,
      "Ġretour": 8080,
      "ĠMeestal": 8081,
      "ĠMal": 8082,
      "Ġkaartje": 8083,
      "ĠGroep": 8084,
      "stein": 8085,
      "Ġovereengekomen": 8086,
      "Ġvreemde": 8087,
      "ĠVVD": 8088,
      "ĠLicht": 8089,
      "Ġid": 8090,
      "ipatie": 8091,
      "ermate": 8092,
      "ĠSant": 8093,
      "unct": 8094,
      "Ġverstaan": 8095,
      "Ġpuur": 8096,
      "Ġgeble": 8097,
      "utch": 8098,
      "ĠHam": 8099,
      "Ġbetrouwbaar": 8100,
      "Ġauteurs": 8101,
      "rijpen": 8102,
      "Ġschijf": 8103,
      "Ġbehoeften": 8104,
      "eut": 8105,
      "ĠInf": 8106,
      "auze": 8107,
      "Ġgebeurtenissen": 8108,
      "ĠWeet": 8109,
      "Ġzoet": 8110,
      "Ġlinker": 8111,
      "Ġkwartaal": 8112,
      "ilis": 8113,
      "Ġgeel": 8114,
      "ĠMaro": 8115,
      "Ġobject": 8116,
      "Ġerger": 8117,
      "ĠNationale": 8118,
      "Ġimplement": 8119,
      "ĠBestuur": 8120,
      "ersport": 8121,
      "ĠWar": 8122,
      "Ġwetgeving": 8123,
      "Ġbekijk": 8124,
      "Ġcrimin": 8125,
      "Ġmachines": 8126,
      "Ġmotiv": 8127,
      "ĠJohan": 8128,
      "ommen": 8129,
      "Ġuitbreiding": 8130,
      "Ġdaartoe": 8131,
      "waart": 8132,
      "ĠWelkom": 8133,
      "Ġverschuldig": 8134,
      "stijds": 8135,
      "Ġwees": 8136,
      "ooth": 8137,
      "sens": 8138,
      "Ġzette": 8139,
      "Ġmonit": 8140,
      "Ġcreat": 8141,
      "ĠOostenrijk": 8142,
      "Ġvogel": 8143,
      "Ġevenwicht": 8144,
      "Ġbeveiliging": 8145,
      "Ġroman": 8146,
      "gevallen": 8147,
      "IV": 8148,
      "Ġtientallen": 8149,
      "Ġexpertise": 8150,
      "Ġomvat": 8151,
      "Ġlening": 8152,
      "Ġgerealiseerd": 8153,
      "Ġflexibel": 8154,
      "Ġboter": 8155,
      "gids": 8156,
      "ĠHeil": 8157,
      "inger": 8158,
      "igende": 8159,
      "Ġwebwinkel": 8160,
      "hemale": 8161,
      "Ġverborgen": 8162,
      "Ġtreden": 8163,
      "Ġsoepel": 8164,
      "Ġtevoren": 8165,
      "mar": 8166,
      "Ġchauff": 8167,
      "kest": 8168,
      "ĠFree": 8169,
      "Ġgetu": 8170,
      "ĠRel": 8171,
      "Ġverlopen": 8172,
      "Ġrecepten": 8173,
      "ĠGreen": 8174,
      "Ġconcurrentie": 8175,
      "Ġprestatie": 8176,
      "ĠVideo": 8177,
      "dy": 8178,
      "Ġwelzijn": 8179,
      "makers": 8180,
      "Ġbestuurder": 8181,
      "atch": 8182,
      "Ð½": 8183,
      "ĠðŁĺ": 8184,
      "Ġschoonheid": 8185,
      "Ġachterkant": 8186,
      "Ġslachtoffers": 8187,
      "eeuwse": 8188,
      "isjes": 8189,
      "Ġbiologische": 8190,
      "versie": 8191,
      "riteria": 8192,
      "Ġschitterende": 8193,
      "Ġonderzoekers": 8194,
      "Ġbrowser": 8195,
      "arde": 8196,
      "AD": 8197,
      "ĠFil": 8198,
      "antel": 8199,
      "ventaris": 8200,
      "Ġrelax": 8201,
      "ĠcommerciÃ«le": 8202,
      "Ġzonnepanelen": 8203,
      "ades": 8204,
      "wust": 8205,
      "dekt": 8206,
      "ĠZat": 8207,
      "Ġvergoed": 8208,
      "Ġbedden": 8209,
      "Ġdoorgaans": 8210,
      "Ġgestelde": 8211,
      "ĠJacob": 8212,
      "Ġopmerkingen": 8213,
      "sing": 8214,
      "Ġgeproduceerd": 8215,
      "Ġtoeristen": 8216,
      "Ġbrieven": 8217,
      "tere": 8218,
      "special": 8219,
      "Ġbalkon": 8220,
      "PN": 8221,
      "ifest": 8222,
      "Ġvrede": 8223,
      "machines": 8224,
      "ypen": 8225,
      "Ġrijst": 8226,
      "Ġwaaraan": 8227,
      "vormen": 8228,
      "ĠDN": 8229,
      "omer": 8230,
      "Ġcou": 8231,
      "Ġmist": 8232,
      "industrie": 8233,
      "ĠWeer": 8234,
      "Ġveroorzaken": 8235,
      "Ġvoorzichtig": 8236,
      "ĠBor": 8237,
      "ĠVlaams": 8238,
      "atform": 8239,
      "ĠgeÃ¯nteg": 8240,
      "keurd": 8241,
      "gh": 8242,
      "Ġdossier": 8243,
      "oker": 8244,
      "Ġbijbehorende": 8245,
      "Ġafsluiten": 8246,
      "Ġlesbische": 8247,
      "Ġgezinnen": 8248,
      "Ġgeprobeerd": 8249,
      "Ġafgesproken": 8250,
      "anische": 8251,
      "Ġbeschrijving": 8252,
      "Ġhaha": 8253,
      "oute": 8254,
      "ĠArab": 8255,
      "begrepen": 8256,
      "Ġchron": 8257,
      "ÑĢ": 8258,
      "szins": 8259,
      "ĠPop": 8260,
      "ĠEnkele": 8261,
      "vatten": 8262,
      "inge": 8263,
      "etsel": 8264,
      "doc": 8265,
      "Ġperman": 8266,
      "iten": 8267,
      "rap": 8268,
      "ĠUnivers": 8269,
      "heim": 8270,
      "Ġgegarandeerd": 8271,
      "rad": 8272,
      "ĠJans": 8273,
      "Ġlokaal": 8274,
      "ĠBusiness": 8275,
      "weten": 8276,
      "Ġvoorop": 8277,
      "ĠMarc": 8278,
      "Ġmuren": 8279,
      "Ġwijst": 8280,
      "Ġwal": 8281,
      "mpel": 8282,
      "ĠCornel": 8283,
      "sal": 8284,
      "ommigen": 8285,
      "Ġspieren": 8286,
      "bur": 8287,
      "Ġpo": 8288,
      "Ġbanen": 8289,
      "Ġveelzijd": 8290,
      "Ġkunstenaar": 8291,
      "Ġopgelost": 8292,
      "gebouwde": 8293,
      "Ġdieet": 8294,
      "Ġhon": 8295,
      "Ġanale": 8296,
      "Ġgeslaagd": 8297,
      "obs": 8298,
      "ĠWell": 8299,
      "aille": 8300,
      "Ġhierop": 8301,
      "ĠTo": 8302,
      "Ġgo": 8303,
      "ĠVoeg": 8304,
      "ĠNov": 8305,
      "Ġbewaard": 8306,
      "key": 8307,
      "ĠEconom": 8308,
      "ĠVier": 8309,
      "Ġliteratuur": 8310,
      "wagens": 8311,
      "persoons": 8312,
      "IM": 8313,
      "Ġoost": 8314,
      "Ġgaranderen": 8315,
      "Ġhumor": 8316,
      "Ġoplossen": 8317,
      "Ġseni": 8318,
      "Ġleverbaar": 8319,
      "Ġgezelschap": 8320,
      "ÃŃ": 8321,
      "Ġbeperken": 8322,
      "Ġkip": 8323,
      "Ġafgewerkt": 8324,
      "Ġplafond": 8325,
      "bericht": 8326,
      "Ġsupport": 8327,
      "Ġhuishouden": 8328,
      "stat": 8329,
      "zone": 8330,
      "Ġverkiezingen": 8331,
      "Ġmalen": 8332,
      "ĠLat": 8333,
      "Ã¯ne": 8334,
      "Ġproc": 8335,
      "ĠZet": 8336,
      "ĠBezoek": 8337,
      "paste": 8338,
      "ĠPre": 8339,
      "ĠJohannes": 8340,
      "orf": 8341,
      "ĠTelefoon": 8342,
      "Ġfilosof": 8343,
      "Ġingediend": 8344,
      "Ġdownload": 8345,
      "Ġbelangstelling": 8346,
      "Ġburen": 8347,
      "Ġpomp": 8348,
      "ĠGeile": 8349,
      "Ġparkeren": 8350,
      "iam": 8351,
      "OL": 8352,
      "appy": 8353,
      "Ġplaatje": 8354,
      "Ġtanden": 8355,
      "Ġontslag": 8356,
      "Ġbakken": 8357,
      "itatie": 8358,
      "ĠAantal": 8359,
      "Ġnormen": 8360,
      "ĠBM": 8361,
      "ĠDir": 8362,
      "ĠInternational": 8363,
      "ĠZeeland": 8364,
      "Ġbehandelingen": 8365,
      "Ġvirtu": 8366,
      "Ġklok": 8367,
      "Ġdemon": 8368,
      "dieren": 8369,
      "ĠKamp": 8370,
      "ĠTuin": 8371,
      "duizen": 8372,
      "Ġreist": 8373,
      "ĠAz": 8374,
      "waren": 8375,
      "verklaring": 8376,
      "Ġgauw": 8377,
      "Ġslimme": 8378,
      "ĠBestel": 8379,
      "iving": 8380,
      "ĠcoÃ¶rdin": 8381,
      "Ġrits": 8382,
      "Ġemoties": 8383,
      "ĠHoud": 8384,
      "Ġstre": 8385,
      "aver": 8386,
      "ĠPap": 8387,
      "ĠErg": 8388,
      "Ġmeerderheid": 8389,
      "Ġuitnodig": 8390,
      "ĠRober": 8391,
      "Ġvingers": 8392,
      "ĠSelect": 8393,
      "Ġtijdstip": 8394,
      "Ġlift": 8395,
      "digheid": 8396,
      "Ġverscheen": 8397,
      "uwd": 8398,
      "Ġboekje": 8399,
      "uster": 8400,
      "anal": 8401,
      "Ġverlenen": 8402,
      "Ġonafhankelijke": 8403,
      "erveerd": 8404,
      "ĠOut": 8405,
      "aliteiten": 8406,
      "Ġverspreid": 8407,
      "ĠThom": 8408,
      "ores": 8409,
      "Ã§": 8410,
      "ukte": 8411,
      "Ġ800": 8412,
      "core": 8413,
      "Ġnieuwsgier": 8414,
      "Ġverstrekken": 8415,
      "ĠAP": 8416,
      "problemen": 8417,
      "Ġwaaruit": 8418,
      "anningen": 8419,
      "Ġvestiging": 8420,
      "enservice": 8421,
      "meub": 8422,
      "gesprek": 8423,
      "sper": 8424,
      "Ġplaatse": 8425,
      "Ġchocolade": 8426,
      "ĠHor": 8427,
      "Ġzoektocht": 8428,
      "Ġdagje": 8429,
      "kings": 8430,
      "kijken": 8431,
      "advies": 8432,
      "banden": 8433,
      "Ġ58": 8434,
      "Ġdomin": 8435,
      "iaste": 8436,
      "Ġlandelijk": 8437,
      "Ġbranche": 8438,
      "Ġbruin": 8439,
      "Ġ?âĢĻ": 8440,
      "iva": 8441,
      "ĠefficiÃ«n": 8442,
      "Ġbol": 8443,
      "Ġvijfde": 8444,
      "Ġongeluk": 8445,
      "Ġgal": 8446,
      "Ġtherm": 8447,
      "Ġwetenschappelijke": 8448,
      "Ġzang": 8449,
      "Ġincl": 8450,
      "iller": 8451,
      "Ġmisd": 8452,
      "Ġinzichten": 8453,
      "Ġhaast": 8454,
      "Ġbb": 8455,
      "ĠRussische": 8456,
      "mmel": 8457,
      "tendeels": 8458,
      "!!": 8459,
      "Ġdoek": 8460,
      "Ġverdriet": 8461,
      "Ġzakken": 8462,
      "lok": 8463,
      "anke": 8464,
      "Ġrendement": 8465,
      "bor": 8466,
      "Ġzitting": 8467,
      "ĠTurkije": 8468,
      "Ġbestond": 8469,
      "gedrag": 8470,
      "Ġfraaie": 8471,
      "Ġ:)": 8472,
      "ĠAS": 8473,
      "Ġuitb": 8474,
      "pele": 8475,
      "Ġbibliotheek": 8476,
      "Ġstukjes": 8477,
      "ĠKeuken": 8478,
      "Ġverkregen": 8479,
      "Ġzijk": 8480,
      "Ġmisbruik": 8481,
      "ctoren": 8482,
      "Ġtraditie": 8483,
      "Ġnek": 8484,
      "Ġzoiets": 8485,
      "Ġaangifte": 8486,
      "gren": 8487,
      "Ġvoorkomende": 8488,
      "Ġconform": 8489,
      "Ġschriftelijke": 8490,
      "ĠDam": 8491,
      "Ġfaciliteiten": 8492,
      "Ġtoepassen": 8493,
      "ense": 8494,
      "acter": 8495,
      "Ġknuff": 8496,
      "ĠCommun": 8497,
      "Ġschoen": 8498,
      "uma": 8499,
      "ijnse": 8500,
      "Ġmoslim": 8501,
      "Fi": 8502,
      "ĠWim": 8503,
      "voort": 8504,
      "Ġdiploma": 8505,
      "laan": 8506,
      "Ġreal": 8507,
      "Ġhals": 8508,
      "Ġgepresent": 8509,
      "Ġverzonden": 8510,
      "Ġsym": 8511,
      "team": 8512,
      "ĠWereldoorlog": 8513,
      "Ġsporen": 8514,
      "Ġkindje": 8515,
      "orven": 8516,
      "Ġonderzoeks": 8517,
      "iloft": 8518,
      "Ġgenaamd": 8519,
      "Ġstrakke": 8520,
      "Ġafwerking": 8521,
      "ĠTha": 8522,
      "ĠRos": 8523,
      "Ġexclusieve": 8524,
      "Ġscore": 8525,
      "management": 8526,
      "ĠBegin": 8527,
      "Ġmama": 8528,
      "ĠOpt": 8529,
      "ĠMc": 8530,
      "Ġplaten": 8531,
      "ĠBedankt": 8532,
      "ĠBrazil": 8533,
      "Ġkoppel": 8534,
      "kante": 8535,
      "ĠWK": 8536,
      "Ġovergang": 8537,
      "Ġdoeleinden": 8538,
      "Ġuitgebracht": 8539,
      "iswaar": 8540,
      "schouw": 8541,
      "Ġep": 8542,
      "Ġaanvulling": 8543,
      "ience": 8544,
      "AAR": 8545,
      "Ġheldere": 8546,
      "lij": 8547,
      "Ġbenad": 8548,
      "ĠGeniet": 8549,
      "Ġelders": 8550,
      "colle": 8551,
      "Ġopent": 8552,
      "Ġverloop": 8553,
      "Ġfrequ": 8554,
      "overen": 8555,
      "Ġinvestering": 8556,
      "ĠOntdek": 8557,
      "Ġdrink": 8558,
      "Ġwisten": 8559,
      "ming": 8560,
      "Ġparlement": 8561,
      "Ġopgezet": 8562,
      "Ġorigineel": 8563,
      "ĠMarokk": 8564,
      "jaars": 8565,
      "Ġgrotendeels": 8566,
      "icket": 8567,
      "Ġcredit": 8568,
      "ĠOor": 8569,
      "ĠIl": 8570,
      "names": 8571,
      "Ġzuiver": 8572,
      "Ġvlot": 8573,
      "Ġserver": 8574,
      "Ġproeven": 8575,
      "ieerd": 8576,
      "ĠPrins": 8577,
      "Ġfeed": 8578,
      "ĠOoster": 8579,
      "ĠProbeer": 8580,
      "Ġverblijven": 8581,
      "Ġpeper": 8582,
      "Ġframe": 8583,
      "Ġlogisch": 8584,
      "Ġverzorgt": 8585,
      "Ġmand": 8586,
      "Ġtaart": 8587,
      "ody": 8588,
      "Ġhoreca": 8589,
      "Ġdringen": 8590,
      "Ġspoedig": 8591,
      "Ġhandleiding": 8592,
      "ĠZaterdag": 8593,
      "Ġaanmelden": 8594,
      "uister": 8595,
      "Ġstoere": 8596,
      "asser": 8597,
      "ĠGraag": 8598,
      "row": 8599,
      "Ġpoging": 8600,
      "ĠAmsterdamse": 8601,
      "afe": 8602,
      "Ġonderaan": 8603,
      "ĠTour": 8604,
      "Ġinbegrepen": 8605,
      "Ġschat": 8606,
      "ĠCam": 8607,
      "Ġdrankje": 8608,
      "Ġverplichting": 8609,
      "ĠLater": 8610,
      "mens": 8611,
      "doek": 8612,
      "plicaties": 8613,
      "swaardigheden": 8614,
      "aliseerde": 8615,
      "cijf": 8616,
      "ĠJammer": 8617,
      "azing": 8618,
      "ĠProduct": 8619,
      "Ġerkend": 8620,
      "Ġmissie": 8621,
      "Ġdrukke": 8622,
      "Ġverwarm": 8623,
      "Ġdestijds": 8624,
      "Ġban": 8625,
      "Ġbreedte": 8626,
      "onderd": 8627,
      "alisering": 8628,
      "ĠAlgemeen": 8629,
      "amelijke": 8630,
      "Ġaflevering": 8631,
      "erklaas": 8632,
      "Ġmig": 8633,
      "Ġwerkgevers": 8634,
      "Ġgitaar": 8635,
      "Ġprins": 8636,
      "Ġontmoeting": 8637,
      "ĠTon": 8638,
      "ĠTran": 8639,
      "Ġrespectie": 8640,
      "tert": 8641,
      "Ġ69": 8642,
      "Ġkomst": 8643,
      "Ġdron": 8644,
      "ĠDijk": 8645,
      "slid": 8646,
      "Af": 8647,
      "Ġ187": 8648,
      "Ġingeschreven": 8649,
      "Ġgroente": 8650,
      "Ġopstellen": 8651,
      "Ġonderbouw": 8652,
      "ĠHele": 8653,
      "ations": 8654,
      "ĠKoninkrijk": 8655,
      "ademie": 8656,
      "Ġaanbieders": 8657,
      "Ġbrandweer": 8658,
      "Ġdefinitief": 8659,
      "namen": 8660,
      "Ġ--": 8661,
      "Ġverzending": 8662,
      "mo": 8663,
      "Ġindividu": 8664,
      "gronden": 8665,
      "Ġnatte": 8666,
      "Ġbevestiging": 8667,
      "ĠAmers": 8668,
      "Ġenthousiaste": 8669,
      "Ġbetaalde": 8670,
      "Ġvakantiehuis": 8671,
      "Ġmeedoen": 8672,
      "Ġlijden": 8673,
      "Ġophalen": 8674,
      "bestand": 8675,
      "wiel": 8676,
      "Ġopname": 8677,
      "rac": 8678,
      "Ġmedicijnen": 8679,
      "aturen": 8680,
      "Ð¾Ð": 8681,
      "Ġscen": 8682,
      "ĠMee": 8683,
      "Ġdiv": 8684,
      "Ġspring": 8685,
      "ossing": 8686,
      "ĠEurope": 8687,
      "ĠZwart": 8688,
      "Ġattra": 8689,
      "Ġhaak": 8690,
      "ution": 8691,
      "Ġinstellen": 8692,
      "Ġgelukt": 8693,
      "ĠDownload": 8694,
      "Ġsimpele": 8695,
      "Ġaanbrengen": 8696,
      "Ġroepen": 8697,
      "Ġvanavond": 8698,
      "platen": 8699,
      "Ġregistr": 8700,
      "scholen": 8701,
      "Ġgezamenlijke": 8702,
      "ĠAjax": 8703,
      "ĠAmersfoort": 8704,
      "Ġkopje": 8705,
      "Ġkwaliteits": 8706,
      "ĠNaam": 8707,
      "essies": 8708,
      "Ġvoorheen": 8709,
      "Ġmoeilijke": 8710,
      "ubile": 8711,
      "Ġminer": 8712,
      "ĠVeiligheid": 8713,
      "scher": 8714,
      "ota": 8715,
      "trek": 8716,
      "Ġuitgen": 8717,
      "Ġdaarover": 8718,
      "systemen": 8719,
      "Ġgeschil": 8720,
      "vlees": 8721,
      "centra": 8722,
      "wijzingen": 8723,
      "Ġbezorg": 8724,
      "Ġfel": 8725,
      "Ġgecertific": 8726,
      "etre": 8727,
      "lev": 8728,
      "ĠVre": 8729,
      "Ġgig": 8730,
      "Ġafgerond": 8731,
      "Ġ188": 8732,
      "Ġverzet": 8733,
      "card": 8734,
      "ituatie": 8735,
      "Ġspl": 8736,
      "iepen": 8737,
      "akkelijke": 8738,
      "Ġgetuigen": 8739,
      "Ġvacatures": 8740,
      "zu": 8741,
      "Ġaankomen": 8742,
      "voorziening": 8743,
      "ĠTro": 8744,
      "ĠMS": 8745,
      "Ġoverd": 8746,
      "Ġconcrete": 8747,
      "ulatie": 8748,
      "ikke": 8749,
      "Ġ.:": 8750,
      "Ġvoorgaande": 8751,
      "Ġvoeg": 8752,
      "Ġmanager": 8753,
      "Ġomgev": 8754,
      "ĠIdeaal": 8755,
      "Ġverkeers": 8756,
      "koming": 8757,
      "Ġmetaal": 8758,
      "etisch": 8759,
      "Ġsubt": 8760,
      "ĠJapanse": 8761,
      "Ġoren": 8762,
      "Ġtoevoeg": 8763,
      "Ġviss": 8764,
      "Ġitems": 8765,
      "Ġmaatwerk": 8766,
      "nav": 8767,
      "RE": 8768,
      "iens": 8769,
      "Ġaangenaam": 8770,
      "ues": 8771,
      "oun": 8772,
      "Ġvinger": 8773,
      "ertje": 8774,
      "Ġgliml": 8775,
      "ĠBol": 8776,
      "Ġarchitectuur": 8777,
      "ĠBoer": 8778,
      "Ġvluchten": 8779,
      "Ġaudio": 8780,
      "ĠGeert": 8781,
      "blijf": 8782,
      "rekte": 8783,
      "Ġvijftig": 8784,
      "Ġzelfde": 8785,
      "merkt": 8786,
      "Ġ67": 8787,
      "Ġdocent": 8788,
      "Ġpercentage": 8789,
      "ĠStap": 8790,
      "Ġmaster": 8791,
      "CHT": 8792,
      "ĠRep": 8793,
      "plex": 8794,
      "besten": 8795,
      "Ġuitdagen": 8796,
      "Ġporte": 8797,
      "front": 8798,
      "Ġelektronische": 8799,
      "rÃ¨me": 8800,
      "Ġuitkomst": 8801,
      "gin": 8802,
      "Ġaanwezige": 8803,
      "alisme": 8804,
      "Ġbevestigen": 8805,
      "oodse": 8806,
      "ĠDoel": 8807,
      "Ġzevent": 8808,
      "tuin": 8809,
      "stelsel": 8810,
      "ĠGezond": 8811,
      "Ġhomo": 8812,
      "Ġstraten": 8813,
      "Ġmeubels": 8814,
      "ĠTeam": 8815,
      "resultaten": 8816,
      "VS": 8817,
      "ĠWordt": 8818,
      "arium": 8819,
      "ĠHong": 8820,
      "ban": 8821,
      "ĠAnne": 8822,
      "ĠGewoon": 8823,
      "Ġwijnen": 8824,
      "Ġcirc": 8825,
      "Ġkapot": 8826,
      "Ġmes": 8827,
      "ĠâĢĭ": 8828,
      "Ġgij": 8829,
      "ĠOverigens": 8830,
      "Ġautoriteit": 8831,
      "bot": 8832,
      "Ġslaat": 8833,
      "verkeer": 8834,
      "stalige": 8835,
      "Ġsw": 8836,
      "Ġgemot": 8837,
      "Ġboos": 8838,
      "hebber": 8839,
      "thans": 8840,
      "ĠUl": 8841,
      "Ġsil": 8842,
      "ĠIets": 8843,
      "kingen": 8844,
      "ĠWester": 8845,
      "sprogramma": 8846,
      "Ġtube": 8847,
      "ĠStar": 8848,
      "weegt": 8849,
      "Ġgewaar": 8850,
      "getwijfeld": 8851,
      "erden": 8852,
      "ĠBert": 8853,
      "Ġlente": 8854,
      "Ġmontage": 8855,
      "Ġic": 8856,
      "Ġzijnde": 8857,
      "ĠStuur": 8858,
      "ĠInsp": 8859,
      "ubliek": 8860,
      "Ġhuisje": 8861,
      "omende": 8862,
      "Ġuitgenodigd": 8863,
      "gedragen": 8864,
      "mus": 8865,
      "raft": 8866,
      "keuring": 8867,
      "ares": 8868,
      "Ġzaad": 8869,
      "ĠWeten": 8870,
      "Ġessentieel": 8871,
      "Ġrac": 8872,
      "Ġnaa": 8873,
      "sted": 8874,
      "volgende": 8875,
      "ĠLive": 8876,
      "Ġtum": 8877,
      "Ġlanc": 8878,
      "ĠDigit": 8879,
      "Ġjacht": 8880,
      "Ġdoorb": 8881,
      "ray": 8882,
      "betaling": 8883,
      "Ġbezorgd": 8884,
      "ĠAC": 8885,
      "Ġoverheids": 8886,
      "ĠBE": 8887,
      "blauw": 8888,
      "wonen": 8889,
      "Ġdoden": 8890,
      "Ġlachen": 8891,
      "Ġgevangenis": 8892,
      "verf": 8893,
      "spunten": 8894,
      "vindt": 8895,
      "Ġbelangrijker": 8896,
      "Ġgewijzigd": 8897,
      "Ġlezer": 8898,
      "Ġbijlage": 8899,
      "Ġschaduw": 8900,
      "Ġspont": 8901,
      "ĠPan": 8902,
      "Ġafwijk": 8903,
      "Ġda": 8904,
      "Ġultie": 8905,
      "ĠAfrika": 8906,
      "ĠKu": 8907,
      "Ġwapen": 8908,
      "Ġinschrijving": 8909,
      "ĠBu": 8910,
      "Ġoorsprong": 8911,
      "ĠSterk": 8912,
      "ĠEC": 8913,
      "Ġaanvang": 8914,
      "gener": 8915,
      "Ġfaill": 8916,
      "ĠTel": 8917,
      "ffe": 8918,
      "kels": 8919,
      "Ġsne": 8920,
      "yc": 8921,
      "verbruik": 8922,
      "Ġlevensduur": 8923,
      "Ġdome": 8924,
      "Ġdiepte": 8925,
      "schakelen": 8926,
      "Ġsowieso": 8927,
      "Ġstoelen": 8928,
      "dates": 8929,
      "zakken": 8930,
      "Ġruimtes": 8931,
      "okje": 8932,
      "ĠAnna": 8933,
      "Ġversterk": 8934,
      "ĠGrieken": 8935,
      "Ġ1999": 8936,
      "eerst": 8937,
      "Ġgecontroleerd": 8938,
      "inaire": 8939,
      "wol": 8940,
      "Ġschone": 8941,
      "ĠExtra": 8942,
      "Ġsnap": 8943,
      "Ġwaterd": 8944,
      "Ġovereenstemming": 8945,
      "ĠAltijd": 8946,
      "ingt": 8947,
      "Ġsom": 8948,
      "Ġ62": 8949,
      "gas": 8950,
      "Ġaantrekkelijke": 8951,
      "Ġsem": 8952,
      "Ġobs": 8953,
      "tocht": 8954,
      "Ġgetrouwd": 8955,
      "ĠHigh": 8956,
      "Ġdatingsite": 8957,
      "ondsen": 8958,
      "ao": 8959,
      "Ġvermoeden": 8960,
      "Ġuiteenlopende": 8961,
      "ĠGoud": 8962,
      "Ġduizend": 8963,
      "isje": 8964,
      "Ġmonument": 8965,
      "ĠIndia": 8966,
      "dier": 8967,
      "ĠPlan": 8968,
      "ballen": 8969,
      "verleners": 8970,
      "ĠAnal": 8971,
      "ĠProject": 8972,
      "Ġmaatschappelijk": 8973,
      "Ġgevaarlijk": 8974,
      "ĠKwaliteit": 8975,
      "enis": 8976,
      "Ġgehoor": 8977,
      "ata": 8978,
      "Ã©r": 8979,
      "Ġilleg": 8980,
      "Ġgift": 8981,
      "Ġvierkante": 8982,
      "Ġcreatief": 8983,
      "Ġcontext": 8984,
      "Ġabsolute": 8985,
      "dheid": 8986,
      "ĠNic": 8987,
      "Ġgemeenteraad": 8988,
      "ĠOlymp": 8989,
      "ĠFun": 8990,
      "Ġwetenschappelijk": 8991,
      "ĠFort": 8992,
      "herapeut": 8993,
      "Ġvastgoed": 8994,
      "ĠGeb": 8995,
      "ĠBijna": 8996,
      "ĠEnergie": 8997,
      "vant": 8998,
      "Ġtit": 8999,
      "Ġnachts": 9000,
      "ĠMel": 9001,
      "Ġpublicatie": 9002,
      "Ġduik": 9003,
      "ĠBig": 9004,
      "Ġvervanging": 9005,
      "ĠNeuken": 9006,
      "Ġdistrib": 9007,
      "mes": 9008,
      "Ġmuzikale": 9009,
      "Ġluister": 9010,
      "Ġhoriz": 9011,
      "lands": 9012,
      "ĠRadio": 9013,
      "Ġgat": 9014,
      "IA": 9015,
      "Ġpijpen": 9016,
      "Ġplaatselijke": 9017,
      "Ġcursussen": 9018,
      "Ġaud": 9019,
      "ffer": 9020,
      "Ġdoch": 9021,
      "lid": 9022,
      "Ġschiet": 9023,
      "isters": 9024,
      "Ġwou": 9025,
      "Ġoproep": 9026,
      "Ġgepresenteerd": 9027,
      "Ġperspectief": 9028,
      "ĠTegenwoordig": 9029,
      "Ġschulden": 9030,
      "ĠGeest": 9031,
      "Ġkwalitatief": 9032,
      "secretaris": 9033,
      "Ġkandidaten": 9034,
      "Ġtekeningen": 9035,
      "Ġspot": 9036,
      "Ġknie": 9037,
      "Ġvluchtelingen": 9038,
      "ĠManagement": 9039,
      "ĠMatt": 9040,
      "Ġcommuniceren": 9041,
      "SL": 9042,
      "Ġbezoeker": 9043,
      "ĠTur": 9044,
      "Ġpromotie": 9045,
      "Ġplaatst": 9046,
      "ĠRoo": 9047,
      "adel": 9048,
      "begele": 9049,
      "rump": 9050,
      "Ġrenovatie": 9051,
      "Ġaanvaard": 9052,
      "Ġspringen": 9053,
      "Ġcomplexe": 9054,
      "ĠFijn": 9055,
      "Ġvergeet": 9056,
      "Ġarbeidsmarkt": 9057,
      "ashion": 9058,
      "Ġelf": 9059,
      "spers": 9060,
      "Ġapplicatie": 9061,
      "Ġlampen": 9062,
      "Ġtrac": 9063,
      "Ġstopt": 9064,
      "Brabant": 9065,
      "inders": 9066,
      "Ġdocenten": 9067,
      "Ġlic": 9068,
      "ely": 9069,
      "ĠIJssel": 9070,
      "hoofd": 9071,
      "Ġbewijzen": 9072,
      "daten": 9073,
      "Ġhelp": 9074,
      "Ġoverwinning": 9075,
      "une": 9076,
      "Ġhaalde": 9077,
      "ĠDaarvoor": 9078,
      "Ġallebei": 9079,
      "Ġgevarie": 9080,
      "Ġgetest": 9081,
      "hr": 9082,
      "Ġgelopen": 9083,
      "aria": 9084,
      "Ġstijlvolle": 9085,
      "Ġdekking": 9086,
      "Ġkrachten": 9087,
      "Ġontwikkelde": 9088,
      "Ġbonus": 9089,
      "Ġjournalist": 9090,
      "Ġmeng": 9091,
      "Ġ,\"": 9092,
      "ep": 9093,
      "Ġkopie": 9094,
      "Ġ51": 9095,
      "Ġ66": 9096,
      "Ġverwarming": 9097,
      "Ġrespectiev": 9098,
      "kwam": 9099,
      "Ġgebleken": 9100,
      "Ġmooier": 9101,
      "Ġwisselen": 9102,
      "methode": 9103,
      "axy": 9104,
      "ĠEUR": 9105,
      "Ġwassen": 9106,
      "Ġsurf": 9107,
      "Ġmeenemen": 9108,
      "voeding": 9109,
      "Ġstrip": 9110,
      "Ġschoonmaak": 9111,
      "Ġaziatische": 9112,
      "Ġschakelen": 9113,
      "jectie": 9114,
      "Ġmedisch": 9115,
      "rikaanse": 9116,
      "Ġbevorderen": 9117,
      "yen": 9118,
      "Ġzelden": 9119,
      "ĠMaster": 9120,
      "Ġvoorwaarde": 9121,
      "ĠBijzonder": 9122,
      "kasten": 9123,
      "ĠInhoud": 9124,
      "Ġvanzelfsprekend": 9125,
      "Ġweerstand": 9126,
      "Ġdoorheen": 9127,
      "Ġbeslissen": 9128,
      "sprong": 9129,
      "ĠRest": 9130,
      "Ġare": 9131,
      "Ġondersteund": 9132,
      "ĠIndones": 9133,
      "Ġneut": 9134,
      "ĠindustriÃ«le": 9135,
      "ida": 9136,
      "rice": 9137,
      "apens": 9138,
      "Ġ68": 9139,
      "ĠIII": 9140,
      "zijnen": 9141,
      "Ġmevrouw": 9142,
      "maatschappij": 9143,
      "ĠMuziek": 9144,
      "Ġtweedehands": 9145,
      "iool": 9146,
      "ĠVoordat": 9147,
      "Ġmiljoenen": 9148,
      "ĠEt": 9149,
      "fase": 9150,
      "press": 9151,
      "Ġschijnt": 9152,
      "ĠAmer": 9153,
      "EC": 9154,
      "Ġlaagste": 9155,
      "Ġklassiek": 9156,
      "Ġbedoelde": 9157,
      "alloze": 9158,
      "Ġnegatief": 9159,
      "spart": 9160,
      "spireerd": 9161,
      "ml": 9162,
      "Ġnetwerken": 9163,
      "ĠMaand": 9164,
      "Ġzorgde": 9165,
      "Ġwettelijk": 9166,
      "Ġbeheren": 9167,
      "Ġroept": 9168,
      "Ġzorgverzeker": 9169,
      "RC": 9170,
      "ĠSchiphol": 9171,
      "chem": 9172,
      "ĠHard": 9173,
      "ĠOrganis": 9174,
      "Ġverkennen": 9175,
      "Ġspectacul": 9176,
      "ĠThomas": 9177,
      "Ġtoren": 9178,
      "ĠTerug": 9179,
      "Ġbruiloft": 9180,
      "usie": 9181,
      "besp": 9182,
      "gelegde": 9183,
      "ĠOndertussen": 9184,
      "Ġverstel": 9185,
      "Ġdoelstellingen": 9186,
      "Ġselecteren": 9187,
[...]
