#version-knockout
i n
h e
a n
r e
t he
Ġ s
o n
Ġ the
e r
Ġ .
a t
Ġ ,
Ġ w
Ġ o
Ġ c
e n
i t
t o
i s
e s
a l
Ġ f
Ġ b
Ġ an
o u
in g
Ġ p
o r
Ġ m
e d
Ġ to
a r
Ġan d
a s
Ġ in
Ġo f
Ġ d
i c
Ġ h
l e
i on
o m
Ġ l
i l
Ġ re
Ġ I
a c
en t
Ġ T
Ġ n
v e
Ġ e
r o
Ġ y
u s
Ġ g
l y
Ġb e
a d
Ġ is
Ġy ou
â Ģ
Ġ S
h at
Ġf or
Ġ A
e t
Ġ on
u t
i d
u r
Ġ âĢ
a y
s t
a m
o w
Ġ C
o t
i m
o l
i g
e c
e l
v er
it h
t hat
Ġ that
a re
at ion
t r
Ġw ith
a b
u n
i r
Ġ M
Ġ it
a g
ĠT he
Ġ he
t er
c e
Ġ as
Ġ P
Ġ al
u l
Ġ B
Ġ W
a p
Ġp ro
Ġs t
i f
il l
Ġ '
s e
c h
Ġ are
ĠâĢ Ļ
h is
Ġw e
Ġo r
Ġc on
er s
Ġc om
Ġ 1
k e
Ġ H
o o
t s
Ġ D
es s
e m
Ġw h
Ġm o
Ġf r
Ġ r
a ve
Ġ F
Ġ at
Ġ 2
at e
l d
Ġe x
Ġ (
a in
Ġ R
Ġw as
u p
ig h
es t
Ġ v
the r
an d
u m
q u
i ve
ou n
u re
Ġn e
Ġ )
Ġ L
ar t
it y
t his
Ġ this
Ġyou r
o p
Ġh ave
i es
Ġ N
Ġs h
Ġ E
t ion
Ġb y
Ġ G
Ġfr om
m ent
Ġn ot
Ġ tr
t e
i v
or t
u c
o c
Ġ us
Ġ O
Ġc an
Ġs e
Ġc h
i p
Ġ :
o s
an t
om e
Ġ ac
en d
re s
Ġd e
ou t
u d
al l
Ġ le
ar d
Ġw ill
i al
ou ld
Ġ ab
Ġ un
Ġs p
igh t
Ġw or
Ġ j
Ġal l
g h
Ġp l
id e
is t
el l
ĠI n
ou r
g e
Ġ k
in e
k ing
Ġ J
al ly
p l
i e
us t
ec t
i b
a v
Ġd o
Ġ "
re d
ac k
to r
Ġh as
Ġb ut
Ġ2 0
Ġw he
ag e
Ġm e
ic e
o d
e ar
Ġ ad
re n
ou gh
h ing
t im
Ġcom p
as t
Ġh is
Ġ up
. .
a f
ic h
Ġo ut
Ġ en
in d
u b
Ġs o
at ed
ab le
Ġm y
p er
ver y
Ġ U
it e
k s
i z
a ke
d er
ou s
on e
Ġp r
Ġmo re
Ġthe y
oun d
Ġthe ir
ap p
Ġc l
on g
Ġon e
o g
Ġ im
an s
h an
oo d
a il
o re
Ġo ur
Ġ Y
Ġm an
Ġ !
i ke
Ġ tim
e p
f or
a w
o st
Ġab out
Ġwh ich
Ġre s
Ġin c
Ġ 3
Ġwh o
ig n
Ġd is
t w
Ġ /
an ce
ĠâĢ ľ
s o
ac t
ĠI t
a k
am e
i le
ac e
it ion
p ort
ation s
Ġf e
Ġ ?
i a
Ġ qu
0 0
re at
i re
Ġof f
ic al
Ġg o
Ġ K
u e
ar y
Ġp er
u ch
Ġo ther
b er
Ġ. ..
as e
Ġan y
h r
ĠW e
as s
re e
Ġs ome
ent s
ow n
Ġtim e
er v
Ġl ike
oo k
Ġe v
Ġcon t
f f
ay s
ĠT his
ĠA n
en ce
Ġg et
Ġ V
t y
Ġal so
ac h
Ġy ear
Ġk n
for m
Ġ20 1
Ġne w
d uc
Ġg r
t ing
Ġthe m
Ġd es
Ġ ag
Ġhe r
at ing
Ġ ;
Ġbe en
Ġthe re
res s
Ġ ar
Ġwhe n
Ġo ver
Ġw hat
Ġ if
Ġbe c
Ġs c
Ġwe re
Ġn o
Ġh ad
Ġ am
Ġp art
a us
Ġre c
Ġ -
Ġ ro
h o
Ġw ould
Ġp e
Ġ app
t ed
Ġo p
ic k
Ġj ust
ve l
Ġp re
le c
Ġ 5
m er
t han
ar k
en s
Ġ than
g r
Ġit s
c ess
Ġne ed
Ġ 4
o ve
Ġ af
ĠH e
Ġ te
ĠS t
il d
i an
w n
Ġh ow
ion s
l ow
Ġwor k
on d
op le
ul t
Ġd r
Ġin to
Ġb r
t hing
o y
Ġb l
ir st
aus e
on t
ad e
is h
u al
n ing
at er
a id
l ud
or d
a ir
l o
Ġm ay
an g
Ġpe ople
ver s
Ġs tr
Ġpro v
Ġ tw
f e
Ġc ol
o in
Ġs up
i ous
t hr
Ġs he
ter n
Ġhe l
i ed
Ġkn ow
Ġ thr
ĠA l
Ġcom m
f ul
he d
Ġin d
l es
at es
u g
Ġon ly
Ġmo st
in k
Ġinc lud
Ġm ake
p le
Ġf irst
Ġ1 9
r it
ĠY ou
ren t
on s
an c
âĢ Ŀ
Ġhel p
Ġs erv
Ġad d
Ġs ec
Ġus e
Ġc o
Ġe very
r y
ĠC h
Ġ very
Ġw ell
Ġthr ough
Ġe m
Ġse e
ĠI f
ie w
Ġcon s
n e
or s
Ġb ack
Ġac c
Ġun der
Ġre l
d ay
ol d
Ġd own
ĠA s
Ġthe se
Ġb u
ic es
t ain
Ġ ve
Ġbec ause
is e
Ġs y
h y
if ic
e w
Ġd if
it ies
ur n
Ġd ec
Ġtw o
if e
en c
Ġst ud
h n
Ġre g
Ġg ood
Ġc ould
Ġpro duc
Ġw ant
ĠâĢ Ŀ
o ol
b s
Ġac t
he n
tion s
Ġman y
Ġas s
Ġp ers
il y
is s
Ġs aid
Ġex per
Ġw ay
ib le
Ġin v
ĠU n
Ġ 6
el f
f ore
ro w
Ġwhe re
Ġ) .
Ġaf ter
Ġyear s
Ġex p
Ġev en
ure s
ĠR e
Ġg reat
Ġs m
Ġg u
Ġthe n
c r
Ġl oc
m s
ment s
t en
h ough
in ess
he r
x t
Ġp os
Ġre m
ic s
Ġn ow
ation al
Ġ ke
as ed
ol og
ĠâĢ ĵ
l ine
Ġsh ould
ing s
Ġre ad
a king
Ġf ind
ul ar
il ity
Ġo wn
Ġin s
al t
al s
Ġc ar
Ġsp ec
Ġs uch
ĠAn d
ub l
Ġb us
ot h
t hough
Ġ ent
at h
a u
t le
Ġ thing
at ive
ur ing
Ġh im
Ġf un
Ġpl ay
Ġs ub
Ġ &
st r
Ġh igh
Ġb est
st em
Ġm uch
i ence
an y
Ġim p
h ip
vel op
Ġ 7
l ed
Ġs et
o v
Ġd id
a z
ĠC om
Ġ ap
an ge
Ġf in
ro p
ĠF or
id ent
r i
Ġd on
Ġin form
Ġh ome
a ut
tor y
b le
Ġsh ow
c t
Ġc r
Ġre p
Ġto o
en er
em ent
Ġdes ign
Ġd ay
Ġpers on
ho se
ar ch
Ġs to
Ġp res
Ġc oun
Ġf l
t ake
it s
Ġdif fe
Ġl ong
Ġ aw
Ġ 8
p t
Ġre qu
om et
Ġbe ing
Ġc he
it ed
Ġag ain
i ent
Ġdis c
Ġm ade
Ġhe re
o b
t ec
tr y
o se
Ġtr ans
Ġwor ld
Ġ take
Ġst art
Ġs ur
ow er
Ġm in
to m
Ġus ed
u ally
Ġe ff
c k
Ġf am
Ġ1 0
Ġbe fore
g an
Ġs im
e ver
Ġat t
Ġdo es
t hose
Ġ those
Ġ end
j ect
e en
ul l
ĠB ut
Ġsy stem
Ġ art
t al
ch ool
Ġ 9
Ġl ife
Ġ) ,
Ġin ter
Ġde velop
Ġr ight
ĠT r
Ġp ol
Ġ av
Ġbus iness
a x
Ġc all
ĠP ro
Ġ 0
ĠThe re
Ġd et
Ġinform ation
he s
ĠE n
i o
Ġl it
re st
h ink
Ġf ree
iv es
w ard
ark et
ou se
Ġf ol
Ġ $
Ġh and
am p
Ġ i
Ġ20 0
ĠA r
e k
Ġre ally
al ity
Ġv is
Ġ ed
u es
Ġm ed
Ġm et
ou p
Ġc re
iz e
Ġin te
Ġm em
Ġres p
Ġn um
Ġprov id
Ġch ar
t hink
i x
ĠS p
or k
Ġ think
a ther
Ġl ook
Ġ %
ter s
ag es
Ġs er
ro l
in ce
Ġe ach
at ch
Ġcomp le
Ġin st
gr am
Ġl oo
Ġwh ile
ak es
Ġl ove
Ġc ur
Ġ though
al e
iv ing
t on
Ġp ost
i et
n er
in es
t urn
ro s
l and
i vers
o ther
Ġar ound
Ġdiffe rent
ĠThe y
ĠN ew
Ġp ubl
as on
ĠO n
Ġe as
Ġad v
Ġc are
ol ut
Ġbe tw
Ġs omet
Ġbetw een
Ġl ast
n ess
Ġs ign
Ġpro f
ic t
Ġc le
ĠF r
Ġc our
iz ed
Ġf ac
Ġle ad
Ġch ild
Ġde f
y s
Ġs ame
Ġb o
i er
Ġs k
i or
v iew
Ġ ]
oc k
Ġ [
alt h
at a
Ġ. âĢĿ
Ġfol low
Ġpl an
Ġfor m
Ġb oth
Ġst ill
Ġ tec
v en
pl ic
Ġfe el
v ed
t ter
et s
or y
Ġcomm un
l ing
Ġto p
ar s
Ġgo ing
ĠS o
Ġf ound
at ure
as h
ar n
w ays
re ad
le ase
ec ts
en e
m an
oun t
d s
Ġ 00
Ġl ar
Ġg ener
oin t
Ġp ur
Ġl ot
Ġpro cess
Ġm arket
Ġmo d
lo ad
r a
Ġs ay
Ġpl ace
Ġon line
Ġre al
f t
av ing
Ġ ter
Ġc or
ion al
ic ally
Ġo b
Ġfe w
ĠH ow
Ġtec hn
ar m
h ree
Ġus ing
Ġpro gram
Ġw om
Ġs ite
Ġc us
Ġd ire
Ġh app
y ing
Ġd ating
c c
Ġv ar
Ġin t
Ġin f
ail able
p os
ĠC l
Ġd el
c es
Ġl l
ont h
ty p
l ess
Ġs it
Ġ ide
Ġr un
Ġbe l
Ġsup port
Ġw rit
i red
i el
is ts
ĠS h
Ġl ist
Ġinclud ing
ĠA d
m in
s elf
i qu
Ġthing s
Ġf il
i end
Ġv al
olog y
Ġre f
Ġim port
Ġfr iend
Ġm us
Ġc ent
Ġinte rest
Ġlit tle
Ġwith out
ĠL e
Ġs w
an ts
Ġwe ek
Ġs ing
Ġp ar
Ġex c
Ġp at
e red
ĠS he
Ġte am
us s
Ġpos s
g er
r ic
um p
i ver
Ġm ain
Ġsm all
mer ic
od y
or n
ĠW hen
Ġpart ic
ho to
t hree
Ġre ce
Ġb ook
b r
p or
Ġd uring
Ġs l
Ġ typ
Ġ three
ar ly
ros s
v es
Ġex am
Ġsh ort
a h
ĠD e
Ġcon c
Ġke ep
Ġserv ice
Ġm onth
ĠA p
el s
em ber
cr ip
an k
Ġal ways
Ġs chool
Ġc ap
Ġav ailable
Ġop en
is hed
it al
ĠA f
in s
ur al
st and
ĠB e
Ġcom e
ĠE x
Ġcon f
ĠA meric
ial ly
Ġp h
Ġs oc
Ġfam ily
b ers
ver n
Ġis s
ent ion
am es
Ġm ust
Ġcl ass
Ġd ata
ĠT o
f ect
Ġsomet hing
tor s
Ġexper ience
Ġgr oup
er ing
ĠAl l
Ġnum ber
Ġo ld
Ġst and
Ġbu ild
g y
uc k
Ġbe tter
Ġcomp any
Ġh ard
Ġor gan
Ġp ut
Ġall ow
Ġper form
Ġpro ble
Ġb ig
are d
Ġw ater
Ġp ass
Ġ1 2
ĠG r
Ġp ay
ĠA t
Ġcont in
Ġne ver
Ġan other
Ġ tal
Ġf ile
Ġg ot
ort h
ut e
Ġqu est
Ġhe ad
ate ly
ĠB r
Ġ1 8
g et
p h
Ġs ince
Ġs ure
er tain
Ġsec ond
Ġw on
c tion
ĠP r
u ff
ĠS e
Ġm ight
ĠI s
ĠIn d
igh ts
ĠP l
Ġv iew
Ġp ower
is m
Ġwe bs
ard s
ĠC hr
ĠW ith
ĠW hat
Ġ *
Ġf ull
Ġle vel
Ġen g
Ġro om
c ed
us tr
Ġserv ices
Ġne xt
ĠC on
Ġex pl
Ġprov ide
Ġg ive
h or
Ġwith in
Ġman ag
Ġinc re
Ġc ost
a j
Ġsp e
Ġimport ant
Ġ Q
Ġb re
er t
Ġex t
a im
Ġcon tr
ren ce
i k
Ġb ro
Ġpro per
Ġ1 5
Ġ. "
ain ing
Ġde p
Ġloo king
c on
pl oy
Ġare a
ĠM y
ĠT hat
Ġapp ro
Ġe l
one y
ĠW h
Ġl aw
Ġe lec
Ġp op
Ġl ess
ect ive
Ġo per
Ġp hoto
iv ed
Ġab le
iv id
ĠB l
Ġme et
Ġpubl ic
Ġg ame
Ġs uc
m it
Ġor der
Ġpres ent
re en
is ion
u it
Ġre se
Ġle g
Ġe qu
ĠâĢ ĺ
ab ly
r ap
t est
Ġh um
ug g
Ġ est
o ot
en se
Ġd ays
ĠS c
out h
t il
b e
Ġd oc
Ġcont rol
Ġbel ie
Ġcur rent
Ġse em
str uc
Ġ3 0
Ġg l
Ġm ar
Ġac cess
j oy
om m
Ġin tern
Ġb as
Ġhe alth
Ġp o
Ġspec ial
ent ly
Ġ, âĢĿ
m e
un d
Ġg row
op e
if ied
ĠO ur
os s
ĠC ol
iv en
enc y
Ġ00 0
ĠT h
Ġm en
ivers ity
Ġagain st
i ents
are n
Ġ1 1
d ition
and s
Ġadd ition
Ġprof ess
in al
is ed
Ġap plic
Ġpre v
Ġwom en
af f
Ġm at
Ġpr act
Ġlar ge
Ġl ight
Ġunder stand
Ġd em
Ġh ouse
as es
ro om
Ġ turn
i um
Ġwor king
Ġdown load
Ġpr om
iel d
Ġto day
ĠO r
crip tion
Ġvis it
p ly
ĠN o
at or
ĠJ o
Ġv ide
e x
Ġaw ay
Ġst ate
Ġm aking
ect ed
Ġw r
Ġchild ren
Ġ Z
ir l
ĠN ot
Ġre port
iss ion
iz ation
ain s
er y
w ork
ge ther
Ġc ase
ap er
Ġst at
ir on
Ġloc al
ir t
l l
Ġwebs ite
ĠU S
Ġh our
es p
ill ion
g in
Ġqu ality
Ġle t
ur y
m ed
ab ility
Ġf ood
Ġde v
Ġh aving
Ġstud ents
Ġan n
Ġact iv
im e
Ġen joy
Ġbe h
Ġ aut
t ell
Ġch ang
Ġ air
Ġcomple te
Ġw in
en g
Ġwh y
Ġk ind
t reat
Ġcour se
ul ts
ic le
ĠThe se
vern ment
Ġ201 8
Ġn ame
Ġcol lec
h od
Ġe t
Ġch ange
ĠG od
iet y
Ġm oney
id er
Ġh ot
is tr
or ts
Ġcon n
Ġal ong
Ġp oint
re t
Ġimp ro
Ġl o
ar ing
Ġb ased
Ġinv est
Ġp ain
Ġcus tom
Ġ test
Ġle arn
ec tion
he re
ĠChr ist
od e
er n
Ġas k
Ġbe aut
Ġf our
Ġpr in
Ġdet ail
oc i
is ing
Ġsuc cess
ill s
it c
au gh
Ġof ten
ip p
re am
Ġtr ad
Ġoff er
ĠO ne
ent ial
olut ion
ĠD r
in a
Ġc reat
at s
ĠM an
ce pt
ater ial
Ġrec ord
or m
Ġtim es
Ġ1 00
Ġan al
Ġun til
Ġre view
iqu e
Ġto gether
Ġeas y
as ter
Ġproduc ts
ĠEn g
Ġ treat
end ing
Ġperson al
Ġs af
Ġn et
w ay
ure d
Ġl ine
ĠâĢ Ķ
Ġev ent
Ġinclud e
ivid ual
Ġre d
c o
uc t
Ġrese arch
ĠC an
id s
Ġ au
Ġneed s
Ġproduc t
Ġre st
Ġsing le
Ġo cc
Ġem ploy
Ġs ide
Ġe ver
Ġf ar
ir d
Ġb ody
a ud
ĠM ar
Ġsh are
Ġmo v
ur s
oc us
Ġse ver
le y
Ġ |
Ġmus ic
Ġ tell
ĠR es
c ent
p r
Ġposs ible
ac y
Ġw al
Ġb oo
Ġle ft
Ġse lec
Ġbec ome
Ġd one
aj or
end ed
g ed
Ġmo ve
ut es
Ġc ertain
Ġcommun ity
Ġchar ac
Ġind ividual
Ġcall ed
Ġm akes
Ġwor ks
Ġpro ject
Ġb it
Ġb ene
Ġen ough
f ort
ip s
it ive
Ġper fect
ĠM ay
Ġme ans
at ures
Ġs tory
b o
un e
Ġdid n
Ġse x
s ide
Ġm aterial
Ġn ight
ĠAf ter
Ġsever al
Ġcoun try
e e
Ġl ive
Ġed uc
Ġsoc ial
ĠC oun
ĠA m
read y
Ġ Â
hy s
Ġp ot
ne y
Ġor ig
Ġs tor
Ġget ting
Ġme an
Ġn on
i ther
ĠC ent
Ġdevelop ment
v iron
con om
Ġmem bers
Ġl im
Ġp ast
Ġs ol
Ġ #
t t
p s
Ġre n
Ġs al
Ġcon dition
Ġl ow
a it
Ġother s
Ġm il
t ic
in ation
i enc
if ul
Ġf ore
Ġ1 4
Ġle ast
t em
Ġbu y
in ed
Ġ2 5
f er
Ġp age
ot e
s w
Ġs ays
Ġal ready
Ġar r
Ġm ult
Ġ1 6
Ġche ck
Ġ ess
ap s
Ġm ind
cr ib
ac es
c om
Ġcre ate
an e
Ġact ually
Ġyou n
Ġf ocus
Ġfriend s
an n
Ġst y
Ġpartic ular
Ġdo ing
ar l
l ish
ord ing
Ġspec ific
Ġm ajor
ar r
ĠH is
Ġj ob
ĠHow ever
ap e
Ġfollow ing
al f
ce p
im es
i ans
port un
Ġbene f
Ġc ity
Ġmet hod
u ly
Ġst ep
s p
s el
Ġthough t
ain ed
id d
Ġtr y
Ġqu ick
ĠUn iversity
os p
b y
Ġg irl
o ice
ot s
at ic
er m
Ġf av
Ġ1 3
Ġac ross
Ġ tem
Ġoff ic
Ġf act
Ġpr iv
Ġc ame
Ġb ed
u ce
Ġc e
ate g
ĠD o
if t
Ġco ver
Ġ, "
Ġ ident
er gy
ut ure
Ġ vers
ĠC o
Ġ19 9
ĠAmeric an
ave l
art ment
Ġcom es
ur ity
Ġcle an
Ġre ason
u ary
anc es
Ġon ce
Ġexam ple
i ec
Ġop portun
ĠT han
Ġrel ations
ur ther
Ġe le
ul ation
Ġvide o
Ġproble m
ĠW or
ĠCom m
viron ment
Ġm om
Ġhum an
Ġbl og
ough t
Ġgo vernment
Ġstud y
Ġp ict
Ġn ec
Ġd i
m ost
Ġwe b
Ġinv ol
Ġke y
Ġd ist
Ġrequ ire
Ġpr ice
Ġkn own
Ġe y
id es
st er
Ġte ac
Ġdoes n
o f
Ġc amp
E R
us try
Ġh ig
ĠCom p
Ġde al
e ad
en n
Ġ5 0
is ter
y c
ak en
ar ning
Ġen c
es ts
Ġh old
Ġaut hor
ĠY our
Ġcomp ut
o k
ow s
Ġcom b
Ġ1 7
fe rence
tr a
Ġm on
ĠIn tern
ĠM ore
ĠN e
Ġstart ed
um ent
Ġcomp an
Ġs um
Ġre turn
Ġcont act
Ġse arch
ĠR o
Ġtoo k
Ġdes cription
ir c
our ce
Ġstr ong
t aking
Ġy et
Ġw ent
Ġsome one
Ġ201 7
Ġst ay
Ġw ind
ie f
Ġevery thing
Ġc ou
Ġe arly
on es
res ent
Ġf uture
Ġdisc uss
j ects
Ġc ult
p ar
Ġsh op
Ġbeaut iful
if y
le t
Ġcl ose
on y
Ġpro b
Ġv ol
Ġbr ing
i od
d ing
Ġ z
Ġe conom
Ġg iven
Ġpur ch
Ġs ound
Ġhapp en
Ġelec tr
b ook
Ġpos ition
ut ion
Ġre le
y n
a i
Ġadd ress
ur ance
Ġne ar
er al
Ġcomp et
b al
ĠJo hn
Ġf re
Ġmonth s
Ġto ol
Ġser ies
Ġl ater
Ġ X
Ġse ason
Ġres ults
ack s
Ġsp ace
il ities
Ġhour s
ĠF e
Ġresp ons
Ġfe atures
h in
Ġab ove
Ġsto p
Ġr is
Ġbe low
Ġhis tory
Ġpol ic
Ġc ut
Ġapp ear
Ġit em
Ġc al
Ġr ange
Ġoff ers
Ġm ag
Ġbe gin
Ġn at
u ed
Ġre t
ious ly
Ġyoun g
Ġen s
Ġam ong
n ers
ĠR ep
st it
Ġp hys
Ġ. ,
t ax
Ġind ustry
ur ch
ent al
Ġcont ent
ac tion
Ġwho le
Ġdire ct
Ġbl ack
ill ed
er r
Ġrec omm
id ence
ĠC he
ĠS erv
u rop
our ces
ĠP h
g es
Ġm illion
ĠUn ited
ep t
Ġem ail
Ġpol it
t able
Ġcomm on
t ar
Ġ2 4
Ġbelie ve
le ge
Ġse en
ward s
ĠM ed
ĠS te
Ġrelations hip
Ġp ress
Ġso f
Ġm or
us h
ĠD ec
Ġl iving
Ġdis tr
led ge
il t
l er
m p
Ġan sw
Ġval ue
Ġch all
Ġd ue
Ġwhe ther
um e
Ġhe art
Ġp lease
ec ially
Ġf ace
ĠS ome
Ġh ope
u le
Ġb ad
ĠAs s
t re
Ġw all
Ġen vironment
ful ly
Ġper iod
Ġcl aim
ĠM e
Ġcompan ies
iv al
ĠN ow
Ġdif f
Ġm ess
u f
Ġv i
Ġtyp e
Ġ tax
ĠP D
ĠB y
in o
Ġbuild ing
Ġ esp
Ġj oin
Ġprofess ional
Ġvar ious
Ġme as
Ġany thing
Ġ taking
Ġb ar
Ġiss ues
ĠM in
Ġwrit ing
Ġacc ount
og n
ĠC ar
ro duc
ib ility
oo se
Ġdire c
Ġl at
a un
Ġinst all
Ġquest ion
Ġprovid es
Ġc red
Ġh y
Ġf lo
ĠD es
Ġc ell
Ġp ack
Ġe ither
ib r
Ġs ugg
ĠF l
re et
Ġfr ont
tw are
o ver
urop e
Ġcons ider
her s
ĠJ ust
Ġs elf
p ing
Ġtechn ology
Ġeng ine
ĠS up
Ġmanag ement
for d
Ġf it
as ing
Ġs ize
m ing
g le
sel ves
Ġan t
ĠT e
Ġp oin
Ġide a
Ġmin utes
Ġs ent
Ġins p
anc ial
Ġqu ite
it or
Ġwon der
Ġf ive
Ġs n
ĠS ec
t hin
d f
Ġp iec
ĠA b
Ġh tt
id ay
u ation
Ġ +
Ġst e
Ġmed ia
Ġcl os
Ġpre t
Ġf urther
Ġw atch
ap h
Ġmo der
t aken
ens ive
ĠC ont
Ġnew s
Ġal most
Ġs ell
Ġ age
Ġsim ple
Ġwh ite
re w
it es
Ġquest ions
il ar
in t
r al
.. .
Ġtr aining
Ġag o
Ġ: /
om es
Ġ201 6
Ġto ld
Ġc ard
Ġc rit
ou d
Ġimpro ve
g ing
Ġen ergy
Ġab s
Ġf all
ver t
ĠWh ile
Ġperform ance
Ġ thin
Ġproper ty
Ġesp ecially
ang u
Ġ:/ /
Ġsign ific
Ġ =
ab or
m b
id ed
Ġ aud
Ġent ire
Ġcharac ter
is on
pl ay
Ġl and
Ġc irc
n ot
Ġp aren
ĠS y
Ġl og
Ġpro t
us e
Ġp aper
Ġc op
itc hen
Ġexper ienc
ĠG o
Ġb at
a ur
c hed
end s
Ġh alf
il le
Ġevery one
is hing
ĠE urope
Ġper cent
ast ic
Ġmod el
Ġbre ak
Ġp df
Ġdef in
ĠPD F
Ġex ist
ĠP lease
Ġfil m
ĠM r
Ġtr avel
Ġoff ice
Ġrequ ired
Ġs at
Ġsit es
Ġfun ction
Ġare as
Ġd ou
Ġboo ks
g est
Ġ tre
Ġtr ying
er c
Ġ taken
ĠHe re
l us
Ġinclud es
uf act
Ġres ult
ĠO ff
Ġh ost
b all
ĠT w
Ġd ig
Ġnec ess
I N
Ġg ames
i ate
Ġprovid ed
Ġread ing
ĠS outh
Ġprob ably
c ome
Ġsim ply
ĠG u
r ing
Ġun ique
Ġass oci
ĠC ity
Ġproble ms
Ġtal k
v ing
Ġl ov
on ic
Ġup d
Ġneed ed
ific ation
Ġg lo
um b
Ġhow ever
Ġ2 1
Ġm iss
Ġpop ular
Ġ- -
at ors
ĠC al
h ie
t it
Ġrep resent
Ġd am
Ġcomm it
is es
Ġdesign ed
i am
re c
c hes
ic ult
h ird
Ġcol or
ip le
t hird
ol l
a ver
ĠP res
Ġcustom ers
ĠS chool
Ġwant ed
Ġsystem s
Ġr ather
Ġf ail
Ġw ide
Ġde b
Ġel se
Ġ. .
ĠD ep
ĠD on
Ġass ist
ĠSt ate
t as
Ġcle ar
Ġsup er
Ġf low
Ġide as
Ġfav or
Ġet c
ĠRe ad
Ġam ount
Ġtrad ition
ĠB o
Ġpartic ip
Ġd ate
ĠA c
Ġ table
Ġeff ective
ĠC r
Ġw ait
Ġ third
ĠWor ld
Ġpret ty
Ġn ice
Ġnat ural
Ġinf l
g ress
Ġpre p
i res
Ġup on
Ġte xt
ĠJ an
t akes
or ies
ac ed
Ġh ol
Ġ ill
Ġg en
Ġsignific ant
Ġreg ard
Ġsh all
Ġ201 5
ĠN ational
Ġso on
g o
Ġst aff
Ġknow ledge
Ġdr aw
s y
Ġcommun ic
ir m
ĠN orth
ro wn
Ġr ad
Ġsof tware
ĠP er
Ġf oot
Ġmat ter
Ġiss ue
struc tion
it ing
Ġtr ue
Ġ takes
Ġre pl
to p
le x
to mer
Ġin it
O N
Ġstr uct
Ġgener al
Ġf ield
s h
ĠR ec
Ġpart y
is c
Ġam az
el t
Ġnot hing
u ge
Ġev ents
Ġ tas
Ġl ink
ĠSt ates
ĠJ une
p ose
ys is
ĠP e
Ġw ays
re me
Ġ4 0
Ġcomput er
res h
w w
Ġdes crib
Ġh on
Ġwor ds
2 0
Ġac hie
Ġlike ly
Ġsty le
Ġ x
iz ing
p ed
Ġeduc ation
Ġcom fort
ĠP ol
ĠS un
ag ed
Ġp ick
Ġorig inal
am a
Ġus ually
ĠFr om
Ġapplic ation
ĠQ u
Ġat tr
Ġm ach
Ġf ast
pl es
Ġwal k
tim e
Ġsugg est
f ace
Ġsec urity
Ġim age
Ġcom ing
Ġph one
Ġest ab
Ġac tion
ubl ic
Ġyour self
v ent
ĠY ork
Ġrece ived
ĠA cc
te red
Ġsim ilar
Ġcre ated
Ġro ad
Ġf ul
Ġshow s
Ġins urance
ul es
Ġst ar
Ġmoder n
Ġl ay
Ġadd ed
Ġacc ording
ple ment
E S
Ġtreat ment
A T
Ġout side
Ġc aus
Ġart icle
Ġw ww
Ġins ide
Ġseem s
Ġs ong
Ġis n
Ġloc ated
Ġfin ancial
w e
it ch
ag ing
e ks
Ġr ate
Ġo il
in ing
Ġf ire
Ġexp ect
Ġcan not
ove red
d o
Ġs le
air s
Ġris k
Ġexp ress
Ġan im
Ġrequ est
et y
Ġchang es
art h
ad a
Ġl angu
Ġb ot
Ġ. )
Ġs ens
Ġrec ogn
Ġd om
d e
Ġto wn
Ġman ufact
Ġj our
ad es
Ġk itchen
ĠK e
Ġro le
Ġfor ward
ab les
Ġ ut
r ied
a ul
Ġmem ber
af t
Ġk ids
Ġbeh ind
A N
te e
Ġhe ld
Ġhapp y
ĠP art
ic tion
Ġany one
Ġve h
A R
o id
Ġdetail s
Ġch oose
w here
un g
Ġpriv ate
ĠRe g
Ġ201 4
Ġ tar
Ġhig her
Ġde ath
ĠW ill
Ġr a
Ġb i
og rap
Ġdo g
Ġincre ase
Ġgr ound
ĠSt ud
st ant
h ib
Ġthrough out
ĠG e
Ġp le
ĠE d
pos ed
Ġw ood
er a
Ġind ic
Ġn orm
Ġf ig
Ġcol l
a the
s on
Ġsub ject
Ġad min
ĠIn c
Ġw ar
Ġcontin ue
Ġle arning
Ġ tit
Ġsaf e
ĠI m
Ġpract ice
Ġfe ature
b ack
Ġfam il
Ġcou ple
ĠA g
ĠE l
Ġto tal
Ġm ass
ĠA ustr
ĠH igh
Ġo bs
ĠS m
Ġ2 2
m ber
ĠS ept
Ġread y
ĠA ug
iz es
Ġdiff icult
Ġask ed
ud e
Ġop tions
b or
ail y
Ġau tom
Ġrec ent
Ġopportun ity
olog ical
Ġmo b
Ġs uff
ĠO f
u x
Ġne g
Ġ19 8
Ġfin al
et er
Ġ ur
Ġus er
Ġl ives
Ġex tra
ist ic
O R
Ġrun ning
Ġrel ated
av en
Ġwe eks
ec ut
Ġpr im
Ġvers ion
idd le
Ġbo x
c er
Ġpoin ts
ĠE very
Ġdr ive
Ġeff ect
Ġlong er
ĠThe n
Ġbr and
Ġin j
Ġe p
Ġs ix
ĠF in
Ġpolic y
Ġex act
Ġaf f
ĠB u
Ġpot ential
Ġsto re
ip ment
Ġmed ical
ĠP re
Ġde g
Ġconc ern
Ġens ure
Ġwom an
Ġbu ilt
i ation
Ġexc ell
Ġann oun
Ġcurrent ly
Ġwr ite
Ġflo or
ove mber
he ad
Ġm atch
Ġactiv ities
Ġn ational
at ory
Ġp an
ĠAp r
es e
Ġintern ational
le br
Ġl oss
ic ient
Ġter ms
o red
Ġcontr ib
olut ions
Ġs il
Ġ! !
Ġle ave
Ġwrit ten
ir it
Ġwor d
ĠM c
ĠU s
Ġreg ular
Ġhe ar
h am
Ġf urn
ers on
in ary
Ġcus tomer
Ġrece ive
ĠN ovember
Ġcred it
Ġb ath
ĠH er
Ġsk in
Ġnet work
Ġv ia
Ġde ep
Ġh air
ce ed
h ood
Ġc am
Ġrec ently
Ġc ause
Ġ201 3
Ġmain tain
c to
Ġre duc
ĠC or
Ġsk ills
gr ound
m y
Ġs aw
Ġin n
ac hed
Ġcor re
Ġrecomm end
Ġamaz ing
u k
Ġs ense
ĠO p
Ġus ers
Ġmom ent
ĠA ct
Ġim m
Ġaddition al
Ġproduc tion
Ġh it
av es
Ġem b
Ġ >
Ġp or
ĠEng lish
Ġloc ation
Ġinclud ed
Ġitem s
in ks
tr ies
Ġb al
Ġpat ients
Ġloo ks
ĠB ar
re g
ĠW ell
cto ber
istr ation
ad em
Ġpr ior
ĠAr t
Ġgrow t
Ġgrowt h
Ġmy self
Ġstand ard
ĠAmeric a
id ge
Ġsal es
o ke
Ġd rop
ĠW est
Ġ aver
Ġinte gr
ud d
c ial
Ġappro ach
Ġwe ight
lec t
ĠJ uly
ĠS at
e es
ĠH ouse
Ġthem selves
Ġco ol
Ġeas ily
Ġ2 3
Ġgr ad
Ġs un
Ġs qu
Ġpar ts
Ġmor ning
Ġcom pl
Ġlat est
Ġits elf
Ġcondition s
Ġb ab
ep end
Ġl ate
ĠB rit
oo gle
ĠPres ident
ĠM arch
Ġm ot
Ġmarket ing
Ġc as
w or
Ġmo ther
ĠP ar
Ġoffic ial
Ġspe ed
ĠAustr al
Ġag re
ic les
Ġch oice
Ġ... .
Ġvar iety
end er
Ġanal ysis
Ġb oy
Ġ201 2
Ġquick ly
Ġstud ent
Ġphoto gr
ic ro
n a
Ġlead ers
ĠM ost
Ġcollec tion
Ġop tion
ĠS w
Ġset ting
ĠO ctober
Ġwork ed
Ġm ix
anc ed
Ġhand s
irt h
y ear
Ġs ource
o on
ĠP ark
Ġar ch
Ġon es
A S
Ġse par
ĠAl so
ĠS oc
Ġfor mer
Ġpro jects
Ġl ower
Ġpl ans
Ġl ost
Ġmeet ing
Ġ ten
it ure
Ġc at
am ed
Ġre v
Ġas p
Ġsc reen
ĠSept ember
Ġf a
Ġimp act
u el
Ġlead ing
k y
Ġab ility
Ġsw e
n es
Ġbo ard
ĠCoun ty
Ġw orth
Ġter r
Ġrem ember
Ġhtt p
Ġpl at
en ing
Ġpolit ical
Ġfe ed
Ġto ur
ib ly
ĠAf ric
Ġap pl
ear ch
Ġprogram s
ĠApr il
Ġint roduc
Ġapp ly
d r
ĠF irst
ak er
5 0
Ġbl ood
ther n
Ġnecess ary
Ġdo or
ag ement
Ġvi ol
Ġce lebr
Ġcl ients
ot t
Ġm ention
Ġim med
Ġinst ead
Ġs ale
Ġlevel s
Ġdis play
p ut
Ġb ase
he l
Ġh uge
Ġsec tion
Ġinvest ig
Ġdis e
ĠE m
Ġh or
Ġsc r
Ġp red
ĠH ar
Ġc ases
Ġgu ide
Ġ @
y r
Ġl if
c l
Ġsum mer
Ġb all
ĠS tr
ĠD av
t ies
ĠThan ks
Ġc ode
Ġr ound
ĠU K
Ġrem ov
Ġglo bal
ut h
Ġplay ing
Ġtyp es
Ġparen ts
Ġcoun tries
Ġdev ice
Ġinterest ing
ĠR uss
Ġprovid ing
Ġdec ision
im um
Ġleg al
ĠCent er
p ro
im ate
Ġc ross
h aps
ite ly
Ġgo es
er ous
o x
un ch
Ġhigh ly
p e
er ve
alt hy
Ġbec ame
Ġc and
Ġallow s
Ġtr ack
Ġinvol ved
Ġlangu age
Ġc ook
Ġor d
Ġgroup s
Ġdec ided
Ġdr ug
mer cial
Ġatt em
n y
Ġs am
Ġl ab
ĠF ree
Ġwr ong
ĠC our
Ġexcell ent
Ġcom ment
r up
if f
n al
ec h
Ġs olution
b ased
ren g
Ġd est
ir ing
Ġget s
c il
Ġcomplete ly
Ġcons um
oo king
ĠG et
Ġatt ention
i able
I S
ĠAug ust
Ġg ives
a ign
ĠM us
ĠG ener
Ġchall eng
y l
Ġcare er
h ous
h us
ide red
Ġp ath
Ġv ic
Ġsur pr
Ġr ights
Ġs low
on se
d uce
Ġob tain
ĠW ar
E D
ĠE ven
Ġfun d
Ġch ance
Ġs ave
Ġcour t
Ġcon duc
ĠM any
c he
rop ri
Ġar g
ĠAn y
Ġequ ipment
Ġthin king
ĠL et
ess ion
Ġaver age
Ġfavor ite
Ġim ages
Ġe mer
Ġpurch ase
iv ity
ill ing
ĠW as
Ġext reme
ens ion
ent y
im ent
Ġplay ers
ap an
Ġs end
Ġmaterial s
Ġj ud
ond on
ĠHe alth
at ives
Ġcent er
Ġad j
Ġf air
av y
sy ch
ĠJan uary
Ġdet er
Ġapp e
Ġs uit
Ġbe gan
r on
an a
Ġ2 8
Ġb ur
Ġ2 6
Ġ19 7
Ġpubl ished
Ġl aun
am b
Ġd aily
Ġsomet imes
Ġphoto s
Ġf ix
Ġmob ile
um ents
Ġres ources
oun tain
Ġ â
ĠD ire
Ġst uff
Ġg iving
ĠT V
it ation
Ġw el
Ġpict ure
ive ly
ac king
Ġansw er
k er
Ġcomple x
Ġinterest ed
ĠA re
Ġf elt
ĠP at
ĠBl ack
Ġinfl u
Ġn ature
oun ts
m a
et h
Ġwas n
ĠB us
ĠB ec
row s
Ġent er
al es
Ġcost s
Ġdistr ib
Ġdoc ument
Ġpl ant
ĠV al
ed eral
as ons
Ġsaf ety
Ġmult iple
Ġqu al
Ġd ark
Ġf resh
ĠG reat
it ary
ag s
Ġhis tor
Ġsc hed
Ġtool s
ĠD ay
Ġs old
Ġter m
Ġd iv
os ed
Ġgo al
ĠD is
Ġpiec e
Ġexper t
Ġp ort
ĠIntern ational
Ġ6 0
in c
Ġv ac
Ġey es
Ġplat form
Ġim plement
ĠInd ia
ĠB ro
ĠC ons
Ġ201 1
Ġre lease
Ġ2 7
am s
Ġg ave
Ġdevelop ed
Ġenc our
w ise
ĠS im
Ġs us
Ġ" .
Ġdig ital
Ġcons idered
w ood
Ġb an
Ġaf fect
em ents
ig r
ec han
ou l
E N
d om
olut e
Ġrest aur
Ġphys ical
Ġl ic
v al
oc r
Ġst reng
Ġ ul
ĠDec ember
es c
Ġmov ie
Ġto uch
Ġob ject
Ġdirect ly
Ġf ine
id ing
l ight
Ġtr ip
ure r
Ġful ly
ĠS ince
Ġbenef its
Ġto wards
or ge
Ġ201 0
ard en
Ġpos itive
Ġf ight
ac ts
Ġb orn
A L
b and
ĠH ome
m ission
Ġapplic ations
ĠL ondon
ĠCh ina
Ġcl ick
Ġhim self
Ġf em
Ġd ream
is f
Ġbeh av
Ġ ver
ar ies
ag ue
Ġun d
r ound
ag n
Ġg reen
Ġtar get
Ġmed ic
Ġpost ed
m as
Ġeff ects
Ġre ve
Ġsay ing
t ur
ac ing
ĠR ed
Ġpre c
ac hes
Ġb and
Ġs olutions
ash ion
Ġintern et
es ter
Ġpre m
ĠM o
Ġlit er
k n
Ġlo ad
ĠA ir
Ġd ed
s c
Ġlim ited
Ġpl aces
ĠG oogle
Ġm id
v ille
Ġtradition al
Ġtr ust
Ġhe ard
Ġg old
ĠS an
1 0
ĠU p
Ġj o
Ġcamp aign
Ġresp onse
ĠDep artment
Ġhot el
ip e
Ġcons ist
ĠIn ter
Ġg as
i ant
ĠS er
Ġpict ures
ĠJ es
Ġorgan ization
y ond
se qu
ĠM ich
eng t
ib er
ar ter
Ġsup pl
Ġsy n
Ġstor ies
Ġpr ices
Ġactiv ity
Ġsto ck
Ġh ous
Ġprev ent
Ġnot e
I C
al y
Ġcol lege
Ġf ather
Ġd ress
Ġcult ure
l im
b ody
ĠD own
Ġindividual s
ren ces
I T
ĠP ost
if orn
ipp ed
Ġl ed
bo ard
Ġne igh
ĠJ apan
Ġst ates
Ġ" ,
Ġanal y
A C
Ã ©
iv il
ĠDes ign
Ġfre qu
Ġass ess
ĠAss oci
Ġpro gress
u ate
Ġcar ry
Ġal tern
Ġac qu
is ions
ren ch
l ike
al ing
Ġw ish
Ġmay be
Ġpur pose
Ġunderstand ing
t hous
Ġb irth
Ġh op
ub e
Ġdefin itely
Ġgirl s
Ġim ag
Ġsuccess ful
Ġsit uation
Ġreport ed
Ġtr ied
act ive
ec hn
ĠO ver
Ġs on
Ġprom ot
Ġc ert
Ġ thous
Ġwonder ful
Ġstor age
Ġrel ig
Ġbro ad
e ed
Ġprev ious
ĠL aw
ĠComm un
Ġn or
Ġplan ning
Ġw arm
ĠK ing
Ġaw are
ĠO b
Ġde ad
Ġbl ock
augh t
Ġfurn iture
ĠThan k
âĢ Ķ
Ġgl ass
Ġsc ience
Ġhelp s
Ġstart ing
ĠO ther
Ġey e
Ġsh own
Ġ aim
iforn ia
Ġplay ed
Ġexp ected
ul ations
h ol
et ic
O T
Ġsle ep
Ġinst it
ous ly
Ġachie ve
il es
Ġkn ew
Ġbr ought
the s
Ġexact ly
Ġstud ies
Ġ5 00
om ing
Ġrele ased
Ġassoci ated
or ing
Ġal though
ĠG l
ell ow
cep tion
Ġpat tern
Ġw ife
tec tion
Ġinn ov
ition s
v ant
Ġsp irit
ĠW hy
Ġestab l
Ġimp ress
en ge
Ġm ax
Ġcorre ct
Ġreg ion
Ġb ud
ul ated
anc y
Ġex erc
ĠOn ce
Ġmess age
Ġcl ub
ĠW ind
Ġsus p
ar an
Ġinter view
ve y
Ġind epend
ain t
augh ter
as c
Ġbegin ning
i ance
Ġgrow ing
Ġpart ners
ĠG ood
ĠFr iday
om en
w are
Ġ3 1
Ġprot ect
Ġturn ed
Ġw ed
Ġdem on
Ġcon vers
Ġrequire ments
i ers
Ġ19 6
ĠW he
Ġcertain ly
us ed
is try
Ġsub s
R E
ĠAn g
Ġst age
Ġocc ur
Ġspe ak
ĠF ace
Ġeconom ic
h old
Ġcom mercial
Ġapp ropri
Ġre ach
br uary
ĠH ol
Ġte le
Ġfin ally
Ġb ank
ĠServ ice
Ġdiffe rence
Ġp aid
ac hing
Ġs ort
Ġdel iver
b um
Ġmach ine
ĠT od
ĠT H
Ġ tur
ĠTr ans
id ents
Ġacc om
Ġfeel ing
Ġcreat ing
Ġstr ateg
Ġe arl
Ġc ab
enc es
Ġprin c
ber t
Ġf irm
Ġmov ing
Ġac cept
Ġ2 9
Ġnorm al
ac tions
Ġveh icle
Ġh osp
ic ks
ĠPro f
Ġm ark
Ġad vert
ibr ary
n ed
mit ted
Ġev idence
ar ily
ĠSat ur
Ġlov ed
Ġav oid
Ġdeter min
Ġtem per
Ġadv ant
ĠB est
es tern
Ġcon struction
Ġorgan iz
Ġcomp on
re l
O C
Ġg e
ĠS en
o es
s es
i very
Ġus es
ĠSe e
ail s
Ġpol ice
Ġen han
Ġabs olute
am ic
ĠAl though
Ġsp end
ipp ing
ic ed
ĠE ach
Ġeff ort
ell ing
Ġst ress
Ġown ers
Ġdec or
Ġp ool
ĠCal ifornia
ĠO ut
Ġsp ot
und red
Ġsp ent
ĠGr oup
... ]
Ġ3 2
Ġm is
c ast
ĠCol lege
engt h
ĠIntern et
Ġsup ply
z e
Ġsur face
ĠFe bruary
Ġmean ing
ĠN or
ĠJes us
ro te
Ġpress ure
Ġc ateg
m at
ĠJ e
Ġe at
Ġ[ ...]
Ġlook ed
w ide
ĠM et
ĠBus iness
b ur
Ġ err
Ġtr uly
Ġmeas ure
Ġun c
Ġro ck
Ġr an
Ġtr ade
Ġem ot
Ġfe et
Ġstr a
Ġbab y
Ġm echan
Ġpre fer
Ġbas ic
Ġw ants
ist ics
Ġbed room
t ick
Ġsat isf
ĠServ ices
ĠIn st
h a
i ately
Ġbe yond
ut ed
Ġp en
ĠT echn
Ġadv ice
ecut ive
Ġcor por
Ġact ive
Ġpro ced
Ġl ik
Ġm iddle
h ouse
Ġf ab
ĠM on
Ġch urch
he st
a ks
at t
h reat
Ġhe althy
Ġprofess ion
Ġapp rec
Ġschool s
t hreat
Ġsc ient
ĠE ast
Ġdem and
Ġstra ight
ar a
Ġplay er
Ġpres ident
ĠI r
Ġf ant
en ed
ĠPh il
Ġfamil ies
Ġlot s
ĠSatur day
o ff
ĠO h
Ġincre ased
ĠDire c
Ġparticular ly
Ġresp ect
c y
Ġche m
Ġal bum
Ġdeg ree
Ġdemon str
Ġp ages
Ġfr ame
Ġcl in
ĠInd ian
Ġun it
O S
ĠSun day
Ġno vel
Ġbas is
Ġcl ient
Ġf at
Ġem p
Ġdise ase
Ġsur round
stit ute
Ġv ot
Ġpl us
Ġchar ge
ke y
Ġtrans fer
Ġcap ital
Ġlar gest
Ġcon v
Ġne arly
Ġmethod s
Ġop in
Ġthe rap
o ly
Ġbl ue
ĠM od
Ġwho se
un k
Ġal one
Ġaw ard
id a
Ġh us
Ġhe at
Ġbenef it
Ġ tick
Ġincre asing
Ġr ates
Ġconn ect
g en
Ġag ree
Ġd en
form ation
Ġstruct ure
Ġess ential
ĠW ed
Ġsm art
oo ks
ĠChrist ian
Ġev al
am m
Ġs en
Ġr ules
b an
Ġfor t
p ress
Ġn ation
Ġr ace
Ġc ry
ĠSp ec
Ġp et
ĠD em
ol f
Ġreview s
ate gy
Ġresp ond
Ġs av
Ġser ious
ag ra
Ġess ay
Ġche ap
Ġuse ful
aren t
yc le
ĠEurope an
l ation
Ġcap t
Ġimmed iately
Ġoff ered
Ġh undred
erv ed
Ġp sych
z z
Ġf arm
ĠFace book
it ter
Ġsur v
por ary
Ġ threat
im in
Ġ Ð
ĠB el
ic king
Ġc ash
Ġtit le
Ġdou ble
Ġbath room
Ġbusiness es
Ġw rote
Ġgu ys
ĠI I
Ġ ir
Ġ200 9
h op
Ġfor ce
t ren
Ġopportun ities
Ġinvest ment
Ġmod els
am ent
Ġemploy ees
Ġdam age
Ġ <
Ġl ines
ative ly
ĠâĢĿ .
ĠR em
Ġchang ed
Ġatt ack
or der
Ġv ill
ĠBec ause
ĠCan ada
Ġoff ering
ri end
ra el
Ġcomfort able
Ġf ashion
l in
ĠDav id
ff ee
Ġtr ain
Ġweek end
Ġs em
ĠComp any
Ġpro p
ĠC le
Ġtal king
Ġcomp ared
do or
ĠCh urch
ĠWe b
to wn
ĠY es
ag er
al d
Ġtrans port
Ġop tim
Ġrespons ible
ĠH ot
ĠP aul
Ġthan k
al ed
ch ange
Ġexperienc ed
Ġch r
ĠL oc
Ġcont ain
a el
Â Ń
Ġcent ury
Ġacc ur
x im
Ġnum bers
ĠWh ite
iqu es
ĠAcc ording
Ġpe ace
u ing
ĠCour t
Ġteac hing
Ġded ic
ĠF ind
Ġpower ful
ĠBrit ish
ĠÂ £
i os
ad d
Ġover all
Ġgu y
Ġdev ices
Ġed ition
m m
i est
Ġdr y
Ġ tren
Ġmil es
Ġsing les
Ġthan ks
Ġgreat er
Ġd oll
Ġind ustr
Ġselec tion
ĠS ch
Ġdou b
Ġcal c
Ġorig in
Ġearl ier
Ġpat ient
Ġocc as
ĠTod ay
ĠM ond
Ġper haps
ĠSt reet
ĠN et
A M
Ġrep orts
ĠChrist mas
ĠE duc
Ġextreme ly
Ġmil itary
Ġ8 0
ĠM arket
ĠC ap
Ġjo bs
Ġcand id
Ġc hat
m on
Ġsoc iety
Ġ3 5
Ġf ear
Ġ200 8
Ġregard ing
Ġsh oot
ĠP al
ur t
ter y
hing ton
Ġcould n
Ġgr aph
Ġeas ier
Ġm aster
re hen
ar c
Ġp ow
Ġman ual
ĠD el
ĠA v
Ġser ve
Ġaf ford
Ġqu ot
Ġv oice
ic i
ip l
an ch
t ive
ĠTr ump
the n
Ġcan cer
Ġn ut
Ġgr and
b ed
Ġgener ally
u gh
Ġmo ved
Ġback ground
Ġcell s
Ġdel ivery
Ġnot ice
s et
ly ing
ic o
Ġpo or
i ar
y le
ec tions
ĠPe ople
Ġfil es
ul ate
Ġcharac ters
E O
Ġtr uth
Ġdet erm
Ġpart ner
Ġadj ust
Ġappropri ate
if ying
ĠIs rael
Ġh omes
Ġh un
ĠDe velop
Ġhus band
Ġ Ã
Ġallow ed
Ġs u
it ect
r am
Ġd at
Ġlaw s
ĠF rench
Ġpro duce
Ġsm o
Ġre asons
ĠS to
Ġestabl ished
ĠK n
Ġent ry
Ġg ar
in ner
as ts
Ġc it
ĠNew s
ĠL ord
Ġfa ith
as k
om b
Ġcontr act
Ġstat ement
Ġpop ulation
ĠM or
Ġin struc
g g
ĠSy stem
ol ic
ut ions
Ġdescrib ed
Ġso ft
ĠT ex
Ġide al
Ġred uce
er man
Ġbot tom
Ġwe ather
Ġstr ugg
b on
Ġview s
Ġprim ary
ĠAustral ia
Ġe arn
ĠâĢ ¢
Ġexist ing
Ġcon stant
Ġvide os
Ġrem ain
Ġelectr ic
Ġann ual
I G
Ġ3 6
ĠP hoto
ĠS ub
Ġent ertain
Ġ9 0
t ips
Ġchall enge
ĠRes earch
ĠD uring
ri age
olog ies
Ġfind ing
Ġcreat ive
Ġcon cept
Ġ esc
Ġbud get
Ġl ack
Ġsp orts
ĠC ong
Ġtr aff
Ġbe g
Ġm er
Ġb rows
ines e
Ġpro tection
Ġinc ome
Ġwed ding
Ġthere fore
Ġd ang
Ġh om
Ġfin ish
Ġgo als
for ce
ĠJ ew
Ġinc red
um n
ound s
Ġple as
Ġg one
Ġle tter
ĠOn line
i ated
Ġ tips
ĠWas hington
Ġannoun ced
Ġbro ther
Ġn amed
Ġdirec tor
ĠMond ay
O U
Ġold er
1 8
Ġstreng t
Ġfollow ed
ap ers
Ġstrengt h
m ore
Ġsp read
Ġown er
Ġhelp ed
Ġhelp ing
o res
Ġut il
Ġphotogr ap
Ġser ver
s s
Ġc ards
Ġcol d
Ġch ann
Ġsh ot
es ome
Ġwe ar
t end
Ġproduc ed
ĠCoun cil
Ġcommunic ation
Ġor g
Ġhappen ed
Ġrep air
w ord
for ts
Ġstr ategy
Ġconn ection
Ġ7 0
ĠD an
Ġact ual
Ġmove ment
Ġgu aran
Ġest ate
ĠS ur
a head
Ġac adem
Ġe ight
land s
Ġl ands
ĠS ing
ĠGener al
Ġh ar
Ġ4 5
in y
Ġmem ory
Ġsl ight
Ġcomp r
Ġg ift
re y
Ġstep s
ĠP C
Ġpresent ed
ĠG old
t a
Ġhig hest
Ġd ied
Ġcomple ted
Ġdr iving
Ġp ark
k en
ap ter
Ġcam era
Ġob v
ĠC han
ĠPro gram
Ġex hib
Ġcom ments
ĠP ort
Ġwind ow
Ġroom s
Ġcrit ical
1 2
Ġ. [
Ġsp r
ĠS am
Ġw ild
Ġon to
Ġare n
ĠPl ay
Ġ ahead
Ġv irt
Ġc ast
i xt
n d
Ġdec l
iver se
Ġsee ing
ĠG reen
qu e
Ġserv ed
ĠJ ames
Ġ ing
Ġpay ment
ĠRep ublic
Ġr ap
Ġass ign
Ġm ill
Ġl ength
Ġc ivil
Ġrel ax
ĠA P
Ġopen ing
Ġst ation
ĠL ike
ĠWill iam
Ġfig ure
Ġl inks
Ġs ust
Ġi P
Ġd aughter
our s
pl ace
Ġg arden
ĠL ove
ang ing
ĠM ac
Ġw at
Ġke pt
or row
ac ity
Ġlar ger
Ġp ull
enc ies
Ġdes p
Ġexp and
Ġh aven
res p
Ġcon ven
Ġtr ial
Ġtr ou
Ġswe et
Ġcent ral
Ġdis app
Ġr ich
Ġele ments
Ġatt end
Ġe arth
ĠBo ard
Ġ ton
ĠCh ar
Ġdire ction
Ġh arm
Ġthous ands
S T
Ġexperienc es
o very
Ġb illion
b it
Ġb ul
ĠPro duc
Ġse ven
E T
Ġbr ain
Ġcoll abor
Ġcab in
I D
Ġres ist
ĠL ear
Ġpr ay
Ġe f
f riend
ĠM em
Ġfin ished
Ġsol id
Ġcoun ter
Ġrelationship s
Ġl ad
ĠH all
is tered
Ġad op
u ated
Ġteam s
O M
o le
f ield
Ġfac tors
Ġhe avy
ven ue
Ġau to
ograp h
E C
ĠUn der
hip s
Ġc overed
Ġco ffee
ĠJ er
ĠL a
ĠFl or
Ġcont ains
ĠT op
t hus
ĠR om
Ġn ames
Ġfriend ly
ï ¿
Ġpiec es
ĠR el
Ġdisc over
Ġmo tor
ï¿ ½
g n
Ġstat us
ro id
ĠW al
Ġfor ms
Ġwhat ever
od es
Ġd iet
ĠAd d
Ġre ality
IN G
Ġcont em
at ically
rehen s
Ġrequ ires
ĠM ake
Ġval ues
f it
Ġtechn ical
se mb
Ġlearn ed
ĠAssoci ation
Ġfor get
Ġant i
Ġex tr
B C
Ġprinc ip
ĠMan agement
Ġst ream
Ġselec ted
Ġef forts
ĠTw o
âĢ Ļ
ag o
Ġgu ess
Ġfore ign
Ġs outh
Ġcons ult
Ġdeterm ine
stand ing
Ġf ans
Ġadvant age
Ġsc en
ĠU se
re m
Ġknow s
i j
Ġjour ney
Ġ tend
Ġstand ards
ĠOff ice
Ġexc lus
ĠTh urs
Ġill ustr
o ices
ĠR ich
Ġ thus
Ġwould n
f r
Ġ200 7
it ude
Ġro ll
Ġst reet
Ġsec ure
Ġpart ies
ĠTex as
Ġf ederal
Ġsh ared
iel ds
3 0
Ġr out
Ġlead er
ĠC ur
ĠCl ass
ĠDown load
ic a
am ing
Ġsex ual
Ġshop ping
ĠWind ows
v est
Ġre str
Ġtechn iques
ĠAn n
te xt
il ing
Ġmet al
Ġl uck
Ġref er
Ġr are
t u
Ġpass ed
to ms
- -
Ġm ission
Ġtraff ic
Ġsy mp
Ġfl at
Ġop pos
Ġgo vern
Ġsc ene
a e
Ġgu id
L L
ĠCh inese
Ġinc or
P S
Ġeff icient
ig er
ĠA N
ic ing
Ġpass ion
ĠB ook
n el
er g
Ġp ul
Ġselec t
ent r
ĠPl an
un ately
Ġdevelop ing
t ree
ant ic
Ġmon itor
com ing
om a
ĠL ife
Ġpl aced
Ġvol un
Ġman age
Ġhon est
ĠT ues
rol l
ĠW ho
Ġmention ed
ĠI T
Ġrecord s
Ġsh aring
ĠChe ck
Ġwait ing
Ġcomp ar
Ġrep e
Ġqu arter
r ies
Ġorganiz ations
omm od
ac ement
os ure
Ġsec ret
Ġf an
Ġb ag
v ision
ĠS k
anc ing
ĠM ary
Ġfam ous
Ġinf o
wor ks
Ġsp l
ĠEduc ation
iz z
Ġeconom y
Ġbe ach
Ġm ist
h i
ĠE v
c el
Ġsh ape
c are
it ar
ter m
um s
ĠP ublic
Ġs ch
ĠB ig
Ġlim it
ĠL ast
le g
Ġro b
Ġf lex
l ic
Ġto r
am in
az ine
ĠThurs day
Ġs and
Ġwebs ites
ĠI ts
Ġadv anced
Ġpro te
Ġbec omes
Ġul tim
ĠAp p
y m
Ġeven ing
ĠM ag
Ġcar s
Ġb ill
N A
Ġcop y
Ġret ail
Ġbig gest
Ġhol iday
Ġadv ent
Ġcontin ued
ten ance
Ġmanufact urer
Ġch air
Ġw ine
Ġhand le
Ġout door
t ro
l ig
ĠMich ael
ĠEng land
Ġprin t
Ġf ish
i us
Ġabsolute ly
Ġoper ations
ĠAn other
p m
Ġac cep
ĠI S
Ġb ow
se y
ĠY ear
Ġdes k
Ġre ference
Ġn orth
Ġsc ore
Ġother wise
c ing
Ġest im
Ġlo an
Ġlist ed
Ġdoc tor
Ġshow ed
a ult
Ġmag n
ĠF ound
Ġwork ers
ing er
Ġproper ties
ĠWed nes
ĠWhe ther
ut y
Ġcon ference
Ġme ant
m en
ĠS al
ak ers
Ġrele vant
Ġindepend ent
ĠM al
ĠAm az
ĠAfric a
ul ting
Ġto ward
ĠTues day
r or
Ġre b
Ġcomp os
ĠA u
Ġpain ting
Ġg un
ent ially
Ġchalleng es
Ġperform ed
Ġdedic ated
ĠF ore
ĠV i
ens es
Ġclass ic
erv ation
Ġm ap
Ġcall s
Ġexpl ore
Ġdesign s
Ġb ought
ĠT er
as y
Ġprep ared
Ġbeaut y
Ġyou t
Ġneigh bor
Ġr ou
Ġto t
Ġwas te
Ġfl u
d own
Ġf ill
Ġset s
ad ing
f l
c ol
Ġep is
el ess
Ġkeep ing
g al
Ġm ountain
Ġbehav ior
ed om
app ed
Ġart icles
Ġ \
Ġs ources
ent ed
Ġdist ance
ad s
Ġoper ating
Ġart ist
Ġg ain
ĠCl ub
Ġexerc ise
t ail
c ks
est ival
Ġrem ind
Ġrem ove
Ġcit iz
Ġarch itect
Ġ tree
Ġhelp ful
oy al
Ġad ult
g ency
Ġappl ied
ĠCh ild
Ġpl enty
Ġcaus ed
Ġd yn
Ġtas k
ĠW in
Ġaud ience
ĠC am
Ġ19 4
Ġfem ale
in ct
Ġshow ing
Ġconc entr
Ġfac ilities
Ġbal ance
ĠR et
Ġteac her
Ġnum erous
xim ately
ĠAr ch
ĠAd v
ĠH ave
Ġ ign
Ġmus c
Ġacc ommod
ĠUS A
Ġsepar ate
Ġc up
ĠSoc ial
ĠD istr
Ġopin ion
Ġhapp ens
in king
Ġwel come
Ġadv ance
ĠS T
Ġdi agn
Ġdep end
ĠV is
Ġph il
ag on
ul ty
Ġdis p
Ġupd ate
Ġg all
Ġc ore
Ġqu ant
Ġ3 00
) .
ĠAng el
ĠI N
ĠM icro
ĠWednes day
Ġclass es
Ġconn ected
por ts
Ġj ump
Ġoper ation
Ġpur s
uc le
Ġse qu
is hes
Ġw ire
Ġl ose
ĠR iver
ul a
ĠL it
ĠC are
Ġ aid
Ġbu ying
Ġpo ly
Ġcommun ities
Ġcle arly
Ġexper ts
ici ency
p et
ĠGo vernment
ve re
Ġdr iver
Ġtest ing
f ast
Ġsp ring
ĠT hr
Ġshe l
ĠA C
Ġref lec
Ġbec oming
ĠH el
Ġthe ory
Ġwatch ing
is ation
Ġr ain
ĠFlor ida
Ġappear s
ĠS um
Ġclaim s
Ġrad io
Ġun less
Ġmar ried
ĠB ay
Ġthough ts
oc ks
ĠF am
it ors
Ġste el
pos es
Ġinit ial
Ġmajor ity
ic ial
A P
Ġr om
Ġpost s
Ġgr ant
ĠM ark
Ġopen ed
ĠThe ir
st on
ic ted
Ġc atch
ĠComm ission
Ġrem ains
Ġvol ume
ap t
ed s
ident ial
ak ed
ĠProf ess
Ġtr ail
Ġcol ors
est ic
Ġman ner
m iss
Ġmost ly
Ġprof ile
Ġin str
ph one
Ġpres ence
tern al
ograp hy
ic ious
Ġcap acity
Ġvis ual
il s
Ġex cept
Ġanim als
Ġro of
Ġwin ter
ĠE lec
ĠDirec tor
Ġtemper ature
Ġbr ight
et te
Ġvis ion
Ġrestaur ant
Ġmanag er
ou thern
Ġsen ior
Ġun s
Ġprofession als
Ġcomb ination
Ġsh ip
Ġpers p
Ġaltern ative
Ġar m
Ġhosp ital
Ġchang ing
Ġplan ts
ĠEng ine
ĠB ank
ĠC D
om in
ĠA ut
Ġcompet ition
ĠH um
c tions
Ġpract ices
ĠM art
1 1
ĠS l
ĠT ur
Ġmar riage
ĠâĢĿ ,
ĠAb out
ĠC us
Ġcover age
Ġadd ing
y er
ur ation
Ġprocess ing
Ġsound s
Ġ u
ĠRo ad
Ġagre ement
it ness
Ġ ic
Ġhtt ps
Ġarr ang
I P
m ar
Ġwill ing
os op
r as
ĠSup er
ĠIn stitute
Ġap art
Ġwal king
Ġd er
Ġsong s
ĠG erman
Ġ er
Ġse a
Ġs ession
ree k
r d
Ġend ed
Ġjour nal
ĠP et
ĠF ol
ĠV ol
Ġdec ide
az y
Ġcomm and
Ġle aving
Ġprev iously
Ġsmall er
Ġpr oud
Ĥ ¬
Ġcoun t
h one
Ġlove ly
ĠM iss
Ġl ux
Ġex ception
Ġfl av
us ion
ĠT ake
Ġaw esome
Ġr id
Ġprocess es
ĠTh om
A D
Ġp al
Ġdetail ed
Ġform at
c ell
un ning
os ing
ĠCom mit
1 9
Ġele ment
Ġtop ic
Ġk ill
Ġp air
Ġenjoy ed
Ġac tions
Ġdiscuss ion
ĠG erm
Ġv ote
Ġident ify
Ġrun s
Ġbut ton
Ġst ick
Ġteac hers
ĠS omet
er o
h row
Ġm ir
ab ilities
ĠBl ue
Ġmin ute
il ed
Ġseem ed
t hrow
Ġmov ies
are s
Ġdat ab
ĠIn s
Ġcor ner
Ġexc ited
Ġattem p
Ġcon text
Ġmult i
Ġspec ies
Ġcomp rehens
ĠD OC
Ġ ice
ĠGe orge
ĠP ower
Ġ200 6
un ction
Ġcontin ues
ĠT y
os is
Ġsell ing
Ġwh om
Ġm icro
ip es
Ð ¾
b ing
Ġd ump
ger y
Ġmed ium
ad o
Ġâ Ĥ¬
Ġpolic ies
Ġread ers
ĠM il
tr uct
Ġappro ximately
Ġtot ally
Ġinter p
Ġcirc um
Ġag ency
Ġclean ing
Ġattem pt
Ġfant astic
Ġr ule
Ġ!! !
Ġgr ade
ug ar
Ġc row
p tion
ĠS il
âĢ ĵ
ĠL ou
ĠR ob
Ġb reat
Ġval id
ĠH i
Ġclos ed
Ġw id
Ġk id
Ġdep artment
ĠL ake
ĠW here
Ġm ail
Ġdoc uments
ell ig
Ġmanag ed
ver se
Ġsam ple
Ġin tr
Ġl a
Ġo d
Ġun its
ĠM ex
fe rences
re p
Ġsmo oth
Ġlaun ch
Ġs oul
ĠAp ple
ĠSt ar
Ġenvironment al
ĠRe al
ord in
Ġgu ests
Ġra ised
ĠB en
Ġthem e
Ġart ists
oo per
Ġsec tor
ot a
Ġposs ibly
Ġgener ation
Ġint ellig
on a
Ġf ell
ĠAn t
Ġleaders hip
ĠN at
ed y
Ġfun ds
ant a
ĠA lex
ic ians
ĠB oth
ot ic
Ġlands c
Ġbr ief
Ġinflu ence
ĠW omen
Ġconf ig
um in
Ġexc iting
Ġv ir
Ġsee king
Ġy es
Ġc ities
ĠA M
Ġm ort
Ġtrans form
Ġstar ts
ĠW ord
ĠT om
ĠSc ience
Ġto w
Ġcult ural
Ġ3 3
ist an
Ġresp ective
Ġe ating
Ġbr ings
crip t
Ġengine ering
Ġexp ensive
ĠG lo
Ġqu iet
Ġl abor
ĠCl ick
Ġdesp ite
ĠDe f
E M
ĠDevelop ment
Ġfoot ball
ĠR ock
ĠW ork
u ous
m ark
Ġfocus ed
ĠB re
ic an
Ġup load
Ġmain tenance
Ġsched ule
Ġfac tor
ne w
go ing
Ġm ur
Ġm ental
Ġf illed
ic y
Ġf uel
Ġvic tim
ĠB ack
Ġm ale
ro y
ir ation
Ġ? âĢĿ
ĠC all
g ment
ĠSpec ial
Ġb ound
s hip
oo s
ĠM at
Ġestab lish
o thes
Ġse at
ĠD ating
ar i
ĠV iew
ĠB ill
ĠDem ocr
Ġd inner
bo x
Ġpack age
ĠV ir
Ġd ining
O L
ant ly
ĠOp en
Ġmarket s
Ġcompon ents
Ġ tu
ĠBe fore
Ġnot es
Ġr ide
Ġcas ino
uc tion
ĠW ater
Ġ20 00
Ġtas te
Ġvisit ors
c ont
Ġ throw
Ġtrad ing
g ers
ac tor
Ġmax imum
t ight
ĠChr is
ĠC amp
Ġis land
Ġlist en
Ġ3 4
ĠH y
Ġwor ry
Ġasp ects
h ick
Ġpl astic
ĠL at
c ient
Ġneg ative
re te
Ġr ub
ip t
Ġex change
Ġmin im
Ġcon struc
t hick
Ġcons id
Ġren t
ĠM ain
ap es
Ġput ting
Ġcorpor ate
Ġpract ical
Ġsust ain
Ġp un
Ġm outh
ĠCent ral
Ġk ing
Ġ9 9
us es
or ry
Ġsc ale
Ġdis s
Ġan g
ĠCommun ity
ĠCong ress
Ġchem ical
so ft
Ġsp ending
Ġsw im
amp ions
Ġpro pos
ĠV e
if ts
Ġres idents
ĠIs land
st ances
Ġslight ly
ĠB ur
Ġleg is
ur ies
ĠPro v
Ġv an
Ġacadem ic
Ġup gr
Ġp ump
Ġrespons ibility
Ġ thick
Ġsn ow
b our
t ag
Ġintern al
Ġext ensive
Ġpro s
Ġocc up
Ġwrit er
ĠW ood
Ġfun ctions
Ġexam ples
Ġbe at
ĠRe view
ĠM aster
I ON
m ail
i en
Ġbrows er
Ġacc ident
Ġn one
Ġed ge
Ġassist ance
Ġpro ceed
Ġdec isions
Ġcour ses
Ġfor g
ĠIn formation
ienc es
Ġdoub t
Ġsee k
ĠCont in
g a
Ġaccom pl
Ġun iversity
Ġ uk
od ies
Ġle aves
ĠS ol
Ġvolun te
Ġfe e
Ġdec re
ĠOn ly
Ġ] .
kn own
Ġbus y
Ġpur poses
Ġsw itch
Ġm ic
ĠFr anc
fort unately
Ġevent ually
tor ney
Ġh ab
ĠH ill
h ab
Ġinj ury
Ġadmin istration
ĠCommit tee
ĠP erson
ĠB et
Ġexpl ain
ĠD et
ĠT ime
d y
Ġspecific ally
ĠP M
ĠSte p
Ġbat tle
Ġtyp ically
and om
T M
Ġre ached
ĠO k
u ations
Ġrecomm ended
Ġ3 9
ĠP ay
Ġmin imum
ress ion
Ġfav our
ĠSec urity
Ġcommit ted
Ġas king
Ġ7 5
Ġsp ort
ĠAfric an
ĠTH E
I V
Ð µ
Ġd ie
u able
ĠQ ue
w ell
it z
st ate
Ġwin ning
ĠB er
Ġdes ire
ren e
Ġcr is
Ġansw ers
Ġcollec t
ĠP R
Ġdr ink
idd en
Ġter min
Ġb urn
Ġincor por
Ġl ibrary
Ġpain t
ĠO ld
ĠN Y
Ġres olution
ĠH D
Ġenhan ce
i ability
t ical
Ġp orn
Ġsit ting
Ġindustr ial
Ġsto res
Ġerr or
Ġallow ing
ĠT hose
Ġimport ance
Ġyout h
o e
ĠI P
ĠCh ic
op s
Ġstrateg ies
Ġreturn ed
Ġlead s
t es
Ġsch ol
ester day
us hing
Ġm ine
Ġupd ated
Ġ200 5
ĠMay be
Ġdetermin ed
Ġsy mb
Ġk illed
Ġproper ly
Ġ4 8
re es
Ġinter ior
Ġfac ility
ĠEx per
E L
ĠK ore
ĠAmaz on
oun ting
Ġfor ces
Ġcl im
Ġfab ric
im inal
Ġfeel s
e f
ĠRuss ian
ĠB al
Ġco vers
all s
Ġr ise
on om
os en
ĠNot e
Ġint ended
Ġte en
t un
Ġmin or
Ġremov ed
ar ge
Ġcomb ined
Ġelectr onic
ĠGr and
ĠV ic
ĠGerm any
Ġap artment
Ġj ew
Ġrelig ious
Ġtre es
Ġsqu are
ĠCon n
l s
Ġ tight
Ġl ived
ĠS et
ĠW estern
Ġb ac
ĠF ull
Ġdisc overed
udd en
Ġloc ations
Ġreg istered
Ġlo ans
Ġb on
ĠFr ance
ĠT or
ap ed
Ġanim al
Ġpan el
Ġve get
ĠMus ic
Ġing red
ag ram
ĠF ort
Ġjoin ed
Ġprof it
Ġwind ows
Ġr ing
ĠM ad
Ġb ond
ĠMed ic
Ġcon sequ
ul ed
Ġpre gn
t ub
Ġmot iv
Ġfe es
Ġcl imate
Ġsc he
el ine
Ġtrans l
at uring
oin ted
Ġfre edom
ĠL o
Â ®
Ġr at
Ġour selves
ce an
i at
Ġform ed
Ġclin ical
ad ian
v in
Ġad ults
ĠOb ama
Ġh ook
w in
Ġintroduc ed
Ġprovid er
Ġ19 5
Ġsub mit
ĠSt and
Ġfamil iar
D A
Ġcent re
Ġcomprehens ive
Ġr ating
Ġmiss ing
Ġn urs
ĠDistr ict
Ġpor tion
al ian
Ġrap id
Ġadvert ising
Ġany where
Ġreal ize
ĠPr iv
Ġ3 7
Ġam b
and er
Ġ iron
ial is
Ġconcern s
ĠM en
Ġwe ap
Ġe gg
b l
Ġworks hop
arr ant
Ġinterest s
Ġcol le
Ġcol our
Ġcre am
ĠM el
Ġapp s
ĠSec ond
co hol
Ġphotogr aph
er ies
ĠJ ud
y a
Ġaud io
resp ond
ĠD iv
Ġoccas ion
ul ous
ĠJapan ese
ĠUn ion
ĠSc ott
ĠD ata
Ġloc k
Ġag ent
Ġmeas ures
Ġpro posed
w h
Ġveh icles
Ġphil osop
Ġsh ipping
ĠBe ach
Ġn ucle
ĠA S
ĠW il
Ġinstall ed
Ġv ent
Ġd ance
Ġfl ight
ĠU N
c ious
Ġhold ing
ĠE arth
Ġinstall ation
1 5
Ġdo ors
Ġl iqu
Ġsuit able
Ġhistor ical
ĠM ass
ĠMin ister
Ġsign ed
ĠI D
Ġtherap y
ĠEn ter
Ġinv es
Ġm al
e al
Ġst ret
Ġres ource
ol ate
l ist
ĠL ight
l or
Ġde pos
Ġsh ut
Ġcar ried
Ġhe aring
Ġst one
Ġhous ing
ĠAc adem
app ing
Ġd im
ess ions
e qu
Ġe c
Ġapp oint
ĠP eter
ĠN ov
t ests
Ġserv ing
Ġeduc ational
Ġsup posed
f ree
ph as
Ġgood s
Ġcateg ory
i as
f ol
Ġ id
Ġd ial
ĠD oc
ĠM ill
Ġsur vey
av a
Ġdistrib ution
Ġp in
Ġ3 8
Ġsign al
up s
Ġprom ote
Ġapp arent
l ife
ĠSh ow
Ð °
ive red
al og
Ġinit i
Ġcontem porary
uc ks
ĠCl in
Ġp ure
ic tions
Ġvi agra
low ing
Ġsign s
Ġofficial s
Ġcaus es
Ġappe ared
ad ed
Ġscient ific
Ġpl ays
ĠH ell
ir ty
ĠJ ack
Ġtechn ologies
ig ation
Ġl ap
as er
al k
Ġs ac
Ġdep ending
Ġm ut
ĠL ong
ob ile
Ġinst ance
ĠThr ough
ĠFr ank
Ġgreat est
lus ion
ĠPart y
Ġ tun
Ġco ast
Ġc ock
u its
Ġinsp ired
ĠF il
Ġsecond s
Ġpar king
ĠF ood
Ġl ights
ĠCar ol
ĠBu ild
Ġfail ure
ic ian
c king
im ents
v ention
ĠP an
Ġhundred s
Ġident ified
ĠChic ago
us hed
ĠF ire
Ġcon stit
Ġcitiz ens
Ġ tests
Ġsupport ed
Ġg ay
ĠTw itter
Ġsignificant ly
Ġv oc
Ġafford able
Ġdatab ase
Ġn av
Ġfix ed
Ġbelie f
Ġcall ing
ĠMed ical
Ġreduc ed
Ġstand ing
ĠB at
te rest
d ed
Ġfun ding
Ġfr uit
iven ess
ing ly
Ġelec tion
ug s
ĠS n
Ġrel iable
ĠR ad
ĠB as
Ġbro ken
ĠRo bert
an ish
Ġdog s
ath olic
Ġun ivers
ĠKe ep
az z
Ġ tag
Ġacc ounts
ĠS af
Ġdrug s
Ġg ather
Ġst ated
Ġenc oun
is co
Ġj oy
ĠFam ily
Ġtell s
Ġbel ong
Ġdef ined
Ġin put
Ġtr ave
Ġtop ics
Ġarr ived
Ġview ed
ĠAut hor
Ġexpress ion
Ġg od
Ġout put
S A
Ġdistr ict
ĠJ our
ĠE r
Ġpriv acy
pr ise
Ġmod e
ĠB rown
Ġte ach
Ġch ick
Ġdeb t
ĠElec tr
Ġde als
ĠM er
ĠMicro soft
os es
ĠF ig
Ġun f
Ġm el
Ġkind s
Ð ¸
Ġconf idence
Ġbat tery
Ġw a
ific ations
Ġal le
Ġ! )
Ġ4 2
Ġst ars
ĠPro ject
Ġcre ation
Ġs ugar
d en
Ġtre ated
g u
Ġapprec iate
Ġf aster
ĠSm ith
Ġhy p
ĠT im
ou ts
Ġgl ad
Ġimpro ved
v it
ber g
Ġsub stant
ĠIn t
Ġautom atically
tern oon
Ġsur gery
Ġcom plic
Ġo k
g l
1 4
Ġs ister
ĠAd dition
Ġf ields
Ġj u
ĠSoc iety
Ġnec k
Ġhe ro
ĠL ist
Ġtele vision
Ġrese arc
act ed
ĠAmeric ans
Ġdec ades
ĠW el
Ġra ise
Ġviol ence
Ġturn s
Ġannoun ce
ĠL u
Ġwe ak
Ġhy d
Ġ) :
em s
Ġdel ivered
ab led
an ia
il it
m osp
ol es
Ġo x
Ġreg ister
Ġs ad
Ġro t
Ġconvers ation
L E
Ġsymp toms
h read
Ġco ach
Ġcor respond
Ġpro sp
Ġchann el
ĠF re
h ow
ĠT em
ĠC as
Ġchar ges
ĠN OT
p an
Ġpersp ective
ĠFound ation
Ġspirit ual
Ġcl oud
Ġc aught
Ġappear ance
Ġ4 00
Ġf o
Ġemer gency
t hread
M S
w rit
st e
ĠCol or
Ġbreak fast
um es
Ġbring ing
ot hing
Ġgu est
Ġboy s
Ġconcern ed
Ġbo at
Ġfail ed
Ġp ush
Ġprep are
Ġhous es
Ġch oices
ĠT own
Ġcompet itive
Ġf le
ĠVal ley
Ġneighbor hood
Ġappro ved
Ġ200 4
oun ted
ĠAr ab
est yle
ĠF urther
r s
ĠT hough
Ġb en
ar ian
ro ve
igr ation
ĠAt l
ĠIs l
Ġl unch
Ġvill age
ens ions
Ġexpert ise
O W
Ġv ary
Ġworld wide
and a
Ġem phas
ar p
ĠSt art
Ġrestaur ants
Ġ) ;
Ġconc er
ĠM S
Ġs udden
Ġvisit ing
Ġp ed
ĠOr gan
Ġs ides
ĠVir gin
Ġiss ued
Ġc oin
Ġperfect ly
ill a
Ġr andom
ĠC A
Ġbuild ings
ĠP ress
Ġmag azine
Ġlay er
Ġrem ote
Ġdist inct
Ġmen u
Ġbe t
ib ilities
4 0
el ines
Ġequ al
Ġso le
ĠJ im
Ġtrou ble
n am
b re
u ro
Ġfil ms
Ġher self
1 7
Ġconsum er
C C
Ġdom in
Ġfore st
an o
Ġlab el
Ġac id
ĠRuss ia
Ġprote in
P A
Ġ? "
Ġas semb
ĠT imes
Ġdi am
ĠDo es
ump tion
Ġencour age
Ġsur f
Ġinnov ative
Ġterr or
p aper
Ġcr ime
Ġs in
Ġpay ing
Ġv en
Ġshare s
t ast
Ġobtain ed
Ġto ugh
Ġrecord ed
Ġ thread
le ts
ĠE U
ĠW rit
k et
Ġf ly
Ġv s
bur g
ĠL im
B S
ĠHum an
1 6
Ġown ed
Ġfeed back
Ġbro wn
ĠW atch
I A
h s
ĠL os
kn ow
Ġconsid ering
ĠG en
ĠGlo bal
Ġaf ternoon
ĠD ig
Ġsh oes
Ġen able
Ġar rest
ĠE qu
ur ally
ĠHot el
Ġd ivid
Ġbeg ins
Ġup per
Ġdep art
ĠTechn ology
ĠO per
ĠInst ead
Ġfor ced
Ġex cess
Ġprem ium
Ġknow ing
t ons
Ġdoll ars
er ation
ĠAd min
Ġprovid ers
Ġspe ech
t iss
ec tor
Ġimag ine
Ġspe aking
B A
Ġeffective ly
o or
Ġnot ed
Ġstop ped
or g
Ġcut ting
Ġj oint
Ġwor se
t an
r uit
Ġlight ing
ĠM use
Ġpurch ased
Ġap os
Ġadmin istr
yr ight
truct ure
Ġc y
m es
R A
Ġauthor ity
ĠJ ul
ĠH am
ut s
Ġlic ense
Ġren tal
ir ds
Ġme re
ĠW all
Ġset tle
Ġhouse hold
Ġch ain
Ġat h
Ġ5 5
ĠSec ret
Ġparticip ants
Ġemploy ee
Ġsymb ol
Ġ tast
Ġsetting s
Ġrel atively
Ġcoun ty
t aught
ĠC op
Ġch osen
ĠV ery
Ġepis ode
Ġat mosp
w ater
Ġw itness
ĠT est
Ġmat ters
t hor
ĠI ll
Ġob lig
Ġconven ient
rup t
e per
ock et
ĠUs ing
Ġ tiss
Ġel imin
Ġsupport ing
Ġp as
ĠAustral ian
Ġtr ib
Ġincred ible
Ġconf ir
ri er
ĠNe xt
Ġcon ver
Ġful f
ĠD isc
Ġmass ive
ĠC ard
Ġfour t
is her
Ġ tail
ain ts
Ġex ecutive
Ġper man
Ġr ail
Ġassess ment
Ġw est
then tic
ik es
Ġtw ice
Ġconsum ers
Ġcr af
Ġmanufact uring
Ġr iver
Ġproced ure
T S
Ġr ac
ĠD en
Ġrece iving
Ġfourt h
Ġtell ing
Ġch ief
n ight
Ġaccur ate
se e
Ġp apers
h ors
Ġval uable
Ġmot ion
Ġbig ger
Ġst re
L C
Ġte a
Ġaccep ted
I M
ig an
ĠTe am
ĠThere fore
Ġproced ures
Ġcommit ment
Ġlaun ched
Ġse vere
Ġgu itar
Ġaffect ed
ĠLou is
ens ity
Ġ }
Ġreason able
r ight
Ġk ick
Ġ200 3
Ġident ity
Ġan cient
Ġmedic ine
ĠS ite
Ġbirth day
ĠAs ia
Ġaff il
Ġend s
Ġwall s
Ġwe aring
ĠD id
or ter
ĠSomet imes
Ġdel ight
Ġ' ,
ĠS and
Ġal cohol
Ġy esterday
ĠC O
um ber
Ġed itor
Ġsurround ing
Ġemot ional
ĠD ou
m et
Ġstud io
ĠL ab
Ġb ike
Ġw arrant
Ġmess ages
Ġen em
Ġpr ison
Ġ taught
ĠThom as
Ġhigh light
re ens
ĠR E
ĠD i
l ines
Ġbr ands
erv es
ĠÂ »
Ġind ex
the less
Ġrec ipe
Ġtick ets
ĠK r
Ġpattern s
ind ing
ain e
ĠS earch
Ġentire ly
Ġr ough
ĠH aving
Ġex ternal
Ġhor se
z en
Ġshow er
ĠMe et
Ġpresent ation
Ġ tub
Ġcl othes
Ġrou te
Ġrep ut
Ġwhe el
ĠM iddle
it a
.. ..
ð Ł
Ġreve aled
Ġbl ess
Ġim pl
Ġconduc ted
ing u
Ġdang erous
Ġ {
Ġinstruc tions
Ġfrequ ently
Ġp hen
ĠCan adian
Ġn ine
Ġpl ate
Ġfort h
ĠJ ose
ul ating
Ġconstant ly
Ġadv is
m l
Ġph arm
Ġtr uck
ĠLe ad
Ġord ers
oc olate
Ġinvol ve
Ġ201 9
Ġf al
ĠH osp
p oint
g ets
Ġcircum stances
Ġfe aturing
Ġus ual
Ġrem aining
ĠE p
Ġre venue
Ġinvestig ation
Ġdef ense
ars h
ĠLe ague
Ġfun ny
ĠPl us
ren cy
u zz
ĠA ward
Ġgr ab
Ġupd ates
Ġmain ly
Ġrec overy
ĠA ud
Ġme al
Ġkeep s
Ġneg ot
Ġsearch ing
Ġeff iciency
oss ible
Ġinf ras
ĠRe v
cr aft
Ġcr iminal
Ġref lect
ind er
ĠS ign
Ġpolit ics
ĠLear n
Ġtyp ical
Ġentertain ment
enc ed
Ġfac ts
Ġund ers
Ġg ear
Ġvac ation
Ġv it
Ġfood s
Ġover l
ĠG irl
ĠMed ia
Ġ9 5
Ġemploy ment
Ġind eed
Ġto m
is ters
Ġaut hors
Ġph ase
Ġdom estic
Ġinstit utions
Ġnot iced
Ġdest roy
or able
Ġflow ers
Ġcook ies
Ġmonth ly
Ġoffic er
ĠCor por
Ġre tain
r ition
Ġdom ain
ĠM ont
ro ad
Ġimprove ment
Ġres ol
Ġde pt
Ġcare fully
Ġc ycle
aw n
l a
mer ce
Ġexclus ive
Ġagre ed
oun der
ĠCent re
Ġboo st
ĠHe ad
ĠSt at
Ġlux ury
Ġro w
ĠB i
ĠM P
ĠRep ort
Ġ4 4
ac he
Ġ" :
C A
Ġexpl ained
g reg
Ġcrit ic
op h
Ġdiffe rences
Ġparen t
Ġag encies
Ġorgan ic
U S
Ġext ended
Ġobv ious
I L
ord ers
Ġy e
Ġ15 0
Ġk it
ĠIt alian
ĠTh us
m al
ar row
ĠSp ring
Ġdesign er
Ġob jects
Ġme at
Ġpleas ure
Ġingred ients
ac le
Ġdr ivers
Ġrecogn ized
Ġposition s
Ġ thor
i ors
ĠT our
Ġh ur
Ġguaran tee
Ġtr ig
ic ip
ĠWe ek
ter ing
Ġintroduc tion
Ġs ick
Ġan x
Ġpick ed
in i
Ġg rown
igh ter
Ġd ates
Ġfollow s
we ight
Ġtechn ique
ĠSh op
k a
Ġmom ents
ĠF ederal
Ġl augh
ĠU l
Ġre new
Ġclos er
Ġp up
te en
et ry
Ġevery day
t d
Ġhold s
Ġregular ly
at re
Ġad s
Ġass ets
Ġdel icious
Ġpol l
2 5
1 3
Ġliter ature
Ġcap able
e ff
ĠBu y
ĠC EO
ĠMc C
ĠPol icy
Ġreg istration
Ġprincip les
Ġlov es
Ġcar bon
to re
Ġparticip ate
Ġun like
Ġch apter
ĠL ibrary
ĠChild ren
Ġdiscuss ed
Ġbreat h
Ġcre w
Ġc ooking
Ġplan ned
Ġsurpr ise
i king
ĠM ike
Ġnear by
ĠH im
Ġrepl ace
ĠD esp
Ġac know
og a
Ġconduc t
Ġh ang
az il
ex p
ĠLe g
ĠB ab
ad y
Ġreg ional
g age
Ġatt ached
Ġre in
ol a
k i
Ġperson ally
Ġar ms
Ġcomm ission
Ġvisit or
Ġjust ice
Ġc os
Ġsil ver
ĠAr ts
Ġpre par
Ġ: )
Ġ ille
h and
ĠFin ally
Ġdeg rees
ĠN E
Ġ19 3
8 0
Ġe ast
wor king
ĠH ope
ĠSer ies
ĠV ide
Ġyoun ger
Ġle ather
Ġsk ill
ĠF IG
ĠMuse um
Ġcontr ast
ĠT able
app y
Ġdr am
Ġprot ected
Ġr ank
Ġpro to
Ġst im
Ġde le
ĠAnd roid
ĠC at
Ġg ro
Ġf asc
Ġtrans ition
6 0
u ine
Ġconc rete
Ġsp ok
ĠG al
ord s
ĠB ob
t iny
ĠI d
Ġhe ight
Ġintegr ated
Ġhard ware
Ġcon d
Ġag es
ĠPol ice
ĠDe v
ĠA D
Ġag ents
ĠCon ference
Ġ4 9
Ġw et
t rop
ĠStud ents
p ass
Ġh ate
Ġp il
Ġre ar
ĠM ic
Ġemb od
ĠS ar
Ġcr azy
ĠMex ico
in ations
ĠE conom
Ġmix ed
Ġbe ar
Ġcr uc
ĠL ooking
y an
Ġdis h
Ġent ered
Ġfol ks
ĠSp anish
Ġ tiny
ĠI mp
Ġab use
Ġj ack
Ġent r
Ġrefer red
Ġnet works
Ġ ðŁ
Ġwall paper
Ġfeature d
Ġmill ions
Ġcandid ates
Ġmus ical
ĠC ert
ĠH un
gr y
Ġhappen ing
Ġ! âĢĿ
ĠM ax
ab et
Ġsit uations
Ġpers ons
ĠVic tor
ĠJo e
Ġsuggest ed
Ġdef end
Ġn ative
Ġcollec ted
Ġnew sp
Ġn arr
Ġsuccess fully
ĠC re
m ary
Ġh all
all ed
y e
pl ate
Ġve ter
ĠHis tory
Ġliqu id
Ġinfras tructure
Ġtur ning
ĠRo om
Ġs izes
ĠSp e
Ġconf l
w est
Ġmil k
Ġwrit ers
ĠMus lim
Ġc yc
ĠQ ual
oos ing
ĠV er
Ġsh r
ĠCont rol
Ġout standing
ĠDes cription
Ġd iverse
Ġrelig ion
g ent
Ġpar am
Ġshe et
ĠPar is
co ver
ĠAngel es
t ics
Ġmach ines
Ġadv oc
ar ks
Ġatt acks
Ġv ibr
Ġs ight
row se
ĠCh ief
res ents
Ġpl ug
Ġar ts
t ab
t les
Ġcol umn
rel ated
Ġrepl acement
Ġasp ect
Ġv ast
Ġet h
og ue
ĠDesp ite
ĠH and
ĠCh arl
if ies
en a
Ġlink ed
Ġacc ord
cep ts
ĠJour nal
Ġlif estyle
ĠEn ergy
Ġchar ged
lud ed
il st
ĠC S
Ġ4 3
ĠIr an
O D
Ġg rew
Ġser iously
Ġb read
ĠC ost
Ġ200 1
ĠJe ff
ĠMan ager
ĠIn vest
Ġstand s
Ġro ot
or ial
Ġf old
Ġsol ar
Ġschol ars
Ġy ellow
Ġcomp ens
Ġro l
wh ile
Ġinter face
Ġur ban
ĠY et
ans ion
Ġoper ate
Ġimp ossible
ĠF ac
Ġdescrib e
Ñ Ĥ
l ers
athe mat
Ġsub sequ
O P
Ġcompon ent
Ġele g
Ġpro of
ĠS qu
Ġnorm ally
c her
Ġthor ough
ĠY oun
Ġgar age
ĠAp plic
Ġam p
ĠL and
Ġrep resents
ĠC H
Ġsuppl ies
Ġple ased
Ġplan et
Ġ6 5
Ġgu ard
Ġb es
Ġau thentic
Ġav ail
t ack
t ables
Ġb odies
Ġattr ib
ĠH aw
Ġb order
Ġfound ation
Ġsup ports
Ġent hus
Ġconf irm
Ġinsp iration
Ġd ur
Ġ200 2
Ġc ooper
Ġobs erved
ĠH en
z y
ĠF our
Ġinstr ument
orge ous
Ġst unning
ĠJew ish
ĠiP hone
Ġoffic ers
al le
Ġlic ens
Ġscr ipt
ĠL ook
Ġlik ed
is ms
ĠB ible
ĠEx am
* *
ĠAs ian
on n
g ar
Ġtas ks
Ġresearc hers
ĠI de
ĠC up
ĠW ay
k ins
Ġless ons
ific ate
ĠP ass
Ġorigin ally
Ġreg ul
ly wood
com es
ĠWel come
ĠN ever
Ġf uck
ĠP ac
ĠWh ich
Ġbelie ved
ĠD V
Ġg olf
Ġpo ker
Ġfal se
Ġmiss ed
Ġun able
Ġre ward
Ġfac ilit
Ġf ellow
Ġcandid ate
Ġcris is
Ġun p
et t
Ġex ecut
Ġfight ing
Ġc able
Ġam er
Ġex ceed
ĠWe bs
Ġfac ing
Ġvirt ual
Ġlandsc ape
Ġb are
ĠL og
ĠIn n
b i
Ġbre ast
ut ch
ĠI C
Ġres ulting
Ġnucle ar
Ġh ire
Ġsty les
ony m
Ġdel ay
Ġaware ness
el lect
it is
Ġlik es
ĠT hree
Ġmus e
k in
Ġread er
Ġp ill
Ġsp ect
Ġele v
as ters
ĠC reat
ĠB oy
b u
i ations
ĠO F
ĠP enn
Ġc ute
ĠAcadem y
Ġreal ized
Ġwor st
Ġpres ents
Ġresist ance
Ġleg s
R L
Ġfair ly
Ġel ig
Ġan tic
Ġchalleng ing
ĠS P
Ġrout ine
w ing
Ġreport ing
Ġ4 7
Ġsuff icient
ĠUn fortunately
Ġre form
oc king
ĠNet work
t all
Ġdem ocr
Ġinves tors
ĠF air
Ġreg ulations
Ġ tab
r ay
Ġprec ise
ĠBe aut
Ġex ec
Ġ! "
Ġ tables
ĠRich ard
Ġposs ibility
Ġtest ed
Ġincre ases
Ġexpect ations
ĠS uch
og y
ĠC ode
ĠF un
Ġsim pl
Ġaccess ible
Ġtr ained
Ġarchitect ure
Ġf ro
ĠS C
w hat
ĠD C
ĠO l
ost on
ĠJ oin
s is
Ġcomp are
Ġfig ures
Ġrem ark
Ġp m
Ġimplement ation
t um
Ġadvent ure
Ġhe av
ĠLit tle
ĠA T
Ġret ire
Ġdisc l
Ġtr a
m aking
Ġphotograp hy
lec tion
Ġv ital
Ġte eth
Ġlist ening
ĠR oyal
Ġsurpr ised
Ġconsist ent
Ġorgan ized
ult ure
ac ious
Ġde fe
b les
Ġbe er
Ġserv es
Ġpay ments
Ġexp osure
ĠR ight
Ġhum ans
Ġres idential
Ġdeal ing
Ġrecogn ize
Ġexper iment
Ġspl it
ed ing
ĠC ross
ĠM a
Ġdisc ount
Ġtu tor
Ġgen uine
ĠF und
Ġconfl ict
Ġord ered
ut ional
Ġatmosp here
a ired
Ġappe al
Ġext ent
Ġh idden
Ġbas ket
Ġrecord ing
ĠM ur
ĠIn f
ĠVirgin ia
Ġsp aces
ut ing
Ġsp in
ĠN on
Ġimpress ive
Ġabs or
Ġsk y
and on
Ġlet ters
as tern
ĠMart in
Ġban ks
Ð ½
Ġbas ically
ĠC atholic
ĠSc ot
ĠS u
Ġpro ve
Ġair port
Ġ tall
ul f
Ġsm ile
Ġ5 2
Ġco ordin
Ġwide ly
ĠBr azil
Ġslow ly
Ġdirec ted
Ġtren ds
ĠSp irit
g as
Ġdyn amic
Ġcompar ison
Ġhealth care
ĠT re
Ġev il
Ġ' .
Ġsl ot
ĠM id
gr ad
ur b
Ġ iv
Ġin ner
Ġprim arily
Ġclass room
ĠM ountain
Ġgrad uate
in ity
ploy ment
x ic
Ġen force
Ġ4 6
m ond
st ers
ĠAc cess
ent le
Ġf ishing
ill iant
Ġstruct ures
c ur
ĠO ct
Ġdefin ition
Ġup coming
Ġqual ified
h ost
Ġfl ood
Ġris ks
Ġf iction
Ġre action
Ġfit ness
Ġinnov ation
ĠâĢĻ .
the tic
y ard
Ġreturn s
ĠJ un
Ġass um
ĠInter ior
ĠJ on
Ġmeet ings
p y
ixt ure
Ġany way
Ġd uty
Ġperform ing
ĠC P
Ġg al
Ġcl othing
ĠG ame
ort hy
Ġqu ote
Ġarg ument
Ġrel ative
Ġat torney
Ġmonitor ing
Ġs essions
Ġin tim
Ġattr active
ĠK en
Ġinterp ret
Ġjud ge
Ġmag ic
Ġl osing
Ġshoot ing
Ġlog o
Ġthe r
I R
ial s
Ġp hr
) ,
aw ay
ĠSo f
Ġclose ly
g or
ĠH ard
ograph ic
ĠL td
Ġsam ples
Ġcamp us
Ġhon or
ĠAv ailable
ĠG all
Ġprin ted
Ġtal ent
ĠA ff
p art
Ġn arrow
ĠCh air
h al
ĠE le
Ġtw enty
to od
ĠLe e
c ase
Ġl ib
Ġchick en
ĠO R
Ġcoun sel
Ġtick et
Ġv ul
ed ia
ĠContin ue
Ġfr ustr
et r
Ġfeel ings
end ar
Ġelectr ical
Ġbut ter
ac tors
Ġestim ated
Ġh urt
Ġauthor ities
Ġcommit tee
ir ms
ĠYoun g
h ire
ĠKe y
Ġg ifts
Ġintellig ence
ĠAN D
Ġgener ate
Ġc ake
gy pt
Ġcl ar
Ġrepl aced
ĠPer haps
Ġfr ag
Ġwin ner
t ank
ĠKn ow
I F
Ġachie ved
og en
ĠI ra
Ġappoint ment
er ia
os c
Ġrec ruit
Ġb le
Ġinform ed
Ġreg ions
et ime
Ġguaran te
ĠPost ed
Ġch ocolate
ĠIt aly
it age
Ġcrow d
Ġfor um
Ġfil ed
Ġdec k
Ġsome where
t one
Ġstat ements
Ġwalk ed
ĠB ed
ĠGe org
to l
a uc
Ġguid ance
re land
el er
Ġconf ident
F L
ĠCur rent
Ġaccess ories
Ġs alt
Ġflex ible
ĠT ry
ĠSup port
Ġcommunic ations
Ġdraw ing
Ġdest ination
ĠBe ing
ĠF estival
ĠAss ist
Ġstrateg ic
ĠP ak
ĠSte ve
Ġvis ited
ĠM ov
2 2
Ġdept h
Ġhop ing
Ġstret ch
Ġsup erv
Ġsome what
os h
Ġcelebr ate
Ġpass ing
Ġgall ery
Ġon going
ĠB oston
Ġm ac
Ġb low
p ers
Ġposs ess
Ġac ts
Ġoppos ite
ĠSt ill
ĠVi agra
Ġultim ate
Ġvers ions
Ġform al
st ream
Ġeng age
Ġno ise
Ġ0 3
Ġr ig
p on
Ġhistor ic
Ġrev olution
in em
Ġfunction al
Ġfind s
id ays
Ġdeb ate
ell ed
Ġ6 4
Ġben ch
Ġcreat es
ĠM att
a ug
Ġsav ed
ĠEx pl
Ġequ ipped
Ġimmed iate
RE E
Ġsugg ests
Ġfavour ite
Ġe ase
ĠI reland
Ġtax es
Ġ? ?
Ġexist ence
us ing
Ġtr ick
ĠP age
Ġconfir med
Ġg ender
p at
ĠCont act
Ġmusc le
ĠAr my
Ġsp oke
ĠS tor
ĠA R
Ġent it
itc oin
ĠY e
Ġstr ange
Ġtren d
Ġsuc ceed
Ġent rep
Ġpl ot
in er
ĠAg ain
ĠS outhern
ĠCo ast
re al
v y
lud es
ian o
Ġobv iously
Ñ Ģ
anc er
ĠK at
Ġprogram ming
Ġdec ade
Ġ. '
Ġstrugg le
ĠSe x
Ġfore ver
ly mp
Ġmanag ing
Ġhead s
Ġe arning
Ġsex y
Ġg orgeous
ĠB an
Ġentrep rene
Ġreduc tion
Ġpost ing
Ġshop s
Ġmo ves
Ġhost ing
Ġ. âĢĻ
Ġimpro ving
Ġch oosing
ĠT it
Ġmin ing
Ġcapt ure
u a
Ġcon cepts
Ġwire less
Ġsub mitted
ĠEn joy
Ġfound ed
iam ent
Ġev ol
ib l
Ġtransport ation
ĠL ive
az e
Ġsh ock
Ġsuff ering
st one
ĠIra q
ĠH oly
Ġantic ip
Ġdump ster
ĠH on
Ġpartners hip
Ġâ Ĩ
Ġz one
ĠFin ancial
ĠG ar
l ights
Ġfil ter
ĠSm all
Ġsc an
Ġtom orrow
Ġ tank
Ġconcer ning
Ġk m
Ġcont est
t ill
am ental
T C
Ġdis pl
ut er
Ġcontrol led
Ġprof iles
ĠEx ecutive
ĠCarol ina
ack ed
Ġfin ance
Ġluck y
el ly
ĠSp orts
vent ional
Ġcas ual
Ġinc ident
ult ural
Ġpul led
ĠS S
Ġmanufacturer s
ell a
Ġstre ets
Ġso il
ĠChar les
ie ve
Ġchr ist
Ġc oup
Ġcl ock
Ġprov en
ĠP hys
Ġcruc ial
Ġsuper ior
Ġearn ed
ĠPre m
Ġcommon ly
Ġwe alth
ĠF ather
Ġtr acks
en ger
Ġprom ise
ĠF ar
ing ers
L A
Ġint ellect
ĠEn d
Ġexpl an
Ġout l
t ip
ĠW ould
ĠSy r
Ġ6 00
Ġbot tle
ian a
Ġbon us
âĢ ľ
f low
Ġquot es
ic ts
ĠDig ital
Ġgr ass
ĠM ult
Ġscen ar
Ġh ole
Ġill ness
Ġad ap
Ġche ese
ĠP ri
Ġexpress ed
i ot
ap ing
Ġh at
t ube
ĠS ection
ĠHell o
Ġsh ift
Ġcons ists
Ġ% .
Ġw ave
Ġcert ified
Ġag ric
I I
Ġad m
Ġte x
Ġmin i
ĠE gypt
Ġpass word
Ġs orry
ign ed
Ġun w
Ġcharacter istics
ĠCol umb
Ġsched uled
amp s
Ġsub jects
Ñ ģ
is er
ĠL uc
ĠP op
Ġprogram me
Ġl ie
Ġsol ve
Ġinc hes
Ġch ose
Ġdream s
own ed
Ġincred ibly
Ġdrop ped
Ġam ounts
ĠS U
Ġmembers hip
2 4
Ġatt ended
a es
ĠProfess or
Ġreput ation
ĠHosp ital
Ġultim ately
Ġequ ival
Ġinv ited
Ġcollabor ation
Ġint ent
acks on
at o
in n
ĠO N
Ġtiss ue
y ers
Ġb ags
Ġcateg ories
ĠEngine ering
ĠC ast
il ly
Ġy ard
Ġint ro
Ġtal ks
ne ys
Ġbl ind
Ġcontrib ute
Ġs ending
ĠPerson al
Ġremov al
ay er
Ġdr inking
Ġbr illiant
ĠC e
ul s
Ġ tum
ĠH or
Ġliter ally
st ance
Ġ0 5
ĠWebs ite
Ġ ~
ag ues
Ġter rit
Ġapplic able
ĠM ach
Ġproduc ing
ift h
Ġhot els
Ġ ï¿½
z a
l ock
ĠP S
ĠJohn son
Ġeng agement
Ġvic tory
ĠO S
M A
ĠAu to
ad ow
ĠLoc al
Ġinv ention
ĠSen ate
Ġincreasing ly
Ġ5 4
ĠDan iel
Ġoccur red
Ġrel ief
Ġbr idge
Ġch art
Ġd ust
Ġ25 0
Ġmer ch
7 0
Ġattr act
t led
ot ton
Ġgener ated
st ery
Ġev olution
Ġrequest ed
Ġpor tr
U T
Ġ tack
Ġtw e
Ġswim ming
Ġl ies
int age
Ġsto red
O V
oo p
ĠOff ic
Ġhab it
Ġcr u
ĠPr act
Ġperman ent
Ġeng aged
ĠC ome
Ġ0 1
ang er
or a
ĠEn vironment
Ġappro val
Ġro se
pro fit
iec e
Ġne ither
as hed
Ġe ar
Ġperson ality
Ġprepar ation
ĠW ild
ĠMe an
Ġcaus ing
2 3
Ġac ting
Ġp ink
Ġdiv or
Ġassoci ation
Ġm ile
Ġw arning
Ġcont aining
ĠMr s
ĠO lymp
ĠCon tr
w hel
Ġdes ired
Ġadd s
Ġrespective ly
Ġmo lec
ĠV an
Ġweek ly
Ġ tro
Ġhyd ro
ic ate
eal and
ĠMarket ing
Ġsh arp
ĠG ames
Ġconn ections
ĠL ow
Ġ era
Ġl es
Ġinvol ves
ĠPr ice
Ġcontrol s
ĠC R
as p
Ġmem ories
Ġconsider ation
fol io
Ġaccord ance
el ing
less ly
ĠT urn
Ġ5 3
Ġsurpr ising
Ġv end
ĠP ack
ir ts
Ġille gal
Ġ tip
Ġro les
Ġexpl ains
ĠE ll
Ġdep ends
Ġrec on
Ġhosp it
im ental
Ġis ol
Ġprefer red
Ġrepe ated
in ent
ĠF ed
ell er
Ġlaw yer
Ġnew ly
ĠAnd rew
Ġm and
Ġm ath
ver age
gor ith
v is
d ate
Ġr aw
Ġoff ices
ĠE ss
EN T
Ġ til
h m
uc king
ĠP ubl
Ġcabin et
Ġcirc uit
Ġw his
Ġexp enses
Ġcont ained
ĠB ow
ĠS ky
Ġwood en
Ġun us
crib e
ten se
ĠN ight
ĠIns urance
ĠS on
ĠP A
Ġle ts
ag ged
Ġle ct
Ġappro aches
Ġlad y
Ġg ate
Ġb ars
ĠK im
ĠM A
ou red
Ġdr iven
Ġguid elines
ĠGu ide
Ġframe work
ĠF lo
re ct
ĠRem ember
ĠJ ones
ĠR esp
ĠOh io
Ġenter prise
Ġphen omen
Ġ19 0
Ġcontin uing
ĠRom an
Ġsav ings
Ġst uck
Ġwhen ever
ĠC ond
ĠPak istan
Ġfl ash
B I
ĠW i
ĠP ut
Ġhy per
r aid
Ġarr ive
ang es
ec k
Ġass ume
or ation
ĠCh ampions
Ġc rop
ĠWith out
Ġsche me
Ġmo ist
om s
Ġs aving
Ġdise ases
Ġin qu
Ġph ones
Ġsp ons
Ġobject ive
Ġweap ons
ĠSecret ary
Ġins ight
Ġcarry ing
Ġtalk ed
Ġres c
Ġst ain
Ġcomp at
am ber
Ġas ide
ivers ary
G B
Ġnut rition
Ġeval uation
Ġunders tood
Ġemp ty
Ġp ic
Ġal ive
Ġ trop
ĠSh ould
Ġlim its
Ġ8 00
Ġevery where
Ġf irms
ĠPac ific
Ġbelie ves
Ġregard less
Ġwat ched
Ġfrequ ency
p to
Ð¾ Ð
ĠU r
ĠT O
ĠOr der
Ġrec ipes
Ġg entle
ĠJust ice
ans as
Â °
al a
Ġcry st
hold ers
ĠBuild ing
Ġenjoy ing
Ġl ists
Ġsustain able
T A
Ġtreat ments
Ġfund amental
Ġne ut
Ġforg ot
Ġnecess arily
Ġhe aling
Ġdoc tors
Ġcol on
Ġcover ing
Ġrecommend ations
Ġlarge ly
ĠTr aining
Ġcons cious
Ġto urn
ĠCom ple
Ġj un
Ġco al
Ġ till
Ġem br
Ġse ats
ĠCle an
cl ass
Ġin he
Ġtec h
Ġsens itive
Ġmur der
ĠE t
ĠF REE
Ġbl ocks
Ġl ake
Ġinvol ving
ly n
ĠS anta
Ġinv en
Ġor ient
Ġ tube
ĠJ ava
Ġ5 6
Ġaccompl ish
Ġtrans p
Ġalle ged
ĠOr ig
b orn
Ġ199 0
Ġf estival
Ġdec ent
ĠE ff
Ġarr ay
ĠBrit ain
ĠDV D
Ġin struction
ĠVide o
Ġclaim ed
Ġpot entially
Ġres ume
Ġm ature
Ġ199 9
Ġrecogn ition
l ong
il i
ĠZ ealand
Ġd u
U R
o ir
Ġany more
ĠEvery one
Ġg ard
ĠB ang
d a
Ġapparent ly
Ġboo king
ĠJ ackson
ĠC ab
ĠPr ime
Ġscient ists
Ġcons umption
ĠFranc isco
ĠD ar
Ġpercent age
Ġfac es
Ġch airs
e y
Ġexp osed
Ġless on
Ġmark ed
et ers
Ġaddress es
ĠJer sey
Ã ¢
Ġdraw n
he m
Ġnat urally
Ġinj uries
ĠMich igan
ĠL in
Ġad mit
ĠR ay
ĠNor thern
Ġinst ant
Ġwh ilst
miss ions
Ġp od
ber ry
Ġhe n
Ġhand ling
fr ont
Ġag gress
Ġover whel
Ġlegis lation
âĢ ²
Ġmat ches
m ade
Ġbac ter
t act
Ġm g
Ġvul ner
t ie
iz er
Ġstud ied
l v
olog ist
Ġtr acking
Ġtrans mission
ak a
Ġphilosop hy
on ics
Ġsec tions
Ġscen es
a er
Ġfind ings
Ġdef ault
Ġcons erv
it ting
Ġanaly z
Ġobs erv
Ġchann els
Ġpublic ation
Ġstay ing
Ġref r
u tor
ĠPr in
Ġgener ic
ĠV ill
Ġbeh alf
ĠG reek
Ġw estern
Ġ5 9
Ġcr aft
ĠWilliam s
ĠC C
ĠQu est
Ġ100 0
Ġsto od
Ġavail ability
af e
Ġreduc ing
av ed
r is
Ġvis ible
Ġ `
Ġme als
t ang
ĠT ax
Ġz ero
Ġsuggest ions
Ġstr ict
Ġcat alog
stit ution
Ġindic ate
Ġrat io
Ġbo ot
ap ore
ĠD u
Ġl aid
Ġ tone
on der
Ġcommunic ate
Ġo cean
ĠPl ace
Ġcap abilities
Ġstr ing
c an
Ġv ess
ĠJ ac
Ġcl icking
Ġsecond ary
rup tion
t ired
Ġaf raid
ĠComm on
Ġfac tory
Ġsup plement
H S
Ġfasc in
ĠL iving
Ġpow ers
Ġext ension
Ġper mit
Ġbro ke
Ġend ing
Ġaward ed
Ġlangu ages
ĠBl og
Ġgraph ic
Ġhel l
Ġindustr ies
Ġbre aking
Ġdevelop ers
ĠG re
ĠTr avel
Ġgraph ics
Ġrequire ment
er ry
Ġb unch
ĠWor ks
Ġcare ful
Ġstat istics
Ġhor r
l aim
ĠF arm
ĠSe a
ĠS EO
Ġm ood
Ġstay ed
Ġus age
Ġal gorith
Ġrespons es
Ġd ental
le vel
ĠPer form
Ġbu ff
Ġdiv ision
Ġe ld
Ġshould n
Ġcoun cil
Ġur l
Ġocc urs
I n
T ube
ĠC ook
Ġ tired
Ġprin ting
Ġg ene
ĠSystem s
Ġrem ained
Ġle ague
Ġrequ ests
ĠRepublic an
Ġar my
Ġrel ation
Ġwith dr
ĠAs h
Ġvictim s
ur ning
end ers
b ooks
Ġs ed
c a
ĠE S
Ġsac r
h ro
Ġdisplay ed
Ġexp ansion
Ġren cont
Ġ ax
v as
Ġlov ing
ĠJose ph
ĠS us
Ġsudden ly
Ġst able
ĠD ie
Ġ0 8
ĠâĢĻ ,
ub s
Ġ8 5
ĠKing dom
Ġmere ly
Ġess ays
a is
ĠS her
ĠÂ ·
Ġfac ulty
Ġstrong ly
ro g
ell s
ĠKore a
ĠPro per
ĠF ord
ant ed
anc he
Ġelig ible
Ġbow l
o ch
ĠR am
ĠC N
Ġmar ks
on na
Ġb irds
ar ters
Ġsh ots
ĠC arl
Ġhas n
t ent
Ġin tense
Ġper mission
Ġwas h
are t
Ġlat ter
Ġr ural
Ġwant ing
Ġref err
ul um
ĠCommun ic
ail ing
v a
an es
Ġs au
r ics
ul ted
ĠT al
Ġb ird
l aw
ul ing
Ġdev ot
et ary
ĠIn sp
Ġex ists
Ġres ort
Ġn ights
ĠY OU
re ts
ĠS ir
ion e
Ġair craft
Ġaw ards
Ġwor ship
Ġplan e
ĠDiv ision
Ġplatform s
ĠB ased
ĠCol l
Ġf inger
pl ed
Ġjoin ing
Ġesc ape
Ġbl ank
Ġequival ent
Ġcrit eria
ob by
Ġd ad
ĠSen ior
Ġgreat ly
Ġst ake
Ġim per
Ġin ch
Ġalong side
Ġ' :
Ġ12 0
ĠTr ust
Ġspecial ist
Ġpropos al
Ġc ig
ĠCon f
om an
Ġgrant ed
Ġinter action
ĠColor ado
Ġun known
Ġentit led
Ġcons ent
ter ior
Ġst ead
ĠK ind
ro vers
Ġche cking
Ġ tact
Ġh its
ĠFor m
Ġmanag ers
ĠD NA
ĠU RL
Ġrom antic
ens us
ĠN iger
Ġthous and
ĠAir port
ĠAre a
Ġim plic
up id
Ġen ables
b ury
Ġ] ,
ĠO K
Ġequ ally
ĠStud ies
iet ies
Ġg iant
Ġcomplic ated
Ġc ro
Ġche st
ĠGeorg ia
Ġtrans action
ĠEx p
ĠD ist
r ick
ĠSp r
Ġloo se
Ġmaintain ed
ĠâĨ Ĵ
Ġf lying
ĠS E
b a
p age
Ġad apt
Ġs outhern
re ement
Ġprior ity
ĠV iet
Ġfall ing
i our
ĠMod ern
Ġse ed
Ġexception al
Ġcomput ers
Ġout come
Ġnurs ing
Ġminim al
ĠK itchen
ĠAddition ally
Ġm athemat
in os
Ġchild hood
Ġp ocket
ann ed
Ġrepresent ed
Ġsatisf action
Ġst ages
br idge
Ġ5 7
Ġmort gage
ĠProfess ional
ĠM obile
2 1
ĠC irc
Ġ4 1
ĠCus tom
Ġsur ve
il der
Ġre ject
ĠR ose
Ġcompl iance
Ġanx iety
Ġyour s
Ġhop es
Ġpr icing
Ġmeas ured
i ac
u tors
Ġ... ..
Ġre tr
uss y
Ġflu id
ĠQue en
Ġdeb ut
ĠS han
Ġport folio
Ġmor al
un der
Ġin duc
Ġcal endar
Ġchr onic
Ġdem ands
Ġd ent
Ġdis pos
in et
Ġp ig
ĠCon c
Ġpurch asing
red it
w ear
Ġout comes
abet es
ĠM s
Ġlist ing
Ġelectric ity
Ġadop ted
l en
ĠSum mer
Ġme ets
Ġapply ing
Ġacc ounting
Ġton ight
Ġm ixture
ĠSto re
Ġrec over
Ġgr ace
ep ing
Ġprofess or
ing ton
R I
Ġ5 8
Ġinf ection
ĠN ick
Ġcent ers
Ġdescrib es
on to
Ġexhib ition
ĠHe y
Ġc art
Ġcheck ed
Ġ0 9
Ġemploy ed
Ġindic ated
Ġtrave ling
Ġatt itude
ha ust
ĠSp ain
Ġad equ
Ġdeep ly
is dom
Ġconsequ ences
od ing
ĠYou Tube
ĠE mp
Ġren ov
Ġmaintain ing
h ou
ĠM ir
Ġintellect ual
Ġbuy ers
Ġs op
ĠL ED
ĠS ales
as ure
ut ies
Ġstud ying
ig ate
ĠGo vern
Ġassign ed
ann y
ĠEvery thing
ĠSw ed
ĠFol lowing
ĠU k
uck y
Ġl ip
rem ony
Ġhe ating
ĠE st
ac hel
ĠH P
Ġb ass
Ġg ym
Ġeleg ant
Ġse es
ĠB udd
Ġerr ors
amb ling
Ġh anging
Ġex em
Ġfall s
amp ion
Ġrapid ly
Ġupgr ade
ĠC ivil
ĠAm ong
Ġwonder ing
ĠSof tware
Ġleg it
Ġch ances
itc hes
Ġsubstant ial
D S
Ġp ace
Ġdisc ip
ĠN C
Ġsc rew
Ġdemonstr ate
Ġhead ed
Ġpow der
Ġaccommod ation
Ġacqu is
Ġ6 6
Ġrepresent ative
Ġatt ach
Ġentr ance
Ġp ep
Ġbox es
Ġintegr ation
ri ends
Ġ199 8
Ġtrans lation
Ġ0 2
Ġh t
Ġun ion
Ġretire ment
Ġr u
Ġwe ren
Ġfr aud
Ġpred ict
P N
Ġsequ ence
un t
roduc tion
Ġrec ip
Ġg aming
ers hip
ĠP en
ĠHen ry
Ġop ens
Ġpr ide
Ġr ising
us her
Ġstor m
ĠF red
Ġpray er
Ġcon ce
S E
ĠP rop
Ġstrong er
Ġacqu ired
Ġhard er
ic he
t hy
ste in
Ġ198 0
Ġp ounds
al ysis
b el
Ġn ations
Ġinter act
Ġput s
Ġ% ,
Ġinit ially
Ġlif etime
lo se
Ġp itch
Ġb one
Ġleg end
ĠT ot
ĠI M
Ġs ought
Ġaccur acy
Ġ vert
b ar
ĠT ay
ĠMem bers
s ite
Ġdown town
Ġf if
Ġc odes
Ġcop yright
or ous
ĠNe ed
ah a
er as
Ġpro por
ĠD aily
ĠBo x
p ted
Ġtele phone
Ġpl ain
ag rap
Ġmir ror
Ġphotograph s
Ġinstit ution
Ġl ift
Ġcompos ition
Ġsc ope
Ġcur rency
Ġspec tr
iss ions
Ġr iding
ĠSup reme
Ġc ialis
Ġext end
r id
Ġm m
ĠSt an
ro ke
Ġac tor
it t
Ġg ained
Ġsp ark
Ġhost ed
Ġlap top
Ġsp ots
ĠF ox
el ry
Ġdirec tions
Ġsatisf ied
ĠIr ish
Ġparticip ation
Ġnewsp aper
Ġed it
Ġreve al
al ty
Ġflav or
ur se
Ġcont rovers
ĠT hing
ĠL ine
Ġint ention
athe red
crib ed
Ġsc ores
Ġfocus es
Ġbr anch
Ġc oc
Ġhe s
Ġj e
b ec
ri ers
Ġw ise
ur a
ĠG arden
Ġran king
ĠInst agram
Ġ0 4
9 0
Ġform ation
Ġg re
Ġpack ages
Ġant ib
ate ful
Ġsuff er
Ġl ens
Ġegg s
Ġtr im
ĠFor ce
Ġeng ines
Ġshould er
ph ones
Ġrec yc
an i
ĠM ade
w ar
z er
if orm
Ġn om
Ġb oss
ost er
ar at
re f
qu ality
hn ic
ad or
as hes
Ġse gment
ia h
Ġb orrow
Ġdep ression
ĠM D
Ġab andon
Ġm old
ĠG M
the ast
Ġlay out
Ġthin ks
ic ide
Ġevery body
od ge
Ġinter active
Ġperson nel
m ers
Ġmy t
m ith
s en
a qu
Ġcon ventional
Ġconc lusion
am ics
ĠCoun try
ors es
Ġd iversity
ĠSing apore
ĠTer ms
j ection
ĠB ul
Ġ' '
Ġdiam ond
Ġenforce ment
Ġelec ted
Ġ tan
ĠE astern
im p
Ġb rowse
ĠHol lywood
ĠP ot
Ġmist ake
Ġshe ll
Ġelec tro
Ġgot ten
Ġ0 7
ĠFig ure
Ġh ide
ĠB ush
Ġstr ike
Ġcert ificate
Ġman if
ino is
ĠQual ity
ĠA L
ĠE vent
Ġens uring
Ġcorrect ly
Ġh am
Ġapp ointed
Ġres tor
lus ive
ĠL ink
m o
ĠP in
ĠP o
Ġcar pet
ĠF oot
ĠDis ney
Ġhol idays
Ġpregn ancy
Ġencour aged
ĠSp ace
ou ston
im ination
ĠL ind
Ġin hib
Ġpain ted
Ġinc om
Ġhe aven
Ġmax im
Ġpro hib
ros c
ĠD am
ĠAd am
Ġexam ination
Ġlad ies
ĠSil ver
lud e
ress ed
t ap
Ġwe ird
Ġst ations
Ġod d
ĠS ever
Ġ ^
Ġpr a
ĠProduc t
Ġg ap
Ġtit les
ĠK enn
ĠLat in
br id
Ġdet ect
Ġrec re
Ġprov ision
ĠR od
Ġr ice
ren d
ĠR en
Ġattemp ts
ĠAdmin istration
Ġb ands
ig en
ific ial
ik i
Ġthem es
Ġent ering
ĠW H
er ts
ĠO x
ĠB ooks
ĠRe f
ĠF all
Ġlegis l
ĠL abor
Ġset up
Ġess entially
Ġmin ister
Ġspe aker
Ġm ent
ĠB all
Ġdepos it
Ġemail s
F i
ĠM other
Ġroad s
Ġprep aring
Ġk illing
ac ular
ad ium
ĠR os
Ġsol o
Ġl oud
Ġautom atic
ĠE C
ie ved
ĠK ent
Ġsome how
ĠC y
ĠR est
r ich
Ġc ow
ĠL as
Ġclos ing
Ġs anc
Ġcompens ation
Ġl iber
re ll
Ġassemb ly
Ġassist ant
Ġunus ual
ĠDon ald
ec ess
ĠT ar
Ġdr ama
Ġch ap
Ġcontrib ution
us ter
his tic
Ġtw ist
ĠD og
Ġd ont
Ġm aps
ĠLear ning
Ġj ur
Ġs ink
Ġdr inks
ĠConn ect
Ġl iability
Ġre ly
ĠSe at
friend ly
Ġhead ing
ust in
Ġrel ating
ĠM ess
ĠB C
Ġf its
iz ona
ud es
Ġst ability
ĠMet hod
ĠR ights
Ġeng aging
Ġmechan ism
Ġfunction ality
Ġdoll ar
ot y
str act
t hro
Ġimprove ments
Ġwat ers
Ġsm oke
ĠT M
Ġy ards
a o
Ã ¡
Ġdesign ers
Ġpr ime
ĠR S
it ative
Ġpoin ted
ĠFurther more
as m
Ġm igr
d es
Ġw ake
Ġde eper
ĠE xt
Ġe book
Ġfl ag
Ġce iling
un icip
Ġbl end
! !
ĠP sych
Ġor al
ĠRad io
Ġdef ine
Ġun iverse
Ġcontin u
te gr
Ġnor thern
Ġsuppl iers
Ġo h
ĠR un
Ġstr ip
Ġvac c
Ġsent ence
Ġadvert is
oc ation
Ġun to
ĠH arr
Ġcr ack
ĠMedic ine
Ġres idence
ĠB es
Ġb id
Ġdivid ed
Ġmuse um
R S
ear s
Ġret urning
ĠBro ad
Ġut ility
st ar
crip tions
Ġguarante ed
Ġintro duce
b ra
Ġto uc
ou ch
ĠL ib
Ġconc ert
Ġperiod s
ĠS av
if ting
Ġout s
qu is
Ġfac ed
Ġhor iz
so le
ian ces
Ġview ing
Ġexam ine
ugh t
ĠD un
Ġspec ified
Ġopin ions
Ġarr ival
Ġop posed
Ġres id
ĠSm art
ĠIn terest
Ġw rap
Ġamong st
E E
exp ected
Ġenem y
Ġcut s
bs p
Ġwrit es
ĠCorpor ation
ĠN AS
Ġtr ips
Ġcontin uous
um a
Ġoper ated
Ġr ib
Ġsign als
Ġproto col
Ġb ull
Ġ0 6
Ġaim s
g ical
ĠR yan
Ġto ler
Ġc ul
Ġorgan is
Ġm ad
ĠHel p
ĠL A
ĠCh apter
as hing
Ġs ke
Ġord inary
Ġimplement ed
Ġmechan ical
ad el
b oy
Ġex haust
so red
ĠEx press
Ġf ifth
ric ulum
Ġsc ored
Ġdistrib uted
Ġop pon
Ġfocus ing
ĠSaf ety
Ġdevelop er
ĠVe gas
ic on
Ġ tons
Ġh az
ĠS M
Ġcal m
Ġbedroom s
ĠInd ustr
ol it
Ġcolle agues
Ġl oyal
Ġch ampions
Ġag ed
Ġpriv ile
Ġlow est
ĠA wards
ĠE dition
Ġv intage
ĠAg ency
Ġcon str
ĠStep hen
Ġenthus i
st s
ic ulty
ĠF L
ĠEl iz
Ġsk illed
ĠPal est
ab eth
Ġce remony
Ġest imate
Ġloc ks
Ġ es
Ġb uck
ĠT enn
ch ar
Ġ tap
Ġr acing
Ġw ond
Ġbroad cast
Ġexpl oring
ĠPr om
Ġo ught
ĠJ enn
Ġsing er
Ġd ual
Ġdr aft
Ġcabin ets
ĠMore over
ĠS A
Ġ aer
Ġal umin
Ġd il
ĠP H
Ġfl our
Ġex port
ĠSt ation
Ġtrans actions
ĠÃ ¢
Ġcontrib utions
Ġsubsequ ent
f all
Ġtem porary
ĠPhil ipp
Ġsau ce
Ġf est
F C
enc ing
Ġpack ed
Ġconcentr ation
Ġann iversary
ĠN O
ĠPol it
Ġprinc iple
ĠF A
ur ities
Ġsuff ered
ĠFe b
Ġpe ak
Ġw arn
ĠE s
Ġcry pto
Ġlicens ed
Ġdist ingu
ĠCus tomer
d ney
Ġcou ples
end a
at hy
i ology
Ġ199 7
ast ing
Ġke ys
P C
ĠB ath
pl ing
iv als
Ġunc ertain
ĠTe xt
Ġ", "
p es
Ġspr ay
Ġeval uate
ĠSto ck
il a
ĠScot land
Ġcour ts
Ġc otton
Ġclub s
ĠAg reement
Ġinstr uments
Ġsit uated
Ġacqu ire
Ġo ven
Ġ7 2
ĠC T
viron ments
Ġdam aged
d ays
Ġdis cr
Ġto ile
Ġpromot ing
ound ed
Ġwithdr aw
Ġlay ers
Ġrare ly
Ġra ising
Ġcont ents
t ension
ĠH appy
ann a
gh an
Ġsc ul
ĠPriv acy
Ġun expected
Ġdo se
Ġpres cription
Ġiniti ative
Ġform ula
Ġpar alle
ĠOffic er
Ġsure ly
Ġ": "
Ġsp ir
Ġvis its
Ġpromot ion
ĠB M
ch arge
Ġimpress ion
en ess
Ġblog s
Ġcelebr ation
Ġvolunte ers
Ġm erc
Ġspeak ers
c ar
Ġsum mary
ĠArt icle
Ġm es
Ġhol es
Ġcomb at
re r
bur gh
in yl
Ġmod ule
ĠH as
ĠS yn
Ġm it
ins on
Ġbenef icial
ĠC ialis
L Y
ĠPriv ate
ĠEx cell
Ġsold iers
ĠLim ited
Ġcon vert
ri x
ĠS ep
t ape
E A
ĠP as
Ġemot ions
w an
ang ed
Ġdeliver ing
Ġcomb ine
Ġsurv ive
ĠSh ort
at i
Ġo l
Ġbo ards
Ġdiff iculty
ĠBr ian
Ġexpl o
ĠT reat
Ġdr ain
Ġl aser
Ġc um
ĠMin istry
Ġ= "
u z
Ġtarget ed
to s
ĠRe qu
sy lv
u an
Ġre aching
ĠL LC
Ġk iss
om ed
ĠJew s
ĠP ur
ĠTor onto
Ġy oga
Ġacknow led
ĠHar ry
Ġper ce
ĠS H
ĠM ah
Ġpan els
Ġven ue
Ġinterview s
ĠT hink
ord an
Ġhear ts
Ġ5 1
Ġsop histic
Ġmind s
ĠDe ath
Ġprincip al
ĠAr izona
ord inary
Ġoppos ition
Ġsens or
Ġsem i
Ġinj ured
Ġproduc er
Ġw isdom
Ġemot ion
il ty
Ġinv al
et ch
Ġb omb
Ġ197 0
h rop
ĠIll inois
G E
ol is
Ġcam eras
Ġde ploy
Ġperform ances
Ġtre m
Ġadvant ages
Ġal ter
Ġwhere as
Ġto oth
Ġaccom pan
Ġfarm ers
ĠCap ital
or al
Ġph p
ĠS ure
Ġpregn ant
Ġbed s
ĠC and
Ġbehav iour
Ġlet ting
Ġsurv ival
Ġpassion ate
Ġman ip
ĠB on
Ġbasket ball
Ġok ay
h ur
ail ed
Ġprom pt
Ġam en
Ġdis hes
ask a
ol id
ĠD ue
Ġwhere in
gr ap
Ġflex ibility
ĠP oint
Ġrem em
Ġemploy er
ĠA ge
Ġf iber
ĠS ty
Ġass et
Ġpat io
ĠG ive
Ġsubs id
Ġmedic ation
at ile
Ġtem plate
ĠII I
C H
iam i
Ġor ange
Ġcontr acts
Ġh ip
ĠAn im
sylv ania
Ġsusp ect
Ġflo ors
ĠBr ad
Ġflow er
Ġ tape
izz a
m g
ĠNat ural
Ġann oy
Ġmountain s
ĠB a
Ġgr at
Ġemer ging
b ian
ĠT ool
Ġ6 3
c le
ra ham
ĠHe art
Ġdr ives
Ġmass age
Ġic on
ĠR on
ab il
Ġr hy
ĠIsl am
Ġse asons
Ġconven ience
Ġrep ly
Ġdecre ase
ĠSh are
Ġb ills
Ġtal ented
Ġ199 6
Ġsing ing
Ġcon j
ĠB ad
Ġb ol
Ġatt ending
ul ator
Ġsh irt
Ġref uge
Ġan gle
Ġarrest ed
ĠE mer
the w
Ġh a
u is
Ġk il
Ġamer ican
Ġfew er
Ġre plic
ĠClin ton
Ġy ield
Ġpil ot
Ġgovern ments
un es
ĠHis tor
Ġp ip
Ġsign ature
Ġ tie
ĠD ark
ur ches
Ġle an
ĠAs k
ear ing
Ġf ingers
Ġen vironments
ĠTay lor
R C
u ating
ĠUS B
Ġjud gment
Ġprov ed
ĠL ew
ap y
Ġsw ing
to ck
Ġdr ag
f its
Ġcop ies
Ġencoun ter
Ġterr ible
ĠS ho
Ġpar agrap
ec e
Ġr um
Ġconfig uration
in ch
i h
onym ous
t age
Ġtrust ed
ĠChrist ians
ĠC it
Ġal ign
Ġd ies
ĠMean while
Ġhope fully
Ġcompr om
Ġn erv
ĠB ern
ĠAu tom
Ġdang er
Ġacc um
ĠGu ard
Ġreg ulation
Ġorgan isation
Ġab ilities
Ġdiagn osis
Ġdemonstr ated
Ġconvers ion
Ġwarrant y
ĠH ouston
Ġtourn ament
ult ane
ĠComp uter
ot ive
Ġf ur
ick et
ĠStud ent
ĠT am
Ġover se
Ġpr ize
itc hed
ĠBeaut iful
Ġcomple tion
Ġsle e
ES T
Ġacc eler
ĠC B
Ġf ounder
ĠWor king
ĠS D
ĠBr and
Ġper f
Ġveget ables
Ġpleas ant
Ġst upid
ĠPr im
ĠC ase
Ġsc ar
ast y
Ġab und
at to
Ġqu e
Ġdesk top
Ġro y
Ġmatch ing
Ġtemper atures
ĠW r
Ġdes per
Ġsc reens
ĠM u
Ġexerc ises
Ġoffic ially
Ġrepresent ation
ĠL ady
Ġf illing
Ġb old
ĠRead ing
um er
osp el
ĠSever al
Ġno se
Ġinvest ments
ĠGold en
m ach
ĠNot hing
j a
Ġfin est
Ġd ys
Ġparam eters
ĠSar ah
ĠO il
Ġhapp iness
Ġam end
Ġto ys
Ġp uzz
Ġm ounted
ĠAnn ual
ish ment
Ġj er
ĠStand ard
Ġcol ours
Ġsup por
Ġconstruc ted
Ġste am
it er
Ġfem in
n is
Ġst ir
Ġimpress ed
ĠPro cess
Ġinven tory
Ġkn ock
pro of
at ers
il ton
Ġrece ption
orm al
T V
ĠL yn
m ble
Ġ% )
ĠO ak
c ons
ĠP ict
hy l
Ġexplan ation
ĠH a
Ġheav ily
m ates
Ġcreat ivity
Ġgr ateful
Ġaim ed
Ġf ib
se x
ĠV en
ĠDemocr atic
Ġg ig
l ar
ĠO s
ac her
Ġ6 7
t ied
Ġv ice
Ġstain less
ĠC redit
Ġdi abetes
ĠB ol
ĠTr ade
ĠT oy
Ġmod ified
Ġinst antly
Ġro ots
Ġdisc overy
Ġenhan ced
D P
ĠG reg
Ġcontain er
Ġcont acts
az a
Ġhad n
Ġcert ification
ĠDr ive
if er
Ġl ibr
Ġgold en
ĠSt one
Ġnet working
ĠBel ow
Ġr ust
b ered
Ġc a
Ġas ks
Ġremark able
ter ies
Ġwhe els
Ġappl ies
bour ne
e em
Ġun n
aw s
Ġgr an
let es
ĠE asy
Ġsp acious
in ar
ĠE ric
Ġtr ash
Ġexpand ed
v ard
Ġres ident
c ut
ok ed
Ġsty lish
Ġreview ed
Ġser vers
ĠA B
ĠS ale
ag ers
ar on
Ġd ipl
Ġ thro
Ġwor ried
ell ite
Ġcorrespond ing
Ġdis order
ĠS em
Ġins ights
Ġ ty
Ġres ulted
Ġindic ates
Ġowners hip
Ġbrother s
al ia
Ġ18 6
ĠA venue
ist ical
ĠMat thew
ag en
el ve
Ġelse where
Ġunivers ities
it ate
ir y
Ġregul atory
is a
Ġpo etry
is k
ĠM om
ĠC ry
ĠR ub
t ile
Ġwor n
ĠVis it
Ġfr anch
Ġphotograp her
Ġres tore
al o
our se
Ġ7 00
Ġvir us
ĠD ream
Ġneigh b
ĠCas ino
Ġp it
ĠUk r
Ġsp an
Ġbel t
Ġmove ments
st ep
Ġfant asy
2 6
Ġelec tions
Ġsl ip
Ġp ussy
Ġrom ance
ĠD ave
Ġnarr ative
ĠWrit ing
Ġdirec tory
Ġinvestig ate
ĠTe le
ass ion
ĠAn aly
Ġembod iment
Ġr anging
Ġquant ity
Ġdispl ays
f oot
Ġtar gets
Ġmist akes
Ġsurround ed
2 00
T H
Ġse ar
olog ists
Ġaddress ed
Ġc ogn
Ġd uties
Ġg oogle
Ġ tent
Ġstrugg ling
ĠSy dney
ĠKe vin
ĠO wn
Ġdr um
Ġparticip ating
Ġtrig ger
2 8
Ġse vent
m akers
Ġground s
iat ric
ĠProduc ts
ĠBar b
Ġrec all
Ġ18 9
Ġdec line
Ġbre aks
Ġgen etic
Ġdiscuss ions
Ġvirt ually
Ġthe sis
Ġbase ball
Ġfascin ating
Ġsub stance
rol led
Ġab road
Ġpubl ishing
Ġen abled
Ġf ed
ĠP ers
Ġh oney
ĠE state
Ġcirc le
Ġfl ights
ĠP aper
Ġfab ulous
b ow
Ġsc rap
Ġc her
ĠL ar
in ts
Ġh ill
Ġover come
Ġacc used
Ġtrad em
Ġover s
Ġprov isions
Ġst amp
ĠSqu are
ĠT ony
cep tions
Ġ8 8
Ġvolunte er
Ġbur ning
Ġ aus
Ġmy ster
Ġobject ives
ĠN FL
Ġfit ting
Ġ199 5
ĠThing s
y gen
ĠD O
ĠBro ok
ĠR ome
Ġloss es
Ġgu ilty
Ġexpl os
ĠYe ah
Ġhigh lights
u ates
u um
Ġmet ab
is d
Ġb ub
Ġsleep ing
Ġsh it
Ġemphas is
Ġpubl ish
Ġp ushed
uc cess
V ER
ĠColumb ia
Ġcor n
ĠH om
ĠP ow
ĠM ember
Ġposs ibilities
al i
Ġcampaign s
Ġ thy
ĠMan ufact
Ġm ouse
aw a
Ġpo ver
ĠC ro
angu age
Ġh orn
Ġg rey
he t
Ġh orses
on sored
ĠPr ince
Ġpover ty
us al
Ġadministr ative
Ġsome body
ĠD S
Ġre verse
Ġimm un
Ġen orm
Ġcan n
Ġed iting
ĠP arl
ĠM oney
Ġabs ence
Ġad mitted
ut en
ĠPr inc
Ġht ml
Ġf t
Ġf ool
Ġre fe
ĠFore st
Ġmo on
ĠEliz abeth
Ġcomple ment
Ġw ins
ist ent
Ġcollec tions
Ġdestroy ed
Ġsim ultane
Ġmusc les
ĠE arly
Ġextra ordinary
all as
che str
ĠA ction
Ġfa ult
F A
u er
ĠBro ther
Ġresol ve
ĠR og
Ġ6 8
ĠExper ience
ĠS elf
Ġind oor
Ġdecl ared
ĠH ad
ĠR s
Ġdis miss
Ġrub ber
un ate
Ġvers us
a ire
Ġi i
i ating
Ġcapt ured
Ġrep airs
Ġath le
ĠKore an
Ġsu ite
Ġjew elry
Ġ7 7
Ġansw ered
Ġglo be
Ġhard ly
ie v
Ġmy stery
Ġbr ush
ĠL es
ĠS hip
ĠFil m
ĠH ind
Ġw aves
ĠPort ug
b es
ĠInd epend
ĠPenn sylvania
if ted
Ġg onna
Ġ tied
ick ed
ĠM iami
Ġdivor ce
Ġz ip
Ġrepresent ing
ĠBr idge
G A
ĠB ell
ish op
ĠIn it
ow een
Ġsettle ment
Ġg athered
or tion
ig ious
Ġfore cast
Ġdur able
Ġimm igr
Ġtr ies
ĠLe vel
ĠJ ob
P M
Ġspect acular
Ġmeasure ments
Ġdram atic
Ġco aching
Ġ< /
ĠAr m
ĠC reek
Ġfloor ing
ĠCom ments
Ġal arm
ĠV ar
Ġdesign ing
Ġg ang
ile y
Ġgener ations
Ġgen es
Ġb udd
Ġsm ell
Ġbeautiful ly
ĠMar c
Ġsmo king
Ġrencont re
Ġban king
Ġdis aster
eng ers
ab b
Ġdevelop ments
ĠS tory
Ġle af
C E
Ġm ild
reg on
adel ph
Ġ18 0
Ġgu ides
y stem
Ġover view
Ġ( )
Ġinv ite
Ġun com
Ġref ers
gr aph
Ġconsist ently
Ġwal ks
Ġrepe at
ĠN S
Ġf ake
h our
et ts
Ġcr ash
Ġengine ers
Ġdel ivers
l ah
ĠB B
ĠW ant
Ġsh aped
Ġet hnic
Ġse eds
Ġb io
Ġpropor tion
bit r
Ġsl ots
lim ited
ĠPer fect
d ered
Ġh orm
Ġres erve
u ana
Ġb oun
Ġrol ling
ĠD J
oun ge
Ġ aes
Ġchar ity
Ġsur ge
ugg ed
Ġcom edy
ĠA h
t ong
ĠUn like
Ġsafe ly
ĠStud y
Ġdis orders
ĠTur key
ĠF OR
Ġm as
ĠUs er
hol der
ĠSch ol
Ġacquis ition
Ġfulf ill
ĠBes ides
Ġnerv ous
ĠS aint
Ġmake up
Ġ( "
ol ly
ĠE D
Ġg am
Ġface book
ĠSe ason
ĠB and
Ġcon vey
b ell
ĠK ids
Ġpack aging
b age
Ġconnect ing
Ġpre ced
Ġsk i
ĠH ur
ĠT ech
re tion
Ġexp ense
Ġstr uck
Ġfrequ ent
Ġex terior
Ġre ferences
o h
Ġju ice
il arly
Ġmeasure ment
Ġthorough ly
Ġp iano
Ġc rown
Ġc aut
Ġsh apes
ĠD om
Ġp icking
AT ION
Ġcompet e
ĠWith in
Ġreg ards
Ġconsult ation
Ġshe d
adelph ia
b ro
Ġassign ment
Ġarrang ements
ĠO cean
if fe
ĠVictor ia
ay ed
ĠB itcoin
c end
Ġcur riculum
Ġcos m
ĠK ong
ac les
Ġworks he
Ġgirl friend
Ġdet ection
typ e
ĠAcc ount
Ġestim ates
ĠS orry
Ġse am
Ġd uration
Ġr ated
Ġco at
ĠFol low
Ġdis ability
Ġam pl
Ġ7 6
be ing
ĠTr ad
ĠBre ak
Ġ7 8
ĠFr ont
Ġelimin ate
Ġpro tec
room s
Ġinn oc
Ġtrial s
Ġdis ag
el a
ĠIsl amic
ĠH old
i ary
ol n
isc al
Ġapprec iated
Ġthe ore
Ġ196 0
ĠJ r
Ġkey word
Ġtext ure
Ġpar ad
Ġbelief s
Ġcl ip
ĠH ong
av ity
Ġequ ity
ach us
Ġvar iable
Ġoper ational
nes ota
ac ent
Ġrele ases
ĠJ ordan
lo ved
ĠL ess
ER S
ĠMod el
Ġload s
Ġimportant ly
te es
Ġbad ly
ĠVill age
Ġpro test
Ġher itage
Ġh ack
ĠThe atre
sp ec
t ure
ĠU t
Ġimm igration
Ġh iring
Ġcomp act
he ll
ĠTrans port
ag an
ĠH IV
ire ct
Ġhun ting
Ġmeaning ful
Ġcur ious
Ġ( âĢľ
ĠL y
Ġphr ase
Ġ6 9
Ġder ived
Ġterrit ory
ĠC hat
ĠGirl s
Ġutil ize
Ġsuppl ied
Ġrepresent atives
Ġbare ly
ĠJ osh
Ġun ited
Ġamen ities
Ġsuper b
Ġeld er
Ġinsp ection
Ġlaw yers
ĠFin ance
Ġ9 8
Ġlog ic
ot ion
Ġprec ious
Ġn aked
ĠIs s
Ġc inem
or gan
Ġintegr ity
Ġsc ream
ĠSeat tle
und ry
Ġproduc es
Ġh ub
Ġref und
Ġfin ishing
p ool
Ġremov ing
Ġinter vention
ĠI B
Ġvent ure
ĠD ate
ĠLoc ated
Ġac tors
Ġmin istry
tar io
ĠCont ent
Ġsto ps
ĠJ ay
Ġparalle l
Ġpract ition
ĠChe m
st ic
Ġ Ì
Ġcalc ulated
Ġf ert
Ġ tong
ĠS we
le ep
Ġlog in
ĠF ield
ace ut
U N
ĠV ice
Ġpainting s
Ġ: :
Ġcomp osed
ĠM aterial
Ġstruct ural
d d
Ġscenar io
ĠTh ird
ĠCh all
Ġto y
Ġ7 4
Ġhost s
P ress
ĠU C
ĠPlan ning
Ġp ushing
Ġ199 4
Ġex ch
Ġgather ing
Ġs orts
he im
Ġact ively
Ġcraf ts
Ġn omin
Ġpurs ue
g s
grad uate
Ġs ne
Ġtest im
p o
2 7
ĠS ource
ent h
Ġsto mach
if ier
Ġworkshop s
Ġexper imental
ĠPro tection
Ġs ter
ĠH ay
Ġc ats
Ġ7 3
ĠPri or
Ġvot ers
Ġs an
Ġl yr
pt on
Ġiniti atives
ĠHaw ai
op y
Ġemb ed
ĠC ut
achus etts
Ġpow ered
ĠL arge
ps on
ĠJ ason
Ġcult ures
oo f
ĠS a
Ġcompat ible
ĠA ustin
Ġunder lying
Ġart istic
Ġweap on
Ġtable t
Ġpr on
il er
lah oma
ĠM ajor
Ġset tled
h um
Ġdocument ation
Ġrob ust
Ġbi ological
Ġimm une
ĠW W
Ġbab ies
Ġout er
w ich
Ġover night
Ġchrist ian
ĠUn ivers
Ġsal ary
ĠN av
ĠSim ply
ĠDe ad
Ġpass es
Ġfriends hip
ĠAP I
Ġexc it
Ġat tain
Ġinvest ing
Ġche cks
Ġinter actions
ĠAl tern
ĠPart ners
Ġcooper ation
Ġc ater
ĠB ud
oles ale
Ġr ack
h ar
le tter
Ġoper ator
ĠSe lect
ig ue
Ġsh ips
ĠF ive
ro gen
ĠT en
ĠM ount
ĠParl iament
Ġtrans formation
Ġtrem end
ĠR ail
Ġident ification
ĠStud io
Ã Ĥ
ĠE ver
Ġexperienc ing
ĠM ust
Ġunivers al
Ġwork place
ĠSing le
Ġarg ue
Ġg ut
Ġneut ral
Ġw ider
ij uana
il ation
Ġreve als
ĠE M
id al
tr uction
ĠDire ct
Ġanal ys
Ġvert ical
ĠiP ad
Ġd irty
Ġmat t
ĠD ur
er ted
to ps
tor neys
ĠN umber
Ġscreen ing
h irty
Ġphys ically
Ġout fit
Ġdes erve
w all
t ire
Ġoccasion ally
Ġp atch
Ġto xic
Ġno body
Ġcent uries
arr ing
Ġc m
Ġemploy ers
c hers
e vit
ĠAssist ant
Ġwe igh
Ġpass age
Ġhen ce
Ġart ificial
Ġenjoy able
T he
ob e
Ġinterpret ation
Ġproduct ivity
ĠC orn
Ġ18 8
ĠWin ter
Ġdele te
Ġre ven
Ġrestr ictions
ĠA gr
sc ale
Ġsophistic ated
Ġche aper
ĠG row
Ġspecial ized
Ġc af
x x
in ery
inc oln
Ġfacilit ate
ĠE sp
Ġbacter ia
Ġconf used
Ġprom inent
t hirty
ĠM uch
Ġentertain ing
ĠC ould
Ġmyt h
v iously
Ġ9 7
Ġmanufact ured
ĠDav is
ĠPhil adelphia
ret t
ĠA k
Ġdifficult ies
Ġexper iments
ĠðŁ Ļ
aceut ical
Ġst em
ĠEnvironment al
ĠGall ery
Ġexclus ively
c ore
Ġprev ention
ĠWil son
ĠC ateg
Ġp ad
ĠC ho
Ġwork er
elf are
Ġrem od
Ġbal anced
Ġ0 18
ation ally
Ġold est
ĠInd ustry
ĠF ile
Q L
ure au
it ivity
lud ing
Ġjur isd
Ġcom ic
Ġrad iation
ĠD ub
ĠI V
Ġp ics
ĠMag azine
g iving
ĠApplic ation
Â Ĵ
Ġ vel
ĠDie go
Ġoccas ions
Ġg ambling
m n
ĠCurrent ly
Ġg reet
Ġorganis ations
2 9
Ġbuy er
Ġdepend ent
ĠCh oose
Ġf ence
ab ling
H A
Ġpros ec
Ġperson als
ĠRep resent
Ġprocess ed
ĠF riends
Ġpsych ological
Ġload ed
Ġsign ing
Ġr aces
Ġphys ics
Ġ tile
Ġun iform
d ers
Ġent ity
Ġintellig ent
o om
ĠR ou
ĠH R
Ġsurf aces
ĠSte el
Ġearning s
Ġimp r
ĠS olutions
ĠEx change
ĠIde as
ĠD I
Ġeas tern
Ġb ug
it able
ĠC L
Ġw ard
Ġd ancing
Ġsmart phone
Ġconvers ations
ĠAf ghan
l i
b ul
im ens
g i
Ġ" )
Ġarrang ement
Ġref used
ĠS O
ĠQu ick
ĠG ard
ĠIm age
Ġhome own
Ġret ired
Ġpar ks
ĠT an
ĠM C
Ġnew est
f unction
Ġdam ages
Ġcop per
ĠB arn
ĠAl ong
ĠSt aff
ĠM oon
Ġse al
Ġ thirty
ĠP it
Ġcompl iment
ĠAn ton
ĠL ic
Ġhand y
ĠT R
old s
Ġcan ada
k es
ĠViet nam
Ġ, ...
p iece
Ġw ishes
ĠJ ane
Ġin k
Ġprof its
ĠSp eed
ĠDemocr ats
Ġact ress
Ġcompl aint
ĠS ound
Ġprom ised
ĠH ous
ĠN one
Ġto mat
ĠCom b
Ġan gry
ĠMin nesota
Ġal leg
ĠAp pro
Ġinc ent
Ġspectr um
ĠG iven
Ġtrail er
ĠO regon
ĠF ast
Ġs uck
ĠHall oween
ĠC M
m its
ĠC OM
ĠC ub
id ers
E G
ĠE N
Ġprotect ing
Ġmotor c
ot es
Ġexpl aining
ĠMem orial
Ġrelax ing
ĠAtl anta
Ġcollec tive
Ġtown s
Ġunc le
Ġb ay
itz er
Ġch ips
t v
ĠChan ge
ĠDoc tor
Ġop tical
Ġspe aks
Ġhar vest
Ġs od
Ġ) (
Ġtransfer red
Ġaccept able
Ġaccommod ate
Ġadequ ate
Ġmusic ians
Ġconsider able
Ġtr i
ĠDel hi
Ġlist ings
Ġdial ogue
ĠMill er
Ġlast ing
ĠA F
Ġ( $
Ġboy friend
Ġi OS
ple ments
Ġloc ally
ost ic
ĠR ick
Ġres erved
Ġd ensity
ĠIsrael i
are st
Ġcap s
Ġv inyl
ĠAdv anced
Ġf ucking
ĠTy pe
ĠB ody
Ġspok en
ixt h
Ġscr atch
Ġmagn etic
Ġaccompl ished
Ġcar ing
ĠD utch
ĠMo tor
Ġens ures
ĠD allas
Ġ11 0
Ġop t
ol s
Ġvot ed
Ġto urs
d ale
Ġp ets
Ã ¼
Ġ9 6
asc ular
ok es
Ġrough ly
iff s
Ġepis odes
Ð º
Ġannounce ment
Ġart work
Ġp ix
Ġag greg
Ġrad ical
ĠI ron
ĠPl at
ay ing
Ġag enda
ĠN ame
ĠBab y
Ġentreprene urs
ĠN ations
Ġauthor ized
ĠW ars
Ġsole ly
Ġaffil iate
Ġarrang ed
Ġc ord
ĠComp an
Ġloo p
Ġr ings
ĠCol lection
Ġb inding
ĠMass achusetts
ic it
A A
ist a
ĠSer ver
ĠFore ign
Ġins ist
Ġinvolve ment
Ġthreat s
ĠAt torney
ĠI L
umb ing
ian ts
Ġapart ments
ĠL iber
ĠG P
Ġch ampion
ĠNE W
Ġch urches
anc hes
ĠJ am
ĠG olf
j ust
ĠE ve
ĠIn tegr
Ġs our
ĠA z
ĠS aud
Ġeffect iveness
Ġexec ution
Ġac res
Ġd up
Ġsuppl ier
ĠL ater
Ġob st
Ġcelebr ated
semb ly
Ġ8 4
t hm
h on
x ual
ir a
m ate
Ġsl ide
ĠH ills
Ġwid t
aren ts
ĠA LL
ĠK ar
Ġn it
Ġrid ic
Ġbe aring
Ġcan cel
Ġrefr iger
ĠOver all
Ġphys ician
ĠIm m
ĠAn alysis
ĠC F
ir k
st yle
Ġtag ged
ĠCl oud
pl ates
Ġvot ing
est ed
Ġreg ime
A Y
unicip al
Ġhor ror
plic it
m atic
ir able
Ġhab its
Ġsacr if
Ġrank ed
Ġunlike ly
ĠOk lahoma
ang ers
ock ets
as ion
Ġindic ating
ĠS ave
Ġcar rier
ĠS ix
ĠAl bert
ĠChe ap
w art
Ġpopular ity
Ġcan cell
Ġclass ical
Ġassum ing
Ġn urse
Ġste re
Ġchemical s
Ġd rove
isc ons
Ġstreng then
Ġadv ised
Ġsub tle
A meric
Ġper mitted
ĠM onth
ĠEm ploy
Ġox ygen
ĠProper ty
Ġden ied
ĠK it
iscons in
n bsp
Ġ018 3
ib e
Ġkn ee
Ġm ount
Ġl ung
Ġout let
Ġdesign ated
Ġcap ability
oin ts
Ġd irt
Ġmo s
Ġoverwhel ming
Ġwas hing
ĠN avy
ig ence
Ġbl ame
ate ur
bo ards
ĠP ain
3 5
Ġresc ue
Ġsoc cer
Ġliter ary
ay a
ĠInd eed
ĠD E
Ġmechan isms
ĠAtl antic
win ning
Ġlabor atory
Ġapp le
Ġr ational
Ġvulner able
ĠC ore
ast ed
Ġspecial ists
Ġport able
Ġgen re
ur ious
Ġin evit
Ġch a
ĠInn ov
ĠRel ations
Ġtro ops
Ġe ager
Ġestablish ment
p any
Ġsp are
Ġvol tage
ĠW ales
Ġback up
ĠDe b
I LL
Ġs oup
iz ations
ĠOn tario
Ġshe ets
Ġal ike
Ġaggress ive
Ġclass ified
ĠJe an
ac ter
Ġhospit als
Ġlib eral
Ġcontrib uted
ĠMal ays
ĠAny way
v ation
Ġp s
Ġmet ers
t ender
Ġwork out
ĠMic hel
aw are
h rown
Ġengine er
b led
Ġrespons ibilities
ĠSyr ia
Ġconv in
v ol
e ut
Ġp our
t hrown
Ġref res
a uction
Ġoper ates
ĠM ap
do ors
ĠCre ate
oc key
ĠElectr ic
Ġath letes
Ġvar i
Ġp ipe
ph a
Ġextr act
Ġsto cks
Ġdemocr acy
af ter
Ġed ges
itar ian
Ġprocess or
Ġpen alty
a ith
lec ted
Ġbo ots
Ġtem por
Ġdirec tors
j o
Ġconserv ative
Ġcontrol ler
ax y
Ġres erv
ĠB ry
Ġre hab
Ġsc at
Ġking dom
add y
Ġad mission
i ates
Ġbul k
w een
ĠS top
Ġwin ners
ĠPalest in
Ġsof a
ition al
ĠN ice
Ġthe atre
anche ster
Ġde em
Ġfr uits
Ġb its
Ġdim ensions
Ġball s
Ġgard ens
ĠB ot
r un
ess ed
k ers
ĠGr ad
Ġcour age
Ġexpand ing
te x
ĠN ature
Ġl iver
Ġdes truction
Ġtime ly
es is
ĠE P
ĠSc iences
Ġenorm ous
ĠCon struction
Ġch ip
Ġ auction
ĠAdv is
Ġdisc ipl
Ġ8 6
Ġ199 3
ĠM oo
Ġsup pose
Ġinsp iring
dr ome
Ġcomput ing
Ġpeace ful
ĠLew is
Ġbe aches
Ġviol ent
h ot
Ġshort ly
Ġex it
Ġl ying
om y
ĠðŁĻ Ĥ
g ments
Ġrespond ed
Ġgrad uated
â ģ
ow a
Ġdis abled
Ġcr imes
Ġdetermin ation
Ġalumin um
ĠK ansas
Ġchem istry
Ġend less
Ġal an
wor ld
Ġcru ise
ĠM erc
Ġsh ade
Ġinfl amm
ĠA w
ĠReg ard
Ġvac uum
ag ger
ah oo
t une
ĠN ear
Ġvoc al
ĠRes ources
Ġaccompan ied
l ined
Ġsh ame
ĠInd ones
Ġkey board
Ġsec tors
ĠL incoln
Ġappl iances
ĠWord Press
Ġwild life
ĠM anchester
ĠK elly
c tor
Ġfol k
Ġ tender
Ġ, '
Ġh ired
am i
Ġtex ts
ĠE X
Ġsh orter
qu arters
Ġle ase
Ġ18 7
tt es
int h
Ġs ons
Ġnut ri
Ġj azz
Ġfol der
Ġ tension
âģ Ħ
ĠF urn
Ġaff ects
Ġgun s
Ġhit ting
Ġdisapp ointed
Ġw are
Ġhe m
Ġhuman ity
est y
T ER
ĠC os
Ġcomp assion
Ġthe ater
Ġfollow ers
ĠP ho
gr ade
Ġche f
ĠB BC
Ġte ars
sc reen
Ġcool ing
Ġgener ous
Ġtim ing
Ġfit ted
Ġanaly ze
ĠÂ ©
ĠS ong
Ġsh oe
ĠEconom ic
Ġsp o
L S
Ġb ust
ond a
Ġcons ulting
T P
Ġsubs cription
ĠExpl ore
Ġreb u
Ġ8 7
Ġexcit ement
ch ing
Ġadop tion
Ġdifferent ly
t ags
Ġfin ancing
Ġan ger
Ġimag ination
to red
Ġlaw n
ĠTr ail
Ġas t
Ġtour ist
Ġpl acing
Ġsyn thes
Ġland ing
ch ild
ĠE sc
z ing
Ġcomple ting
ĠM ind
h igh
Ġb aking
Ġleg acy
Ġlimit ations
Ġrece ives
Ġhy brid
ĠB ase
ang el
Ġproduc ers
l og
Ġtw in
Ġtal e
Ġar med
Ġbro ker
Ġ9 00
Ġde leg
Ġoper ators
Ġany body
Ġbene ath
Ġident ifying
Ġassoci ate
Ġprote ins
Ġcons olid
ĠM arsh
Ġ199 2
our i
Ġpost er
Ġ7 9
se mble
ĠY outh
Ġrating s
Ġinsp ire
Ġan ch
Ġg ross
Ġs its
Ġ9 3
ĠP oly
Ġvend ors
ĠFor um
Ġbe loved
Ġfeed ing
Ġcryst al
ul ates
ĠW onder
ĠS ams
Ġaff airs
ĠD or
Ġtem ple
Ġg host
Ġf ired
Ġmatt ress
thr ough
ĠR aj
ĠEd ward
ĠSchool s
Ġjack et
ĠLa ure
vent ions
ĠUS D
Ġ tang
v an
Ġloc ate
ĠMach ine
om atic
Ġl ips
Ġpublic ations
us hes
ĠA I
Ġpain ful
Ġass ured
t el
Ġaccept ance
Ġprom ises
p ower
Ġprecise ly
ĠR and
athe d
op er
ĠLin ux
ĠAuthor ity
min ute
ĠPat rick
Ġ thrown
ĠE arl
Ġproduct ive
ĠC ancer
ĠJ ess
be an
Ð »
ĠAn sw
Ġefficient ly
Ġvot es
Ġmag ical
ĠTot al
g ie
Ġsat ellite
Ġem issions
Ġencour aging
Ġsp ell
Ġworld s
ap se
Ġexpl oration
ot ing
d on
Ġod ds
Ġ6 2
ro it
ĠGl ass
r ad
ĠAl ways
Ġforgot ten
Ġfor ums
ĠF low
Ġre act
ĠCom mercial
ĠComp et
ĠH ig
Ġpep per
Ġcred its
is hers
Ġpurch ases
Ġar bitr
Ġbeg un
Ġreal istic
Ġpat ent
Ġtit led
Ġpsych ology
Ġbar rel
Ġw ing
Ġthere by
Ġachieve ment
ĠComple te
Ġsepar ated
Ġvibr ant
Ġincorpor ated
Ġb inary
Ġcult iv
le e
Ġign ore
od ed
ĠC ape
in ction
Ġgr ay
Ġcomp ly
Ġfranch ise
Ġlock ed
Ġcontr actor
Ġcolle ges
ĠMary land
ĠGovern or
Ġm art
Ġfall en
Ã ³
Ġun fortunately
Ġ9 4
Ġmix ing
ov iet
Ġir rit
ĠPh arm
Ġglass es
Ġex plicit
Ġb other
ĠReg ional
es y
ĠAff airs
Ġpl acement
t in
ob b
ĠB uff
Ġposs ession
Ġb in
vit ra
Ġren der
Ġoff ensive
c ure
w ed
io x
ĠGet ting
ĠC ooper
Ġparagrap h
Ġrelax ed
Ġv ine
Ġfig ured
Ġpersonal ized
Ġh ref
Ġlibr aries
is ure
Ġarg uments
Ġpublic ly
ĠB R
Ġpl ates
Ġb ic
Ġgr id
Ġconc luded
ĠRepublic ans
Ġdo zen
f ers
ĠâĢĿ )
ĠD ump
Ġe ars
ĠAddition al
Ġhere in
ĠCreat ive
Ġnav igate
Ġ... ...
Ġeng lish
Ġent ries
Ġenem ies
id ges
Ġselec ting
Ġshel f
Ġattemp ted
ott age
Ġemp ower
ĠAd vent
Ġrel iability
Ġcons ervation
Ġprogress ive
Ġwidt h
Ġup set
Ġdeal er
Ġtrans mit
ow ed
Ġend e
Ġvar ied
Ġadv ise
Ġident ical
ĠG A
m ans
te ous
Ġweak ness
Ġpass engers
Ġl in
Ġoverse as
Ġtermin al
Ġdiscip line
Ġde ar
ĠR oss
ĠEmp ire
Ġconf lic
Ġh oly
Ġs ized
ch o
ag a
ĠCh ap
Ġcr usher
Ġpres erve
ĠPe ace
Ġscul pt
on ing
ĠCon stitution
ĠA G
ot te
Ġke en
ĠAp art
ĠIn tell
k o
Ġdefe at
Ġp izza
Ġgr ain
j i
for ward
Ġdocument ary
ĠM ix
ill er
ĠSim on
Ġcompr ises
ĠCap tain
Ġfast est
ĠW isconsin
ĠB lo
Ġconvin ced
Ġwhere ver
Ġcritic ism
Ġm ask
Ġtrou bles
Ġillustr ated
Ġenc l
Ġtour ism
g ence
Ġvari ables
m art
Ġlight weight
ĠLe on
Ġ... âĢĿ
Ġdisc ounts
Ġstr iking
t atto
-- --
ĠAny one
Ġdeath s
Ġagric ultural
Ġge omet
Ġdelight ed
Ġfr ames
ĠAs sembly
Ġhonest ly
Ġexhib it
ĠB ir
Ġ tire
Ġir re
ĠWhat ever
ĠPerform ance
Ġ tatto
ĠEqu ipment
Ġline ar
Ġrel ate
ĠL anguage
Ġdevot ed
Ġpresident ial
ĠNiger ia
Ġbe ings
el le
ĠAn ne
Ġattr actions
c alled
ĠUp on
Ġco ating
Ġin hab
Ġsec ured
Ġass ault
ĠAll en
k ind
ĠM aking
em an
ig s
Ġp ione
ĠRe ally
Ġbe ef
TM L
Ġdress ed
Ġ? )
Ġcustom ized
Ġsuppor ters
b ound
S cript
ĠT ags
Ġindepend ence
Ġdetermin ing
ĠF ab
Ġsh adow
Ġcompl aints
Ġsec rets
Ġgl ory
Ġb ump
Ã Ń
Ġcus h
ĠSams ung
S t
Ġstream ing
Ġsimultane ously
Ġnice ly
Ġl ol
man n
ĠC ON
ul us
ĠIm ag
Ġev ident
Ġreflec ts
Ġrep roduc
Ġdel iber
Ġsell er
c ery
ĠL aur
Ġinst ances
ĠAnt h
Ġpers u
Ġlyr ics
ect ives
Ġmem orable
ĠT a
Ġe B
ĠS ac
Ġbless ed
Ġp ants
Ġtreat ing
ie val
ĠLe gal
Ġf iscal
ĠPhoto grap
air y
Ġbut tons
ĠB h
ĠO cc
ĠF le
Ġbr ick
Ġtechn ological
Ġro cks
Ġd ict
Ġv oices
ĠT alk
Ġre treat
Ġcar ries
Ġende av
Ġ tv
ĠLit er
Ġhome work
Ġqual ify
Ġexcell ence
ĠRes ults
Ġimp acts
Ġd ying
Ġint ensity
Ġexpect ing
Ġrel atives
med iate
ĠMel bourne
Ġan ces
ĠClass ic
ĠH op
Ġg ains
Ġspecific ations
Ġfle et
Ġj ail
Ġneighb ors
Ġbound aries
Ġc er
ĠThe rap
ĠN ut
ĠSaud i
urer s
Ġdis k
Ġb und
en ix
Ġ199 1
ĠG as
ĠEx c
ĠIndustr ial
ĠS W
ES S
Ġmar ine
Ġtradition s
af ted
Ġcar to
d ated
ĠMex ican
Ġ tune
Ġinflu enced
Ġ aqu
Ġ q
arr ass
Ġun em
Ġim aging
Ġconver ted
ĠIndian a
ĠH ost
ĠEnter tain
Ġoptim al
s ection
augh ters
Ġpre st
ĠS ou
ĠBer lin
Ġbank rupt
Ġche er
ĠS oviet
Ġgu ided
os ystem
Ġ8 9
Ġep ic
Ġcompet itors
ĠÃ Ĥ
Ġsu icide
ĠB or
ĠLe ave
au x
ig e
Ġstead y
Ġ8 3
Ġclos et
ĠW ow
and al
Ġchar ming
Ġutil izing
Ġincorpor ate
ĠGr ant
Ġtravel ling
Ġl amp
ĠSc ient
ĠL ux
Ġattemp ting
ĠS ad
ĠChair man
Ġpartic les
Ġtack le
Ġsignific ance
Ġdig est
Ġassum ed
ater al
Ġcook ed
Ġmotiv ation
Ġla undry
Ġtr ucks
Ġstr ive
Ġh ills
ik a
z ens
Ġdepart ments
Ġdrop s
Ġobs erve
U C
ĠTr ue
Ġcomp ound
Ġl ately
ou ver
Ġh ind
Ġpar l
ec tors
Ġdiam eter
ĠN urs
Ġ19 50
Ġload ing
Ġne at
ĠS i
Ġic onic
Ġcontr actors
ĠR oy
Ġpop ulations
Ġoil s
ĠTur k
ane ous
Ġcl oth
Ġcollec ting
ĠBr is
ĠM ort
Ġf les
w orth
Ġprin ts
es tr
Ġcorpor ations
v i
Ġsubs crib
Ġpull ing
Ġtong ue
ĠR ent
Ġf ancy
ail and
l an
Ġacknow ledge
Ġprov ince
Ġrestor ation
er als
U M
Ġn an
m ind
Ġenjoy s
Ġc ous
Ġas tr
Ġrequ iring
fort able
Ġmedic ations
his t
ĠOr ange
Ġre vers
Ġautom ated
ĠN az
Ġachie ving
Ġye ah
int end
ĠR ound
Ġtoile t
ĠTenn es
ĠS port
Ġhum or
oc al
Ġpr iced
ol i
Ġmar ijuana
v o
Ġisol ated
Ġmoder ate
Ġagre ements
Ġutil ized
ĠE ag
ĠB ene
Ġrout es
ĠAnd erson
ĠRest aur
r at
ĠC ash
Ġ3 50
Ġbreat hing
Ġce re
Ġsur gical
ĠPract ice
ĠPl ant
ĠS ize
Ġis lands
sh ire
ĠG un
Ġqual ities
Ġcou pled
ĠD iam
are ttes
ĠP ear
ĠG ene
l ass
ĠV eter
il itation
Ġalgorith m
Ġfre el
Ġdec e
Ġfo am
Ġ18 5
Ġmagn ific
Ġar c
Ġhand led
Ġpe er
ĠN ob
ors hip
el and
ĠN ik
Ġrece p
Ġten nis
Ġsatisf y
Ġdif fer
ĠWh it
b ie
ĠT oo
ĠLu ke
Ġbat teries
Ġch amber
Ġexam ined
u ity
ĠC rit
Ġmain stream
t ling
ĠA bs
m outh
Ġnut s
ĠDist ance
ĠS ide
Ġmeas uring
ĠShe l
ĠR ather
est one
OR E
ed ge
act ic
y t
f ire
it ual
Ġr uling
ĠMc G
Ġ16 0
P R
ĠC ool
Ġre actions
ĠE T
Ġbas ement
ĠT err
Ġul tr
Ġout doors
ut ers
Ġ10 1
Ġvar iation
Ġtw itter
id t
Ġdyn amics
P s
f ish
Ġvar iations
ĠUl tim
Ġse ating
ĠF ant
Ġas ian
ept h
Ġtow er
Ġfil ing
ĠSn ow
umn i
Ġreduc es
ĠP ick
iffe rent
Ġimplic ations
t hod
Ġc ure
olit an
Ġtw elve
Ġinhe rit
Ġcogn itive
ĠBel g
f ather
ĠDis cover
ĠCour se
anc ouver
Ġgr ades
ĠVal ent
Ġclin ic
Ġpolit icians
Ġmar g
c asts
U L
Ġprin ter
Ġadvent ures
Ġal ert
Ġstop ping
Ġdiscuss ing
o the
Ġmoist ure
ĠM E
Ġn ail
Ġad verse
Ġf ought
Ġb oring
Ġdet ected
Ġcitiz en
ic ting
Ġbr anches
OR D
Ġhe al
u to
Ġconsult ant
Ġpen etr
Ġper pet
ĠBr ing
Ġbur den
ou ds
b acks
ĠP or
Ġf ut
ĠDe ep
ab ama
Ġm aker
Ġfil ters
Ġc yl
Ġ ip
or se
Ġh ood
Ġadjust ed
Ġform ing
Ġthrow ing
m other
ĠOff icial
Ġstr ain
Ġsee ks
Ġcor rec
ĠId ent
Ġmut ual
AN D
ĠUn it
Ġnovel s
igh ters
ĠP resent
ĠB urn
m onth
Ġn ick
Ġaltern atives
ĠCop yright
Ġregard ed
Ġcorpor ation
Ġoblig ation
ond e
Ġback ed
ac co
Ġaccom pany
ĠP os
ĠCo ver
ĠAlex ander
Ġchar ging
m aker
Ġmod ify
ĠD ear
ĠCons ider
Ġprosp ective
ath on
Ġadv ances
ĠEm ail
Ġgrad ually
Ġemb arrass
Ġ] [
Ġnot ion
Ġtutor ial
Ġw orthy
ĠH TML
tor al
Ġfail s
Ġfund ra
ĠR A
Ġmar gin
Ġdev ast
Ġr ush
ĠEd itor
Ġg el
Ġcomplex ity
Ġcons p
re ction
Ġcur tain
Ġpre view
Ġ36 0
m ont
Ġlo vers
ĠM ove
Ġper ception
ĠPh D
Ġinterp re
at han
Ġpet ition
Ġfund ed
af ts
Ġlegit imate
Ġpass enger
Ġcomb ines
Ġte ens
Ġtremend ous
Ġst ays
az ines
Ġg ently
ĠFoot ball
Ġj unk
Ġ? !
ĠS ri
form ed
Ġval ve
ĠRec ently
Ġeconom ics
Ġintim ate
rol og
Ġ ties
Ġd ivers
hy dr
id ity
rop h
Ġrestr icted
Ġs q
ĠR ain
O s
Ġsu its
c ard
ĠP ed
Ġreflec tion
Ġpoll ution
Ġmolec ular
Ġbes ides
T E
Ġm ul
Ġconscious ness
ĠF em
ĠS ony
en to
Ġ tags
Ġread s
ĠD yn
Ġp p
Ġpo em
ho le
Ġcare ers
ild ing
ĠRet r
ĠDef ense
Ġmen tor
Ġexcess ive
Ġreject ed
Ġpre ferences
Ġ8 2
Ġvers atile
Ġc ub
ne ath
ĠTennes see
Ġblog ging
ĠChampions hip
ĠTr ib
ĠChan nel
ĠH an
ou b
ĠB ureau
Ġdef ensive
ĠB E
ĠH al
ĠF inal
iv a
Ġun in
ĠBat tle
Ġst roke
Ġren owned
writ ing
Ġres on
ab l
it o
Ġdemand ing
Ġcle ver
ĠCert ified
Ġsp onsored
I E
Ġbr on
Ġtable ts
Ġbot tles
Ġimplement ing
Ġscholars hip
Ġd ess
ĠMor gan
ist ically
ĠL C
Ġlo ver
Ġshel ves
ĠR ap
Ġrob ot
Ġsup press
Ġ6 1
Ġrad i
ian g
Ġveter an
Ġm akers
Ġcol ored
n g
ĠTechn ical
AT E
Ġen abling
Ġw elfare
ĠAnth ony
Ġ* *
ĠB ag
ĠBe h
Ġs isters
Ġelectr onics
ĠDou ble
Ġclim b
ĠN H
Ġdisc retion
Ġhand ful
Ġsil ent
Ã ¤
ĠYear s
Ġab stract
c m
ing e
ĠRec ords
4 5
ov en
ĠMiss ouri
Ġgr ants
Ġcompan ion
ad ays
ok er
ĠCast le
Ġparticip ated
Ġag ing
ades h
omm un
ĠK h
Ġstat istical
is p
Ġjun ior
Ġl y
ĠI owa
Ġsp ouse
ĠNe ther
Ġhun gry
Ã ¶
erv ing
Ġdecre ased
part y
ĠF ish
Ġsc oring
ĠG ab
Ġcook ie
Ġview ers
Ġbet ting
Ġval ley
Ġver ify
Ġoptim ization
Ġvis a
ĠV ers
ĠTit le
ĠT X
t ens
Ġkn ife
ĠBl ood
Ġhol der
Ġp add
T R
Ġinstall ing
ĠDet roit
Ġhand ed
se a
Ġbr ut
ĠM atch
Ġse w
Ġb un
Ġany time
er k
Ġ: .
Ġsub mission
Ġte ar
Ġdes ires
igen ous
Ġcor ruption
Ġcondition ing
ĠPhilipp ines
ĠM ission
st atic
ĠT ai
Ġcap tain
Ġgo v
Ġembr ace
usal em
Ġmin eral
ĠAct ually
Ġwr apped
Ġemer ged
Ġprem ier
on ut
ĠR O
ĠTem ple
se ason
Ġabandon ed
Ġdeem ed
it udes
ĠH art
Ġun limited
Ġpart ial
Ġrecommend ation
Ġunn ecess
im a
Ġmarket place
ak i
Ġprof ound
Ġdownload ed
ĠDe an
Ġmerch and
pr ises
ĠG il
ĠUn til
Ġcount less
Ġsp at
Ġd ated
Ġent ities
ac ial
Ġoff ense
Ġreferr ing
Ġseem ingly
op les
Ġser ial
ĠD ick
ĠMc D
Ġin take
Ġn ude
Ġs ixth
ĠDen ver
ĠR oll
Ġthe ories
ĠArch itect
ĠN A
ĠL i
ĠTo gether
Ġ198 9
Ġb ite
Ġther mal
ĠF uture
ĠOlymp ic
rup ted
Ġmotiv ated
ĠSt ay
Ġqu it
un a
ch ain
ĠJud ge
Ġf et
Ġdiagn osed
Ġpur ple
Ġrol led
Ġenc ry
ĠSub s
Ġsepar ation
Ġbur ied
ĠA BC
Ġdiv ine
ro t
Ġ, âĢĻ
ĠExcell ent
Ġsal ad
c ies
ĠScott ish
Ġbo ats
Ġdon ations
be at
Ġharm ful
un ct
ĠCon vention
Ġle ak
Ġconf idential
Ġm ice
ĠN ap
d am
let te
ĠMeet ing
Ġprop ag
Ġviol ation
ĠIs lands
us ive
im s
ĠCam bridge
Ġvess el
b ally
ĠDet ails
Ġinval id
Ġadd iction
it ory
Ġal ien
Ġm ater
ec r
ĠM and
Ġunder ground
Ġadj acent
ĠP L
ĠF resh
Ġco aches
Ġpresent ing
ĠAr k
Ġoblig ations
Ġarr ange
ĠKind le
Ġs ail
ĠG ay
Ġpro l
ĠE R
ĠJava Script
Ġcolor ful
Ġat torneys
Ġmother s
ĠMar ine
Ġread ily
Ġsusp ension
Ġaud iences
Ġhun t
ĠA qu
Ġbi ology
Ġpron oun
Ġeth ical
ĠOx ford
r an
ĠE mb
ĠTh ailand
Ġoffer ings
Ġorder ing
ĠCo ach
ĠB S
Ġel ite
ĠS uccess
ĠK ate
ĠCompan ies
Ġst ones
Ġtherap eut
Ġpresent ations
Ġsu ited
Ġremind ed
Ġmanif est
ĠJer usalem
Ġcreat ures
Ġdes ert
Ġcompr ising
ab s
ct ic
ĠIs a
Ġec osystem
ĠSomet hing
Ġdiscr imination
Ġfl aw
Ġteac hes
Ġagric ulture
ĠRev olution
Ġwa ist
Ġdi agram
on al
ĠEle ment
Ġtransp arent
Ġg est
onom ic
Ġres erves
Ġphenomen on
Ġspec ially
on ia
Ġdim ension
Ġtr ails
ĠPart icip
ĠP P
Ġresist ant
um my
Ġsil ence
ĠP a
Ġmathemat ics
b rew
Ġdo zens
Ġ13 0
h ill
ĠT el
Ġhe ated
Ġneigh bour
Ġback s
ĠAnd y
ĠMoo re
Ġoption al
Ġwind s
h umb
ĠR a
al g
Ġchap ters
Ġinform ative
ĠPh one
Ġtrop ical
Ġacc red
vel and
1 00
ĠHow ard
Ġfro zen
oc ated
Ġn est
Ġn od
Ġsurv iv
st airs
Ġbre w
ĠGre ece
Ġto ss
Ġjud ges
ĠR ol
Ġbond s
Ġap olog
ĠD M
Ġsp a
Ġremem bered
Ġcoin s
Ġchar m
ĠB irth
Ġall erg
ER E
Ġlab els
Ġl ounge
yc l
ĠAgr icult
Ġappro x
Ġfear s
b urn
Ġch op
ĠEntertain ment
Ġacc us
Ġrem ed
Ġalbum s
Ġdisp ute
Ġclos est
Ġblock ed
Ġul tra
ĠG ary
Ġhar ass
Ġchar ts
Ġb atch
Ġknowledge able
o vers
z o
Ġpr iest
ĠH S
els on
ĠP ier
Ġac ute
p ack
Ġp icks
Ġback yard
ĠRo ber
Ġcan vas
h resh
Ġgar bage
ĠT ree
Ġvit amin
d rop
ĠV irt
ĠM O
ĠV ancouver
ĠW ire
Ġdark ness
Ġgl or
ĠT ell
Ġcelebr ating
t hresh
ap olis
Ġpo ison
Ġr ug
Ġsol ving
Ġs ake
ener ation
ful ness
qu er
s ec
ie re
Ġro d
Ġpay day
Ġsepar ately
are r
Ġretail ers
Ġp enn
i ov
Ġorgan ize
Ġcontinu ously
Ġqu een
Ġdress es
ĠAl i
Ġcontact ed
Ġsh ore
Ġreason ably
Ġcur ve
ĠG ulf
as ma
al an
ĠV A
pr int
Ġbre ed
Ġobtain ing
Ġb out
Ġut ter
ĠRes erve
Ġexecut ed
Ġs ou
Ġmem br
Ġrepl acing
ĠM agn
Ġcal ories
writ er
ĠBet ter
= =
ĠPl ans
Ġacc ent
Ġrespons ive
ur d
Ġd ough
ĠAl abama
Ġann ually
arl ic
Ġb ones
t ends
ĠF R
ĠN a
ric ane
gu ard
Ġsc al
ivid ually
ĠSpr ings
ĠW ik
Ġdistinct ive
g ree
Ġanaly tics
ĠPro b
Ġprosp ect
ĠDiam ond
Ġfl ags
Ġ20 20
ĠT agged
t humb
Ġincor rect
Ġgener ating
ĠCent ury
olog ically
uis ine
Ġaddress ing
Ġpropos als
ĠCommunic ations
Ġdiscl osure
Ġcomp elling
Ġv ig
Ġproceed ings
Ġreflec ted
Ġflow s
onom y
Ġprom ising
ĠAfghan istan
t i
Ġsub str
Ġr ival
Ġsh ipped
Ġles bian
ib bean
Ġw ines
Ġd ash
Ġ thresh
Ġunder neath
Ġprot ective
Ġf er
ĠOf ten
ning s
Ġmodel ing
ĠQue ens
Ġflo ating
ĠF ashion
Ġintr ig
ab is
Ġjurisd iction
om ic
Ġperce ived
Ġsh out
ĠL ot
Ġprosp ects
n o
Ġformer ly
mar ks
Ġp ockets
ixt ures
O O
Ġess ence
Ġdr unk
ĠP urch
Ġj et
Ġapprec iation
ĠGr ade
ĠBl ock
Ġj am
Ġaddition ally
pl ant
Ġfavor ites
Ġre vel
or i
Ġhigh way
Ġr itual
ĠMuslim s
Ġfles h
ĠU P
Ġchair man
d ie
ont al
ĠS ab
Ġbe ans
as ant
Ġref use
ĠC ra
Ġprec ision
ĠHarr is
Ġ tends
ĠSim ple
w ith
ĠPre p
row ave
ĠMar g
Ġlegend ary
Ġsuggest ing
Ġentreprene ur
or ters
s ized
ĠB apt
Ġr ip
Ġtr icks
ĠTh ai
Ġarg ued
Ġfunction ing
le b
Ġso ap
is to
ĠRes ort
ĠEv ents
pos ition
Ġdead line
Ġmag azines
Ġinstit utional
ĠFurn iture
ĠK ings
ĠV PN
Ġsymbol s
ograph ical
Ġgrow s
ed ic
Ġfail ing
Ġcontrol ling
ĠH ub
to oth
ip edia
Ġ12 5
ĠUs ually
ol ph
ĠB achel
ĠNether lands
Ġgr ip
ac ies
Ġ aug
Ġacc idents
ĠH it
ĠInst all
Ġconf usion
Ġmult ipl
Ġcond em
Ġtour ists
ĠFl ash
Ġp ound
ĠPort land
Ġelder ly
Ġar ise
ĠBrazil ian
Ġd aughters
Ġconsist ing
h rew
Ġspeed s
ĠC ertain
Ġsubstant ially
tr ic
Ġspok es
U ST
ĠC V
ĠCl ark
Ġsqu ad
ĠD er
ĠG ord
ĠUt ah
ĠA V
Ġaccep ting
ĠI ce
t ires
ĠJ en
Ġtwe et
Ġkil omet
Ġcy ber
laim ed
Ġembed ded
ĠFranc is
Ġh iking
Ġ14 0
at oes
Ġinf ections
Ġ tires
ĠPrem ier
Ġshould ers
ĠFe atures
Ġb om
Ġwork force
Ġre wards
Ġtheore tical
Ġl one
Ġcoun ts
Ġanticip ated
Ġmyster ious
t hrew
Ġle mon
Ġspecial ty
ill ance
Ġpros per
u v
x y
Ġnews letter
ĠBet ween
ĠS in
Ġcomp ounds
Ġreg ret
Ġp ub
Ġb ibl
ĠAss ess
ĠS om
ĠUr ban
Ġestabl ishing
Ġo ak
ĠC ulture
Ġmod ules
Ġdon ation
Ġm igration
Ġeval uated
Ġmar ry
ĠCons ult
ĠB ond
Ġlab our
is ons
ĠLead ership
itzer land
Ġaffect ing
Ġmanufact ure
i y
Ġwel coming
ĠHar vard
ĠC ell
Ġshel ter
ĠE aster
Ġ, .
Ġthere of
im b
Ġinvestig ated
ĠCor p
Ġtreat s
Ġfoot age
ĠT aking
Ġdam n
ĠAd ult
Ġfire place
i ro
ap or
Ġsurv ived
Ġpol ar
Ġw ars
Ġpra ise
ĠC hen
ĠT C
Ġmus lim
Ġnav igation
de f
ĠH E
Ġl i
d epth
Ġcompet ing
ĠOrig in
Ġmagnific ent
Ġpath s
Ġobs ervation
Ġsens itivity
Ġh o
Ġm arch
ĠAll iance
ĠO d
ic hes
ab ad
Ġp ays
ĠBr uce
iz able
Ġlux urious
ĠTy p
Ġclim bing
Ġbe am
is an
U D
ĠCharl ie
Ġbathroom s
Ġ thumb
Ġsens ors
Americ an
Ġrece iver
ĠL am
Ġinfl ation
Ġair line
ĠL ad
ĠL uck
ĠAn na
ĠInd ividual
Ġprevent ing
Ġintern ationally
ĠM ail
sh op
ĠW at
ĠEnter prise
Ġgovern or
Ġmetab ol
Ġorient ation
com merce
eter min
w a
oc y
Ġlog ical
Ġfree ly
ĠE c
Ġdecor ative
Ġprev al
Ġsk ip
Ġobserv ations
Ġprob ability
ick ets
ĠPho enix
Ġinstruc tor
em et
Ġ ug
ĠL OV
Ġ* **
Ġw rest
Ġaccur ately
ĠA W
ĠMay or
ĠMar ia
Ġcontr ary
ĠW A
ĠC oc
Ġr anges
Ġp ine
Ġadop t
Ġscr ip
Ġeth ics
ĠBr on
Ġsqu ee
ĠCe lebr
ul in
ĠO P
ĠMag ic
Ġconv ention
ĠD ance
Ġbu zz
ĠW olf
Ġconfirm ation
Ġdecor ating
Ġst ack
Ġanalyz ed
ĠAnd re
ĠSwed en
ĠH u
aut hor
Ġam id
Ġconfig ured
n ut
Ġcrypto cur
Ġsacrif ice
Ġind ia
o a
Ġsn ap
Ġrev ised
Ġqu ery
Ġang el
Ġcamp ing
ĠP il
Ġinhe rent
Ġ... "
Ġclaim ing
H z
ing le
Ġform ats
Ġdec iding
Ġleg ally
ĠD omin
ĠM un
Ġswe at
Ġw age
esp read
ĠAl an
ĠNever theless
Ġj ury
Ġrent als
Ġpod cast
Ġvess els
ur red
ĠM B
Ġcontrovers ial
ĠIm port
Ġj oke
Ġdispos al
or ient
Ġbas ics
Ġsto len
Ġcross ed
Ġhaz ard
Ġh al
Ġste ep
Ġautom otive
Ġ198 8
Ġeduc ated
n et
Ġre aches
Ġbal con
ĠB L
ĠWed ding
ĠOrgan ization
Ġcl ips
ĠD ri
Ġh arsh
Ġup s
Ġadap ted
Ġret ro
Ġtransform ed
ar ia
Ġindepend ently
ĠS cr
Ġstraight forward
Ġdoc tr
Ġcharacter ized
Ġelement ary
Ġclean er
m arket
Ġinvest ed
ĠKent ucky
yl on
Ġbar g
im m
Ġch ic
ĠBe at
Ġle isure
Ġ threw
Ġen roll
Ġattack ed
Ġrhy thm
ĠF al
Ġinnoc ent
ĠPh ill
Ġstr aw
Ġgro cery
ĠN ation
ip her
ĠO w
Ġwell ness
Ġcus to
Ġcig arettes
c i
Ġtem p
Ġsup plements
Ġapp et
Ġun lock
Ġind irect
p ay
ert ation
Ġsyn drome
ĠDec or
Ġafter wards
Ġrepeated ly
ĠL ane
Ġpart ially
Ġmed itation
Ġwh olesale
Ġclean ed
lus ions
Ġp unch
he ld
Ġshow c
amm ar
ĠN ative
Ġkill er
Ġav o
ĠSpe aking
Ġtil es
ĠJ oy
Ġcoin c
art ed
Ġfr action
Ġstake holders
Ġcost ume
Ġwarn ed
pt ic
Ġ> >
ĠWal k
ĠD ad
ĠM ars
ĠMalays ia
Ġd ot
Ġ" >
Ġconstruc t
ĠG ate
ĠV it
ĠSus an
ĠH omes
p erson
ĠIm ages
ĠPrinc ip
Ġhop ed
eff ective
we ek
ĠR oc
Ġw ings
Ġind ividually
ĠHer itage
Ġeas iest
Ġsuggest ion
ĠUp date
Ġexp end
ĠEp is
om er
Ġtre as
Ġfif ty
Ġcontain ers
ĠAdmin istr
Ġnation wide
ĠT ed
Ġshow case
ĠS it
Ġf oster
ag r
ĠF M
b ut
Ġanim ation
ĠD R
ĠSup pl
ĠD ays
Ġsecret ary
struc t
ĠU V
id em
Ġ[ /
con n
ĠF ine
Ġsubsequ ently
ĠHigh way
Ġdr ied
Ġpre ference
Ġi T
Ġdis abilities
Ġattr acted
Ġtr ains
ĠN ic
Ġarchitect ural
Ġsc iences
Ġgovern ance
bor o
ows hip
Ġpro xim
ĠSw itzerland
ab ul
Ġsustain ability
ĠC ow
ro be
3 6
ĠCorpor ate
Ġbul let
ĠG er
ĠEn c
Ġhom eless
ĠF o
Ġb ang
Ġpred icted
Ġexc use
Ġexp ed
ĠNe v
Ġbrows ing
Ġst abil
Ġdistr icts
Ġdest inations
Ġd rew
ĠStr ateg
Ġres ur
Ġthreat ened
ĠS cript
Ġp ond
or ized
Ġconduc ting
Ġvol umes
ĠG PS
j ud
Ġwood s
other apy
ch ron
ĠSen ator
Ġun e
c or
Ġr he
ĠT on
Ġcle ans
Ġat e
Ġfun eral
ĠM as
ĠBrook lyn
ĠAm end
a very
ĠCom ment
Ġcand y
g ate
Ġrecruit ment
ĠJon athan
Ġsc ared
Ġdist ur
ic ation
Ġpres cribed
Ġte lec
ĠTr ack
ac on
Ġdomin ant
em ade
ad vant
IG H
r ont
Ġattend ance
top her
ĠM os
ĠTr ain
Ġbuild s
Ġdraw ings
Ġfac ial
le ans
tim ore
? ?
Ġdeal ers
Ġpubl isher
ĠJ u
Ġmedic ines
at ural
erv ice
ĠV ac
ĠGr aph
Ġval ued
Ġuncom fortable
Ġran ks
Ġown s
ĠInvest ment
h u
ĠH air
Ġround s
Ġcor ners
a que
Ġtem plates
ĠJust in
sh ore
Ġed ited
spec ific
ĠUkr aine
s he
ont in
Ġnot ification
ĠChall enge
Ġwarm ing
Ñ ı
Ġrecip ient
Ġhyp othes
Ñ ĥ
Ġol ive
Ġor chestr
to gether
m ph
emet ery
Ġc ited
uss ion
Ġcraf ted
Ġw ound
v ious
Ġsh ine
ĠP V
ren s
Ġcon sole
Ġk its
Ġr uled
ĠAm b
ent er
Ġseason al
Ġshe ep
ĠPr ize
ĠG B
Ġsupport ive
Ġch ains
ĠF BI
Ġhand les
Ġdepart ure
Ġg aining
Ġstep ped
Ġdel icate
Ġtouc hed
Ġp ear
ĠCharl otte
ĠHol iday
aw l
ĠResp ons
ĠDump ster
im mer
Ġcoup on
ge red
Ġbook ed
sh ine
Ġveter ans
umb ai
Ġcelebr ity
Ġoccas ional
Ġwid espread
Ġevol ved
ĠIn side
ov a
ĠCle veland
Ġfurn ishing
ank a
Ġsub stitute
Ġbankrupt cy
Ġresp ected
Ġname ly
Ġign ored
ĠDesign ed
ar ms
Ġn erve
ipp i
Ġadvoc ate
ĠC old
Ġpas te
Ġhorr ible
Ġappe aling
Ġmob ility
AR T
ĠO sc
ĠGr ace
ĠC ars
ĠImag ine
az ing
ĠMc K
Ġd iver
Ġcoast al
N S
ĠR ow
ĠN ich
ĠR F
Ġdup lic
Ġtherapeut ic
Ġdys function
ad er
Ġpersp ectives
ĠCar ibbean
ord ination
Ġcollabor ative
Ġpl umbing
off s
ĠB ear
ĠB ull
Ġen velop
Ġf ont
f ly
ĠDub ai
Ġapp arat
Ġattrib utes
ĠH ence
Ġapplic ants
ĠN ash
Ġrev ol
ac o
ĠHawai i
ĠHam ilton
Ġsc ary
Ġcontin ually
ĠInc re
Ġ198 6
Ġdraw s
ĠAd vert
l ink
ĠâĢ ĭ
Ġelectr on
Ġ! ).
g ement
Ġsim ulation
Ġfl ip
ĠInc ludes
Ġanalys es
C O
Ġroy al
os ph
ĠB rew
Ġdes criptions
for ced
Ġchampions hip
Ġworkshe ets
Ġd ub
ĠBr ight
ĠM osc
Ġdisapp oint
Ġresol ved
ĠT S
ĠV in
ĠSwe et
Ġcou ch
han a
Ġportr ait
Ġsh ades
ur u
ĠReview s
Ġinflu ences
cl aim
Ġw ore
ĠNot ice
ĠJun ior
ĠOk ay
Ġconj unction
Ġminor ity
Ġattr action
ip er
Ġpat ience
ĠMin i
Ġel abor
Ġpromot ional
ĠO bs
ĠBe gin
Ġper mits
Ġbes ide
ĠF alls
ĠAl most
ĠM M
ĠChristian ity
Ġflav ors
ĠS F
3 2
Ġdescrib ing
i ative
op ic
ĠW y
ĠRet urn
ĠFe el
h aw
Ġbe ta
Ġ tin
Ġm unicipal
ad ows
Ġhead quarters
ĠLoc ation
ĠAp ply
Ġmotorc ycle
com ed
Ġvan ity
ĠÌ ģ
Ġbar rier
Ġven ues
ĠH o
Ġcell ular
Ġembod iments
ic ular
mans hip
as ive
Ġint end
Ġr amp
Ġh aun
ĠM ath
Ġimm ense
Ġannoy ing
ot hy
Ġinc lusion
Ġbur st
Ġne arest
op es
ĠSome one
ĠOther s
ĠT ri
che m
qu et
Ġmerchand ise
Ġjournal ist
Ġsuperv is
Ġcr ushing
ĠE uro
Ġpo ems
Ġprov in
ĠL isa
Ġtail ored
l ooking
Ġd imin
Ġrece ipt
in ite
ĠMiss iss
Ġres tored
Ġtr ace
Ġorganiz ational
IC E
iction ary
Ġoccup ied
ĠC her
Ġn iche
Ġign or
Ġb orders
Ġdedic ation
d isc
ĠL iver
av an
Ġmon ster
Ġp airs
Ġg arlic
Ġcompar able
ĠR ew
Ġcorre l
Ġtum or
Ġl ighter
ĠUn less
Ġrec ur
Ġintegr ate
Ġdecor ated
Ġde alt
ĠIndepend ent
omm y
Ġj aw
us ts
Ġout line
bre ak
Ġcolor ing
se ys
Ġpharm acy
ĠInt roduction
Ġsurprising ly
f are
Ġman us
Ġ, ,
Ġparl iament
Ġ9 2
el ed
ĠS ay
Ġun re
Ġdisapp ear
Ġadjust able
ĠSty le
ĠTre as
Ġunnecess ary
Ġw and
Ġsh ield
Ġm ales
Ġl iable
ir ational
ĠP T
Ġsurve ys
Ġinves tor
ow ered
ĠHope fully
ou stic
IV E
ĠPit ts
ĠAct iv
Ġbe ating
ĠAr gent
Ġaus tr
Ġport al
Ġins ert
Ġd ive
Ġdrop ping
Ġrac ial
Ġp ension
Ġintegr al
Ġf ier
ĠOb viously
Ġpharm aceutical
ĠTurk ish
Ġp orts
Ġassess ed
Ġsil ly
Ġclar ity
ias m
Ġde br
ĠF ocus
Ġvary ing
Ġphys icians
ĠEsp ecially
Ġve ctor
Ġcontrib uting
Ġpray ers
Ġadjust ment
Ġc ement
or ks
Ġlaws uit
Ġf ate
Ġne u
ĠClin ical
Ġ7 1
Ġtradem ark
Ġp ills
Ġhas s
Ġsac red
Ġnurs es
Ġmod es
ic ut
Ġcomp aring
ĠR V
arch y
Ġdem o
ĠD at
Ġbl ade
p a
ĠJac ob
Ġpart ly
Ġconsequ ence
ĠIB M
enn a
ĠT ower
Ġunder graduate
Ġic ons
ĠG DP
ĠFre edom
ĠI F
ĠR T
Ġpoin ting
Ġcross ing
Ġo v
umb led
ĠAm y
ĠWe ight
Ġdress ing
Ġpaper back
Ġr ally
ĠE V
ĠMedic are
3 3
ĠThanks giving
Ġsusp ended
Ġappro ached
Ġremind s
Ġvar ieties
Ġcomm od
exp ensive
r ors
ment ed
Ġtestim ony
Ġac ids
Ġfr act
alt ies
Ġchalleng ed
ĠR ace
ky o
Ġc ave
Ġdig it
Ġprogram mes
ĠG R
ues e
Ġtop s
Ġpe ers
ic op
Ġm aj
Ġconsider ably
Ġsl ave
Ġreg istr
Ġr ides
Ġesc ort
ĠBeaut y
Ġrecyc ling
L e
Ġcan t
b us
idd ing
Ġdiscuss es
Ġautom ation
res ist
j ack
ĠIS O
ĠFor mer
Ġ198 7
Ġp el
Ġcharacter istic
Ġdef ence
ĠAl aska
Ġmechan ics
Ġam ateur
Ġwel comed
er on
Ġfund ament
c al
Ġbroad er
ĠReg ister
Ġterror ist
ĠThrough out
Ġw ax
Ġexpl ores
Ġtransl ated
ion ed
Ġvot er
ĠM I
ĠSaf e
ĠA ve
Ġthr illed
p ur
am ine
Ġrepl ied
Ġsp am
it ants
p ace
ĠStand ards
ĠL ots
Ġthro at
aren cy
ĠReg ion
Ġassign ments
Ġh ike
Ġsem ester
ĠJenn ifer
ĠJo bs
Ġdefe ated
9 9
Ġcontr ad
ĠN J
Ġp ie
Ġprem ises
in itely
Ġencoun tered
Ġsoon er
Ġg em
ĠInd ex
Ġn a
ĠLaure n
Ġsen iors
Ġre un
ak h
ĠM es
Ġnot able
Ġnewsp apers
Ġcons ecutive
ĠCh i
Ġrefres hing
ĠP ope
ather ine
Ġtravel s
ĠC arr
Ġlect ure
lim inary
ĠS L
Ġto b
ĠV ent
ane an
ect ing
Ġden y
Ġapparat us
ĠMil itary
Ġm p
p han
Ġhon ored
w alk
Ġd w
Ġ198 4
Ġbrief ly
w ick
ĠKenn edy
Ġimmigr ants
Ġcon ferences
Ġstrict ly
ĠP ath
Ġd ick
ĠNY C
os ity
Ġdram atically
quis ite
Ġbr ace
ĠK a
Ġquot ed
el i
ĠSt adium
ĠCo le
Ġcirc les
Ġst airs
ĠR ab
Ġinter f
ĠBal timore
Ġunderstand s
Ġexist ed
ol as
Ġl ined
Ġmethod ology
Ġoppon ent
Ġfr ank
g un
ĠIndones ia
Ġext rem
ĠCh amber
Ġp ose
Ġalgorith ms
Ġ18 4
ĠiT unes
Ġpo et
Ġhighlight ed
Ġsh ake
Ġremind er
Ġstruct ured
ĠRuss ell
ĠMosc ow
n als
Ġaud it
d i
Ġb itcoin
ĠAll ah
Ġgr ave
ĠF DA
Ġne ur
ĠB orn
Ġdis advant
Ġbo oth
arm a
D R
Ġphr ases
e le
Ġl un
igh teous
Ġtechn icians
anc ies
Ġchr om
Ġpun ishment
Ġh aul
Ġbehav iors
ĠK han
Ġtra uma
Ġther m
ĠSol ar
Ġwond ered
Ġtal ents
Ġb arn
Ġcost ly
Ġgrad uation
ipl inary
Ġaes thetic
am ents
Ġclos ure
Ġvill ages
Ġstrugg les
Ġtact ics
Ġnew er
ĠArt hur
Ġst iff
imens ional
Ġab ortion
ĠCom merce
omet er
Ġbre ach
Ġh ung
Ġpor tions
ĠP orn
Ġman ually
ĠRetr ieved
ĠH ung
Ġintroduc ing
au ge
Ġsyn thetic
ĠMain e
Ġbar riers
Ġas c
rop olitan
ĠD oll
ĠMet ro
Ġmach inery
ra h
ĠB rowse
ust ain
sp eed
Ġprest igious
com pass
Ġthick ness
ĠAt t
Ġaff air
Ġinv itation
ener y
ĠOr leans
ĠM T
Ġcomb ining
ĠD ise
Ġch ol
iz ard
Ġprivile ge
to x
Ġl enses
ĠDe al
ĠChe l
ren cies
cent ury
ĠOrig inal
on ed
ĠS oul
Ġsl ides
Ġdisc our
ĠM all
Ġtast es
Ġcon form
Ġscenar ios
k m
ĠBe yond
Ġint ensive
r ate
Ġbr ave
Ġad hes
ĠC z
Ġprofession ally
ag ic
ĠP ink
ĠMet al
ĠChris topher
ĠR ot
Ġfr idge
st all
ĠMov ie
Ġcar p
hat tan
Ġpe oples
Ġpract ically
ĠSpec ific
tr ack
ĠAp pl
ĠGu y
Ġhero es
Ġbo asts
Ġaw ful
ĠDI Y
Ġstreng the
Ġprofit able
Ġdecl ined
Ġman ages
ĠCle ar
a a
Ġenthus iasm
ĠAl f
ĠQuest ions
ĠSc hed
Ġad orable
ĠFed eration
Ġf are
IS T
Ġfem ales
Ġcoup ons
ĠS QL
ĠY ellow
ĠC el
app ropri
ĠSw iss
Ġc ottage
Ġprop he
ĠLet ter
Ġje ans
Ġb ikes
h ical
bre aking
ĠAt h
ĠðŁ ĺ
ĠR ules
Ġfe as
Ġhes itate
Ġbo red
Ġtast y
Ġb acking
Ġvend or
ĠC I
Ġse gments
ĠA y
Ġk g
ĠDep ending
ur g
gl ass
Ġcheap est
Ġtr aged
Ġd ip
ve t
Ġw ool
ĠRec ord
ĠS ites
Ġ198 5
Ġcamp s
if iable
ĠDr agon
on ge
ĠP s
ann ah
p roduc
Ġexam s
Ġinj ection
T ION
Ġsust ained
Ġp ale
ĠS lo
Ġpractition ers
Ġanal og
Ġtan ks
Ġmed ian
Ġs ends
Ġindic ator
Ġhot test
Ġexecut ives
Ġre j
Ġaccess ed
ĠW oman
Ġmod est
ĠN orm
Ġto dd
Ġgod s
ke e
Ġcat aly
Ġappear ing
Ġsub ur
Ġtor n
ĠDu ke
Ġsince re
ĠBachel or
ĠUs ed
Ġoverl ook
k ward
ĠF at
T r
Ġpool s
ĠPol and
Ġbr ass
Ġinqu iry
tec h
ĠD ak
Ġgrad uates
ĠTechn ologies
ĠUnivers al
Ġcup s
Ġpract icing
or p
ol k
iss a
Ġdec ides
Ġnegot iations
ID S
ac hers
Ġpot atoes
um ble
Ġdemocr atic
Ġpress ing
ĠO t
ĠEpis ode
Ġdes erves
Ġn ode
ĠPrim ary
Ġne uro
Ġjump ed
ĠPrem ium
ĠO H
Ġsh y
ling ton
Ġhomeown ers
Ġmar vel
ir acy
ĠSte ven
Ġbi as
Ġposition ed
ĠLab our
E P
Ġsum mar
Ġcompl ain
w as
ĠCons erv
mind ed
Ġpres um
Ġweek ends
Ġtrans it
Ġconv ince
Ġthresh old
ĠF el
l am
Ġcon gr
Ġbr ack
ĠU A
ĠWal ker
Ġfrag r
ĠH ug
Ġupload ed
ose xual
o is
Ġperform s
Ġpromot ed
Ġcoc onut
Ġexec ute
ĠCo ffee
re ach
e ared
ĠShip ping
Ġdist ant
ĠToy ota
ĠLouis iana
Ġwat ches
m ad
Ġdemonstr ates
Ġbr ide
Ġeff ic
p ot
Ġ... ....
Ġreported ly
Ġneed ing
Ġre ass
Ġgl uc
Ġstr ap
ĠN BA
Ġf oss
ĠSo on
ĠG rey
Ġswitch ing
Ġm amm
d ings
o z
Ġr if
ĠRestaur ant
ĠGord on
Ñ ĭ
ĠBow l
Ġsurve illance
uc ed
l u
ir ates
Ġm ounting
Ġnow here
ĠLaur a
am el
ĠC lose
Ġcrit ics
Ġsk etch
Ġloc als
Ġdist inction
ĠA ch
Ġarr ives
Ġprior ities
Ġlong est
w estern
ĠHous ing
Ġper tain
Ġb ree
Ġdebr is
Ġp acking
ĠSur vey
at ar
Ġuncertain ty
Ġf ond
ĠUs ers
ol ar
oin ting
Ġ tens
Ġ tel
ĠP ent
ĠF aith
Ġmon etary
Ġdesper ate
Ġstrength s
le ading
Ġridic ulous
Ġjournal ists
ĠAssoci ate
Ġactiv ation
ĠR achel
ĠSo ft
id el
Ġsl im
Ġbelong s
ĠP ep
ĠS el
Ġveget able
ĠVol ume
ĠSp ot
ĠDr ug
ĠCommunic ation
idt h
Ġdis charge
Ġhon our
Ġwhe at
Ġathle tic
Ġappro aching
Ġend orse
Ġloyal ty
ĠPlay er
Ġen erg
Ġearth qu
ĠIntell igence
ĠPal ace
Ġsubmit ting
Ġencour ages
ĠM echan
Ġgl oss
Ġburn ed
Ġnum er
Ġl obby
ump h
Ġdele ted
f old
ĠL ock
Ġfor ty
Ġill umin
Ġp ile
ĠM umbai
Ġdiss ertation
ĠG ot
Ġimm ers
Ġe ternal
Ġdis tor
ĠRober ts
ĠS N
Ġpick up
Ġcon gress
Ġmaxim ize
Ġjew ish
Ġtarget ing
Ġb ugs
Ġminim ize
anc ers
Ġs el
ĠAct ive
Ġr ivers
Ġle ver
am ins
ĠN G
Ġcl ouds
Ġdiagn ostic
ĠO C
Ġh iding
Ġmet all
Ġsec urities
Ġd os
ĠT N
ĠR C
Ġhe ter
P L
ĠL if
Ġsell s
Ġnecess ity
ed ed
ress ing
ĠD ifferent
Ġnutri ents
oub ted
ĠRep air
Ġstr ikes
Ġg ospel
Ġan ten
Ġm ud
ĠAd obe
Ġsurround ings
Ġext ending
ren a
ĠD iet
Ġland ed
ĠRec e
Ġtre asure
Ġhealth ier
thod ox
ĠDr aw
Ġkn ees
Ġassist ed
is l
Ġcomb inations
rop r
ne red
ĠBarb ara
Ġinvestig ations
ass ador
Ġal umni
Ġroll s
ĠTai wan
ĠE ither
Ġab n
D C
t hou
Ġlike wise
e b
ĠC ass
Ġres et
Ġaccording ly
Ġorgan izing
ĠM L
Ġsun ny
Ġwa ited
ĠH em
Ġgener ator
Ġen compass
ĠTo kyo
ĠBas ic
o bs
ĠTr ip
Ġabs ent
Ġcounsel ing
act ing
ĠCl ar
Ġautom obile
ĠK al
ĠA aron
Ġdefend ant
ĠT ro
ĠB A
per form
ĠHe brew
Ġnon profit
are l
Ġindic ation
Ġder iv
3 4
Ġcoll apse
k ed
ĠVis ual
Ġin expensive
Ġoppon ents
Ġassoci ations
ĠStart ing
ĠTr uth
Ġapplic ant
Ġconcentr ate
ĠPalestin ian
Ġcomm ands
ĠH alf
ol ine
Ġearl iest
ĠK y
ĠOut door
ĠAnim al
Ġtrave led
ĠAnt i
7 5
Ġr aid
Ġdevelop s
Ġrese mb
Ġsub stances
Ġreven ues
Ġstat ic
Ġdes irable
ĠLaw rence
Ġaltern ate
Ġfore x
Ġhy dr
Ġprop ri
Ġc od
Ġnever theless
Ġmic rowave
ĠY oga
ĠWr ite
Ġaw kward
Ġtrad ers
st al
ĠSc reen
Ġsup erm
Ġachieve ments
ĠVe h
B O
Ġspir its
ĠSchol ars
ro ck
Ġsw ord
Ġp enc
Ġtiss ues
S h
o to
Ġir r
Ġgr inding
ific ates
w orthy
Ġdocument ed
Ġbit ter
Ġoccur ring
ĠMississ ippi
m aster
ch air
Ġeduc ate
Ġ thou
Ġproceed s
g ame
ĠT ow
Ġd ign
Ġcl ay
ĠBr un
ut ter
ig o
Ġb od
Ġelev ated
c ers
âĢ² âĢ²
Ġtob acco
Ġcomplic ations
Ġstart up
it err
Ġmem orial
Ġrep ro
U I
ĠAnton io
ĠPal m
Ġhom emade
Ġfarm ing
Ġpl aint
Ġcoun ting
Ġlist ened
Ġstr ings
Ġbr ains
C l
Ġmat rix
Ġanim ated
Ġstream s
Ġcl uster
Ġtax i
Ġpers ist
rol ogy
at ility
ĠT es
Ġconflic ts
ĠAd ams
Ġlocks mith
Ġyout ube
fl ix
Ġoccup ation
ĠDes k
ĠAl ice
Ġmoment um
Ġbl ast
Ġmat ched
ĠW ine
ĠH ans
ĠApplic ations
Ġkeyword s
ĠDep uty
uit ive
ĠAud io
IN E
Ġher bs
ĠI R
ĠMan hattan
ĠÂ §
Ġcinem a
ĠS ud
ĠS EC
Ġdecor ation
ĠPro ble
Ġun ve
ĠSe ven
Ġto ll
Ġrel ates
ĠP ul
ĠLe x
ass y
an ium
P G
ber ries
ĠF ix
Ġind ul
ĠWay ne
Ġpr izes
ĠA st
abul ary
ĠP ap
Ġsaf er
Ġattach ment
Ġpuzz le
ed er
i ological
Ġinflu ential
Ġthe ft
Ġ8 1
Ġ19 30
Ġass ort
rol ling
ac tory
Ġware house
land o
Ġrec k
s chool
Ġglo bally
gl as
ĠG raham
Ġste al
ĠTe aching
Ġw ages
ĠJim my
ĠAr r
ubl in
ĠCar ter
ĠB ishop
ĠComm and
et ric
Ġcyc ling
Ġm asc
Ġex otic
ĠDirec tors
Ġmet ap
Ġfin ishes
ĠP ool
en z
Ġbel l
Ġtatto o
Ġ ion
ĠR ing
Ġoff set
ĠOp tim
Ġug ly
ĠH A
Ġconsist ency
ĠSwed ish
n ity
Ġpo le
er get
Ġc uisine
Ġout r
ik er
we alth
ĠPrin cess
Ġroll er
ĠInt el
un c
Ġfirm ly
ĠStor age
Ġrenew able
Ġbre athe
ĠPortug uese
Ġabund ance
Ġtu ition
Ġexem pl
Ġaf ric
Ġjump ing
Ġpal m
ĠAmend ment
Ġre ign
ĠW V
Ġalleged ly
Ġgrand mother
Ġart ic
Ġpl asma
ĠG O
ĠCr u
Ġpl ur
Ġan k
st ick
3 8
Ġ19 20
ĠF riend
Ġhapp ily
ĠN elson
ĠRegard less
Ġdelay ed
n s
Ġdisag ree
at ched
Ġcer amic
ol ved
st age
oubted ly
g ot
Ġcomment ary
Ġimpro ves
akes pe
ĠB oo
Ġste ering
Ġcrop s
Ġtend ency
athe tic
ĠFort unately
Ġp acks
C h
ĠD rop
Ġpill ow
Ġshe er
all ow
ĠT ob
Ġlaunch ing
Ġsubs cribe
ard ed
Ġcle ared
Ġant ique
ĠI an
Ġfound ing
ĠD a
et ics
ĠP un
ĠConnect icut
ĠCit iz
ĠTreat ment
Ġour s
ĠK ay
Ġperf ection
st an
the l
ac er
Ġf res
iv ic
ad i
Ġmar king
Ġmaintain s
Ġconstit utional
Ġd airy
ĠLar ry
ho b
ĠOther wise
Ġdent ist
Ġn ails
Ġhousehold s
Ġ9 1
ĠA A
it ects
ur ated
Ġext ends
ĠElement ary
Ġdon ated
ĠOper ations
Ġar ising
ĠNev ada
Ġe b
Ġst ating
Ġr ape
Ġplug in
ĠEmer gency
Ġqu ad
ĠW ait
Ġsusp ected
Ġsport ing
at on
Ġbat tles
Ġsche mes
Ġtravel ers
Ġc atholic
6 4
Ġmand atory
Ġwe althy
ĠC ou
Ġdead ly
ĠR idge
Ġcann abis
ĠTar get
ĠCol on
ĠCommission er
ĠStr ong
Ġimp osed
Ġgran ite
f in
v als
Ġan onymous
onic a
Ġillustr ations
ĠFrank lin
Ġthank ful
iz ers
Ġinv ent
Ġblog gers
ĠSe an
Ġhospit ality
Ġvis ibility
Ġcalc ulate
n ic
ib ution
t ails
Ġass ure
Ġdies el
Ġout lets
Ġpartners hips
Ġconn ects
ĠF C
e v
Ġb anned
Ġclass ification
Ġmusic ian
Ġterror ism
Ġbas es
Ġmathemat ical
ĠCra ig
Ġsear ches
Ġavoid ing
Ġmin erals
iterr anean
Ġspread ing
Ġconstit ution
ĠNAS A
Ġo re
Ġco zy
ĠT A
Ġequ ality
ĠC rown
Ġorgan ised
Ġinc lusive
ĠT een
Ġr am
I s
Ġinflamm ation
Ġcap ac
Ġarch ive
ĠRog er
Ġfin anc
ĠMichel le
Ġcr uel
ĠD A
ij ing
ĠL ov
Ġn ic
Ġsh orts
Ġox id
Ġcomprom ise
ĠQuest ion
Ġpor ch
Ġdur ability
ur able
Ġrec overed
Ġp anc
Ġsent ences
Ġas h
ĠSim ilarly
Ġcon stitute
Ġfaith ful
Ġunem ployment
Ġ\ '
Ġop press
pl us
oc ity
u ant
Ġqu art
Ġpurs uing
akespe are
Ġpen is
ĠH us
Ġp ec
Ġhoriz ontal
Ġsp ine
Ġres ervation
Ġsum mit
Ġl acking
Ġf ires
ĠMad ison
Ġalleg ations
ĠP ret
ĠInnov ation
ĠGener ally
Ġs aves
p in
Ġkind a
Ġsevent h
Ġinter mediate
Ġspecial izes
Ġrefuge es
Ġtr iple
ĠCP U
Ġbackground s
o king
Ġcreat or
Ġcons ume
Ġreward ing
ĠS ens
Ġtouch ing
at ics
ĠL ie
i i
Ġcatch ing
ĠMult i
Ġinc idents
Ġbe ars
Ġqu eries
Ġg room
ĠKnow ledge
Ġrep orter
ĠM asters
Ġgood ness
Ġg ly
ĠGu est
Ġconcentr ations
Ġdest ro
Ġdistrib ute
Ġabsor b
ĠGr an
00 0
Ġmet res
r ons
Ġf u
iv ia
re rs
ĠCo al
Ġz ones
Ġtrib ute
ĠHun ter
ential s
Ġv ag
Ġcompos ite
Ġs ung
Ġshock ed
Ġcont amin
Ġterr ific
ĠT ips
ĠD enn
in ated
ĠValent ine
ĠW ol
ĠCom pl
Ġr ab
ĠCert ificate
d ge
Ġver se
Ġdep ot
ĠIn v
ĠHe aven
or ph
AN T
ch ant
Ġinf ected
Ġcourt esy
Ġflow ing
ĠLOV E
3 1
Ġbus es
w he
Ġlit igation
ĠTransport ation
Ġcoun ties
Ġreview ing
Ġadvis or
irst y
Ġtrans mitted
Ġb ind
Ġpoly mer
as te
ĠBoy s
ĠF u
Ġn ons
am ous
ge bra
s ize
ĠGal axy
Ġrelax ation
Ġgenuine ly
ig ma
Ġbalcon y
Ġstress ed
Ġindic ators
Ġillustr ation
ĠN ike
AC K
ĠSum mit
ĠJer ry
ri or
om as
Ġamaz ed
r ise
Ġrevolution ary
ĠG ov
ens ed
eff icient
Ġsequ ences
es ity
Ġcirc ulation
F F
Ġfort unate
h ome
8 8
Ġactiv ated
Ġcast le
ĠCN N
Ġupd ating
Ġle verage
ĠMar vel
r in
ming ham
Ġwarm t
Ġneg lig
ĠL ower
Ġmet er
ir ies
Ġfr ight
Ġconstit u
ĠG S
AR D
c am
Ġwarmt h
ĠPhotograp hy
Ġvic tor
Ġtun nel
Ġhe y
Ġfor b
L D
Ġlegisl ative
Ġp ier
ĠPitts burgh
Ġgr asp
athed ral
ĠFr ame
ĠCont em
Ġacknowled ged
in ars
Ġmiss ions
Ġg ad
s elling
Ġsubstr ate
ĠPubl ished
Ġscient ist
Ġbreak down
Ġequ ation
ĠE ye
ĠCh ick
Ġo z
Ġcorre ction
Ġprohib ited
IT Y
Ġbel ly
Ġc oding
Ġpro long
Ġconnect ivity
Ġel astic
ĠCons umer
Ġex h
Ġcare s
Ġprev ents
Ġtrain er
Ġcreat ure
ĠL ag
ĠLe ft
Ġcompr ised
Ġsatisf ying
at in
gr oup
Ġres il
em en
ĠL ORD
Ġ. ]
Ġpoor ly
Ġtouc hes
Ġarr iving
Ġcoll ar
Ġpress ed
Ġrem edy
ĠR AM
Ġh ier
m ons
ĠW E
Ġspons or
m ir
Ġdep r
Ġatt itudes
rell a
Ġfl oral
Ġcry ing
ink le
ĠRes ume
Ġforest s
enc er
Ġadjust ments
ĠC ount
ĠK aren
ĠThom pson
Ġenter prises
ĠRec ent
orient ed
ĠG ro
Ġx xx
e ing
Ġmatch making
Ġcent res
Ġsk irt
ĠUn c
Ġmes h
t ically
ĠL E
Ġconf using
ĠArab ia
Ġam bit
ĠS end
ĠM ot
K E
Ġcompet ent
Ġh obby
Ġperman ently
Ġrail way
ple te
ir s
d em
Ġgen ius
ĠR hod
Ġ198 3
ĠN i
Ġcon greg
Ġl ane
m od
Ġbr ake
Ġfurnishing s
ĠLead er
Ġkid ney
Ġm i
Ġen rolled
Ġfat al
Ġhold ers
Ġrele asing
Ġun r
Ġinv iting
Ġmus h
Ġb apt
Ġhook up
Ġal tered
ĠInd ians
Ġj ar
Ġinvestig ating
ĠV R
as is
o ons
ĠCz ech
Ġpred omin
w al
Ġrot ation
Ġrust ic
ĠB oot
Ġkick ed
child ren
Ġtransp arency
Ġr ul
ĠP ic
ĠT s
Ġdr ill
Ġpro j
Ġeditor ial
Ġtrad es
Ġsell ers
ĠVirt ual
Ġdecl ar
und ers
ĠAr ound
Ġw it
Ġas leep
Ġaffil iated
Ġsp ite
Ġwas hed
ast ics
Ġbless ing
OU N
Ġsol ved
Ġ197 9
Ġexpl ored
Ġlim itation
Ġcha os
Ġbut t
ĠFlo or
ios ity
dr iven
ĠH at
op l
Ġpip eline
or us
Ġh i
ĠApp arent
Ġb or
Ġlaugh ing
um ing
Ġur ge
ĠGo ing
Ġstrugg led
ĠEx hib
Ġdomin ated
ĠBapt ist
ĠBe ijing
Ġpromot ions
Ġtal es
Ġ198 2
ul ative
ĠY an
Ġst ap
ĠB illy
Ġcyc les
u ke
er tion
Ġinf ring
ĠHe at
ĠWorks hop
ĠN um
ĠG T
ĠLu ther
Ġwitness ed
Ġfrustr ating
ĠD ry
Ġhe els
ĠB os
Ġbub ble
Ġtr ap
Ġconf ront
Ġprefer ably
ros p
Ġrel uct
Ġf ixtures
Ġd ense
Ġwal let
ie ving
G R
Ġfe ver
p ts
Ġsuperv ision
Ġanaly sts
F S
Ġsh aft
Ġcar go
Ġp c
op ath
Ġcre ep
Ġlight ly
Ġgall eries
Ġde ployment
Ġs ins
Ġhass le
Ġclear ance
Ġparticip ant
oy d
Ġd amp
p hy
Ġ= >
Ġfar ms
Ġv o
ĠDou glas
ĠN ep
C om
Ġref in
Ġmembr ane
l ook
ict ive
Ð ²
Ġvar ies
ĠR isk
Ġsub d
Ġch lor
Ġcr imin
Ġl azy
Ġcustom ize
l ace
Ġblog ger
Ġsmooth ly
Ġmet als
Ġd a
Ġfif teen
Ġd read
ĠH onda
Ġsoc ieties
ĠNot es
Ġpan ic
Ġcompliment ary
ĠEconom ics
ĠNet flix
n on
Ġtub es
ĠPolit ical
Ġfab rics
Ġm ate
b n
Ġassess ments
ul ously
Ġunw anted
Ġlearn ers
n ament
ĠGener ic
ĠRob in
Ġneed le
Ġcomp iled
ĠB uck
Ġch ina
ĠA ld
an ne
Ġl ining
oc ate
Ġf rench
ĠFind ing
Ġ aka
Ġupgr aded
Ġn urt
H D
ĠD im
Ġrecogn ised
ĠS alt
Ġrenov ation
ĠC BS
Ġe co
art en
Ġtra its
Ġunf air
Ġhydro gen
ĠPay ment
iss ance
elt a
qu est
ĠHig her
if iers
ĠBed room
Ġmod ifications
Ġfl or
ĠPr ices
Ġin ject
ĠPro gress
ĠP ad
ĠPr int
Ġcons ensus
Ġra ises
Ġcusto dy
Ġh ockey
ri ors
is ible
ĠAmaz ing
Ġass ists
port ed
sh irt
Ġsoul s
um atic
ard o
Ġen erget
Ġsil k
Ġdatab ases
p her
Ġve gan
ar ound
ĠLiver pool
r om
ĠPhys ical
ĠEn s
Ġpat ri
Ġoutl ined
ĠCond itions
Ġcolon ial
ĠMo ham
ĠMor ris
Ġcl ue
Ġingred ient
ĠWar ren
Ġtransl ate
Ġsched ules
ĠT un
Ġamend ment
Ġconsid ers
ĠRS S
Ġstat s
ĠApparent ly
ĠSte wart
Ġreve aling
Ġbe ats
Ġmic rop
av al
ĠThe ory
Ġrid ers
Ġcous in
Ġus eless
Ġl os
ĠH orn
Ġsn acks
ĠSum mary
Ġpromot es
ond ition
Ġed itors
az ed
Ġ194 0
Ġjour nals
ĠF ro
ĠD ental
Ġtrans fers
Ġcus toms
Ġfound ations
ke eping
M L
ne ver
Ġret ention
r ated
re ck
Ġplur ality
Ġcons c
Ġp ork
ĠGu id
r ical
Ġin ex
ĠCl ay
Ġdon ate
ĠL S
ĠC a
ĠGr ay
Ġbac hel
Ġquant um
ĠMarsh all
ĠTool s
Ġcirc ular
Ġrun ner
bor ne
Ġcast ing
Ġc ents
Ġrecre ational
X X
Ġhard wood
plic ity
Ġrep et
uer to
m ic
Ġm a
Ġmic rosc
ĠVal ue
Ġpup ils
Ġpred ictions
ĠG ift
Ġgl uten
Ġun h
ĠPhil ip
Ġm ast
Ġ ts
Ġvoc als
ĠB aker
Ġmort ality
Ġmult ip
Ġmid st
Ġinevit able
ĠEm ily
Ġimag ined
Ġal together
ĠMed iterranean
Ġcarto on
ester ol
Ġpro pose
Ġpurs uit
tit ude
Ġgl am
ĠTe a
6 5
Ġlif ting
ĠEarl ier
r ia
ĠAl b
Ġst adium
ĠS uit
Ġnot ify
Ġactiv ists
Ġcat tle
Ġjoin ts
Ġappoint ments
Ġhar ness
Ġb b
Ġvir gin
vere ign
Ġce leb
ĠAb d
Ġ10 5
Ġtempor arily
Ġcool er
Ġrespond ing
ĠW right
ĠB enn
ĠHealth care
ĠS hr
Ð ¼
Ġcr ap
atch ing
ul ent
ĠH amp
ugg ing
P oint
ĠG ib
tr ans
Ġbo il
u i
ump tions
Ġac oustic
ĠPict ures
Ġterr ace
Ġb iz
Ã ±
Ġfort une
ĠZ e
ĠCr ime
Ã ¨
yc les
Ġoutl ook
ĠG ospel
Ġplant ed
Ġconsum ing
ĠB art
ĠD ublin
Ġbl o
ĠMor ning
ĠJohn ny
Ġse wing
ĠK l
amp a
ĠL ands
sh aped
Ġwr ist
Ġcorre lation
og s
ĠF ul
he w
ĠOr lando
Ġprompt ly
ĠMaterial s
Ġthreat ening
Ġupgr ades
h ard
Ġy arn
ĠMon itor
Ġ17 0
ĠBath room
ĠAb raham
Ġdepos its
Ġtraged y
Ġse aled
Ġbl ues
bu ilding
Ġ. |
Ġso vereign
ĠCateg ories
ĠHill ary
Ġconsum ed
ĠPol ish
ĠGreat er
duc t
ĠP le
Ġinstit ute
um per
ĠTe acher
ĠWik ipedia
Ġin aug
ĠLink ed
Ġmar ble
ĠB T
Ġreg ulated
ogen ic
Ġambit ious
ĠL em
ĠJ azz
ĠS ustain
Ġquant ities
ĠW ard
ĠF isher
Ġl amin
Ġdom ains
omet ric
Ġst air
in f
ĠR ule
e an
Ġ.) .
R NA
ĠM ason
Ġspr ings
Ġpure ly
b ling
Ġch ill
Ġinf ant
Ġh ilar
ĠAbs olute
Ġcris p
ĠBM W
ell ar
Ġmolec ules
t id
Ġsold ier
ĠRet ail
aret te
l ists
Ġ& #
Ġbehavior al
Ġdisc lose
ĠSyr ian
ĠM t
ĠWhe never
Ġfert il
Ġs oo
ĠCare er
Ġemotion ally
Ġreal ise
Ġdelight ful
Ġreal m
ĠH end
Ġdistingu ished
ĠTod d
ĠWi Fi
ĠCor ps
ĠExper t
ĠProb ably
Ġless er
ĠE b
Ġrun ners
Ġprotec ts
Ġsn ack
Ġalign ment
ĠB ird
er ver
ĠO ri
Ġarch ae
ĠP arents
ĠStr ategy
Ġkn it
Ġins ane
eral d
Ġrep os
Ġrecord ings
Ġtrick y
ĠT E
ĠR io
Ġspons ors
Ġpul se
ĠDo or
Ġst icks
Ġst itch
ĠEx cel
Ġcon st
t its
Ġpass ive
Ġvir al
Ġward robe
ĠCh and
ĠPat ri
ĠNurs ing
Ġdiscl osed
Ġl id
Ġ198 1
Ġst ew
Ġj okes
ĠAl low
Ġintim id
Ġpar ish
ĠPark er
w r
Ġfest ivals
ĠKen ya
ĠRe uters
l ie
Ġranking s
Ġinc on
Ġsc roll
crip ts
ump s
d imensional
Ġm asters
Ġthread s
Ġslee ve
ĠCommon wealth
9 5
Ġnomin ated
so ever
Ġsal vation
Ġpharm ac
Ġund oubtedly
Ġfurn ished
oc a
Ġbl ocking
Ġspot ted
Ġd in
ĠAp pe
Ġpre liminary
ĠF ell
Ġassemb led
Ġlif ted
Ġanch or
tell ing
Ġinc ons
Ġadministr ator
am ination
Ġcar riers
Ġavo ided
Ġgr ill
Ġr ighteous
ra ul
ar o
ast ically
ĠSt ars
ĠM oses
Ġsh ifts
Ġsomet ime
ĠS R
ĠL en
Ġun con
X ml
ĠRem ove
Ġd umb
ĠC E
ĠF S
Ġpropri etary
Ġl akes
ĠMin ing
ĠNor way
ĠPro t
c at
Ġd iving
if i
ĠBelg ium
the red
Ġc ope
Ġdiscipl ines
Ġ10 4
ĠT hor
i otic
ĠOsc ar
Ġamaz on
Ġcom ics
Ġimpl ies
ur dy
os ures
Ġsh ifting
Ġfrustr ated
Ġm apping
oc hem
Ġgr ammar
Ġover head
Ġind ian
Ġand roid
Ġare na
Ġs add
ĠL ost
Ġjo hn
ĠDel ivery
Ġam ple
Ġsc andal
Ġprogress ion
Ġin equ
Ġteen age
ĠV ision
t ier
ym ph
Ġsc am
ĠB io
Ġp a
Ġm um
Ġappear ances
Ġenjoy ment
Ġp oo
ĠT ickets
Ġhel icop
ĠBir mingham
Ġp ipes
Ġaut umn
ĠDak ota
Ġdeploy ed
ĠTherap y
Ġsex ually
Ġf ame
Ġac ted
Ġtherap ist
Ġorig ins
Ġ tits
engt hy
Ġh int
le vant
ĠSk ills
Ġpubl ishers
ĠLat est
Ġse af
Ġgu ilt
Ġanaly st
Ġproject ed
Ġp ads
Ġ197 8
ĠP ages
ĠE L
ĠWe ather
Ġadm ire
ĠChr ome
Ġfor cing
hous es
Ġtow el
Ġbl onde
Ġsl iding
iot ics
Ġland l
Ġcolumn s
ĠTr ading
pat ible
ĠImp rove
e z
in um
Ġadapt ation
Ġb aked
Ġtun ed
Ġfat igue
ist ing
tom y
Ġo w
Ġc akes
ĠC row
Ġencoun ters
ĠD ress
7 7
Ġwithdraw al
Ġep idem
Ġmuse ums
Ġun av
ĠElectr onic
her ic
Ġjust ify
ĠKr ist
per or
ĠM R
ĠMan ual
Ġref ined
Ġw iring
ĠR y
ĠBen j
Ġl inking
ho e
Ġdess ert
Ġde er
yt hon
w idth
un ge
Ġenhan cing
Ġur gent
appropri ate
Ġqual ifications
Ġdefin ing
Ġinduc ed
Ġl av
Ġrehab ilitation
Ġproxim ity
og an
ĠT ouch
Ġbi om
rit ies
ĠHy d
Ġnight m
am an
Ġquiet ly
Ġconc lusions
Ġconc lude
ĠK id
Ġcost umes
Ġan at
Ġinit iated
Ġaff ection
Ġcoll aps
Ġun ity
Ġdiet ary
Ġant hrop
Ġsuc c
ĠMon te
Ġnot ified
ĠCl ient
Ġfeed s
Ġgl ance
Ġun bel
Ġtomat oes
Ġvi able
ĠReg istration
Ġeat en
Ġcomment ed
Ġvoc abulary
Ġpup py
Ġphotograp hers
ĠWood s
Ġin ac
Ġobst acles
ĠJess ica
ĠRel ated
Ġlay ing
bor ough
ĠG host
Ġun de
ĠSam uel
Ġmod ification
Ġsh irts
ĠK el
Ġref resh
Ġto e
ĠP rec
Ġl enders
Ġconsult ants
ol o
Ġdemonstr ation
Ġaw ait
ï¿½ ï¿½
Ġbound ary
Ġadmin istered
Ġax is
Ġmerc y
Ġro pe
Ġsam pling
Ġg low
ri el
af ting
Ġco ordination
ir atory
ĠP oker
Ġneighborhood s
Ġc ables
ĠNe il
Ġcl us
iz on
Ġment ally
ach t
all ing
os a
Ġtast ing
Ġg auge
ĠPict ure
Ġen light
ĠY ahoo
and o
ĠH az
Ġgr avity
Ġspat ial
Ġconcept ual
ĠList en
Ġfuck ed
ĠPhoto s
heim er
Ġ umb
ĠEd ge
Ġbic ycle
te enth
H C
Ġchar ter
Ġl ender
ĠProduc tion
ar ity
ar re
V E
Ġnone theless
Ġisol ation
Ġgo ver
abl ished
Ġslow er
ĠG ill
Ġl engthy
iv an
eli hood
r im
ry lic
ĠStr uct
ĠKe ith
Ġdisapp eared
Ġs ights
Ġtop ped
uff y
Ġanaly tical
ĠBud get
Ġfor k
P al
sequ ently
Ġpast a
ed ar
ĠBlo om
ĠV oice
p en
o ard
Ġ7 50
ĠP od
Ġcomp ression
Ġsw itched
Ġble eding
Ġsens es
em or
Ġgrab bed
iec es
ĠAssess ment
Ġrein force
Ġhum ble
Ġdeterm ines
Ġvill a
ĠGrad uate
ĠL ay
Ġeduc ators
ver ted
Ġretail er
ĠM aj
Ġg aps
ĠK u
Ġbo om
Ġmir rors
Ġansw ering
it ated
ĠBrother s
A r
Ġins ulin
Ġun for
ĠKn ight
Ġcontrovers y
GB T
ins ula
uck ed
Ġver ified
Ġsynthes is
Ġr ic
ĠPan el
ĠE ld
ĠLind a
ĠSup ply
ĠD elta
I B
Ġmid night
Ġres ign
Ġlect ures
v ens
ĠC AR
Ġconv icted
ĠIn stit
on ts
cel ona
ĠTer ry
ĠFac ulty
ĠTrans fer
Ġn asty
Ġall ies
Ġcas inos
ĠRes ource
F T
Ġfrustr ation
Ġv ivid
G S
Ġse as
ĠSpe aker
Ġ197 5
ĠP uerto
ĠCong rat
Ġreason ing
ĠLe ban
Ġvacc ine
Ġas ton
Ġbron ze
Ġexc el
Ġm elt
ĠN M
tor ic
it i
Ġviol ations
Ġass urance
writ ten
ĠA id
Ġl od
ĠGl en
ĠD ining
Ġcalc ium
Ġtr apped
Ġf el
Ġinter ventions
ĠEx tra
Ġe rect
Ġm all
h ir
c oun
Ġunder taking
ĠN ag
ĠUp per
ĠV erm
ĠCamp bell
Ġsuperm arket
ell o
ĠF ly
ĠCan on
Ġen qu
il ateral
Ġwond ers
Ġconvenient ly
Ġqu il
ĠSing h
ĠInvest ig
ĠMarg aret
ĠI l
Ġ197 6
Ġpun ct
Ġlicens ing
Ġass umptions
f y
ĠPre vious
Ġconf ron
Ġbegin ners
ĠOp tions
un te
Ġinf er
itc hell
y es
at able
ĠColl ins
Ġinv asion
ir us
Ġve t
ĠS und
Ġdef ines
P ro
Ġ... )
ĠSet ting
his m
ĠDoc ument
Ġagre es
ĠS pl
ĠAb u
Ġdoctr ine
Ġfle w
Ġbelong ing
ĠY esterday
Ġvit amins
Ġpol ished
Ġhorm one
im en
3 7
ĠChe f
Ġcomp ress
ĠLiber ty
ĠBroad way
ub a
it ations
hi op
Ġtim ber
Ġrep orters
Ġsanc t
ert h
Ġins ulation
ar se
Ġmo ck
o ks
Ġemp ire
ment ation
Ġsn aps
ĠA IDS
ĠMethod s
Ġexpress ions
Ġinstrument al
ĠZ one
Ġtradition ally
Ġsto ve
Ġmed ieval
p ath
ĠN BC
ĠPH P
Ġdr ums
ĠBar ry
Ġhe ater
Ġinterview ed
Ġgr ief
Ġharm ony
Ġrefriger ator
ĠEgypt ian
Ġdecl are
Ġwater proof
Ġorg ans
Ġanx ious
ĠBreak fast
ĠBas ically
Ġart if
Ġthat s
Ġrecruit ing
ĠNe ither
Ġwor ries
Ġrem arks
ĠM athemat
Ġfr ied
ĠS B
ĠF O
us c
Ġn ap
Ġdu o
Ġterr ain
Ġtrad ed
ĠCost a
Ġsoc ially
Ġroof ing
ĠCry stal
ĠH C
f i
ĠJ oint
20 18
Ġblank et
Ġcon do
Ġs ailing
Ġp aired
Ġab dom
Ġcater ing
ĠN ancy
4 4
5 5
AL L
ĠCand id
Ġliber ty
ĠSp in
Ġaggreg ate
iov ascular
Ġintroduc es
ĠBu ilt
ĠContem porary
Ġ10 2
Ġsear ched
ĠAg ent
ro le
Ġtr ay
Ġdes c
Ġver ification
Ġk in
Ġ196 8
ĠP ast
Ġorient ed
Ġdiv ide
Ġwhere by
ĠR M
Ġsoc ks
Ġsystem atic
ĠUnder standing
ĠSk in
ĠL ion
ĠA le
ĠRob inson
j an
ĠCl imate
ĠÂ «
Ġmeant ime
Ġconstr aints
Ġhead phones
p ost
ĠWal ter
Ġp ending
Ġstar ter
Ġfair y
Ġsc enery
Ġ10 6
Ġ tes
Ġsc ent
Ġwitness es
Ġspokes man
ĠL anka
ĠPin terest
Ġcock tail
Ġ ia
ĠVictor ian
Ġl ac
AS T
Ġread ings
ĠMur ray
ĠPret ty
ĠIm per
Ġd well
ĠNat han
Ġarg ues
ĠAr n
ĠSp a
Ġcar tr
Ġaccred ited
Ġgrand father
Ġext ensions
Ġmark ers
p p
Ġp ant
Ġgluc ose
ĠH ud
ĠCoun sel
Ġdel ays
Ġdownload ing
Ġsimpl er
âĢ ĭ
ar ts
Ġasp ir
Ġfa uc
Ġstr ips
ĠPer ry
Ġdownload s
Ġed u
Ġdisc om
uk i
Ã ĥ
Ġmul tim
ĠS ugar
Ġl bs
Ġhas h
Ġoff line
Ġlik elihood
Ġsur pass
w ind
ol esc
Ġ ie
ĠL ate
Ġind igenous
ĠEss ay
ĠL ang
am as
uck er
Ġexp ects
ĠCS S
ĠE PA
Â Ģ
ĠMar ie
ĠK o
ag ging
ĠTest ament
ĠSc he
Ġconv iction
Ġpred iction
Ġguarante es
Ġconcer ts
Ġent ers
ĠN AT
pan ic
Ġamer ica
Ġspecific ation
Ġtechn ically
Ġrecyc led
Ġban ner
Ġ4 50
ĠEm ma
Ġstress ful
Ġint uitive
Ġaustr alia
Ġfinanc ially
ĠN ET
g row
Ġsw ift
Ġdis m
Ġunp re
h ma
Ġwhat soever
Ġdiscover ing
ĠL l
ĠMov ing
Ġpump s
Ġsyn chron
Ġabn ormal
Ġdecor ations
t ary
Ġch ron
Ġanalyz ing
Ġf isher
Ġ197 2
Ġfl uct
ĠHor se
Ġthought ful
ĠFore x
Ġdry er
Ġintent ions
Ġph ases
aun t
ed e
Ġlog istics
Ġ tid
Ġbelie ving
Ġcongr at
Ġdef ects
ĠExam ples
ĠR ental
Ġconcentr ated
ĠEvent ually
A d
Ġg ates
qu o
Ġstr anger
ac re
ĠB arr
ĠEd in
ĠAssoci ates
ĠRE AL
Ġinsp irational
ĠAltern atively
on ald
Ġbeat en
ĠArk ansas
ĠF itness
Ġhun ger
eal ous
ul u
Ġe urope
Ġattend ees
ĠCo ordin
an ing
Ġfail ures
ĠBar celona
ick er
Ġl ace
tra its
ag u
Ġdef icit
g ust
Ġinter fe
Ġbrut al
Ġtrig gered
ĠGard ens
Ġcosm etic
Ġton es
Ġass umption
Ġsim plicity
iv ot
ĠR anch
Ġqu ilt
ĠL ap
ced ented
b ase
em a
ier ra
Ġcalc ulation
ĠB eth
Ġinnov ations
Ġpull s
Ġcontem pl
v ance
Ġimpl ant
ĠB ask
ĠCongrat ulations
ĠL GBT
Ġall oy
Ġprison ers
Ġattrib uted
Ġqu arters
Ġfundra ising
n ai
Ġselec tions
ĠÂ ĵ
le ton
ĠD est
EC T
Ġstere oty
ĠBang l
r us
Ġsmall est
ep tion
ĠSt age
Ġbrand ing
Ġl ending
ĠIn j
Ġfar mer
gh ai
Ġtoler ance
ĠRec omm
w oman
Ġjoin s
ĠP ub
Ġinv isible
ac c
Ġl uc
ĠRe lease
at al
Ġ197 3
ĠW alt
he ro
Ġcent ered
Ġsurge on
Ġassist ing
Ġspec ify
al ore
and ed
ĠAcadem ic
Ġpartic le
Ġwork flow
Ġresearch ing
ĠGr ound
Ġmem or
Ġstrong est
Ġgl ue
Ġto ug
ĠC ultural
ĠArch ives
Ġpath way
ro c
ĠAgricult ure
Ġst un
Ġw ounded
Ġscan ning
Ã §
Ġb ent
ĠAlex and
ĠComp are
Ġsl ice
Ġpack et
Ġmess aging
ĠStud ios
ĠS ame
ĠR d
8 6
b ane
Ġn odes
Ġhorn y
ri ages
Ġsent iment
Ġassess ing
Ġhands ome
Ġextr action
Ġbro kers
Ġenerget ic
Ġenthusi astic
Ġrad ar
ecr aft
Ġlive ly
ĠPlat form
Ġpositive ly
Ġliter acy
ĠShop ping
ĠAr c
estr ian
be it
Ġchol esterol
ĠMountain s
Ġhand made
Ġround ed
ĠL odge
ĠIran ian
Ġunder go
Ġsl avery
ĠJe re
Ġinform al
Ġexam ines
min ation
Ġappropri ately
ĠT rop
ĠMan aging
ĠF err
AS E
Ġm l
Ġnutrition al
Ġqual ifying
Ġrec tang
Ġdes cend
Ġun fort
Ġmis con
ĠG a
Ġsurviv ors
ĠCam eron
Ġsp y
ĠVol unte
Ġteen agers
Ġnation ally
Ġpol ish
Ġdef ending
ĠRich mond
in ter
ĠSh akespeare
U E
Ġfin ances
Ġresearc her
Ġang les
ĠS ant
Ġpres erved
ĠL P
in is
ĠF er
el d
Ġwed dings
l ad
Ġwrit ings
ĠRec ruit
ĠCond ition
il ies
Ġob esity
d ess
Ġph osph
Ġaccess ing
Ġdr ying
ar ium
Ġsc ales
Ġcent r
ĠPubl ishing
b ot
Ġst ro
Ġadvoc acy
iet h
Ġmor ph
Ġcert ificates
ĠArt ist
Ġvolun tary
Ġcaut ion
Ġquick er
Ġass ass
ĠC ards
Ġbuck et
Ġunpre cedented
Ġillustr ate
ĠM itchell
N ew
z ed
Ġ197 7
Ġre he
ĠPet ers
Ġsle ek
Ġappro ve
ĠF it
N C
Ġrep ay
Ġpurs uant
Ġsun set
Ġmass es
ak y
Ġf iring
ĠH ERE
ĠLic ense
Ġadvoc ates
Ġno on
Ġsim ilarly
ĠAv oid
Ġ197 4
ĠEduc ational
ĠEngine er
b one
ĠNash ville
Ġ.) ,
ĠStat istics
Ġdi y
Ġvir uses
Ġnot ing
id ency
Ġpas tor
Ġl ingu
Ġch i
ĠOlymp ics
Ġacqu iring
ĠPop ular
qu es
ĠPar ad
ĠG hana
Ġdisc onn
Ġcalc ulations
ĠMer ced
Ġemer ge
ĠBlue tooth
Ġ?? ?
Ġprom o
it ol
ĠSU V
ĠX box
Ġnow adays
ĠH T
Ġbook mark
ĠC arm
Ġline up
ĠLuck ily
Ġevol ving
Ġexch anges
Ġinstall ations
ĠOr acle
Ġfix ing
ator ies
as ia
Ġrou ter
ĠR ivers
Ġsens ation
Ġposition ing
Ġstat ically
ĠHot els
Ġpot ato
umb ling
Ġconsider ations
Ġplay ground
Ġblock chain
Ġo t
Ġcur iosity
ĠAustr ia
ĠM ob
Ġsmart phones
Ġprior it
ĠDri ver
ĠN Z
Ġhabit at
ĠB P
Ġgover ning
ĠC art
Ġthr u
Ġdistingu ish
Ġoptim ize
Ġcountry side
ĠThe ater
Ġ. ;
ĠEv ans
Ġkind ness
Ġesc al
Ġfe ather
Ġcontin ent
3 9
Ġmetabol ism
Ġst urdy
Ġrec r
el ong
ag ne
Ġw ished
Ġ!!! !
ĠMult iple
K S
Ġmay or
Ġhapp ier
Ġf ights
Ġlim iting
ĠRep orts
Ġprot ests
Ġinter val
Ġred es
Ġlabel ed
ĠT ab
ĠPhil osop
Ġbu ilder
ĠPar ts
ommun ic
IT H
M P
ĠPortug al
ĠOper a
Ġpen alties
og ene
ĠStan ley
Ġcyl inder
ĠAnaly tics
Ġcomfort ably
Ġbe tr
Ġdifferent ial
ipp ers
Ġbl own
Ġcher ry
Ġcryptocur rency
Ġthr ive
ĠChem ical
Ġ15 00
ĠBenj amin
8 5
Ġdr illing
Ġgu ards
ĠHistor ical
Ġpost ers
ir ical
ĠV illa
ell ery
Ġnav ig
ĠHind u
ĠCirc uit
ĠClean ing
Ġdiscip les
ĠA x
Ġswe ep
s m
Ġv amp
Ġc el
ĠPar ks
ĠOb ject
ĠX P
Ġpre jud
ch a
Ġdisc ontin
che ck
Ġdismiss ed
ĠAw esome
p oints
Ġrecre ation
Ġextensive ly
b ank
Ġapp ra
ĠFe ature
Ġlone ly
ĠNorth west
ĠTrad itional
I X
Ġb illing
ps y
Ġeval uating
Ġe u
by e
ke ys
Ġimport ed
ĠAdd ress
Ġyoung est
Ġsun light
b ial
Ġord in
ĠG C
uff icient
n i
Ġprov es
ĠGr iff
Ġshall ow
U B
ĠL akes
vers ion
Ġ2 20
Ġtur b
s l
ĠFred er
Ġdevast ating
Ġw anna
Ġpro be
Ġharass ment
ĠDesign s
ĠPh ase
ĠAb stract
Ġ196 9
om on
ĠU g
ĠL aun
duc tor
Ġcompos er
Ġtr agic
Ġher b
ĠR u
ĠB ou
Ġ36 5
Ġprin cess
Ġsched uling
Ñ Į
ĠSu ite
Ġmac ro
Ġimpr ison
Ġbre eding
Ġsal mon
oc c
Ġteen ager
a ic
Ġcur s
ĠPolit ics
Ġdis rup
ĠCamp aign
Ġcrow ds
ĠT W
Ġaccount ability
ĠDise ase
ĠI RS
ĠChel sea
ĠBar ack
id o
ĠF av
Ġglor ious
Ġst arring
Ġor t
Ġjud icial
Ġfreel ance
Ġrenew ed
ĠLeg isl
Ġcr ude
E x
ĠM ul
Ġed itions
Ġdem ol
Ġcar b
ĠColumb us
Ġun ions
Ġoverl ooking
Ġthe e
ster dam
Ġcon ve
Ġintrig uing
ĠW es
ĠPlay ers
ĠFe aturing
ĠArab ic
fl u
ici ary
Ġdisp ens
Ġinter ference
ĠP red
Ġdr agon
ĠIss ue
ĠCho ice
it ant
ĠEx cept
ĠProgram s
zy me
Ġincent ives
ire c
ĠQu ant
Ġd ull
ĠF lex
Ġglo ves
Ġ11 5
Ġprotocol s
Ġreal ised
Ġp ap
Ġunder taken
ĠP O
ĠSou theast
ĠV IP
Ġins erted
ian gle
ĠiP od
Ġadministr ators
ph abet
ch i
ph ant
Ġmail ing
ĠC any
Ġperform ers
Ġcor rupt
Ġshare holders
ĠAt tr
Ġbund le
Ġd ock
ĠB less
Ġrac ism
Ġsanc tions
Ġcollect ively
Ġn ost
Ġb ail
Ġ athe
ke eper
ĠOp tion
Ġins ured
Ġus a
ĠE val
v d
Ġprevent ed
Ġretain ed
Ġcoal ition
Ġp H
Ġcommunic ating
ing o
Ġsm iling
char ged
Ġcoordin ate
Ġad he
Ġadvertis ements
ĠRead y
ing ing
ĠD anny
Ġ196 7
Ġla ug
Ġgrat itude
Ġprec ip
Ġathle te
Ġunfort unate
Ñģ ÑĤ
ugg age
ĠU til
Ġw oke
Ġsound ed
ĠC ad
Ġco ated
ĠP E
Ġj apan
ĠCB D
is y
ĠH ear
ĠDen mark
s ervice
Ġgl imp
hr itis
Ġcand le
u tory
Ġharm on
ĠEt hiop
Ġopen ly
Ġinter section
Ġdis in
Ġtor t
Ġdiscom fort
Ġmanus cript
inc ludes
Ġfoss il
Ġcle aring
ĠK am
Ġfro st
Ġjournal ism
ĠEdin burgh
ĠPurch ase
CA A
u ite
ĠG L
um m
Ġglimp se
Ġinhab itants
Ġbr idges
est on
iox id
to ur
ĠG rove
Ġmerch ant
Ġw ires
ĠArchitect ure
ag g
l asting
ĠM V
Ġhead lines
Ġceleb rities
Ġmed al
an im
Ġc ensus
ĠN HS
t ly
Ġham mer
ĠPat ients
sp ot
ĠC ream
Ġ197 1
Ġimp air
Ġpro claim
Ġsubscrib ers
Ġsub stit
Ġno tor
T ON
Ġaccommod ations
Ġspecial ize
ann ers
Ġscr ut
ĠT ib
ĠC hes
Ġview er
Ġprem iere
ĠTy ler
Ġattrib ute
Ġdis gust
ĠOp portun
Ġexhib its
ĠCol omb
Ġmagn et
ĠK irk
ĠCompet ition
Ġpl ag
g irl
ĠJeff erson
ry l
Ġsh ocking
ĠEag le
st ation
w y
ĠVi ol
ain ted
Ġdet r
Ġexplos ion
ĠB ass
Ġwh it
Ġspin ning
Ġunc ons
Ġsem inar
on ly
ĠV M
ĠFl at
enn ial
Ġle vitra
ĠJam ie
ĠCustom ers
ud s
as i
Ġoff shore
Ġdiscr imin
Ġelimin ated
p al
Ġvan illa
Ġren dered
ies ts
Ġlaug hed
Ġinv ented
ĠCal c
ĠL anc
Ġfat ty
O B
Ġreserv ations
ĠBuff alo
Ġcal ibr
ĠD al
ĠOl iver
ĠThe r
Ġatt acking
h rows
Ġcush ion
Ġexam ining
Ġkind ly
ĠS K
t hrows
ĠD ent
t am
Ġev ac
ĠMont real
ĠR an
ĠStor ies
Ġslee ves
ĠPart ner
Ġsec uring
Ġdiamond s
Ġthem ed
ĠS old
ĠEm ployment
Ġch ase
Ġquant itative
Ġcom merce
m ill
Ġfather s
ĠH ook
Ġe cho
Ġl amps
ĠHel en
ĠB eng
Ġcan on
pl ess
Ġhilar ious
Ġnot ably
ĠE ight
Ġfree ze
raul ic
ĠON E
Ġconv inc
Ġtr an
or r
ĠS r
Ġdisp utes
Ġenhance ment
Ġadvertis ement
Ġuncle ar
ĠMar io
Ġrow s
Ġreg ulate
t read
ĠW I
ĠSol id
Ġdisplay ing
me ga
Ġex ceptions
Ġver bal
Ġm ol
ĠArgent ina
Ġrib bon
Ġcompat ibility
l ay
ade qu
Ġtrave ll
Ġengine ered
Ġso y
Ġcancell ed
Ġv ague
Ġm ph
Ġcrow ded
Ġdemand ed
Ġreform s
in as
Ġw ow
ĠOff er
ĠId a
e ur
Ġover d
ĠeB ay
Ġan ime
ĠPsych ology
o ids
Ġinv ites
ĠJere my
Ġlandsc apes
Ġdisp ers
ĠR ice
ĠH ack
Ġscrip ts
c ode
qu al
ĠShan ghai
Ġac re
Ġpar as
ĠDe gree
Ġplant ing
Ġaff irm
Ġscat tered
erg arten
ĠJo han
Ġbreath taking
h orn
Ġelabor ate
ĠBl u
Ġmark er
Ġpers istent
ĠJul ie
Ġbre asts
Ġs ulf
Ġincom patible
Ġabund ant
Ġtim eline
intend o
Ġur ged
Ġillustr ates
ĠWeek ly
ĠInf o
l ies
ĠM ut
Ġcr ust
ĠB ren
ucle ar
f ig
Ġsp ont
Ġcompet itions
Ġ tread
Ġc d
Ġexp ose
ĠSur v
ĠM ORE
0 1
ĠO M
uff s
pro f
amb oo
Ġexpress ing
Ġpict ured
Ġres in
Ġcrit ically
ĠCr iminal
Ġvel ocity
ĠFem ale
ON E
ĠUl tra
Ġunder take
b ird
ĠR av
iv o
n els
ro e
ĠRec overy
Ġto uring
Ġwe aken
ĠH ab
Ġdefin itions
aun a
Ġtur key
D I
Ġtradem arks
ĠBirth day
Ġred eem
Ġsens ible
ĠHol land
Ġcompan ions
Ġfier ce
Ġ throws
ĠA er
Ġcivil ization
op ard
ĠF an
ĠT B
Ġtre k
Ġe g
Ġrock et
Ġtomat o
ĠHar bor
Ġn inet
Ġg er
Ġ; )
Ġper ipher
g ow
c hat
Ġplan es
Ġvis ually
Ġimag ery
ĠTh ous
Ġair pl
Ġgeomet ry
av is
ak in
ĠW a
list ed
Ġassoci ates
ĠSu z
Ġcom bo
ĠImp act
p ies
Ġve gg
ĠJ ake
ĠL T
ĠC IA
Ġl asts
Ġfold ing
Ġch ore
Ġeconom ies
Ġk ay
ĠSat an
ĠP ure
Ġhead er
ĠNut rition
Ġrese ar
Ġunf old
Ġkid n
Ġinf ect
Ġon ion
Ġbuff er
Ġno ble
ĠWrit ten
h h
we g
ĠSing les
f alls
Ġcl ause
Ġun cover
ĠDesign er
Ġaccount able
Ġfl ies
ĠDemocr at
ĠPet e
Ġflav our
ĠSpecial ist
ĠMad rid
ĠOrigin ally
OM E
Ġz omb
ats on
Ġsp elling
n ie
Ġoper a
ĠQu arter
Ġun he
ĠAl z
ĠAdvis ory
Ġcom ed
Ġdam aging
r acial
ĠR NA
Ġre im
OR T
ĠBan ks
bur se
as ers
Ġf led
ĠL oss
ĠHamp shire
ars ity
Ġoverwhel med
Ġhypothes is
ul atory
ĠFil ip
ĠMur phy
Ġbachel or
ĠWire less
Ġhard est
Ġsup ern
ĠAnsw er
ĠNob ody
ĠM i
Ġsp ice
ĠDou g
Ġdeter ior
Ġlic enses
Ġmind set
role um
ig m
ĠLabor atory
at ches
Ġremain der
Ġsusp ic
Ġbe ads
Ġ17 5
Ġsevere ly
truct ive
Ġcontact ing
Ġdign ity
ĠGuard ian
Ġequ ations
Ġreflec ting
ĠTe achers
Ġparen ting
Ġpr one
ĠReg ular
Ġ ub
ene z
ĠTr aff
Ġiv Xml
Ġmed i
Ġint act
ĠVeter ans
ĠBr ain
Ġanten na
Ġgal eries
ĠK an
Ġser um
ĠWh ilst
Ġexpect ation
AC T
Ġen gr
Ġso re
Ġf ighter
Ġsad ly
ĠK arl
c ourse
Ġrecomm ends
Ġdist urb
s top
Ġw ishing
Ġaccident ally
Ġpe an
b et
Ġsl aves
ĠPlan et
ĠM ental
Ġrandom ly
cle ch
ĠCub a
Ġearthqu ake
Ġthe at
ĠCany on
< /
ĠClin ic
Ġam ended
Ġcat ast
Ġqu ar
Ġank le
ĠMont ana
ĠH M
Ġacc laimed
T Y
ĠScient ific
ĠCab inet
Ġpass port
Ġsof ten
or ig
ĠBook mark
Ġexception ally
ig hed
Ġpix els
Ġeight h
Ġconsp iracy
Ġv oid
Ġsec ular
Ġsculpt ure
Ġincent ive
Ġy ork
Ġpath ways
for ds
Ġf ing
Ġteaching s
Ġal igned
Ġb end
Ġmarg inal
ĠN am
ĠGrow t
br aska
ĠSt ream
oun ce
ĠProf ile
av as
Ġbe verage
ĠRou te
Ġelimin ating
Ġoptim ized
Ġv ou
Ġcig arette
ĠB Y
Ġw ont
Ġh ints
Ġdev il
Ġwho ever
Ġexplicit ly
reg ular
Ġam ino
Ġev angel
ash a
Ġj ealous
Ġpat ches
Ġ24 0
Ġcommission ed
Ġpro cure
Ġcoun ted
Ġexc luded
Ġ( +
ĠA irl
Ġparam eter
Ġc ough
le tt
ĠN ord
Ġ. (
ĠW S
Ġsty ling
ĠÐ ¿
ĠGrowt h
Ġstor ing
Ġgener ates
Ġer up
Ġf og
c in
ibl ings
Ġtouch down
Ġsupply ing
Ġut ilities
Ġphilosop hical
ĠSam ple
ĠDis co
ment ioned
Ġ! .
ke ley
ĠTH IS
Ġproud ly
ĠBB Q
P P
ĠK ap
Ġfr amed
ĠIll ustr
n an
ĠTam il
Ġback drop
Ġap ples
ĠStep han
n ames
Ġr ats
Ġaccess ory
Ī Ĵ
Ġar row
ĠIn struc
Ġimpl ied
Ġcur ves
ang o
Ġdang ers
ĠR ated
Ġb ore
Ġball ot
ĠDis play
Ġf usion
re k
ĠSw itch
Ġsol ic
ĠLux ury
Ġn u
ip ed
Ġfore most
ĠAsh ley
it ime
Ġmetall ic
Ġst icking
Ġrenew al
Ġabsor ption
ĠP oll
ill o
Ġsus cept
Ġtr ump
ĠMov ies
Ġjer sey
arth a
load ed
ĠNOT E
Ġo un
Ġrac ist
ĠSc ar
Ġhook ed
Ġencour agement
Ġcare g
Ġille g
Ġdivor ced
Ġbon uses
Ġdraw er
l on
Ġye ast
ĠCh art
Ġpriv ately
Ġtw ent
disc iplinary
Ġtim eless
al ph
Ġn our
Ġcivil ian
Ġpic nic
un ks
ĠCom ing
Ġoutr age
ĠIntern al
Ġinstruc tors
N G
ĠM AR
om al
ĠFin n
et tes
hum an
Ġl aughter
Ġremod eling
Ġlast ed
Ġactiv ist
Ġsupposed ly
Ġsh iny
ĠGl as
Ġappl iance
see ing
u y
Ġrefe ren
Ġmagn itude
ĠBr ig
Ġsand wich
Ġin adequ
4 8
ĠH oney
Ġseam less
ĠDenn is
ĠVis a
ĠAm sterdam
ĠE B
f ive
Ġce ase
M an
Ġstr angers
Ġc afe
Ġtow els
Ġclin ics
ĠL L
ĠM ack
Ġquestion ed
Ġcard iovascular
che ster
r ian
ĠG OP
Ġcompr ise
Ġup hol
Ġfl ame
Ġadvis ory
Ġm aid
ĠBangl adesh
Ġhom osexual
Ġd oses
ĠM Y
Ġal pha
Ġin appropriate
Ġpos es
Ġsun shine
Ġactiv ate
Ġcy to
ĠFac tory
Ġnom ine
Ġrecep tor
n ote
ĠN intendo
ĠStat ement
Ġb ure
ĠCamp us
Ġst ub
Ġk ills
ĠM BA
ĠStor m
Ġenthusi asts
Ġhistor ically
Ġstuff ed
Ġtor ture
ec urity
Ġremed ies
sen al
Ġpronoun ced
ĠHe avy
ĠH V
r int
Ġdistur bing
pt ical
Ġrespond ents
Ġconc ur
ĠB un
ĠDirec tory
ĠFour t
Ġvirt ue
Ġmon itors
augh ty
Ġsh adows
Ġtrans plant
Ġcomm emor
uls ion
ĠCirc le
ĠTyp ically
al ine
Ġmet rics
Ġcheck out
Ġnurs ery
Ġpres ervation
ĠP ine
Ġprom pted
ement ia
ain ian
Ġsh ar
Ġbree ze
iv ated
Ġbibl ical
em ption
ĠFourt h
ĠD ell
ĠR unning
Ġdraw ers
ĠBeh av
ĠPer iod
ins p
ĠO z
ĠLe ather
Ġf ountain
ĠMerced es
ĠCateg ory
y on
Ġant ioxid
ĠR ange
Ġy a
Ġcitizens hip
Ġwas ted
ĠHur ricane
Ġcomp rehen
ĠOcc up
Ġsw ap
ĠUn ique
l iness
l ings
omm on
Ġdis par
ĠR ating
Ġdevelopment al
it ored
e et
Ġins ects
Ġb ible
ĠA K
Ġ12 8
ĠS ter
the tics
olog ic
Ġnegot iate
e u
Ð ´
onom ous
se en
Ġsw itches
ĠM illion
ĠC ath
Ġpaper work
Ġl ou
ĠJ uan
ĠS ent
Ġgame play
Ġsequ el
Ġreput able
Ġc ad
it als
our cing
4 9
Ġpot ent
Ġtermin ation
il ings
b ags
Ġrig id
il iar
Ġsup reme
ĠUn iverse
ĠM aur
Ġpar ade
am bers
fr ame
Ġb ests
ĠSn ap
ĠN T
Ġinf inite
ĠS MS
Ġsucceed ed
Ġcon dom
ĠV ista
ĠI G
Ġqual ification
Ġru in
Ġon ions
Ġhe el
c ape
t high
Ġwe ights
AS H
Ġrev ision
Ġcolle ague
Ġpertain ing
ot echn
ĠJ ama
ĠLe vitra
ĠB ever
Ġr uss
Ġbi ography
ĠFlo rence
Ġconn ector
Ġpolit ically
Ġappe als
Ġ+ +
ĠS leep
Ġexp orts
end ant
ĠRem ov
Ð½ Ð¸
n ia
Ġpix el
ĠC isco
Ġp est
Ġbe ast
ĠN ico
yr am
ub le
hat e
g ener
if ty
ĠE VER
ĠPear l
ĠStan ford
ud ge
Ġtex as
Ġelev ation
Ġall iance
Ġh ats
ĠFl ight
Ġgard ening
Ġweb page
se ud
ib les
ĠWell s
gi ene
st able
ĠHar vey
ĠAgain st
ab a
Ġmon ument
Ġg um
Ġsyn c
Ġevol ve
ren der
ploy ed
ig ent
ĠHe althy
Ġresp iratory
Ġrob ots
ĠC oup
Ġb ou
Ġdefin itive
Ġoff s
in stein
s k
Ġaccompany ing
ĠVers ion
ĠSched ule
Ġin ability
m pos
ĠR oof
Ġcapt uring
the astern
ĠS AP
Ġbac on
Ġw ilder
Ġ) ?
p op
Ġbr it
ver ages
Ġsurf ing
Ġab oard
Ġsp inal
Ġbud gets
ĠL an
ĠBr anch
O G
etermin ed
ĠGu aran
n ame
Ġrele vance
Ġlog s
Ġdeb it
S C
Ġun le
ĠCr uz
ĠOr thodox
Ġdep uty
Ġch im
ER Y
Ġyear ly
Ġelec t
ĠSud an
g on
ĠP el
Ġal beit
ĠB it
ĠSim ilar
ĠC oin
ĠT ip
ĠF ern
ĠK yle
Ġk icks
Ġs or
ĠSte am
s a
ri um
Ġscream ing
Ġw icked
Ġoccur rence
Ġy ields
iv ation
ec onomic
Ġblood y
as a
om o
Ġbas eline
ĠWas te
Ġterror ists
ĠVeh icle
par ts
Ġcontrib utes
ĠCh ile
h ile
ĠL OL
ĠTele vision
ĠB our
Ġdark er
ĠBris tol
ĠPhys ics
ĠFr ied
Ġst al
Ġro ster
ĠS ierra
Ġp ivot
ĠPre vention
Ġ196 5
Ġ thigh
Ġexhaust ed
ĠCl aim
Ġstretch ing
Ġcare d
ĠL is
ĠT ampa
ĠAb b
ĠDown town
ĠRich ards
ĠA then
aun ting
Ġseaf ood
og g
ĠK ir
ĠHud son
Ġtrib e
Ġstep ping
ĠSt u
Ġur ine
arr ings
Ġg reens
ile m
ĠEff ective
Ġrep ublic
ĠO tt
ĠLove ly
Ġen lar
Ġpro state
Ġge ographic
get table
ĠH arm
f iction
ĠOut side
Ġpenc il
ĠElectr ical
Ġl oses
Ġsubject ed
ĠC amb
e or
Ġcr ushed
Ġincorpor ating
ĠVar ious
ĠAlz heimer
Ġad olesc
Ġover ly
ĠR at
Ġgrand children
Ġup side
ĠPay Pal
Ġnot ices
rec ated
um en
ĠR ud
Ġl uggage
ĠInter view
Ġsp ends
Ġint est
Ġhe x
ĠFe ed
ĠRepresent ative
ĠPro to
Ġimpact ed
ĠAcc ounting
was her
Ġlandsc aping
ĠMedic aid
Ġbudd y
Ġg inger
Ġarch ives
Ġreferr al
ĠM ale
Ġdem ographic
ĠFor ces
6 6
ĠD od
Ġaddition s
en h
ĠTh under
Ġspl end
Ġrender ing
ĠSad ly
Ġball oon
Ġscen ic
j ob
an try
ĠLo an
Ġident ifies
Ġs iblings
Ġdrive way
d ig
Ġun author
or ie
Ġher bal
z ym
us ions
Ġtechn ician
ĠBask et
Ġelig ibility
Ġclar ify
Ġmom s
Ġris es
Ġreplic a
et on
ĠHon or
ĠWorld wide
ĠK il
Ġp iss
Ġeconom ical
Ġhead line
Ġr ider
Ġ" ).
Ġutter ly
pat ient
Ġcurtain s
ĠIde al
ĠBut ter
Ġd are
Ġb ake
Ġ) )
Ġten ants
ĠAl pha
an ks
Ġhel lo
ren ts
Ġgreen house
ign ment
res a
om i
Ġout reach
Ġ10 8
Ġseason ed
ĠCh ase
e enth
ĠHistor ic
al one
ĠK um
ĠM AN
ĠB ibl
Ġsafe guard
ues ts
Ġtab s
ĠBl ues
ri k
Ġ, [
ĠBudd hist
Ġmon itored
Ġpress ures
Ġlength s
Ġessential s
Ġex agger
Ġded uct
Ġb lowing
Ġcr aw
Ġabsor bed
ĠN W
ĠHigh ly
Ġsh red
Ġinc oming
ĠC AN
Ġcream y
Ġc ache
Ġ-- -
ĠT iger
ĠNe g
Ġin nings
Ġby pass
Ġenroll ment
Ġtun es
Ġfavor able
ay al
Ġhoriz on
Ġh av
Ġm im
Ġabs urd
ĠF E
Ġto es
Ġappet ite
ot er
Ġang els
Ġy og
Ġcomm ence
ĠY ard
ix on
Ġnom ination
Ġcard iac
c ott
Ġdon ors
Ġaid s
Ġtutor ials
ĠK ath
Ġg ifted
ĠPerson ally
orks hire
Ġcr icket
Ġhard core
ĠRes ear
ad der
Ġpract iced
p arents
Ġdeclar ation
ĠO m
od a
ĠUltim ate
ÂĢ Â
sp e
Ġbus h
ĠIn ves
Ġbo iler
ĠM ine
ist on
Ġm isc
ĠS ounds
ig g
Ġworry ing
Ġserv ant
Ġfemin ine
Ġinter vals
Ġbe e
Ġbegin ner
Ġesc orts
Ġdon or
ux e
Ġh ay
Ġrel ies
Ġl ush
f illed
ĠWar ner
Ġlic ence
ĠTw in
Ġout fits
ĠR acing
l r
ĠTreas ury
Ġmist aken
ĠNe igh
Ġg mail
Ġ19 00
Ġaccep ts
Ġflood ing
Ġcrimin als
id ering
ĠLiter ature
Ġm s
ĠMove ment
Ġle ap
Ġrecogn ise
Ġknock ed
iss an
Ġsurv iving
Ġstr ains
Ġaw aken
im ming
Ġoppos ing
Ġ196 4
Ġpr iests
ĠSh ar
ĠG am
ĠU I
Ġaut ism
ĠYOU R
ĠChe v
Ġdist ress
ĠBl ake
ĠComp ar
ĠG E
Ġhe ights
au kee
ĠC lo
Ġun ch
on z
ĠF unction
Ġcelebr ations
Ġtail or
Ġdial og
Ġcr ied
Ġpl um
ĠN an
Ġto x
it ic
ĠCy ber
Ġshow ers
Ġregistr ations
Ġbuild ers
ĠTw enty
lec tric
Ġfulf illed
Ġsal on
Ġhighlight ing
Ġ18 00
at isf
ĠLinked In
arm ing
u ition
Ġdat as
Ġd ro
Ġkitchen s
Ġlad der
Ġc ass
Ġpres chool
t hal
Ġdiv isions
ĠGar age
inc inn
r ist
ĠW ide
Ġreal izing
ĠC G
ĠGen esis
Ġnew born
ud a
Ġw ives
Ġex quisite
ĠWal king
ĠMed ium
Ġflu ores
ab y
Ġphenomen a
ĠG RE
Ġpump kin
ĠProgram me
Ġh ated
ĠH app
Ġforg ive
f ounder
Ġsh ifted
ĠSec urities
to ster
ĠK az
Ġcollabor ate
Ġarg uing
Ġeffic acy
Ġflo at
p x
ĠRe venue
Ġarm or
ort on
ar ians
Ġstud ios
ĠO EM
ĠAs ide
Ġsubsid iary
Ġimag in
Ġworth while
Ġpractition er
ĠD B
ĠP ix
is ive
ĠAd just
Ġpray ing
Ġtr unk
ĠB ah
ĠFin land
Ġf ighters
ub ric
Ġn ull
Ġsod ium
Ġmur dered
Ġlog ged
Ġrecip ients
Ġele ven
I O
Ġunique ly
Ġhonest y
Ġrecon cil
Ġfree zer
ĠK i
Ġinput s
ĠZ en
ĠMu ham
ĠNe braska
ĠÂ Ķ
Ġcancell ation
ĠMain tenance
Ġadvance ment
ĠC er
Ġtr act
Ġvalid ity
AS S
Ġp ins
ĠAbsolute ly
IGH T
oss ip
Ġer otic
ĠCol lect
ed a
ĠAc ts
Ġstim ulation
ĠRom ans
ĠFire f
Ġances tors
Ñ ĩ
ĠCreat ing
Ġw ounds
ĠN V
ĠAr tic
ĠCh ampion
Ġv on
pay ers
Ġ ta
Ġdisc ourse
ĠF ew
Ġrep roduction
Ġhand book
Ġenvelop e
ĠAr men
it ives
b in
Ġac rylic
ĠC atherine
Ġstrengthe ning
Ġaim ing
ĠA verage
ĠInit iative
b ish
ĠIn come
r ie
Ġstret ched
g ary
7 6
ĠKeep ing
Ġfib ers
Ġfell owship
Ġincon ven
Ġce ilings
es ters
ĠB ra
Ġnit rogen
ycl op
incinn ati
Ġsoc io
ĠAlbert a
ĠS V
Ġpersonal ities
Ġcoll ision
j e
ĠVerm ont
ĠLC D
Ġr ushed
Ġcapt ures
Ġexplan ations
Ġair lines
mph ony
ĠImper ial
ĠRe fer
P D
Ġac ne
Ġincorpor ates
Ġmoist ur
Ġgr ind
ant on
Ġdesper ately
Ġ194 5
ĠS op
ĠPot ter
ĠF ight
ĠH aven
Ġprin table
ĠUp dated
ĠDel aware
ĠDo ing
Ġv ibe
ern ame
ĠBene fits
ĠI cel
ĠMem ory
Ġwilling ness
Ġapp rent
ec hes
Ġsm iled
Ġd ictionary
rolog ical
ĠL ith
ĠHe ights
ĠW end
ĠAirl ines
ĠN ad
Ġsp here
ĠBer keley
pl aces
Ġsurpr ises
Ġbe an
Ġcar ved
ĠL G
f am
ol ves
ĠOr chestr
f s
Ġpret end
Ġinvestig ators
Ġpol ls
erm at
ĠPl astic
Ġimper ial
Ġst ance
Ġhel met
Ġun m
ĠL ooks
Ġshort age
if or
Ġrecogn izes
Ġcl icks
tr ation
ot ed
ĠW orth
d epend
Ġec ological
ĠMo z
p g
Ġg aze
b at
Ġquarter back
ĠLe o
Ġbr ides
Ġmight y
weg ian
Ġran ch
Ġquestion ing
Ġconstit utes
Ġrest ing
Ġcr ush
ell ers
Ġwe ars
ĠEx erc
Ġinval uable
Ġhol istic
ĠTurn er
Ġpred ecess
Ġunfor gettable
ank ed
Ġg own
ĠQueens land
itc her
ĠAC T
Ġmer it
be y
Ġdeb ts
Ġexp ans
ĠT D
ĠY am
Ġgate way
Ġrig orous
ĠStrateg ic
Ġren ting
thes is
ĠAb ove
ĠâĢĿ ).
Ġarch itects
Ġbe verages
Ġcorrespond ence
ĠManufact uring
Ġcere mon
ĠI A
Ġconsist ed
Ġle f
ĠP B
Ġrelig ions
ik h
Ġh ose
Ġcul inary
in come
Ġemploy ing
Ġ21 0
agon ist
Ġcor rid
esp erson
Ġinterpre ted
Ġref urb
Ġchat ting
ĠT ig
Ġsp ices
ĠProv ide
col or
Ġbr akes
Ġmart ial
ĠSh aw
Ġgen res
ĠIcel and
ĠOrgan ic
ĠSup erv
ĠPhoto shop
Ġdisappoint ment
ĠGl ad
Ġre per
Ġexhib ited
io let
Ġbout ique
i ens
Ġcor ros
Ġsl am
Ġbe ers
Ġtem pt
Ġm ingle
Ġbill ions
ok en
ĠP rest
Ġband width
Ġbath s
Ġtyp ing
ĠImp ro
Ġbroad band
Ġproto type
av il
ĠTem plate
Ġcon gest
toster one
Ġbreak through
ĠC afe
ĠOak land
Ġeven ings
ĠComple x
Ġtrans cription
ĠExam ple
Ġassort ment
in nam
Ġback pack
Ġsing ular
Ġs i
op ing
Ġrel ieve
Ġrif le
ĠEx tr
an te
Ġenvironment ally
ach i
ĠN CAA
Ġrenov ated
Ġsp icy
ienc ies
Ġir regular
Ġaccess ibility
Ġextr acted
Ġtight ly
Ġfulf illing
Ġdisapp ointing
it r
ĠC inem
Ġmod ular
ĠR ic
ĠM otion
Ġmir acle
ĠJ et
f il
ĠD D
ĠHarr ison
Ġunbel iev
Ġpresent ly
Ġqu iz
Ġp ause
Ġcommit ments
ĠJul ia
Ġlearn t
Ġconf ess
Ġf ax
ĠAdvent ure
ĠReg ulation
Ġtherap ies
Ġfre ight
ĠCertain ly
ĠVide os
Ġtodd ler
Ġform ally
ĠP i
Ġg oose
ĠR ES
ĠW atson
Ġe go
ĠCent ers
Ġprosper ity
ĠD H
Ġimp ose
Ġshop pers
Ġcred entials
Ġfree zing
ĠCol lec
yc ling
ĠS or
im eter
Ġbiz arre
Ġwilder ness
Ġclass ics
Ġr ugs
tom an
ĠG em
Ġmis er
Ġimpro v
ĠSand y
ĠJ os
Ġal gebra
ĠSher iff
Ġpill ows
Ġdetail ing
Ġaw hile
Ġjust ified
pr ising
ĠFant asy
Ġchar itable
ell i
Ġscholars hips
Ġsexual ity
Ġeleg ance
tre p
Ġmon sters
Ġprolong ed
ĠMar x
Ġsod a
Ġstick y
Ġad apter
Ġ... ]
Ġdeliber ately
Ġmetap hor
ĠNor man
ĠPR O
ik ed
b ag
Ġsecure ly
Ġcar n
ĠUkr ainian
ĠP oor
Ġcred ibility
els h
Ġgr ains
Ġrequest ing
Ġoverlook ed
Ġall ocated
Ġthe ology
Ġveget arian
ĠBat man
Ġap ost
ĠS ER
Ġgovern ed
ĠKat ie
l it
ĠF irm
ĠUA E
Ġunder way
ĠChick en
Ġs ued
Ġdist ances
Ġremote ly
Ġ!) ,
ĠExplore r
ĠCam era
Ġinter conn
Ġquarter ly
Ġconvinc ing
ĠC able
ĠM N
ĠDiv ine
Ġped iatric
Ġpal ette
Ġhum idity
ĠI gn
ĠOper ation
Ġdw elling
Ġpred ic
ĠZ IP
Ġmar athon
ĠU T
ĠS id
ĠV C
ĠIt em
Ġfeas ible
ĠAdvert ising
ĠCert ification
Ġhorm ones
Ġsub missions
ĠCar bon
Ġpremium s
Ġtrib es
ĠHer o
p ting
ommunic ations
Ġspot light
w aukee
Ġstat ue
Ġdis posed
Ġhon ors
Ġsp oon
Ġd uck
Ġtransform ing
ĠWild life
Ġinsist ed
cl ip
c ost
le en
Ġapp arel
Ġlif elong
Ġrebu ild
ĠP am
Ġobs essed
ĠOut look
Ġtri umph
ven ile
ĠCh uck
Ġinv oice
ĠOr d
4 2
Ġl ymph
ĠK ick
ĠG uests
ent ry
Ġpot s
ĠAN Y
ĠSh ore
ĠR alph
Ġr age
Ġclean up
ĠCr usher
Ġtr acing
Ġwh olly
Ġtran qu
oc ial
Ġco il
Ġ ted
Ġdipl om
Ġreven ge
ĠJosh ua
ot on
ant hrop
Ġaffil iates
ĠI o
ĠR uth
Ġcont ing
Ġbro ch
Ġche ek
ĠKnow ing
Ġres orts
Ġbrand ed
Ġfiction al
Ġbe es
Ġl ig
Ġrepresent ations
Ġcompar ative
Ġinac cur
ĠP G
Ġen rich
und ing
Ġman kind
Ġd rown
word s
ienc ed
ĠVin cent
os ition
Ġ300 0
ÑĢ Ð°
M C
ĠGlas gow
Ġtr actor
Ġcur ved
Ġincom plete
rens ic
Ġmo tors
Ġcr unch
x it
Ġgentle man
Ġlog ging
Ġre jection
ĠY orkshire
Ġsufficient ly
Ġinc idence
Ġc age
Ġtr io
Ġcompl aining
Ġprov ing
T his
rit er
ĠM ills
Ġpart ition
Ġsy rup
as ound
Ã© s
y ou
icon ductor
Ġretain ing
Ġlight ning
Ġall ocation
Ġgu iding
ĠT ask
Ġdes crip
Ġnot ifications
est ly
Ġjew ellery
Ġstat ute
Ġins ect
Ġdis se
ĠGet ty
Ġr ude
Ġmet ro
ĠBob by
ĠFA Q
Ġadmin ister
ĠTraff ic
ĠEr ror
Ġoptim um
ĠRepresent atives
T O
Ġb ir
ai ro
ĠIda ho
Ġalle v
t ide
ĠBern ard
mpos ium
ĠBr andon
Ġanticip ate
cast le
ĠSubs cribe
f ix
Ġ196 6
Ġtransport ed
Ġinc lined
ĠCoun ter
Ġsm iles
Ġs ir
ĠR ate
ĠRail way
Ġtext ures
Ġhuman itarian
Ġst roll
ĠAm anda
ĠNew ton
Ġsusp icious
ĠH ood
Ġsh aping
ĠVi enna
Ġbuff et
Ġinstall ment
ĠRog ers
hand ed
ĠAp ps
ĠCons idering
Ġf ocal
eng u
ĠSpecific ally
m us
4 7
Ġsupervis or
Ġfore cl
Ġdemonstr ating
Ġun ple
ĠA rena
Ġtrust worthy
ĠTr inity
Ġdis l
Ġen zyme
Ġobs c
Ġge ography
Ġbom bs
ĠC emetery
ent ric
Ġne ural
Ġvar iant
str ong
Ġinc urred
Ġadhes ive
ĠM ead
Ġmult itude
Ġcl utch
Ġcor p
Ġ. :
sh ot
ĠL inks
ĠSur gery
le ys
ĠMar riage
DA Y
ĠWord s
Ġexhib itions
m un
ĠCons ervation
Ġp ars
ĠV o
c ence
Ġtor que
ĠWork ers
our met
Ġbelie vers
el eration
Ġmicrop hone
ĠRe pl
Ġencry ption
Ġav iation
Ġneighbour hood
Ġcr acks
ĠT ren
er ting
ĠF ame
Ġprem ise
Ã³ n
Ġorgan isms
Ġten ant
ac ements
Ġst ained
Ġsuc ks
Ġfest ive
k ia
le ment
bo at
Ġwar mer
Ġsymp tom
Ġ? âĢĻ
Ġcivil ians
Ġland mark
Ġo ste
Ġl amb
r ange
Ġne p
ĠNaz i
ĠLuc as
ĠCon stant
Ġ11 2
ĠHun t
ĠS aw
Ġal erts
Ġw itch
ĠA ur
ĠÐ ²
Ġro de
ĠScript ure
Ġvar iants
amp ed
Ġproblem atic
ĠPut in
ĠS ue
im al
Ġint ens
ĠPartners hip
ĠCro at
ĠEl ite
Ġhead ache
ĠZ ero
Ġend ors
ĠG arc
onn ie
Ġinterf aces
L R
Ġd ilem
Ġem ission
Ġinter ven
Ġmand ate
Ġan es
Ġneg lect
Ġir resp
innam on
ir ate
Ġide ally
Ġemb ry
Ġcommand er
ĠS AT
P E
Ġcom fy
Ġn m
IT E
Ġav en
ĠB ri
Ġden ial
ĠRel ig
Ġstim ulate
tor m
Ġz oom
Ġst ip
Ġtren dy
Ġplaint iff
Ġout dated
Ġsort ed
Ġself ish
ĠHun ting
ic one
Ġboun ce
ĠC incinnati
Ġsand w
Ġpan or
Ġc ens
g ender
ĠTour ism
ab e
Ġno v
ah u
p his
che t
om agn
Ġlegit im
Ġprofessional ism
ĠC arn
Ġantib iotics
ĠK ill
Ġnightm are
ĠHit ler
Ġsever ity
s hips
Ġper mal
Ġloc king
ĠT ube
Ġmal ware
ĠCh ocolate
Ġmin isters
ĠN OW
Ġbl ur
ĠV el
Ġe igh
id as
Ġco he
ur ations
Ġm ould
Ġbacter ial
I ES
Ġsimpl est
ĠBec k
ĠBel le
uff le
Ġpropag anda
Ġworkshe et
Ġv est
ke ep
Ġbr a
Ġvalid ation
Ġtr illion
ĠBry an
IC K
Ġtrib al
t ho
ĠHy per
ĠMuham mad
ĠD ian
Ġst amps
ĠGener ation
Ġd ancers
Ġprovin cial
ĠEd wards
Ġsy mm
Ġlog os
AC E
Ġast hma
Ġ/ /
A B
ĠNor wegian
Ġs ug
uss els
ĠÐ ¸
Ġren ted
ĠJ a
ĠTib et
Ġs id
ĠF itz
Ġwe ed
boy s
Ġb ucks
Ġmetab olic
Ġhur ry
ĠNear ly
Ġad here
er ie
Ġup stairs
ĠMor oc
Ġreg istry
ĠAnsw ers
Ġarg u
Ġreserv oir
Ġk ern
ĠExcell ence
Ġver d
Ġo sc
ĠR ico
ĠNep al
ĠBi ology
Ġrecon struction
Ġb ip
ĠPro jects
Ġrep aired
Ġdyn am
cons cious
Ġski ing
ĠFun eral
Ġshut tle
Ġsign aling
v ity
Ġcan al
ĠT ol
qu ot
Ġsuit es
Ġback wards
k ok
Ġdos age
Ġmem oir
ĠRec ogn
ĠW R
ĠEn han
ĠProv ince
Ġmarket ers
Ġserv ants
Ġcoordin ator
Ġcelebr ates
Ġdisc ounted
Ġsem inars
av it
u ited
ĠLuc y
Ġpreval ence
ĠT i
Ġhand ic
ĠMe asure
ĠRoc he
Ġboard ing
ĠK le
Ġoptim istic
Ġcre ations
ĠSt ain
Ġen zym
p owered
Ġ" ...
Ġscrew s
Ġw reck
Ġreflect ive
OS T
ĠP aint
ĠC u
Ġhelicop ter
Ġfashion able
err ies
bo hydr
ĠG uit
Ġselec tive
Ġfire f
Ġment ions
ĠP oss
Ġstr aps
Ġdoub ts
Ġspr ink
ĠBris bane
Ġad missions
ĠRes olution
Ġr ugged
Ġcateg or
Ġen ric
Ġto ken
Ġsk ull
Ġvibr ation
Ġintern ship
Ġdoub led
ĠP ill
Ġd ude
ĠAn cient
Ġmin s
Ġw iki
Ġpreced ing
Ġrestr iction
Ġox ide
Ġdece ased
Ġd iox
Ġexc luding
ess a
ad os
Ġgl itter
Ġtestim on
ĠS olution
ĠChampions hips
Ġequ ip
ĠLyn n
Ġpermal ink
ĠCon sequently
Ġdig ging
ĠT all
ĠIsa ac
Ġshe r
c ill
ĠFound ed
ĠM is
ĠWe re
ah l
t hir
ĠCitiz ens
ĠSh adow
Ġatt ent
Ġuns ure
S tar
ĠN ar
Ġneck lace
i ably
Ġsl ope
Ġpat ron
Ġco ven
Ġparad ise
ĠChar acter
ĠBase ball
ĠW ash
Ġv apor
Ġk ings
Ġ tam
Ġn erves
Ġst aring
ĠIndustr ies
l ength
ĠMin or
Ġgrad uating
re ation
ĠE gg
Ġdef iciency
Ġ17 9
amp agne
ĠD ale
et a
ĠD ipl
Ġrevel ation
A s
g el
pr ing
Ġfut ures
ĠPro s
ĠDan ish
Ġmanip ulation
pl an
Ġspecial izing
Ġpro xy
Ġcomp artment
Ġwas her
ĠPhill ips
z es
Ġemb ark
Ġbal ancing
ĠPl aza
Ġrec ession
ĠExt reme
is ers
ĠSub ject
Ġcon e
as tr
ĠL iz
Ġ196 3
g om
ĠPro ceed
Ġbeh ave
i ography
I AL
Ġh aw
ĠAny thing
Ġpresum ably
ĠTer min
Ġinst inct
Ġse iz
ph alt
Ġpun ish
es to
Ġimp ly
Ġesc aped
Ġ tide
Ġhat red
Ð¾Ð ²
Ġwork outs
he arted
ĠParticip ants
Ġtr aces
Ġsent enced
Ġsto cking
m ia
ur i
ĠQu ite
Ġexc urs
Ġchr ome
ĠChem istry
na ire
Ġstat utory
Ġcol oured
Ġbl ades
Ġmob il
ĠP ython
Ġw ipe
B ER
ĠNich olas
Ġple asing
Ġmar riages
AN S
Ġencl osed
Ä ģ
ĠS ull
ound ing
Ġb ik
Ġc ove
ĠOtt awa
Ġvulner ability
Ġe uro
Ġadvert ised
ĠMo to
ĠContr act
ĠComm ons
ĠÃ Ĺ
our t
Ġ thir
Ġgr ams
Ġspread she
ĠCl aire
Ġbul bs
Ġf ost
w ill
ĠIndepend ence
ĠBro oks
Ġr ays
Ġexc av
ĠOwn er
ĠFre qu
Ġbure auc
Ġab used
ĠSer iously
Ġstory telling
ĠP arent
ĠSte vens
Ġdr one
Ġs ang
ar in
Ġimper ative
Ġaccum ulated
Ġco b
Ġinf ants
h aul
Ġadjust ing
Ġcorrec ted
amm ers
Ġlung s
ĠD ol
ĠSh ah
Ġjud ged
Ġr ivals
Ġwr ink
Ġhol low
ne x
Ġdep ressed
ford able
ĠFood s
ley ball
ĠSc ore
ĠW his
ĠM alt
Ġhalf way
Ġst umbled
Ġdrain age
Ġsm ok
Ġnotice able
pher d
tex ts
Ġfu els
ĠV intage
M ed
Ġwrest ling
ĠP ump
Ġdec om
Ġforg iveness
em ic
Ġbl ended
ind uced
Ġpublic ity
Ġprec aut
resist ant
struc ted
Ġforth coming
art hy
ĠRequ ire
t apes
Ġmat urity
y ards
ĠA str
out ing
oph om
ad ic
Ġmultim edia
Ġjump s
Ġimpro per
Ġp ac
Ġdep icted
Ġl ag
OU R
Ġl ord
ĠE ST
Ġacceler ate
Ġtr ait
omet ry
Ġl ion
Ġpay able
ĠRe ed
aw ays
ĠMcD onald
Ġevolution ary
ĠPrincip al
ĠVi king
Ġfragr ance
Ġd ementia
ĠLeban on
ak ery
ĠV enez
pl o
Ġcalc ulator
Ġschol ar
Ġrou lette
ĠAud i
us er
ĠL ed
Ġl acks
Ġco ats
is tor
ĠUltim ately
ĠBon us
ĠB ent
Ġl ith
Ġ/ .
ĠMo tors
Ġremov es
ĠMil an
Ġmen us
ch anging
Ġplace holder
Ġk icking
Ġab ol
Ġar ises
ang a
Ġs aus
OR K
Ġfundament als
Ġfrequ encies
ĠRe bec
Ġ tier
Ġ tapes
Ġob ed
ĠAssoci ated
ĠT ommy
ĠL ect
Ġpos ed
u ven
ĠDat ab
Ġprosec ution
Ġpack aged
Ġh ath
Ġm uff
ĠWind s
Ġpain ter
Ġ Å
p it
ateg orized
Ġfin es
Ġpor traits
ĠU b
B ook
Ġtwist ed
Ġtr us
Ġutil ization
Ġinevit ably
Ġbul b
ĠOper ating
Ġplan ets
ĠRub y
ĠP oints
ĠL ac
ĠLe v
H R
Ġopen ings
Ġfl ush
Ġperipher al
ĠOrchestr a
ul i
Ġch oir
Ġroot ed
Ġgr ape
ĠM artha
Ġrec alled
Ġal mond
ĠSp encer
ĠS uff
ĠB I
Ġe cc
Ġconver ting
Ġsh aking
Ġut most
ĠK end
oo ps
Ġup ward
Ġcand les
Ġal ot
Ġacadem ics
Ġw olf
ĠDr iving
Ġunc ommon
Ġhaz ards
ab el
ĠNiger ian
Ġwonder fully
af il
Ġeven ly
Ġrecover ing
Ġob l
Ġd awn
ĠEn trep
in als
Ġhazard ous
ĠH ob
Ġbol t
ĠChap el
ĠM AC
ĠRe form
aul ted
Ġdec ay
ĠTest ing
ĠS ed
ĠEag les
ĠSchol ar
stit utional
ĠR ug
Ġo we
ĠW ake
Ġtow ers
ĠA ub
Ġdestro ying
Ġsm oo
Ġp ne
ĠM ist
m i
ĠM ans
whe el
Ġfe ast
Ġv om
et ically
Ġsw elling
ropr actic
orig inal
ĠResp onse
Ġdes tructive
Ġhyd raulic
Ġhe dge
Ġman eu
Ġy ahoo
ĠRequ est
Ġcor on
k it
c os
ĠWhe el
Ġcirc uits
ĠN I
c ap
ast ro
Ġdefin ite
Ġsquee ze
Ġcollec tor
Ġdel ic
Ġcreat ors
ĠP erm
Ġauthentic ation
the d
o ors
Ġexplos ive
g ae
ĠCl aud
ĠNAT O
Ġind ie
ĠAdd ed
ĠNS W
Ġnost alg
Ġargu ably
v able
Ġadv ancing
Ġexplo it
Ġpil ots
Ġmix er
ĠG and
Ġip hone
Ġun l
Ġgot ta
Ġfresh ly
Ġmess y
Ġthr ust
Ġexceed ed
ĠEntrep rene
ĠArtic les
ĠF ishing
Ġterrit ories
ĠM ak
Ġrestr ict
Ġrehe ars
Ġstere o
ĠR aw
Ġ% ),
Ġair ports
ĠS low
Ġen semble
Ġinqu iries
M I
Ġnote book
Ġprofess ors
Q u
ĠW ITH
Ġcr acked
Ġcompet itor
Ġbarg ain
ĠAthen s
Ġdet ached
Ġignor ance
ĠR oot
Ġrisk y
Ġv oy
bl ock
Ġres olutions
Ġ il
Ġc itation
Ġn ip
yl um
4 6
ĠJ S
Ġdish washer
ĠElec tion
Ġfl irt
Ġcr us
Ġ13 5
Ġunve iled
ad ers
Ġconsolid ation
Ġexpend iture
Ġal phabet
k ets
Ġhope ful
Ġdeb ates
ign ant
Ġ10 7
00 3
Ġscr ub
ĠMil waukee
ĠChe ster
b ands
Ġdown s
Ġte e
8 9
ĠB UT
ĠD inner
grad ation
Ġs hat
s ki
Ġaw ake
ĠM G
Ġcred ited
ĠEvery body
Ġstor ms
Ġsur render
Ġw oven
Ġg oo
Ġmin es
Ġrev is
ĠSer ge
Ġfo il
Ġl ob
ĠCook ies
ĠDisco very
iv able
Ġsp ells
ĠS eller
ĠCo hen
Ġ23 0
ĠC urt
Ġlearn s
Ġsal aries
Ġreb ell
rec ted
Ġown ing
ov o
Ġas y
Ġpro jection
Ġst ems
gom ery
ĠC ensus
ĠHe ather
Ã Ĺ
Ġm our
Ġintegr ating
Ġpl ed
ul ators
Ġemploy s
ĠC otton
ĠVen ice
ol ics
Ġf ox
F or
cr afted
ĠMembers hip
Ġweakness es
ĠC ord
Ġdecor ate
ĠRes idential
Ġlater al
Ġrot ating
Ġmill enn
ĠE co
Ġii i
Ġcoordin ated
Ġbrows ers
irsty les
Ġperform er
ĠIraq i
Ġhy giene
Ġm arsh
Ġvers es
Ġfil ming
Ġse ated
Ġp seud
amp oo
ĠWho le
ĠK in
Ġrub bish
ĠRebec ca
Ġcommit tees
ĠT ap
Ġch oo
Ġtrou bled
Ġhome town
ri ad
Ġfoot print
ĠF oster
m ile
Ġcomp ilation
iel der
ĠLeg end
ĠL iqu
Ġinc ub
ĠMathemat ics
Ġcatalog ue
ir ting
ĠCons ulting
ĠArch ived
Ġinterfe re
Ġcomprehen d
ĠR ush
Ġh ips
ĠC athedral
ĠJ ar
Ġv arsity
ĠTh inking
Ġsm ells
Ġbl u
ĠF ill
Ġconsequ ently
U p
Ġunav ailable
Ġenhan ces
F O
ĠO B
bu ilt
Ġpat rol
Ġkilomet ers
i aries
ĠEff ect
ĠColl abor
ĠDisc ount
yl an
ĠIss ues
Ġlin en
m ath
bro ok
Ġstick ers
Ġey el
ĠAr ctic
ĠEd die
Ġsm arter
Ġproceed ing
ĠR oth
Ġmot if
Ġill usion
names e
ĠH our
Ġpres erving
ĠIn stant
ĠTown ship
Ġdis gu
less ness
ill ery
Ġsn ake
Ġcop ied
Ġge ographical
ĠPain ting
Ġroutine ly
ĠJ O
ĠD awn
f u
ĠQue bec
Ġpuzz les
Ð ·
Ġvine gar
ĠSouth west
ens ation
is al
Ġan onym
ĠWal mart
Ġdr ought
Ġcommod ity
Ġl ime
Ġimp art
ĠWonder ful
Ġwell being
ĠG ear
Ġmet a
Ġorigin ated
Ġbl oss
Ġperiod ically
Ġmos qu
Ġop ener
Ġconfig ure
Ġatmosp heric
ĠUnc ategorized
Ġart hritis
---- ----
ĠLad ies
Ġsw allow
Ġmarg ins
Ġillness es
Ġd ye
Ġprem ature
ish a
a q
Ġspec ulation
C on
Ġche ating
ĠRe ference
Ġal k
Ġthr iving
Ġc ivic
Ġstead ily
Ġsle pt
Ġthere after
Ġg y
Ġg ossip
Ġl ubric
Ġdirec ting
ĠCle arly
ĠC MS
Ġ500 0
ram ento
Ġf erry
ber y
f riends
Ġadvertis ers
Ġres ide
Ġl end
Ġumb rella
Ġfr iction
fol k
ce ans
ĠLib eral
Ġemphas ize
ĠS aints
Ġmerch ants
ĠA Z
Ġun ac
Ġl odge
Ġm ills
Ġnumer ical
Ġremov able
Ġclassroom s
Ġcont amination
ĠSho es
Ġperce ive
Ġfool ish
ĠApart ments
Ġviol in
Ġten ure
ĠC ob
ĠTre k
ĠJo el
ann el
fect ed
Ġcongreg ation
Ġunh appy
Ġmon op
C L
Ġtrain ers
ĠSec ure
Ġp oured
og ical
W A
Ġp unk
ĠDep recated
ĠL ights
Ġsens ory
Ġlaugh s
ĠG aza
ĠFr an
Ġop ted
Ġru ins
Ġpe aks
Ġsh ipment
ĠVit amin
ĠC ities
Ġn ause
Ġgam ers
Ġ ib
Ġfresh man
Ġpass ages
avel ength
Ġaw e
ical s
ĠÂ ±
ĠG ates
l inks
Ġjun gle
ĠNo vel
Ġ196 2
ĠV I
ĠZ ion
Ġst ains
Ġpay roll
Ġ/ ]
Ġn as
r il
ĠE z
Ġend ure
Ġl ust
ĠBack ground
Ġproduc tions
ĠRes c
Ġfl aws
Ġunple asant
ĠP and
Ġstir ring
ĠFl u
Ġe tern
ĠTM s
am pton
Ġcompos itions
Ġn avy
con tr
ĠB J
Ġswe eping
istr ies
ĠLaw yers
tol ogy
ĠB O
ĠEt h
Ġspl ash
ĠNone theless
Ġre lying
Ġtum ors
Ġinfect ious
Ġtwe ets
Ġvis c
Ġcraf ting
ĠBre xit
Ġcol ony
or ia
ĠPack age
Ġmast urb
Ġsy ll
ĠDr ag
so ver
ĠF ail
Ġartif acts
Ġwas ting
ĠU ber
Ġins ufficient
Ġtravel led
g reen
Ġcan cers
ĠRock y
Ġh ooks
Ġflags hip
Ġvol can
ĠH ait
Ġide ology
ĠB ald
Ġsubject ive
ass is
ĠLike wise
Ġpre y
Ġgr am
han g
Ġinequ ality
Ġfemin ist
ĠIn fr
Ġf ats
ĠGr am
ĠJ ump
Ġwh ites
ĠL ip
Ġann ot
f ocus
ist ance
Ġbrack et
ĠEU R
Ġper c
clip se
Ġamend ments
Ġgas oline
Ġred und
ĠA TM
ĠAn a
Ġreproduc tive
Ġpal ace
Ġrecogn izing
ul iar
ĠI g
Ġelev ator
d it
rehens ive
Ġlow ered
Ġbear ings
ĠM az
ab i
Ġdecre asing
in ted
Ġ10 3
ĠReg ulations
ous es
an as
ĠPhilosop hy
aus es
Ġtax payers
ĠF Y
Ġste aling
Ġdidn t
Ġrencont res
ĠMet ropolitan
Ġtourn aments
Ġcounter parts
ĠM end
on i
Ġinv asive
Ġinadequ ate
Ġadequ ately
Ġdistrib utor
Ġbe ts
ĠP up
Ġcooper ative
Ġblack jack
ĠSt ir
ĠV a
r idge
ĠTon ight
ĠP y
Ġrein forced
Ġbless ings
i ots
ĠT IM
ĠHug hes
Ġfil med
omed ay
mer c
II I
Ġdes erved
Ġerect ile
ĠMarc us
if eration
Ġcryst als
Ġp ave
ĠS ara
ĠL ions
ĠCap itol
Ġgen ome
Ġdest iny
ĠD aw
ĠFant astic
Ġconfig urations
oc aly
ĠArch ive
Ġus ername
te in
Ġgr avel
ag h
Ġdis asters
red ict
Ġintr icate
ĠR ena
ĠStu art
let ters
Ġdiox ide
ash i
Ġserv icing
ĠM ight
ĠInt roduc
ĠB in
Ġaer ial
Ġthr ill
ĠIn str
ĠAp artment
Ġqual itative
Ġexc er
ĠSp ons
ĠL ibr
ĠF ear
Ġper t
D E
Ġsuc king
Ġnep hew
Ġimmigr ant
Ġobserv ing
pr om
Ġn inth
ĠK erry
ĠR ip
Ġit iner
ĠC ind
Ġscar ce
Ġcur rencies
Ġpr ince
Ġauthor ization
Ġform ulated
Ġinstruc ted
W e
Ġr im
fl amm
en ch
Ġse ized
Ġorganiz er
Ġconc ise
Ġcompl ained
Ġcompassion ate
Ġemp irical
Ġattract ing
Ġpione er
Ġdomin ate
Ġsh ining
Ġen vision
lass es
ĠHV AC
ĠD IS
ĠMc M
il ogy
Ġrefuge e
Ġrum ors
Ġexp on
ĠGu ild
ush i
h ots
Ġf ixture
ĠPar ish
ĠImm igration
ĠAlf red
Ġ ah
icult ural
ĠF est
p ayer
Ġqu ir
Ġ03 9
ĠProp het
Ġgu it
Ġn er
Ġsusp ects
Ġro ses
Ġpreval ent
ĠPro test
ĠSt ick
U RE
Ġdecre ases
ĠVenez uel
Ġshoot s
Ġaf ore
Ġb amboo
ĠN ine
Ġtw ins
ĠP oke
Ġant h
it ted
ĠHar per
ĠIndividual s
Ġwarning s
ĠF ellow
Ġ10 9
Ġn in
Ġsp ins
ĠCol in
Ġelectro de
Ġdef ic
ĠJes se
ens itive
otechn ology
ĠDef initely
Ġunauthor ized
Ġlit ter
avas cript
fe eding
Ġheav ier
n ow
agr ams
sh irts
ik o
Ġcl ues
Ġinduc tion
Ġst ab
ĠW C
u h
head s
Ġe arrings
Ġle aks
Ġde tox
ĠC rew
Ġnot ch
ĠEn try
Ġinf r
Ġadvert ise
Ġhost ile
k ar
rol ler
Ġcompar isons
Ġh ug
Ġexceed s
Ġgreet ed
ap hr
ĠHe ath
Ġl iking
Ġconf ined
ĠCarl os
Ġs inks
ĠNorm ally
ĠJ ur
Ġaw a
Ġhur ts
Ġplay ful
Ġrel ied
Ġjoint ly
p ine
ĠRe ason
Ġunder water
ĠW elsh
ĠProf ession
iv ities
Ġinherit ed
ĠL amb
Ġque ue
v ak
Ġchrist mas
Ġf ade
Ġtr am
ĠRoom s
Ġovers ight
ĠRep ly
oty pe
Ġpil gr
Ġyou re
ĠAff il
ĠIntegr ated
Ġmiss ile
let ics
Ġ az
ĠK er
ĠEns ure
ĠReg istered
Ġlot tery
Ġhere by
Ġag gr
Ġar che
Ġab str
Ġwell s
d oc
oca ust
Ġneg lected
Ġn ood
ĠCR M
Ġdipl oma
ĠAC C
Ġch asing
ug u
ĠTrans lation
ĠN issan
ĠSuper ior
Ġ ain
ir al
Ġdes cent
ĠNH L
ĠW ILL
ĠN as
erson al
ĠCru ise
Ġcomp uls
Ġcat ches
ĠRe yn
Ġimp ul
Ġcon texts
ĠSand ers
ĠD ow
ĠSull ivan
ĠLight ing
ĠN in
Ġs ul
ĠEff ects
ĠCal gary
Ġste ak
ac a
Ġad vers
Ġass ert
Ġm ich
Ġcar bohydr
Ġm c
Ġguit ars
ĠTer rit
Ġbath tub
Ġimp orts
Ġor nam
Ð ¹
Ġfrag ile
ĠP erth
um an
Ġpark ed
Ġthr one
Ġcapital ism
ĠDem on
ĠWrit er
Ġintention ally
Ġde af
ĠProcess ing
f ound
ĠPar king
w ife
Ġgrand parents
Ġallerg ies
Ġreward ed
sp ace
Ġover r
pl er
ĠRem ote
A G
Ġro ok
ĠZ ach
Ġsp ac
Ġfrank ly
re qu
Ġp estic
iling ual
ĠFun ny
Ġc iting
Ġon set
Ġpol ite
ĠAngel a
Ġbureauc r
ĠRe le
ĠW ear
tom ed
Ġdeal ership
Ġen v
ĠG y
Ġjud ging
ĠX ML
ĠDoc tors
ĠT as
Ġfil tering
lo e
Ġspec s
Ġmis leading
Ġ196 1
Ġob ey
ise xual
ĠN est
ĠTe lec
ĠThank fully
Ġgive away
Ġj an
ĠEngine ers
ĠBo at
mon ary
ine a
ĠB oss
ĠL aser
Ġguess ing
ĠW ing
Ġpenn y
ĠH ours
Ġtel esc
Ġstap le
Ġreal ization
ĠH annah
ograp her
ĠLast ly
Ġosc ill
Ġsw ept
h all
Ġtraff icking
Ġapolog ize
Ġcyl ind
Ġar rog
Ġun law
Ġinter im
Ġregul ators
D s
ĠB U
Ġlo ft
Ġtermin ate
wh ite
Ġnegot iation
Ġreg ression
f ty
ĠResear chers
Ġresp ects
Ġaccum ulation
ĠPro ced
Ġpost ure
ĠON LY
ĠMem phis
ĠBr ussels
Ġinit iate
Ġimpl ants
ĠS I
Ġnons ense
Ġre ef
Ġf ills
4 3
Ġass umes
Ġsp ill
Ġn arc
Ġind oors
Ġwith stand
Ġdet ector
Ġtr action
Ġhead aches
Ġcleans ing
ag le
Ġunder going
ĠG ig
Ġrel ent
Ġsuper hero
Ġwar fare
Ġban ana
ĠW ish
iv ating
g eneration
ĠCoal ition
Ġel imination
Ġun ified
Ġremod el
ĠRead er
Ġbo thered
Ġplay off
ĠLaw s
ĠAf fordable
ĠTH AT
ro let
ĠK iss
ĠDom estic
re x
it ures
ro ts
Ġbul lying
Ġadvis er
Ġconce ived
ist ed
ĠT utors
ĠBan king
ĠBat tery
ĠM ong
ĠCh arter
ĠWH O
Ġsacr ific
Ġb ats
Ġbe ams
ĠProble m
ĠA RE
Ġreim burse
au er
Ġsound track
Ġval uation
Ġcompl iant
Ġc ows
Ġrout ines
Ġsuccess es
Ġpictures que
ll a
Ġthr iller
ĠL ucky
Ġrail road
ĠBut ler
ĠSt reng
ĠC ock
ist ine
ib es
Ġsqu ares
m el
ĠAppl ied
Ġst all
Ġchoo ses
Ġvent ilation
ty ard
0 5
Ġembr aced
Ġd azz
Ġsl ipped
Ġtang ible
Ġsl ices
Ġclus ters
ĠD ual
ol ation
esp oke
Ġfarm house
ĠN urse
Ġdiet s
Ġad ore
Ġcollec tors
Ġref uses
ĠH ilton
ĠEll en
ĠG ur
Ġunp redict
Ġaston ishing
it as
ĠBasket ball
Ġstre ak
Ġprocure ment
Ġdipl omatic
iet al
ĠIs n
Ġ6 50
ĠEm peror
ĠActiv ities
h irds
ĠS Y
Ġrhe toric
Ġfauc et
ĠSp ider
Ġbench mark
ĠM RI
Ġpart nered
Ġsh ook
ĠK as
ĠPs al
ĠE ug
ĠNico le
Ġlaun ches
Ġr ay
Ġcomput ational
Ġcomplement ary
od ic
ĠGl enn
Ġdis able
Ġor bit
Ġun aware
Ġbl acks
app le
Ġd aunting
b ucks
ĠTr uck
Ġcircum stance
ĠRelig ion
Ġthr illing
in ate
0 9
w s
Ġexempl ary
ĠâĢ ŀ
ĠF ifth
ĠPas tor
am er
Ġco ff
ĠStephan ie
ĠNY SE
ĠDog s
Ġacadem y
o ft
ĠMont gomery
ĠSh aron
Ġsix ty
Ġign oring
ĠAh med
Ġpat ents
Ġclean ers
Ġg ases
Ġro asted
Ġup right
Ġdet ective
ĠBu ying
Ġfold ed
Ġfant as
Ġsour ced
ĠBudd ha
Ġultr asound
ĠNo ah
ĠC af
Ġneighbor ing
Ġclim bed
Ġclos es
ol ia
Ġrepos itory
t hirds
the m
Ġinter racial
Ġsound ing
Ġendeav or
read s
Ġgood bye
ĠElectr onics
ĠP apers
ab we
al ities
ĠCrit ical
Ġ. *
Ġinf amous
Ġconsc ience
ub er
ĠM iles
6 7
Ġrem inis
Ġexerc ising
ĠZ oo
Ġlaw makers
Ġfore front
Ġcrit ique
Ġpe ek
b ons
g one
Ġs ubl
Ġunder m
ĠCab in
h alf
Ġris en
Ġdi ab
ut able
ĠNo kia
Ġcock tails
Ġ11 1
k g
intend ent
Ġmet ric
Ġ erg
ĠPalestin ians
Ġupgr ading
ĠDes ert
ĠV ern
ĠMain tain
Ġgest ure
ĠJo an
ust ed
ĠTrans form
ĠLo ans
ĠNet works
Ġweb cam
Ġnor ms
ĠV lad
ili ary
Ġacc ents
ĠCor ner
ĠT ag
Ġsung lasses
OW N
Ġdi ary
F ile
and ing
ĠTes la
a vers
ĠM ode
ĠSe b
ĠTour nament
p ad
Ġchar ities
Ġfold ers
ĠGrow ing
ĠViet namese
Ġsuper f
Ġbad ge
Ġsil hou
Ġhome page
Ġpec uliar
ĠU m
Ġspo il
ĠParad ise
ĠN ormal
Ġstart ups
ĠHind i
Ġbar bec
Ġsc are
ut ton
ad ians
Ġpra ised
ĠAmb assador
ĠWhat s
Ġps yc
Ġreluct ant
h arm
ind a
ows ki
Ġme g
Ġsem iconductor
Ã© e
ĠMel issa
Ġhuge ly
rep resent
aff le
ĠSecond ary
ĠShe ll
Ġout lines
Ġveget ation
ĠHol mes
he a
Ġskin ny
Ġind ef
imb abwe
Ġprin ters
ĠN uclear
ĠF iction
Ġgovernment al
uten ant
Ġguitar ist
ĠOffic ers
Ġf oul
Ġpoly ester
Ġannounce ments
Ġregister ing
le m
Ġd inos
ĠEv olution
ĠF IN
Ġmet ic
av ia
Ġcup c
Ġcomp ares
gen ic
Ġble w
Ġhomeown er
ĠB ike
ĠB und
Ġuncons cious
Ġprob able
ĠLeon ard
ould er
Ġemb ell
Ġlong time
iche ver
ĠEconom y
Ġ um
Ġpur se
Ġal t
l ining
br al
ĠRod r
Ġground ed
ĠPre viously
Ġcush ions
Ġsystem ic
ĠSustain able
ophom ore
ĠW ool
od ia
Ġprocess ors
ĠDef ence
ĠAdv ance
Ġ/ >
Ġrepro duce
Ġsne ak
Ġamb ig
ĠIt ems
Ġl inger
ĠGuit ar
Ġsymb olic
Ġbl ends
c hen
Ġflu or
Ġremember ing
Ġresid ency
ĠLe ading
ĠMarket s
Ġaut onomous
Ġpain ts
ĠBe er
ĠQ U
Ġrat ios
Ġhe ck
ĠM W
Ġhar bor
Ġdev ote
Ġsat urated
Ġ% ).
Ġbrace let
Ġcred ible
ĠInj ury
z el
ĠAth le
ĠCal endar
min ster
air ie
ĠA j
Ġdis ruption
c orn
ĠW ang
Ġdepos ited
ĠExper ts
Ġrecur ring
vas ive
Ġsimilar ities
ĠSex ual
Ġinflamm atory
ĠMe g
Ġcl iff
Ġhun ter
ur ous
Ġmen tors
Ġintern ally
Ġaccomplish ments
ĠRecruit ment
Ġallow ance
Ġfactor ies
Ġcolour ful
ĠAssist ance
h ort
Ġhur ricane
Ġw ired
ĠâĢĿ ),
Ġw aking
ĠNov a
Ġjud gement
ĠCh ain
ĠNew castle
Ġprepar ations
ink y
ĠP ull
osp ace
t l
c amp
ĠL il
ĠEd it
ĠOp ening
Ġj pg
Ġresear ched
Ġmush rooms
Ġto ast
ĠMon ster
Ġr up
Ġl anes
Ġpolit ician
im age
ĠCom pos
P T
Ġdead lines
Ġd ots
ĠC AD
ĠSac ramento
Ġneg atively
Ġsad ness
âĢ ĺ
ĠF IF
oc ese
Ġturn over
Ġremark ably
Ġflu ids
it us
ĠG or
Ġp ept
Ġkn ot
Ġsc i
Ġdepend ence
Ġacc eleration
ow ing
Ġpredomin antly
Ġcon cess
Ġis o
Ġw avelength
Ġlef to
Ġfin als
it ud
Ġp ains
Ġsw ear
Ġat omic
Ġadvis ors
Ġapprox imate
ir i
Ġallerg ic
ĠGene va
Ġ11 4
Ġhel m
Ġvegg ies
ĠC um
Ġduplic ate
Ġc ort
Ġmel ted
ĠJul ian
Ġl ump
B N
ĠJour ney
ĠCh ad
Ġbed ding
Ġcr ashed
Ġad orn
ĠG oth
Ġspir al
ific ant
id i
ĠAng els
Ġcorros ion
iv ision
lo qu
Ġident ifiable
ĠInc luded
Ġtransfer ring
ung al
Ġdemonstr ations
ID E
U s
Ġpro se
ĠB end
ro ads
Ġde gradation
Ġlandl ord
ĠSoc cer
Ġ Ñģ
Ġsk ate
Ġburn s
Ġwel ding
Ġmyt hs
G H
Ġgad gets
c uts
Ġmean ings
Ġpropos ition
Ġrel ay
Ġmer ger
umb lr
Ġthy roid
line ar
hol m
ĠPharm acy
ĠH ands
Ġtun ing
avil ion
Ġsubur bs
Ġstret ches
Ġl iner
Ġexpress ly
re z
Ġb ark
Ġp y
Ġ12 00
Ġr ushing
Ġamb ition
Ġmal icious
ĠExp ect
Ġ? .
ĠV u
Ġmil estone
Ġdigest ive
ne apolis
Ġc avity
Ġlisten ers
Ġlap tops
im ated
og ging
Ġtext book
Ġsup ers
Ġdef ect
c ondition
ĠY emen
ĠM IT
Ġch inese
ĠBang kok
Ġguard ian
Ġweigh ing
ĠArt ists
Ġmy riad
Ġtes tosterone
Ġinfer ior
ĠSe vent
t ad
Ġspread s
F I
W S
Ġfulfill ment
Ġget away
ĠSp ark
ĠRena issance
Ġrest art
Ġb a
Ġad ren
Ġretr ieve
Ġsanct uary
ĠF uel
ĠK S
ĠThe me
s ky
ĠSee ing
c s
Ġ? '
work ers
Ġded uc
Ġadop ting
ĠMort gage
ric ed
ĠK ash
ir med
ĠRe agan
Ġbab e
Ġfl ick
ĠChr onic
Ġk enn
Ġpredict able
Ġphotograph ic
m ap
Ġlower ing
Ġsil icon
Ġtem ples
Ġped al
Ġairpl ane
ĠA ber
Ġperiod ic
Ġ194 8
ott a
Ġge ared
Ġl b
ĠH U
and y
Ġ12 3
Ġtravell ers
ĠD odge
Ġsick ness
A n
ĠR i
ĠNow adays
ĠBa iley
rend um
Ġhistor ian
ĠG aming
Ġsupern atural
Ġpl ots
depend ent
Ġwel comes
Ġdisc overs
Ġcontrib utor
re str
Ġmy st
ĠW ag
ĠSw ift
ip ur
ĠHung ary
ĠIo T
Ġmin us
ĠUn cle
ĠD iana
N et
Ġbow ls
Ġpsych iat
H e
ĠBehav ior
.... ....
met ics
ĠE at
ĠES PN
Ġexclus ion
ĠAccording ly
f lo
Ġlives tock
Ġdoub les
ĠEss ential
il ib
Ġst ellar
Ġdesp air
am ation
al ie
Ġeconom ically
Ġele phant
ch y
ĠCop per
Ġprep ares
Ġsandw iches
Ġprop het
Ġdept hs
Ġk et
ot ics
Ġstr at
ĠBrad ley
ĠColomb ia
Ġspark ling
Ġcl erk
ĠArn old
Ġfig uring
ĠScholars hip
Ġrad ius
Ġcon ception
cept able
ĠFiref ox
ol ve
ĠFl ag
Ġcyc l
r ina
Ġhous ed
Ġamb ient
ĠF erg
Ġunc overed
Ġc athe
ĠJ P
Ġreal ities
Ġret rosp
Ġannoun cing
Ġstandard ized
Ġsubur ban
Ġsp erm
Ġbl adder
ĠCoordin ator
ĠHand book
Ġind uce
Ġdec ks
ĠMcC ain
il ia
Ġanticip ation
Ġsim ulations
ĠCr is
Ġneglig ence
Ġsens ing
der ing
Ġirre levant
ĠH mm
Ġneur ons
ĠH erm
Ġper ceptions
Ġbroad ly
Ġrepl ies
Ġtroubles ho
ĠDar win
Ġimpress ions
Ġw ander
ĠD ial
ĠDatab ase
Ġindirect ly
Ġinj ust
Ġdet ention
ason ic
st at
ĠPalest ine
s tory
Ġshr ink
Ġch in
ĠAndre a
omagn etic
EN D
ĠTim othy
und ed
ĠIm plement
ĠÂ °
ĠY u
Ġtem pted
ĠB order
Ġdistr acted
ĠRE AD
Ġintr ins
Ġwar rior
ĠHol ly
Ġper me
ĠCr aft
ĠBegin ning
Ġovers ized
ĠR ust
Ġfound ers
a ults
ĠFr ances
ĠL D
ĠCher ry
h d
Ġdoesn t
wr ite
up unct
Ġcontinu ity
Ġnegot iating
or por
unicip ality
ĠAnn ie
ar u
ĠWind ow
Ġsatisf actory
Ġpar cel
an ic
Ġshoot er
ĠPan ther
ang le
ĠReport ing
Ġantib ody
Ġplug ins
Ġd orm
Ġdisc ern
Ġexplo itation
Ġrab bit
6 8
Ġr ipped
ĠLe eds
m illion
Ġportr ayed
Ġend uring
ĠInsp ired
Ġcontrib utors
Ġpassword s
ĠUg anda
Ġinteract ing
v or
Ġwarrant ies
n as
Ġg ems
Ġend urance
Ġup l
Ġorganiz ers
Ġafore mentioned
Ġ16 5
Ġviol ated
Ġrespond s
Ġfoot wear
» ¿
ï »¿
Ġcur se
Ġph osp
iv ate
v ia
Ġhead board
ĠWh olesale
merc ially
ĠR h
Ġdistrib utors
Ġop pose
ĠRen ew
l as
0 2
ĠStain less
ĠMerc ury
Ġsk ies
fe ine
N E
ĠF B
Ġbr u
Ġbod ily
ĠPen insula
Ġlib ert
thern et
st ones
ul as
ĠPo etry
Ġpean ut
Ġplan ner
4 1
Ġcataly st
ĠLog an
uck land
ĠA ven
z i
Ġcal ifornia
ĠBu yer
Ġenzym es
ĠD ylan
Ġintroduc tory
Ġfar ther
Ġfix es
Ġcomp ost
Ġenerg ies
ĠAs p
Ġtact ical
Ġexped ition
Ġafric a
Ġ194 4
Ġemer gence
Ġdisc rete
Ġn y
ĠX L
ĠMar l
ĠJ ill
ĠFul ly
Ġfriends hips
Ġcondem n
ĠAd ding
ĠPost s
Ġauthentic ity
ĠTom orrow
Ġorchestr a
ho red
ĠProper ties
Ġmind ed
ig a
ĠFrame work
Ġpin terest
ĠOF F
ĠTr ial
Ġo ct
ĠDoll ar
ĠCandid ates
ĠP om
Ġcoun ters
Ġwhat s
Ġparad igm
ĠPer u
ĠBr ief
Ġpro active
is tol
Ġoccup ational
Ġten se
Ġobs cure
D B
ĠAccess ories
lec tic
ĠT ub
ĠBang alore
ag ar
Ġcr ashes
Ġmile age
Ġdump sters
and el
Ġcomprom ised
ens on
Ġtrad er
Ġsand y
Ġmil it
Ġshell s
Ġfert ility
fl ies
Ġ ais
de velop
en za
Ġres iding
Ġprivile ged
omed ical
ĠInterest ingly
!! !!
Ġre charge
ĠB ing
ĠFam ilies
vis or
ver ter
ĠK os
ĠProto col
le an
ĠS tra
ĠCo x
Ġdevot ion
Ġd ug
Ġmin t
Ġh d
Ġstub born
ĠS ister
ay an
ĠAl cohol
Ġstamp ed
Ġannoun ces
ĠJenn y
Ġseam lessly
Ġb ait
Ġav id
Ġtrack ed
Ġcryst all
ĠSol omon
ĠFort une
ĠW ave
Ġas semble
Ġship ments
ids on
head ed
Ġru ined
ĠDe rek
ĠK on
obb ies
Ġadap tive
ela ide
ĠEv idence
Ġchrom os
e er
ak u
ĠInit ially
ax is
Ġinc ap
Ġutil izes
az i
ro se
Ġtrail ers
Ġdisc reet
ĠMe as
ĠG w
av id
Ġarbitr ation
Ġparen tal
ĠG i
ĠS le
Ġun ifor
ops is
Ġtreas ures
Ġfe at
ĠLoc ks
ĠStat us
Ġlat in
Ġsing ers
Ġoff ence
ĠV ine
AT H
ad ata
Ġshr imp
Ġterr ibly
Ġprom in
ĠM LS
Ġpenetr ation
0 6
ach ment
ĠM ull
Ġl ondon
Ġsc ans
Ġfirm ware
Ġconc ludes
ĠMess age
Ġresil ience
Ġgr illed
Ġsto le
Ġsouth west
Ġset tling
ĠD rew
ĠAdministr ative
Ġc emetery
ĠLl oyd
Ġbarrel s
ĠSky pe
um at
ĠHim self
Ġanat omy
Ġun b
ilib rium
Ġarbitr ary
qu art
Ġ" ;
Ġkind ergarten
oc ating
O n
ĠDef in
Ġg n
oc ative
ĠSpirit ual
Ġcur b
board ing
Ġche at
ĠBeh ind
ĠWall ace
Ġsew er
ĠPe ak
P I
r ous
Ġcont ests
Ġamazing ly
Ġint ends
ĠComm ander
ain es
Ġ3 20
ange red
ĠS udden
Ġmor ality
Ġloo ps
Ġcompet ence
Ġjack ets
Ġsp anish
ĠCh ip
ĠF I
Ġor b
Ġc innamon
ĠGroup s
ĠResc ue
Ġcoordin ates
onge vity
Ġmotiv ate
Ġnutri ent
ow ers
Ġstr ipped
Ġab usive
Ġchop ped
os ion
Ġn ylon
ĠCh a
yclop edia
ĠK oh
d og
ĠGlo be
ĠSo x
Ġrec alls
Ġmaster piece
Ġword press
C s
ĠTh orn
Ġnick el
ĠD addy
Ġform ulation
ĠW are
z one
ĠWrit ers
0 7
T ech
ou st
Ġas phalt
coun try
Ġped estrian
ĠSecond ly
ris k
Ġmigr ants
ĠTrans l
Ġs igh
ĠTr us
flow er
Ġtreat y
ĠG U
ĠSte in
iz a
he res
Ġsuspic ion
ver ts
Ġexceed ing
Ġinsp ect
ress ive
ĠT erm
Ġtheir s
ic ia
ack er
Ġwheel chair
ĠH amm
Ġbr un
ĠI E
ĠAnn iversary
Ġm ates
Ġtrig gers
ĠSter ling
ĠAltern ative
ec ution
ĠGood s
ĠInterest ing
Ġpat ented
Ġsh o
ĠBal i
Ġf uzz
ĠQ ur
reat h
ĠOver view
Ġat om
F P
udd y
hor a
ĠH ip
ĠR aid
ator ial
ĠM ol
og r
Ġd Ã©
Ġschol arly
Ġal titude
Ġbo iling
e at
Ġproceed ed
Ġtempor al
p re
ĠChan ges
Ġreb oot
Ġr acks
Ġincre ment
ĠIndian apolis
Ġbl iss
Ġmap le
Ġsum mon
ĠPl aces
Ġprofit ability
Ġun anim
Ġdr astically
ĠH ang
ĠT ank
ĠC anc
ĠBl air
Ġscrut iny
P ost
idel ity
Ġval ves
Ġtr iangle
Ġobs ession
sh ield
Ġhy pe
Ġvig il
ric ular
Ġyog urt
Ġawait ing
ing les
Ġcard board
uk a
Ġcon qu
OO K
Ġsc ams
ip ation
ĠGu ys
Ġdeleg ates
ĠDo ors
ĠPat ric
ĠChrist ine
ov es
roph ic
Ġsuscept ible
ĠHis panic
ĠV AT
Ġfl ock
AC H
Ġstar ters
Ġ) ...
Ġboo bs
cel ain
tre ated
ĠBr id
Ġdiagn ose
ĠS G
8 7
ĠG ang
Ġfascin ated
Ġ00 1
ar is
od er
Ġthere in
Ġmorning s
Ġh amm
res so
Ġmechan ic
et ed
ĠW AR
ĠOff ering
Ġconver ter
Ġm ug
Ġden ying
Ġn aughty
Ġsettle ments
han e
Ġcritic ized
ograph ics
Ġinstruction al
Ġrespect ful
hr a
ĠS ession
Ġsuff ers
ĠR ah
ĠN D
st ars
az er
Ġest eem
Ġacceler ated
ĠConn or
Ġcollec ts
et ta
eral a
Ġcomm issions
Ġgal axy
Ġl an
am o
Ġsymp athy
ĠManufact urers
ĠSex y
Ġimm ort
ĠZ imbabwe
Ġcaut ious
Ġout ward
ish ops
ĠPos ition
Ġhum our
Ġburn t
Ġspe eches
to w
Ġinter rog
Ġstim ulus
Ġ> <
Ġ5 50
Ġdash board
Ġmasc ul
Ġuns uccess
Ġcan s
un al
ĠCal vin
Ġlif ts
Ġche es
Ġrain y
Ġsil icone
Ġrepe ating
lec ular
ĠEl se
ĠS ew
go vernment
ĠLead ers
Ġgr in
par alle
Ġz oo
ell ular
Ġexc lude
Ġpan try
Ġtruth s
ĠDev ice
Ġfe ared
ĠY ale
ĠRe vel
ĠA U
Ġimp aired
ĠTig ers
Ġs ab
ĠSy mphony
Ġquestion naire
Ġ tad
Ġmentor ing
ab lish
Ġel bow
ĠI ve
ort ium
á »
ĠStand ing
ĠIS IS
Ġ195 9
ĠPhoto graph
Q U
Ġfurn ace
Ġsimpl ified
iv ial
Ġover time
Ġcommit ting
Ġsur plus
ĠG iving
ro d
ĠOr t
h art
Ġve in
art ments
Ġ tic
ĠSw an
ĠU PS
Ġpl edge
Ġne on
ĠRand y
ĠP izza
Ġquart z
ĠM onica
ĠEv an
Ġp ushes
ĠMy S
Ġod or
ĠRon ald
Ġp ian
Ġh r
ĠAutom otive
Ġmiser able
ĠChev rolet
Ġch assis
Ġattr acts
Ġwind ing
Ġbas in
ocy tes
Ġafter math
Ġmut ations
Ġadm its
Ġpop ped
Ġ11 6
ĠDemocr acy
Ġvic inity
Ġid ol
Ġnorth west
Ġjer seys
Ġendors ed
Ġz inc
ĠConc rete
ĠBenn ett
F E
Ġcollaps ed
AM E
Ġterr ifying
Ġprovin ces
Ġjour neys
t z
Ġb idding
ĠJer seys
ĠPat ient
Ġ" ),
Ġche ss
Ġdiscover ies
Ġju icy
Ġpurs ued
Ġb unk
S I
es h
ĠA ds
ĠProv iding
F R
ĠBel ieve
ace y
ĠGerm ans
Ġpump ing
Ġso othing
ĠSh ir
the re
Ġf aint
Ġbub bles
ĠL av
ĠGab riel
Ġexecut ing
Ġborrow ed
m oon
ĠFle et
Ġprivile ges
ĠM ile
Ġcrew s
Ġsc oot
ĠG iants
ĠB erg
b ies
ĠPr adesh
0 8
Ġc reek
op athy
am iliar
ĠF T
H O
Ġtwent ieth
Ġunhe althy
Ġcom mercially
Ġgr apes
ĠS hen
ĠFav or
ĠExp o
for cing
Ġab rupt
ĠD W
Ġcar cin
ĠK urt
ĠT icket
read ing
Ġleg ends
Ġr av
Ġemphas ized
Ġemp athy
ĠB od
at ivity
Ġident ities
ĠSil icon
ĠJan et
Ġbit es
Ġprejud ice
ĠDun can
ĠG ender
Ġ tho
Ġliqu or
Ġphenomen al
ĠTop ics
ic ans
Ġtransl ations
Ġeduc ating
ĠP AR
Ġprol iferation
Ġdem ons
Ġrain bow
Ġones elf
ec d
art a
Ġnews letters
Ġmean while
Ġplay offs
ĠAdministr ator
ĠFirst ly
Ġpig s
force ment
Ġbr ighter
Ġscreen ed
Ġsens ual
Ġinform ational
Ġall ergy
ĠDisc laim
osc ope
uc c
ĠEval uation
Ġscan ner
Ġo mn
ĠR osen
nes ium
Ġpass ions
ĠPoke mon
ĠVis itors
k ens
is ional
Ġout break
Ġw i
g ages
Ġout right
Ġepidem ic
Ġy r
Ġb espoke
Ġ195 6
Ġso ak
Ġchef s
Ġblow s
Ġresid ual
Ġ ard
Ġchick ens
ĠCan adians
Ġ11 8
ĠMar ina
Ġdesign ation
Ġcomment ing
Ġirr igation
in se
ĠMill enn
0 4
thes ia
ĠLyn ch
with standing
Ġconstruc tive
Ġbeh old
ĠWW E
Ġund es
ĠNe u
ĠB omb
Ġcertain ty
ĠMin neapolis
Ġviol ate
Ġvill ain
hys ical
ĠR ide
Ġcor al
ĠGr ab
oles cent
ĠContr ib
w atch
Ġunf amiliar
Ġmod elling
D ay
Ġaccus tomed
ĠBe e
Ġtherap ists
Ġ22 5
g ue
Ġdis reg
Ġignor ant
Ġtrop hy
Ġse als
Ġphys iological
Ġin ning
il ight
Ġcomp ressed
ĠAut umn
Ġstim ulating
perform ance
OC K
ĠWar riors
Ġspons orship
Ġendorse ment
ĠIn to
ĠH undred
Ġdiff ers
ĠA uckland
ĠP our
Ġconfron ted
ĠWhere as
Ġst akes
ĠRo le
ir rel
Ġmel ting
irec ted
ĠProv ides
ĠMon roe
ther apy
co al
R O
P ER
Ġbox ing
on aut
Ġjapan ese
ĠConserv ative
Ġs omeday
Ġunde rest
Ġpop s
Ġgreet ing
Ġh over
Ġacc ounted
Ġsecret ly
Ġtast ed
ĠFell owship
Ġat oms
Ġpres idency
Ġinsp ections
ĠB IG
Ġlegisl ature
Ġ194 7
ĠChr on
Ġ":" [
Ġcomprehens ion
Ġsuccess or
Ġm ont
Ġb arr
Ġbi king
Ð ±
Ġbright ness
ĠMid west
Ġjust ification
og ram
Ġh ipp
Ġrefe rendum
ĠCont est
ĠSte f
Ġimmun ity
Ġmanual s
ĠLe af
Ġrep ent
ĠN L
Ġhour ly
ant le
ĠNat urally
ĠR af
Ġ195 8
ĠN y
Ġsk et
Ġ9 11
Ġrevers ed
Ġlamin ate
in qu
to sis
ĠPlay ing
ĠPun j
Ġh aha
ĠImport ant
Ġbit ch
Ġrestor ing
Ġin ception
Ġover weight
ĠExhib ition
ay ette
Ġj unction
Ġep ub
Ġdown ward
ĠGreg ory
ĠPresident ial
ĠâĢ İ
roid ery
Ġ] ]
Ġfin ale
ĠAct ivity
ĠEr n
em ia
Ġmater nal
Ġrej uven
ĠE as
ĠExerc ise
Ġor ch
ĠS ie
Ġdecl ining
ĠM aps
Ġdescrip tive
ĠProv ider
ĠC ake
ĠEth ics
ĠRec reation
ĠMc L
Ġpur ity
Ġbal let
fam ily
Ġtrans itions
Ġcolon ies
ĠAr med
ĠW arrant
us tion
ĠUS S
Ġch uck
Ġim bal
Ġpe as
Ġp yram
ĠS ally
Ġ14 5
Ġcondem ned
Ġcreep y
Ġthreat en
Ġp onder
Ġcheck list
Ġelec toral
ĠK or
Ġdivid end
Ġfin ite
Ġbudd ies
Ġapp ell
Ġkn itting
Ġtax ation
ball s
ĠPl enty
Ġcon ventions
6 9
Ġfore casts
Ġchar ger
Ġpost al
ĠB ach
ĠAutom atic
ĠV P
ĠG onz
ĠSup plement
Ġdilem ma
Ġinter iors
ĠSal v
ĠUS C
Ġparagrap hs
ĠCase y
Ġch alk
ĠEthiop ia
Ġfundament ally
ĠSt re
Com merce
Ġresc ued
Ġmet ropolitan
Ġconstruc ting
ĠDom ain
Ġagree ing
tr um
ĠDep ression
Ġs ocket
Ġher s
ĠAm en
Ġsuppor ter
ĠS IM
Ġbat ter
Ġob jection
st art
ĠDev il
Ġtim er
ry ing
Ġ195 7
Ġdepend able
Ġreun ion
atic an
Ġadvent urous
Ġexam inations
Ġpop ulated
Ġkern el
um ed
Ġcub ic
Ġantib odies
Ġme x
Ġs aint
Ġcartr idge
un ds
ree ks
e re
ĠFreder ick
ĠPat tern
Ġfrag ments
Ġspecial s
Ġeffort lessly
Ġd ancer
Ġbel ts
Ġbl oom
ol ving
ĠW aters
Ġpop ping
Ġfl ames
Ġcl ash
ur gical
ies el
Ġcontin ental
ĠD w
Ġalumin ium
Ġpe el
Ġsign atures
Ġdream ing
M B
Ġunbeliev able
ĠM IN
Ġcondition er
ĠH ugh
ĠP orter
ugg ling
vel t
ĠSqu ad
Ġrecep tors
Ġrock y
Ġmanip ulate
ij i
ogen esis
ĠJe ep
ĠHon estly
Ġinter change
tar ily
Ġsimpl ify
Ġentertain ed
ĠCub an
Ġ aunt
Ġtur bo
Ġg erm
ĠM orm
lin er
ĠDisclaim er
Ġinven tor
man uel
ĠCommun ist
ĠRe b
Ġtax payer
ĠThous ands
Ġ193 9
ĠB ros
Ġpar an
xt on
de gree
Ġd uct
Ġfr aming
ĠB rett
ĠSh ut
Ġmention ing
sec ond
Ġhun ters
ol lo
ĠOw en
Ġtext ile
Ġhur ting
ĠCr aw
Ġobst acle
asp berry
0 3
ĠSuperv is
Ġmyster ies
Ġsl opes
ĠMechan ical
ĠGuid elines
ĠCreat or
Ġdeliber ate
Ġal ly
c ards
ĠR N
Ġremem bers
ĠST EM
is en
AR Y
Ġadolesc ents
ĠA BS
Ġh alls
per ing
Ġst acked
ĠEv il
ĠCal if
Ġins ur
Ġchem otherapy
ĠRay mond
ĠEVER Y
Ġmas ks
Ġembarrass ing
Ġn aming
Ġas ylum
ĠL ily
IS S
ĠW arm
ĠRegard ing
Ġfire works
ap per
Ġ15 5
Ġun real
Ġor phan
Ġcul min
Ġhier archy
Ã £
Ġju venile
Ġred emption
Ġreferen ced
ar us
Ġmet eor
ol in
ĠForm ula
Ġsou theast
Ġbook let
Ġnor theast
ĠC od
ren n
Ġb erries
Ġl as
ĠAv iation
Ġunlaw ful
Ġun im
ĠH il
ĠMass age
Ġcross es
al in
Ġvers atility
ĠPV C
ĠL OT
ĠR ib
ĠB elt
Ġnum bered
Ġy ummy
Ġcl er
Ġstro kes
Ġb er
put ed
Ġdr agged
ĠPre fer
il let
sy stem
Ġ194 1
ĠEmploy ee
Ġregul ator
Ġamb assador
ĠL ounge
Ġsub way
ĠT roy
m etic
Ġc f
ĠTr iple
Ġback ward
ĠDr um
Ġm uc
Ġdef ender
ĠRel igious
Ġ ail
h l
Ġhop eless
Ġestim ation
ĠS eth
Ġr abb
ĠFlow ers
Ġg lowing
er vers
end ix
p res
ĠPal mer
Ġpar a
Ġdream ed
r ial
ater nity
Ġ aur
Ġset t
Ġbutter fly
Ġmer ge
Ġro ast
Ġpro tr
Ġwork book
ubl ished
Ġas to
ed uc
er red
ĠDon na
ĠG az
Ġty r
ĠG reens
Ġwand ering
Ġphil anthrop
ĠA br
Ġb iod
ĠCarol ine
Ġdifferent iation
t art
Ġvit ro
Ġf ibr
pt ive
ĠDi agn
Ġinf il
p apers
Ġdr ift
Ġbelie ver
ĠMethod ist
ĠCharl eston
Ġbal ances
ĠAm ber
ĠL ives
verse ly
ĠA ware
ĠTerr or
Ġeval uations
Ġredes ign
Ġproj ections
Ġrectang ular
Ġsh ampoo
ĠPow ell
ĠC aes
est ones
ĠJohn s
Ġtr aj
Ġunderstand able
ĠK Y
Ġgr it
Ñ ħ
Ġscal p
ĠHop kins
Ġinter s
Ġimpair ment
Ġper se
insp ired
ĠSong s
ĠDr ake
Ġpsych ic
Ġcap tion
Ġcontamin ated
ĠHar ley
ĠMun ich
ĠAp ost
ge on
Ġbond ing
Ġasp iring
ĠIn g
ĠBarn es
ĠRe ve
ĠPort al
Ġcounter tops
7 9
az or
Ġvol leyball
Ġbur ger
Ġing en
Ġpossess ed
ĠV ERY
ĠL enn
Ġs iding
Ġcop s
Ġsm oked
Â ±
Ġrout ing
ĠView s
ĠFor ward
ĠAd elaide
Ġorg asm
ĠAmeric as
av o
ĠFlow er
Ġdish on
Ġ! ,
Ġstr ipes
ĠDraw ing
re ed
Ġsplend id
Ġto mb
Ġdefend ants
Ġall ot
ĠV ick
Ġoff enders
Ġver b
ĠRom ania
paralle led
ĠRelations hip
Ġal iens
ĠW P
ĠEd en
ĠC edar
ĠIn form
Ġextr av
Ġveter inary
ĠFIG S
s ided
Ġwhis tle
ĠW ays
Ġcontract ed
Ġmult if
t ensions
Ġconfir ms
ill es
ĠE leg
C at
Ġdes ks
Ġsculpt ures
ĠArm strong
Ġinto ler
Ġday light
ĠQu otes
Ġaccomplish ment
ĠSep ar
ĠNor theast
Ġh alt
Ġg ourmet
Ġup wards
Ġextr acts
Ġforb idden
gr ass
ĠF ans
typ es
ĠH ale
Ġpat rons
Ġgro ove
Ġp itcher
ĠR um
ĠCD s
ĠEmploy ees
ĠJeff rey
Ġharm less
Ġc ros
Ġexch anged
ĠR angers
Ġinaug ural
ĠHous es
ĠG ross
Ġ) "
ĠR ural
w agen
Ġevent ual
Ġdub bed
at ra
Ġfo rensic
Ġphotograp hed
load ing
Ġgr ap
Ġpour ing
Ġste er
Ġgo at
Ġroy alty
Ġsyn t
ĠWy oming
mar king
Ġoutput s
Ġswe ater
Ġcorrel ated
ĠA ges
aus s
ĠAd rian
ĠD uc
Ġmusc ular
Ġ tensions
Ġacquis itions
def ined
ĠRe id
step s
E s
ĠY ang
Ġmis under
O A
Ġam us
ĠPers ian
Ġc erv
ple x
ĠBloom berg
v ic
Ġrepair ing
Ġnotor ious
it ous
ham ed
s up
v ah
Ġoccup y
Ġemb ro
ĠGib son
ĠRes tor
Ġh ij
Ġ aired
Ġconcur rent
Ġd y
Ġun int
ĠDevelop er
w ire
Ġspok esperson
Ġ194 2
Ġgar ment
ĠKn ights
Ġau x
op ed
ĠDay ton
chem ical
Ġse greg
Ġhur d
Ġbb w
Ġ195 5
Ġres igned
low er
Ġr ails
Ġexem pt
ĠG OD
ĠO T
ĠIn ven
Ġcl o
f ill
ih ad
ĠTal king
ĠRe ality
Ġvac ant
Ġoverl ap
Ġo wing
arm ed
Ġwrap s
Ġtid y
ĠDistr ib
ĠV iv
Ġprison er
Ġdistrib utions
Ġl ur
Ġbl ending
le vard
ĠN SA
Ġp ens
Ġ11 9
Ġgeomet ric
ot ional
ĠM unicipal
ĠAl t
Ġwr apping
Ġrel ieved
Ġs om
Ġbelong ed
p ered
Ġbur d
ĠClar ke
Ġbas kets
ĠPur ple
ĠR ut
d u
Ġhe pat
Ġloo s
bre v
Ġref using
enc hes
p aced
ĠC ov
upunct ure
old ing
Ġresur rection
to xic
Ġfl ux
Ġpre aching
ch ief
ĠAdvis or
Ġpep pers
Ġdi agrams
ĠJack ie
Ġnew com
Ġspont aneous
Ġre actor
ĠEll is
h ic
Ġbe et
== ==
Ġvacc ines
Ġb isc
ĠQ atar
Ġretain s
ĠEld er
Ġyouth ful
Ġj elly
Ġintent ional
Ġflav ours
Ġli abilities
Ġprot agonist
Ġtox ins
ĠSc an
Ġaggr av
ĠOld er
ĠE A
Ġacqu aint
t ucked
Ġpropor tions
Ġpack ets
Ġunpredict able
app ro
Ġcomp elled
ĠMir ror
ĠNob el
ĠEst ablished
ĠRe hab
ĠB ug
7 2
ox y
ĠK W
i ya
Ġcoven ant
ĠDep ot
ĠP ok
R e
IC S
ĠHigh land
ĠMod els
6 3
ĠMonth ly
ĠChen nai
en es
st ered
Ġl ongevity
ĠBer ry
Ġbr aid
ĠMar athon
Ġe ats
Ġcr an
Ġin box
ĠCar roll
ĠLet ters
Ġcar amel
Ġ tart
Ġemail ed
Ġ,, ,
uff ed
Ġcr acking
ĠRoche ster
Ġlay ered
Ġrighteous ness
Ġcounsel or
c ycle
Ã ¯
Ġ40 1
ĠCop y
Ġdeep est
ec c
Ġ14 9
in ational
on ies
Ġro cking
Ġrecr uited
OL D
flamm atory
h ren
Ġtr iang
Ġhaun ted
Ġvis ions
w ent
ĠG h
ĠRequire ments
Ġpl un
ĠInd igenous
Ġfl ats
ĠSS L
ĠBet ty
Ġex e
d is
Ġsuccess ion
Ġfire arms
ĠÃ İ
Ġclass mates
Ġthe aters
Ġr idge
ĠLaw yer
Ġf aux
st ead
6 1
Ġabdom inal
Ġneighb ours
Ġme ga
ĠSur face
AN K
Ġinsight ful
Ġhack ers
Ġexp ired
ĠRhod e
p n
Ġy o
ox ide
ĠD j
Ġbl amed
Ġpl aque
ar io
Ġbroadcast ing
Ġfib re
man ent
Ġgall on
Ġgar ments
le tal
Ġexpans ive
Ġpadd le
Ġman ga
ĠSit uated
Ġverd ict
Ġx x
Ġreal izes
Ġelimin ates
Ġtra umatic
ĠPl ate
Ġtr aps
ĠC yr
Ġyoung sters
Ġbelong ings
ĠNeigh bor
ĠThough t
Ġdiss olved
ĠD ana
c ultural
U P
Ġentire ty
Ġl ing
ĠLouis ville
Ġsort ing
Ġdeleg ation
ĠPr ide
Ġlit eral
Ġtu tors
ts y
Ġop io
ĠAgricult ural
Ġdr afted
ĠA ce
ĠCh oosing
ĠGe off
Ġhistor ians
ĠCh in
Ġmind ful
Ġc yn
ces ter
ĠEx act
Ġcr awl
A pp
Ġun paralleled
in ers
Ġkilomet res
Ġro ds
ĠWeek end
Ġthir teen
Ġsp ear
Ġco hort
ĠE lect
ĠNav al
Ġren al
Ġde eds
ĠInstall ation
Ġun stable
ĠD ES
ĠS ah
Ġaes thetics
ON D
Ġch orus
Ġhistor ies
ĠFix ed
bes tos
Ġun used
Ġv ascular
Ġgod dess
ĠJ ed
Ġm L
Ġpsych iatric
lec ting
ĠLib ya
ĠPr ayer
ĠKum ar
Ġmolec ule
ĠR oose
Ð ¿
Ġtext ured
Ġmain land
Ġvolunte ering
ĠChr ys
Ġo val
Ġteam mates
Ġr ipe
p ent
Ġvol atility
Ġpup pies
ĠFerg us
ĠC ay
Ġs ophomore
ĠFab ric
Ġâ ĪĴ
ĠNew port
Ġshowc asing
Ġbomb ing
ĠBot tom
ĠB og
ĠRom ney
Ġbefore hand
Ġencry pted
ĠE ating
or o
as tructure
Ġprot esters
e i
Ġeye b
Ġaud i
Ġtrans cript
Ġg erman
o il
ĠBl ind
ĠAl umin
ĠPC s
ch r
Ġconfidential ity
ĠB ark
Ġpossess es
Ġhard cover
Ġiss uing
or f
Ġcompens ate
ĠJ C
Ġgen etics
ass ium
ĠF X
Ġclick ed
Ġhe ir
Ġmini ature
ĠWell ness
ol t
ob a
Ġs ap
ĠV atican
Ġd war
oun ced
ĠT ours
Ġcop ing
Ġde ple
Ġstick er
Ġun related
ĠL unch
Ġpo ets
ĠPrinc eton
st ated
ĠM akes
oper ative
Ġn ud
Ġnomine e
grow ing
Ġroof s
Ġs aints
Ġl on
Ġcar riage
aster y
Ġsp ider
Ġ tucked
Ġmil f
am eless
Ġw ifi
un tu
Ġempower ing
Ġ10 80
ĠImprove ment
Ġinv itations
ĠAppe als
Ġup hold
ĠReyn olds
ĠI Q
ib an
Ġcharacter ization
Ġb og
ĠD h
Ġsum s
ĠInter active
ĠT T
Ġexem ption
ĠA AA
Ġse pt
ress es
ĠShe ff
ros is
c tors
ĠDev on
Ġh rs
Ġprim itive
Ġunc ont
Ġh airs
AN CE
ĠG I
Ġyour selves
ĠP ale
Ġco hes
ĠB ella
ĠPart ies
Ġsubs ection
an mar
Ġdef ended
Ġtoss ed
7 1
s ay
en ary
Ġcou pling
con f
ĠDep os
ĠOff ers
Ġhel pless
oc ide
ing es
Ġcaf feine
Ġeduc ator
Ġbr ushes
he ry
Ġtelec ommunications
Ġsl ate
Ġcour tyard
Ġar oma
Ġub iqu
ĠBright on
ĠPan ama
Ġvol atile
ecut ed
ĠSub mit
Ġschool ing
Ġclass y
ĠSh in
ĠK em
ĠSe ems
Ġref ine
ĠDesk top
r um
Ġwe aker
Ġaggress ion
Ġexp osing
ĠBeng al
own ers
Ġcop ying
EN TS
tt i
ĠJama ica
F s
g encies
ĠSc and
Ġrot ate
aur us
ĠRew riter
d ec
ĠC ul
ĠD ash
ĠD L
Ġdetect ing
ĠIs le
Ġat op
Ġlay outs
Ġit er
Ġwe ighed
Ġy acht
R P
ĠDr aft
Ġquestion able
Ġasc ertain
Ġun do
Ġ195 4
ĠT ak
Ġpro pr
Ġgr im
Ġcon quer
Ġl aps
Ġf ist
Ġju ices
Ġflood ed
ĠCongress ional
Ġgr ands
ks wagen
w ave
Ġposs essions
Ġruss ian
Ġwh ip
Ġquir ky
am y
ĠB ened
ĠComp ared
AR E
Ġtrans gender
Ġstress es
ĠInc luding
Ġcle arer
Ġ50 1
Ġsuck ed
Ġd aring
Ġeu ros
Ġalcohol ic
Ġtatto os
ĠCr azy
el ia
m und
Ġob j
ĠAr senal
Ġtest ament
ĠComp rehensive
Ġstat istically
ĠStr at
ĠG ym
ĠZ ip
Ġamb ul
Ġvamp ire
Ġneed les
Ġslow ing
ĠHol ocaust
im ir
Ġres ent
Ġsh ark
Ġcit rus
Ġnav al
ĠStar bucks
Ġcounter part
ĠSeb ast
ĠW arning
or b
Ġs ax
ĠI v
Ġcarp ets
Ġw il
ĠDisc uss
ĠF ut
Ġfav ored
Ġsaus age
Ġrev ival
Ġprogram med
ĠConf eder
Ġr s
Ġr ains
c op
Ġr att
ia z
ĠMin imum
Ġ" ?
ĠL ud
der abad
Ġus able
Ġserv iced
Ġrepet itive
ĠR iley
Ġbu ys
Ġdis like
Ġfulf il
Ġbur ial
han tom
ĠD T
Ġreson ance
Ġreminis cent
N Y
Ġwork load
Ġpet roleum
ov ed
press ion
Ġtransl ates
unc iation
pr us
ogene ous
Ġpr istine
Ġrook ie
Ġd addy
Ġpred etermined
Ġsal v
Ġunac ceptable
Ġdiscl aim
Ġspec imens
ĠScient ists
Ġlean ing
ON G
ĠS anc
ĠBre ast
Ġd ice
Ġins ure
Ġbi ochem
ĠHend erson
Ġover c
Ġeb ay
ĠFor mat
ĠX XX
ĠDian e
Ġ) !
ĠB ears
ĠPow ered
Ġh p
Ġas hamed
Ġpet rol
Ġwrink les
Ġbo ast
ĠRet ire
ĠSh ield
Ġgener osity
ĠAlex a
rop olis
c ano
ĠP ER
ĠF ounder
ĠD NS
Ġec lectic
IS A
ĠS add
ĠSaf ari
ĠP OS
S p
Ġref lex
ĠM it
IS H
Ġconce aled
av ings
Ġderiv ative
ĠPrincip les
ĠMc N
Ġunder wear
Ġmit igate
ĠW yn
ĠC W
et hyl
ĠK ee
ĠU plo
Ġlab s
Ġin h
ens en
Ġritual s
ĠD ame
g rown
Ġrev ital
Ġinter rupted
ĠTr avis
D M
ĠCath olics
Ġrain fall
St ation
Ġinc umb
ĠFac ility
ĠFor bes
Ġweigh s
ĠCl are
Ġdi arr
Ġspreadshe et
ĠSe lection
ke es
mat ched
Ġfabric ation
ĠPakistan i
Ġinter disciplinary
quart ered
Ġinc ur
al er
ĠMah ar
Ġaccident al
ĠCap t
ĠIsa iah
be e
ĠM ood
hy d
ĠStr ange
5 3
Ġembarrass ed
ĠBr ady
Ġcl ocks
Ġd ar
New s
Ġreflec tions
EE E
Ġap ert
Ġestablish ments
6 2
Ġsel dom
Ġbol ts
t apping
ĠL AN
Ġdown stairs
Ġfavour ites
Ġsub tr
Ġastr onom
ĠDer by
Ġno isy
Ġtemp ting
m aid
Ġdown side
ĠStr ip
Ġtur bul
ĠBen ch
ĠCars on
ĠM oss
Ġmaneu ver
hn ess
erv ille
Ġconduc tor
el p
Ġrel iance
Ġover haul
ĠIC T
ĠBu zz
ĠT rent
ĠM ick
Ġar ose
ĠB EST
ĠSund ays
ĠG ut
Ġheaven ly
it ating
Ġprof icient
Ġrul er
ĠSudden ly
Ġsong writer
ĠSpe ech
Ġstation ary
c aster
ĠAb bey
Ġdef ective
ĠFarm ers
Ġinject ed
ĠM ik
ĠR ams
ĠH ockey
ĠRoose velt
Ġcooper ate
Ġun tr
ĠPier re
oul try
ĠF lying
Ġentrepreneur ial
h under
Ġimplic it
ĠSim pson
ĠEmb assy
Ġcontin uation
Ġexpend itures
Ġiss u
ĠLu is
ĠFro st
Ġvac ations
Ġf onts
Ġtravel er
k ill
ĠP ET
ĠF ri
Ġinherit ance
ĠJac obs
Ġbarbec ue
el iness
Ġceremon ies
ĠGraph ic
Ġy rs
Ġd izz
Ġtermin als
b ps
Ġb ob
ĠV S
Ġextr as
ĠCol le
att a
ĠM U
ĠCr us
ĠWend y
Ġhum id
ĠD uty
ĠGate way
Ġsl ut
Ġl ent
ĠInterest ed
Ġl umin
ĠLeg acy
opath ic
Ġover he
ĠR BI
ĠBelg ian
g ins
ĠAppro ximately
ĠCo aching
ĠAu thentic
h ai
ĠSure ly
fords hire
ĠShan non
Ġb ins
ĠInc red
Ġcorrid or
Ġday time
ĠPro sp
Ġcl an
prof ile
Ġdown stream
Ġcalc ulating
ĠW id
Ġple a
Ġske ptical
Ġcongress ional
Ġadd icted
Y S
Ġdrum mer
ĠKn own
u ously
Ġred ef
ĠMe ga
B R
ĠSec tor
ĠG N
Ġse aling
ĠKash mir
Ġelectron ically
Ġso ber
Ġentrepreneurs hip
Ġpredecess or
ĠF iled
ĠBibl ical
ĠOut standing
z b
Ġbi op
ĠH erald
ĠSpring field
ĠTr ave
ĠVen us
ĠC ause
udd le
Ġflor ida
ĠS essions
Ġbag gage
Ġe ch
ĠAl bum
ĠA H
Ġdess erts
ĠSl ot
Ġaspir ations
ĠK N
8 3
Ġvalid ated
Ġgall ons
ĠLou ise
ĠW oo
Ġan ecd
h ies
Ġfacilit ating
ĠI b
ĠKn ox
Ġshar ply
Ġcareg ivers
Ġspecific s
ĠBal ance
Ġcontrol lers
Ġincons istent
hob ic
ĠT utor
Ġconsult ancy
ĠVer izon
Ġilleg ally
ĠAn at
ĠSc out
Ġmarket ed
Ġrun way
ĠR PG
ĠRuss ians
Ġs auc
Ġsub urb
Ġsix teen
Ġb ids
Ġsoc iology
ĠEs sex
ĠAdv ice
Ġhall way
ĠMed al
t ended
Ġwid ow
ĠN eck
Ġafric an
op py
Ġtoler ate
ĠAz ure
Ġpip ing
ys on
ĠTry ing
Ġf aul
ĠS ans
Ġmedic inal
Ġresil ient
ĠJ up
ĠAc ross
ĠCour ses
ĠM aker
ĠBusiness es
ĠFail ure
dr ive
Ġpanor amic
Ġspiritual ity
esty les
to ire
Ġide als
Ġminor ities
ord ered
Ġre el
Ġf encing
Ġadvis able
ish i
ĠPenn y
ĠB id
ĠâĢľ ...
Ġstand point
s to
f ashion
Ġins urers
Ġsection al
Ġembr acing
Ġo c
Ġassist ants
Ġfil tered
ĠM UST
Ġalter ations
ĠFIF A
Ġres ides
ĠMe gan
Ġhum il
och ond
op en
I t
Ġ[ [
Ġcoordin ating
ĠAthle tic
ob iles
ĠDisc ussion
ĠPubl isher
Ġh acking
als a
Ġbow ling
Ġninet eenth
Ġgrad ual
ĠCon cept
uc ci
ĠC ant
Ġunch anged
Ġpin ch
stan bul
Ġwh ichever
fr om
Ġbat tling
ĠSal on
Ġw ik
Ġreduc tions
ĠO c
ĠOr ders
Ġpne um
ĠIndones ian
j u
M E
ĠDec k
Ġcr ab
ĠU TC
Ġp ent
Ġen acted
f our
Ġbr ushed
Ġdep icts
ĠOpportun ity
Ġ194 6
Ġprosec utor
om p
ĠBroad cast
ou x
av ier
ĠCinem a
Ġwa iver
Ġpro poses
w ait
Ġcohe rent
Ġrib s
Ñģ Ðº
Ġref usal
Ġal tar
Ġmer its
ĠHar old
Ġteam ed
Ġwh irl
ĠGil bert
Ġtw ists
Ġfitting s
Ġlist ener
ĠShe et
on ial
ord e
en ment
Ġab ras
ĠCan n
Ġtur f
Ġh atch
Ġpro c
ĠQu inn
ĠCre ated
ĠCroat ia
Ġcr ank
Ġ? ,
ĠAb original
Ġcomp ose
ĠAd vant
ate red
ĠAb ility
ĠW et
ĠR andom
ĠO re
Ġha irstyles
Ġhair y
ĠAcc ounts
t hunder
ĠMor r
ĠInfr astructure
it an
b ly
ĠRe in
Ġblank ets
Ġfashion ed
Ġplag iar
Ġgl ac
Ġcommun al
on ents
Ġag ile
Ġn oun
Ġreferr als
Ġpray ed
Ġd ermat
Ġ194 9
ĠCon ven
Ġreg ain
Ġment ality
ĠSk ip
i ator
Ġtermin ated
ĠStra ight
Ġbests elling
ĠCom edy
ĠDec lar
tw o
ĠRom ance
ĠSt amp
Ġby tes
ĠF ur
ĠS elling
ĠQu art
Ġpun ished
ĠRap id
Ġweb log
Ġec ology
Ġloc ker
ĠWest minster
ig ible
c ross
ĠH idden
Ġo wed
Ġcomb ustion
ĠBever ly
Ġfing ert
Ġpul s
eng ine
Ġinfr ared
mont on
Ġrug by
Ġ thunder
Ġ3 10
ĠI van
st ud
ĠG ifts
Ġs ip
ĠSh ower
Ġcaps ule
ĠWell ington
Ġmult id
Ġbooking s
Ġdis pose
ĠSc ale
ĠInsp ector
Ġfour teen
ĠY out
B L
Ġobs ess
Ġshowc ases
ag in
Ġweb inar
Ġ195 3
us able
Ġgood ies
Ġl oot
Ġmer ged
ic ated
Ġmet adata
Ġreb el
ism ic
Ġdisc s
Ġinterpret ations
ĠCD C
Ġatt ic
Ġtr ilogy
ĠExt ension
Ġbi os
Ġab ide
ĠA uction
ĠDur ham
ĠTrad ition
ĠSh arp
Ġche eks
Ġradio active
Ġw izard
ĠMay a
Ġlaws uits
ĠF ee
7 8
ĠJackson ville
ĠC red
Ġunw illing
Ġs ie
ĠG reet
ĠCry pto
t ac
Ġconsolid ated
ĠC ir
ĠOl ive
Ġcro re
ĠRol ling
ĠDis p
Ġve ins
ip ts
Ġ12 2
Ġmix es
k an
ĠNor folk
G ener
as per
ĠO g
Ġuns afe
Ġcous ins
Ġdest ined
ĠCor inth
Ġforeign ers
Ġgrat uit
ĠB le
Ġfl ashing
ĠCan al
Ġam using
Ġtheat rical
AR S
p riced
Ġs orrow
Ġmon key
Ġw p
ĠâĢĿ ?
Ġmar itime
Ġbr idal
Ġrec t
Ġvisual ization
Ġcommunic ated
Ġ12 9
Ġtweet ed
ĠPract ical
ĠProfession als
ĠAt tend
Ġvic ious
D r
ĠSuppl ies
Ġsqu ash
ĠTan z
ĠJud y
ĠâĤ¬ âĢľ
ĠH av
Ġgraph s
ĠH ire
itud inal
ĠProgram ming
Ġv ene
ĠIn flu
Ġv ivo
Ġrub bing
Ġdifferent iate
olph ins
ĠMus ical
Ġinter course
Ġpol es
ĠðŁĺ ī
ĠSur f
is ans
Ġmut ually
ĠFil ms
ag us
Ġev id
g ard
Ġ( '
Ġcorrespond s
Ġcost ing
Ġexc uses
Ġb ending
Ġencompass es
ĠM IL
Ġ3 30
5 00
Ġ' )
Ġde hydr
Ġcur ated
Ġ ï»¿
ĠB inary
Ġsy ner
ĠMar co
ish ly
t horn
Ġb ishop
Ġuphol stery
Ġattent ive
n t
ĠPers p
ĠK erala
Ġ19 14
Ġout going
ĠMy anmar
Ġ16 9
V iew
Ġass ay
ĠEr in
Ġles ions
Ġframe works
us k
Ġtermin ology
ĠAch ieve
ĠPr ison
OU T
ĠBe ast
ĠG entle
Ġslow ed
ĠVolunte er
ĠPlat inum
ĠCom fort
Ġstr ives
Ġcommod ities
Ġspan ning
Â ¿
L ink
Ġcheer ful
ĠM ig
ĠConsult ant
Ġqu o
ĠPat ent
r ice
Ġvalid ate
Ġvers a
Ġnause a
Ðµ Ð½
Ġequ ilibrium
est eem
v ar
Ġcontract ing
ĠGod s
T ime
ĠU M
en l
ĠPrep are
Ġb our
ĠSh ot
ĠFriend ly
en os
ĠC av
Ġbenef ited
ĠDe le
ĠB ub
Ġexp ands
ĠF iles
hob ia
Ġb isexual
ĠProble ms
Ġfilm maker
Ġcoll ateral
T e
Ð ³
in flammatory
Ġprecip itation
Ġre struct
ĠMap le
ĠL ite
ĠB een
ĠMil k
Ġemphas izes
Ġpitch ing
Ġsepar ating
Ġme ats
Ġwar riors
Ġparad ox
Ġcomm enced
Ġcommand ed
Ġresign ation
ĠMil ton
P O
Ġbread t
ĠW T
Ġeffort less
ĠDistr ibution
ot rop
Ġz e
Ġsol vent
r ative
ĠCel tic
agon al
Ġkn ives
in ished
Ġview point
ĠML B
ĠE thernet
Ġoblig ed
Ġg iants
Ġpear l
ant ine
Ġright ly
ĠPatric ia
ĠRel ax
Ġpul monary
Ġhon orable
Ġdis gr
Ġinaccur ate
Ġwild ly
Ġcapac ities
Ġb umper
ĠProduc tions
Ġde ed
osp here
Ġcan opy
Ġune ven
Ġun ex
Ġd ances
ĠJud a
f eld
cell or
Ġle agues
Ġquot ation
Ġmel ody
ĠSetting s
Ġph on
ne a
ĠV as
Ġscript ure
Ġ Ä
Ġsovereign ty
ull ah
pr ints
Ġso ils
act ivity
ĠC AM
ile e
Ġpsych ologist
Ġdispl aced
iv ar
ici aries
ĠS ax
Ġpe e
ĠB ooking
Ġinfring ement
h irt
ĠN ex
Ġfre ed
ĠF a
Ġke eper
Ġbreadt h
Ġintim acy
app ers
Ġpreced ed
ĠIn k
Ġp aved
Ġbe ard
Ġhum orous
qu are
Ġch unk
Ġprotec tions
Ġsc oop
Ġinjust ice
cont rolled
ĠT ill
Ġst ark
ĠN u
Ġsincere ly
ĠS ell
Ġen chant
br ush
ĠG el
Ġdoll s
l ain
ĠD ust
Ġwind shield
ĠCom es
Ġ18 3
Ġbrack ets
p able
Ġsadd le
Ġpor celain
Ġhyper tension
ĠUnder stand
Ġexp iration
Ġderiv atives
bour g
ĠM K
ĠFeature d
Ġp and
ĠB ake
Ġunifor ms
ĠM AT
Ġp ony
Ġinsp ires
ĠResp ond
ĠL ength
T OR
j et
ĠPur pose
Ġflaw less
Ġemp owered
Ġpair ing
ĠAl ready
ĠH ass
ĠHawai ian
ĠÐ ½
ĠCom ics
Ġreg ener
Ġampl ifier
Ġjurisd ictions
ĠSup erman
** **
Ġcook book
ĠG iant
Ġinc arn
ĠGr ill
Ġwithdr awn
Ġswing ing
Ġbusiness man
by ter
Ġindul ge
Ġet hn
Ġtr ous
ĠAn ch
ĠFilip ino
Ġtrans cend
Ġsav vy
im an
ĠPass ion
Ġborrow ing
Ġsc anned
ĠF IR
Ġdomin ance
ĠRead ers
arn ish
Ġnarr atives
C are
Ġreb els
Ġimp osing
ĠK ur
ĠC ute
ĠMean ing
Ġchar ism
Ġmut ation
ĠAcc ident
Ġsurvey ed
ĠT u
ard i
Ġantib iotic
aj a
ĠAd mission
Ġpo res
ĠUp d
Ġfraud ulent
ro ots
Ġh ue
Ġcontem pt
Ġgraph ical
Ġstock ed
ĠI RA
ĠPos itive
ĠGM T
n ik
ĠMoham med
7 4
ĠAnim als
Ġend angered
S c
Ġtext books
ĠMonitor ing
Ġaccus ations
Ġg a
ĠLat ino
Ġperf ume
Ġthick er
ĠCy prus
Ġsanc tion
ĠB il
col m
Ġsum m
ĠM ature
ĠS au
ĠL one
Ġant iqu
Ġins ec
Ġfel ony
oy le
Ġrel ocation
Ġdil igence
ĠBudd hism
ĠMy ers
Ġallev iate
ĠIn tr
Ġpermit ting
Ġcar rots
Ġr all
Ġep it
7 3
ĠC PA
oc ol
cep ted
ĠVenezuel a
ĠI stanbul
Ġper missions
ĠPeters burg
ud ed
ans om
Ġm ens
rop ortion
im er
Ġcommission er
ĠP I
l arge
ĠM um
ic ides
fore st
Ġzomb ie
Ġ195 2
ĠEqu ity
ĠD ictionary
Ġgear s
ĠEn forcement
ĠT at
v ine
Ġtil t
Ġperc ussion
ĠH ers
Ġ\ /
Ġscr atches
Ġman ic
Ġflaw ed
Ġfr ies
Ġcamp uses
ĠEx ped
ĠP ly
Ġfre ak
ĠCommun ities
Ġp itched
ĠPack ers
Ġden omin
Ġ* .
n ational
re ated
ĠCre ation
Ġhe ars
ĠVu ili
Ġpl ural
ĠL ets
ĠSpring er
Ġeigh teen
Ġdispos able
Ġar ab
Ġfair ness
ĠBul let
ĠHer oes
Ġsed iment
Ġmore over
Ġemb roidery
ĠCh airs
st en
mun ition
Ġins ol
Ġpo etic
ĠW OR
Ġsh ores
ĠAre as
Ġcrafts manship
Ġattain ed
b uds
ĠAlb any
ĠClass es
Ġgre ase
Ġaud itor
Ġsolid arity
Ġ19 18
Ġst aged
ĠGr ass
Ġportr ay
ĠY o
in ium
Ġdisadvant age
w right
ĠJ ak
ant ha
Ġwater front
Ġpsych o
Ġencl osure
un ky
ĠAdvent ures
ĠAg ents
ĠTenn is
ĠD N
Ġden im
av in
ĠVe get
ĠH uge
ĠAur ora
ĠD ew
ĠInves tors
Ġbel ls
ĠL un
und ai
Ġcompos ing
ol an
ĠLes lie
Ġmet ast
ĠPep per
b ia
Ġn g
Ġseek ers
Ġaver aged
ale igh
ĠMoroc co
ĠWinds or
Ġbur gl
i age
Ã¼ r
ĠP ors
ĠUn ity
ĠSche me
Ġ ting
ĠSl ots
Ġinc l
Ġafter ward
Ġappro xim
qual ified
i ott
ody n
ost ics
occ up
Ġins ider
Ġemer gencies
Ġaccommod ating
Ġunf inished
Ġster ling
s i
ĠO pt
car bon
Ġh ust
Ġreconcil iation
Ġkiss ing
Ġforecl osure
Ġbeginning s
Ġadd ictive
ĠCand y
res cent
en o
Ġg astro
Ġsol itary
Ġcr aving
Ġunem ployed
Ġlaw ful
B s
ĠHar bour
Ġ tended
ĠW als
tim es
Ġ11 3
ĠGrand e
ĠBec ome
ĠSus p
Ġbre eds
Ġcaf es
ĠAware ness
Ã£ o
ĠB rent
Ġsub tit
Ġtempt ation
Ġthe ological
ĠSol o
ĠL t
ĠB uch
Ġvou cher
ĠKenn eth
im o
ĠUl tr
od or
ĠPr ague
Ġve ctors
Ġar tery
Ġab brev
ĠC ult
Ġprosec utors
lyn n
Ġfract ure
Ġdeliver ies
ĠD iss
Ġpal ate
Ġid le
Ġmethod ologies
we b
ĠL ars
odyn amic
Ġ19 17
h ave
ĠAr g
ĠSp ect
ĠSt ress
ĠMar ion
Ġfa ults
Ġ12 4
pro fits
if ference
ang led
ep s
ĠC ottage
ĠViol ence
t apped
ĠP ione
an ity
Ġcor ps
c ology
Ġluc rative
ĠA J
ĠFr uit
Ġdisadvant ages
Ġrecomm ending
rent ial
Ġrest s
ĠW ife
ĠShan e
H P
ĠPrest on
Ġvictor ies
Ġsusp ense
Ġr ash
Ġinhib itors
ĠSuccess ful
ĠRecomm ended
Ġpr ud
Ġal ley
Ġm ansion
ais y
Ġ194 3
Ġsc aling
Ġanaly se
ĠKat hy
Ġrese mble
Ġle asing
Ġbi ased
Ġ ike
Ġsub mar
Ġpop ul
Ġadv ising
p ieces
Ġcy bers
V I
8 00
ĠRec on
Ġmult inational
ĠSus sex
ĠDyn amic
ĠM aid
ĠPort able
Ġsnaps hot
Ġcryptocur rencies
Ġsoc ietal
ĠAp ollo
W h
Ġbr icks
Ġmad ness
Ġethnic ity
Ġmin ers
Ġc ath
Ġimmense ly
Ġpos ing
Ġins ists
ol ith
Ġle aked
Ġouts ourcing
ĠAM D
Ġattach ments
ĠFor get
Ġdoctor al
Ġfurther more
ĠUn s
Ġh ull
than ol
ĠAn onymous
ĠPl ug
ĠD uck
Ġsymp athetic
ĠKr ish
Gener al
ĠNo ble
Ġinqu ire
ĠR are
e lection
Ġrem ix
ly s
ĠRes idents
ĠWin ston
Ġen forced
Ġun equ
ting ham
ĠF uck
ĠL az
ĠAustr ian
Ġtar iffs
ĠSac red
ĠAndrew s
Ġtent h
Ġpropr ie
ĠW ade
Ġv ain
id ad
Ġcommercial s
Ġs ar
Ġle v
8 2
Ġunder went
Ġer osion
ĠJoy ce
ĠG ent
Ġimp ed
ĠH off
ĠSh ows
ĠEng agement
Ġamb itions
C hr
Ġtoile ts
ĠL I
Ġlim bs
oll ar
ĠR ear
Ġbat hing
Ġcome back
ĠR ising
Ġmat te
ÑĤ Ðµ
Ġav oc
en ne
ĠYout ube
ĠM ouse
Ġp ans
Ġnomin ations
Ġcustom izable
ĠQu ad
8 4
Ġobed ience
ĠB ert
Ġ12 1
ograph ies
Ġneat ly
ĠCr icket
ĠPharm aceutical
ĠK ane
Ġsal ads
Ġl am
ĠC ogn
Ġgre ed
tal ion
Ġsyn tax
an ical
is i
Ġstate wide
hys ics
ĠR ates
ĠEp ic
Ġre els
Ġp als
Ġo ceans
Ġunexpected ly
ĠManufact urer
Ġmarvel ous
Ġecosystem s
Ġconfir ming
ĠExam ination
ĠPl ain
Ġtop ical
ĠEm irates
ĠRain bow
Ġir rad
ĠAd op
Ġtact ic
ab us
Ġj une
qu in
Ġid iot
ĠX X
ĠK od
ĠBl anc
Ġcomp ile
Ġpersu ade
Ġel l
ĠSh i
Ġdent istry
E X
Ġpredict ive
ĠAtl as
Ġr hin
Ġplat inum
ĠPart icular
Ã¡ n
ĠS ugg
Ġpl astics
ĠBu ilder
Ġvent ures
ĠW inner
Ġequ als
ĠMan n
Ġon site
Ġep i
gin a
ĠY ES
Ġch ord
min ent
ĠHung arian
ĠStreng t
ĠAffil iate
Ġmot ive
ĠBre aking
Ġge ek
Ġback bone
ĠGarc ia
Ġorgan ism
cont rol
ĠMan agers
ĠLap top
Ġmur ders
gu ards
ĠColon el
Ġinherent ly
fe ed
Ġannoy ed
law s
he e
ĠMost ly
ĠS aid
Ð¾ ÑĢ
Ġpre re
ĠFun ds
Ġmerc ury
Ġf ren
s aving
Ġfig ur
ĠMag gie
ĠCus toms
Ġ tac
ĠT ul
ĠConn ection
ĠWes ley
ĠP ra
ĠEven ing
id ian
Ġinhib ition
Ġc ured
Ġb ilateral
ĠI EEE
ING TON
Ġb anners
ĠOrgan izations
igs list
Ġscar f
ĠPod cast
ĠLegisl ature
Ġpot tery
ĠS ets
ĠCr afts
Ġresid ue
Ġhigh s
Ġread able
ĠFin ish
Ġprev ailing
Ġsim ulated
Ġmiss iles
Ġfam ed
p ages
Ġappl aud
Ġnut rit
ens ional
ed o
ĠP ars
Ġwise ly
ĠPerform ing
ĠC AP
ans on
Ġtr out
ĠGriff in
ĠCar pet
Ġle aking
Ġcur ry
ĠCar p
ĠCl ients
um ination
ĠN R
ĠHam pton
Ġamus ement
focus ed
Ġcl ergy
ĠM ET
t ents
Ġdis charged
ĠH earing
Ġnegot iated
Ġlingu istic
Ġd an
Ġfast ing
Ġc av
ĠContin uing
EN S
Ġsweet ness
Ġsk ins
ĠW M
Ġdin ners
Ġimp ecc
ĠOr al
ĠPark inson
Ġwater fall
Ġfaul ty
Ġconserv atives
os o
ĠP ont
Ġmort gages
ĠMess enger
Ġspark ed
ĠO L
ĠE G
ĠExc lusive
Ġdr ones
Ġren amed
A nd
Ġmaj ors
Ġparliament ary
Ġun just
ĠJew elry
n uts
ĠT iff
ip ing
ĠCh op
Ġdig its
Ġk er
Ġreproduc ed
Ġenc oding
Ġpr ag
e velop
Ġe ve
d aughter
ire ction
Ġpert inent
ĠM err
Ġplay list
Ġsw ingers
ĠHT TP
ey ed
ĠO mega
Ġs a
Ġstrateg ically
Ġbreast feeding
ain er
Ġd uc
ĠProceed ings
Ġbre wing
Ġre organ
Ġcum ulative
li hood
Ġcustom ization
ĠAm ateur
Ġlack ed
ant ing
Ġap t
Ġrec ycle
Ġpl aus
Ġrem n
Ġin ad
crib ing
Ġsim mer
Ġsurge ons
ĠL aud
ĠTh row
Ġsacrif ices
Ġre tal
Ġboost ing
ĠC ooking
Ġdispl acement
Ġst agger
ĠLands cape
Ġconver ts
ĠE y
ĠPre par
Ġmot ives
ĠBet a
ĠDeclar ation
Ġfright ening
Ġbud s
Ġhomes chool
ĠCurt is
Ġcl amp
ĠShort ly
Ġ tents
Ġsk ating
Ġun rel
Ġsimilar ity
a eda
ĠAlexand ria
j our
ĠTurn s
Ġmat s
5 1
Ġbooks hel
Ġ7 20
Ġbat ting
to res
Ġp amp
ugg le
t hie
ĠSheff ield
ĠAn tar
c ases
ens ing
Ġfacilit ates
on er
Ġcan adian
ĠBro ck
Ġasy mm
f irst
Ġmet h
ĠLiqu id
Ġmanufact ures
ive l
ĠY ep
ĠLeg ion
Ġbenef iciaries
Ġdistr action
cent ered
ĠDipl oma
bu ild
Ġprogram mer
Ġsequ encing
phan ts
N ode
Ġcredit ors
ĠFac ilities
ĠYan kees
Ġdump ed
[...]
