{
    "<s>": 0,
    "</s>": 1,
    "<unk>": 2,
    "<pad>": 3,
    "<mask>": 4,
    "!": 5,
    "\"": 6,
    "#": 7,
    "$": 8,
    "%": 9,
    "&": 10,
    "'": 11,
    "(": 12,
    ")": 13,
    "*": 14,
    "+": 15,
    ",": 16,
    "-": 17,
    ".": 18,
    "/": 19,
    "0": 20,
    "1": 21,
    "2": 22,
    "3": 23,
    "4": 24,
    "5": 25,
    "6": 26,
    "7": 27,
    "8": 28,
    "9": 29,
    ":": 30,
    ";": 31,
    "<": 32,
    "=": 33,
    ">": 34,
    "?": 35,
    "@": 36,
    "A": 37,
    "B": 38,
    "C": 39,
    "D": 40,
    "E": 41,
    "F": 42,
    "G": 43,
    "H": 44,
    "I": 45,
    "J": 46,
    "K": 47,
    "L": 48,
    "M": 49,
    "N": 50,
    "O": 51,
    "P": 52,
    "Q": 53,
    "R": 54,
    "S": 55,
    "T": 56,
    "U": 57,
    "V": 58,
    "W": 59,
    "X": 60,
    "Y": 61,
    "Z": 62,
    "[": 63,
    "\\": 64,
    "]": 65,
    "^": 66,
    "_": 67,
    "`": 68,
    "a": 69,
    "b": 70,
    "c": 71,
    "d": 72,
    "e": 73,
    "f": 74,
    "g": 75,
    "h": 76,
    "i": 77,
    "j": 78,
    "k": 79,
    "l": 80,
    "m": 81,
    "n": 82,
    "o": 83,
    "p": 84,
    "q": 85,
    "r": 86,
    "s": 87,
    "t": 88,
    "u": 89,
    "v": 90,
    "w": 91,
    "x": 92,
    "y": 93,
    "z": 94,
    "{": 95,
    "|": 96,
    "}": 97,
    "~": 98,
    "¡": 99,
    "¢": 100,
    "£": 101,
    "¤": 102,
    "¥": 103,
    "¦": 104,
    "§": 105,
    "¨": 106,
    "©": 107,
    "ª": 108,
    "«": 109,
    "¬": 110,
    "®": 111,
    "¯": 112,
    "°": 113,
    "±": 114,
    "²": 115,
    "³": 116,
    "´": 117,
    "µ": 118,
    "¶": 119,
    "·": 120,
    "¸": 121,
    "¹": 122,
    "º": 123,
    "»": 124,
    "¼": 125,
    "½": 126,
    "¾": 127,
    "¿": 128,
    "À": 129,
    "Á": 130,
    "Â": 131,
    "Ã": 132,
    "Ä": 133,
    "Å": 134,
    "Æ": 135,
    "Ç": 136,
    "È": 137,
    "É": 138,
    "Ê": 139,
    "Ë": 140,
    "Ì": 141,
    "Í": 142,
    "Î": 143,
    "Ï": 144,
    "Ð": 145,
    "Ñ": 146,
    "Ò": 147,
    "Ó": 148,
    "Ô": 149,
    "Õ": 150,
    "Ö": 151,
    "×": 152,
    "Ø": 153,
    "Ù": 154,
    "Ú": 155,
    "Û": 156,
    "Ü": 157,
    "Ý": 158,
    "Þ": 159,
    "ß": 160,
    "à": 161,
    "á": 162,
    "â": 163,
    "ã": 164,
    "ä": 165,
    "å": 166,
    "æ": 167,
    "ç": 168,
    "è": 169,
    "é": 170,
    "ê": 171,
    "ë": 172,
    "ì": 173,
    "í": 174,
    "î": 175,
    "ï": 176,
    "ð": 177,
    "ñ": 178,
    "ò": 179,
    "ó": 180,
    "ô": 181,
    "õ": 182,
    "ö": 183,
    "÷": 184,
    "ø": 185,
    "ù": 186,
    "ú": 187,
    "û": 188,
    "ü": 189,
    "ý": 190,
    "þ": 191,
    "ÿ": 192,
    "Ā": 193,
    "ā": 194,
    "Ă": 195,
    "ă": 196,
    "Ą": 197,
    "ą": 198,
    "Ć": 199,
    "ć": 200,
    "Ĉ": 201,
    "ĉ": 202,
    "Ċ": 203,
    "ċ": 204,
    "Č": 205,
    "č": 206,
    "Ď": 207,
    "ď": 208,
    "Đ": 209,
    "đ": 210,
    "Ē": 211,
    "ē": 212,
    "Ĕ": 213,
    "ĕ": 214,
    "Ė": 215,
    "ė": 216,
    "Ę": 217,
    "ę": 218,
    "Ě": 219,
    "ě": 220,
    "Ĝ": 221,
    "ĝ": 222,
    "Ğ": 223,
    "ğ": 224,
    "Ġ": 225,
    "ġ": 226,
    "Ģ": 227,
    "ģ": 228,
    "Ĥ": 229,
    "ĥ": 230,
    "Ħ": 231,
    "ħ": 232,
    "Ĩ": 233,
    "ĩ": 234,
    "Ī": 235,
    "ī": 236,
    "Ĭ": 237,
    "ĭ": 238,
    "Į": 239,
    "į": 240,
    "İ": 241,
    "ı": 242,
    "Ĳ": 243,
    "ĳ": 244,
    "Ĵ": 245,
    "ĵ": 246,
    "Ķ": 247,
    "ķ": 248,
    "ĸ": 249,
    "Ĺ": 250,
    "ĺ": 251,
    "Ļ": 252,
    "ļ": 253,
    "Ľ": 254,
    "ľ": 255,
    "Ŀ": 256,
    "ŀ": 257,
    "Ł": 258,
    "ł": 259,
    "Ń": 260,
    "in": 261,
    "he": 262,
    "an": 263,
    "re": 264,
    "the": 265,
    "Ġs": 266,
    "on": 267,
    "Ġthe": 268,
    "er": 269,
    "Ġ.": 270,
    "at": 271,
    "Ġ,": 272,
    "Ġw": 273,
    "Ġo": 274,
    "Ġc": 275,
    "en": 276,
    "it": 277,
    "to": 278,
    "is": 279,
    "es": 280,
    "al": 281,
    "Ġf": 282,
    "Ġb": 283,
    "Ġan": 284,
    "ou": 285,
    "ing": 286,
    "Ġp": 287,
    "or": 288,
    "Ġm": 289,
    "ed": 290,
    "Ġto": 291,
    "ar": 292,
    "Ġand": 293,
    "as": 294,
    "Ġin": 295,
    "Ġof": 296,
    "Ġd": 297,
    "ic": 298,
    "Ġh": 299,
    "le": 300,
    "ion": 301,
    "om": 302,
    "Ġl": 303,
    "il": 304,
    "Ġre": 305,
    "ĠI": 306,
    "ac": 307,
    "ent": 308,
    "ĠT": 309,
    "Ġn": 310,
    "ve": 311,
    "Ġe": 312,
    "ro": 313,
    "Ġy": 314,
    "us": 315,
    "Ġg": 316,
    "ly": 317,
    "Ġbe": 318,
    "ad": 319,
    "Ġis": 320,
    "Ġyou": 321,
    "âĢ": 322,
    "ĠS": 323,
    "hat": 324,
    "Ġfor": 325,
    "ĠA": 326,
    "et": 327,
    "Ġon": 328,
    "ut": 329,
    "id": 330,
    "ur": 331,
    "ĠâĢ": 332,
    "ay": 333,
    "st": 334,
    "am": 335,
    "ow": 336,
    "ĠC": 337,
    "ot": 338,
    "im": 339,
    "ol": 340,
    "ig": 341,
    "ec": 342,
    "el": 343,
    "ver": 344,
    "ith": 345,
    "that": 346,
    "Ġthat": 347,
    "are": 348,
    "ation": 349,
    "tr": 350,
    "Ġwith": 351,
    "ab": 352,
    "un": 353,
    "ir": 354,
    "ĠM": 355,
    "Ġit": 356,
    "ag": 357,
    "ĠThe": 358,
    "Ġhe": 359,
    "ter": 360,
    "ce": 361,
    "Ġas": 362,
    "ĠP": 363,
    "Ġal": 364,
    "ul": 365,
    "ĠB": 366,
    "ĠW": 367,
    "ap": 368,
    "Ġpro": 369,
    "Ġst": 370,
    "if": 371,
    "ill": 372,
    "Ġ'": 373,
    "se": 374,
    "ch": 375,
    "Ġare": 376,
    "ĠâĢĻ": 377,
    "his": 378,
    "Ġwe": 379,
    "Ġor": 380,
    "Ġcon": 381,
    "ers": 382,
    "Ġcom": 383,
    "Ġ1": 384,
    "ke": 385,
    "ĠH": 386,
    "oo": 387,
    "ts": 388,
    "ĠD": 389,
    "ess": 390,
    "em": 391,
    "Ġwh": 392,
    "Ġmo": 393,
    "Ġfr": 394,
    "Ġr": 395,
    "ave": 396,
    "ĠF": 397,
    "Ġat": 398,
    "Ġ2": 399,
    "ate": 400,
    "ld": 401,
    "Ġex": 402,
    "Ġ(": 403,
    "ain": 404,
    "ĠR": 405,
    "Ġwas": 406,
    "up": 407,
    "igh": 408,
    "est": 409,
    "Ġv": 410,
    "ther": 411,
    "and": 412,
    "um": 413,
    "qu": 414,
    "ive": 415,
    "oun": 416,
    "ure": 417,
    "Ġne": 418,
    "Ġ)": 419,
    "ĠL": 420,
    "art": 421,
    "ity": 422,
    "this": 423,
    "Ġthis": 424,
    "Ġyour": 425,
    "op": 426,
    "Ġhave": 427,
    "ies": 428,
    "ĠN": 429,
    "Ġsh": 430,
    "ĠE": 431,
    "tion": 432,
    "Ġby": 433,
    "ĠG": 434,
    "Ġfrom": 435,
    "ment": 436,
    "Ġnot": 437,
    "Ġtr": 438,
    "te": 439,
    "iv": 440,
    "ort": 441,
    "uc": 442,
    "oc": 443,
    "Ġus": 444,
    "ĠO": 445,
    "Ġcan": 446,
    "Ġse": 447,
    "Ġch": 448,
    "ip": 449,
    "Ġ:": 450,
    "os": 451,
    "ant": 452,
    "ome": 453,
    "Ġac": 454,
    "end": 455,
    "res": 456,
    "Ġde": 457,
    "out": 458,
    "ud": 459,
    "all": 460,
    "Ġle": 461,
    "ard": 462,
    "Ġwill": 463,
    "ial": 464,
    "ould": 465,
    "Ġab": 466,
    "Ġun": 467,
    "Ġsp": 468,
    "ight": 469,
    "Ġwor": 470,
    "Ġj": 471,
    "Ġall": 472,
    "gh": 473,
    "Ġpl": 474,
    "ide": 475,
    "ist": 476,
    "ell": 477,
    "ĠIn": 478,
    "our": 479,
    "ge": 480,
    "Ġk": 481,
    "ine": 482,
    "king": 483,
    "ĠJ": 484,
    "ally": 485,
    "pl": 486,
    "ie": 487,
    "ust": 488,
    "ect": 489,
    "ib": 490,
    "av": 491,
    "Ġdo": 492,
    "Ġ\"": 493,
    "red": 494,
    "ack": 495,
    "tor": 496,
    "Ġhas": 497,
    "Ġbut": 498,
    "Ġ20": 499,
    "Ġwhe": 500,
    "age": 501,
    "Ġme": 502,
    "ice": 503,
    "od": 504,
    "ear": 505,
    "Ġad": 506,
    "ren": 507,
    "ough": 508,
    "hing": 509,
    "tim": 510,
    "Ġcomp": 511,
    "ast": 512,
    "Ġhis": 513,
    "Ġup": 514,
    "..": 515,
    "af": 516,
    "ich": 517,
    "Ġout": 518,
    "Ġen": 519,
    "ind": 520,
    "ub": 521,
    "Ġso": 522,
    "ated": 523,
    "able": 524,
    "Ġmy": 525,
    "per": 526,
    "very": 527,
    "ĠU": 528,
    "ite": 529,
    "ks": 530,
    "iz": 531,
    "ake": 532,
    "der": 533,
    "ous": 534,
    "one": 535,
    "Ġpr": 536,
    "Ġmore": 537,
    "Ġthey": 538,
    "ound": 539,
    "Ġtheir": 540,
    "app": 541,
    "Ġcl": 542,
    "ong": 543,
    "Ġone": 544,
    "og": 545,
    "Ġim": 546,
    "ans": 547,
    "han": 548,
    "ood": 549,
    "ail": 550,
    "ore": 551,
    "Ġour": 552,
    "ĠY": 553,
    "Ġman": 554,
    "Ġ!": 555,
    "ike": 556,
    "Ġtim": 557,
    "ep": 558,
    "for": 559,
    "aw": 560,
    "ost": 561,
    "Ġabout": 562,
    "Ġwhich": 563,
    "Ġres": 564,
    "Ġinc": 565,
    "Ġ3": 566,
    "Ġwho": 567,
    "ign": 568,
    "Ġdis": 569,
    "tw": 570,
    "Ġ/": 571,
    "ance": 572,
    "ĠâĢľ": 573,
    "so": 574,
    "act": 575,
    "ĠIt": 576,
    "ak": 577,
    "ame": 578,
    "ile": 579,
    "ace": 580,
    "ition": 581,
    "port": 582,
    "ations": 583,
    "Ġfe": 584,
    "Ġ?": 585,
    "ia": 586,
    "Ġqu": 587,
    "00": 588,
    "reat": 589,
    "ire": 590,
    "Ġoff": 591,
    "ical": 592,
    "Ġgo": 593,
    "ĠK": 594,
    "ue": 595,
    "ary": 596,
    "Ġper": 597,
    "uch": 598,
    "Ġother": 599,
    "ber": 600,
    "Ġ...": 601,
    "ase": 602,
    "Ġany": 603,
    "hr": 604,
    "ĠWe": 605,
    "ass": 606,
    "ree": 607,
    "Ġsome": 608,
    "ents": 609,
    "own": 610,
    "Ġtime": 611,
    "erv": 612,
    "Ġlike": 613,
    "ook": 614,
    "Ġev": 615,
    "Ġcont": 616,
    "ff": 617,
    "ays": 618,
    "ĠThis": 619,
    "ĠAn": 620,
    "ence": 621,
    "Ġget": 622,
    "ĠV": 623,
    "ty": 624,
    "Ġalso": 625,
    "ach": 626,
    "Ġyear": 627,
    "Ġkn": 628,
    "form": 629,
    "Ġ201": 630,
    "Ġnew": 631,
    "duc": 632,
    "Ġgr": 633,
    "ting": 634,
    "Ġthem": 635,
    "Ġdes": 636,
    "Ġag": 637,
    "Ġher": 638,
    "ating": 639,
    "Ġ;": 640,
    "Ġbeen": 641,
    "Ġthere": 642,
    "ress": 643,
    "Ġar": 644,
    "Ġwhen": 645,
    "Ġover": 646,
    "Ġwhat": 647,
    "Ġif": 648,
    "Ġbec": 649,
    "Ġsc": 650,
    "Ġwere": 651,
    "Ġno": 652,
    "Ġhad": 653,
    "Ġam": 654,
    "Ġpart": 655,
    "aus": 656,
    "Ġrec": 657,
    "Ġ-": 658,
    "Ġro": 659,
    "ho": 660,
    "Ġwould": 661,
    "Ġpe": 662,
    "Ġapp": 663,
    "ted": 664,
    "Ġop": 665,
    "ick": 666,
    "Ġjust": 667,
    "vel": 668,
    "Ġpre": 669,
    "lec": 670,
    "Ġ5": 671,
    "mer": 672,
    "than": 673,
    "ark": 674,
    "ens": 675,
    "Ġthan": 676,
    "gr": 677,
    "Ġits": 678,
    "cess": 679,
    "Ġneed": 680,
    "Ġ4": 681,
    "ove": 682,
    "Ġaf": 683,
    "ĠHe": 684,
    "Ġte": 685,
    "ĠSt": 686,
    "ild": 687,
    "ian": 688,
    "wn": 689,
    "Ġhow": 690,
    "ions": 691,
    "low": 692,
    "Ġwork": 693,
    "ond": 694,
    "ople": 695,
    "ult": 696,
    "Ġdr": 697,
    "Ġinto": 698,
    "Ġbr": 699,
    "thing": 700,
    "oy": 701,
    "Ġbl": 702,
    "irst": 703,
    "ause": 704,
    "ont": 705,
    "ade": 706,
    "ish": 707,
    "ual": 708,
    "ning": 709,
    "ater": 710,
    "aid": 711,
    "lud": 712,
    "ord": 713,
    "air": 714,
    "lo": 715,
    "Ġmay": 716,
    "ang": 717,
    "Ġpeople": 718,
    "vers": 719,
    "Ġstr": 720,
    "Ġprov": 721,
    "Ġtw": 722,
    "fe": 723,
    "Ġcol": 724,
    "oin": 725,
    "Ġsup": 726,
    "ious": 727,
    "thr": 728,
    "Ġshe": 729,
    "tern": 730,
    "Ġhel": 731,
    "ied": 732,
    "Ġknow": 733,
    "Ġthr": 734,
    "ĠAl": 735,
    "Ġcomm": 736,
    "ful": 737,
    "hed": 738,
    "Ġind": 739,
    "les": 740,
    "ates": 741,
    "ug": 742,
    "Ġonly": 743,
    "Ġmost": 744,
    "ink": 745,
    "Ġinclud": 746,
    "Ġmake": 747,
    "ple": 748,
    "Ġfirst": 749,
    "Ġ19": 750,
    "rit": 751,
    "ĠYou": 752,
    "rent": 753,
    "ons": 754,
    "anc": 755,
    "âĢĿ": 756,
    "Ġhelp": 757,
    "Ġserv": 758,
    "Ġadd": 759,
    "Ġsec": 760,
    "Ġuse": 761,
    "Ġco": 762,
    "Ġevery": 763,
    "ry": 764,
    "ĠCh": 765,
    "Ġvery": 766,
    "Ġwell": 767,
    "Ġthrough": 768,
    "Ġem": 769,
    "Ġsee": 770,
    "ĠIf": 771,
    "iew": 772,
    "Ġcons": 773,
    "ne": 774,
    "ors": 775,
    "Ġback": 776,
    "Ġacc": 777,
    "Ġunder": 778,
    "Ġrel": 779,
    "day": 780,
    "old": 781,
    "Ġdown": 782,
    "ĠAs": 783,
    "Ġthese": 784,
    "Ġbu": 785,
    "ices": 786,
    "tain": 787,
    "Ġve": 788,
    "Ġbecause": 789,
    "ise": 790,
    "Ġsy": 791,
    "hy": 792,
    "ific": 793,
    "ew": 794,
    "Ġdif": 795,
    "ities": 796,
    "urn": 797,
    "Ġdec": 798,
    "Ġtwo": 799,
    "ife": 800,
    "enc": 801,
    "Ġstud": 802,
    "hn": 803,
    "Ġreg": 804,
    "Ġgood": 805,
    "Ġcould": 806,
    "Ġproduc": 807,
    "Ġwant": 808,
    "ĠâĢĿ": 809,
    "ool": 810,
    "bs": 811,
    "Ġact": 812,
    "hen": 813,
    "tions": 814,
    "Ġmany": 815,
    "Ġass": 816,
    "Ġpers": 817,
    "ily": 818,
    "iss": 819,
    "Ġsaid": 820,
    "Ġexper": 821,
    "Ġway": 822,
    "ible": 823,
    "Ġinv": 824,
    "ĠUn": 825,
    "Ġ6": 826,
    "elf": 827,
    "fore": 828,
    "row": 829,
    "Ġwhere": 830,
    "Ġ).": 831,
    "Ġafter": 832,
    "Ġyears": 833,
    "Ġexp": 834,
    "Ġeven": 835,
    "ures": 836,
    "ĠRe": 837,
    "Ġgreat": 838,
    "Ġsm": 839,
    "Ġgu": 840,
    "Ġthen": 841,
    "cr": 842,
    "Ġloc": 843,
    "ms": 844,
    "ments": 845,
    "ten": 846,
    "hough": 847,
    "iness": 848,
    "her": 849,
    "xt": 850,
    "Ġpos": 851,
    "Ġrem": 852,
    "ics": 853,
    "Ġnow": 854,
    "ational": 855,
    "Ġke": 856,
    "ased": 857,
    "olog": 858,
    "ĠâĢĵ": 859,
    "line": 860,
    "Ġshould": 861,
    "ings": 862,
    "Ġread": 863,
    "aking": 864,
    "Ġfind": 865,
    "ular": 866,
    "ility": 867,
    "Ġown": 868,
    "Ġins": 869,
    "alt": 870,
    "als": 871,
    "Ġcar": 872,
    "Ġspec": 873,
    "Ġsuch": 874,
    "ĠAnd": 875,
    "ubl": 876,
    "Ġbus": 877,
    "oth": 878,
    "though": 879,
    "Ġent": 880,
    "ath": 881,
    "au": 882,
    "tle": 883,
    "Ġthing": 884,
    "ative": 885,
    "uring": 886,
    "Ġhim": 887,
    "Ġfun": 888,
    "Ġplay": 889,
    "Ġsub": 890,
    "Ġ&": 891,
    "str": 892,
    "Ġhigh": 893,
    "Ġbest": 894,
    "stem": 895,
    "Ġmuch": 896,
    "ience": 897,
    "any": 898,
    "Ġimp": 899,
    "hip": 900,
    "velop": 901,
    "Ġ7": 902,
    "led": 903,
    "Ġset": 904,
    "ov": 905,
    "Ġdid": 906,
    "az": 907,
    "ĠCom": 908,
    "Ġap": 909,
    "ange": 910,
    "Ġfin": 911,
    "rop": 912,
    "ĠFor": 913,
    "ident": 914,
    "ri": 915,
    "Ġdon": 916,
    "Ġinform": 917,
    "Ġhome": 918,
    "aut": 919,
    "tory": 920,
    "ble": 921,
    "Ġshow": 922,
    "ct": 923,
    "Ġcr": 924,
    "Ġrep": 925,
    "Ġtoo": 926,
    "ener": 927,
    "ement": 928,
    "Ġdesign": 929,
    "Ġday": 930,
    "Ġperson": 931,
    "hose": 932,
    "arch": 933,
    "Ġsto": 934,
    "Ġpres": 935,
    "Ġcoun": 936,
    "Ġfl": 937,
    "take": 938,
    "its": 939,
    "Ġdiffe": 940,
    "Ġlong": 941,
    "Ġaw": 942,
    "Ġ8": 943,
    "pt": 944,
    "Ġrequ": 945,
    "omet": 946,
    "Ġbeing": 947,
    "Ġche": 948,
    "ited": 949,
    "Ġagain": 950,
    "ient": 951,
    "Ġdisc": 952,
    "Ġmade": 953,
    "Ġhere": 954,
    "ob": 955,
    "tec": 956,
    "try": 957,
    "ose": 958,
    "Ġtrans": 959,
    "Ġworld": 960,
    "Ġtake": 961,
    "Ġstart": 962,
    "Ġsur": 963,
    "ower": 964,
    "Ġmin": 965,
    "tom": 966,
    "Ġused": 967,
    "ually": 968,
    "Ġeff": 969,
    "ck": 970,
    "Ġfam": 971,
    "Ġ10": 972,
    "Ġbefore": 973,
    "gan": 974,
    "Ġsim": 975,
    "ever": 976,
    "Ġatt": 977,
    "Ġdoes": 978,
    "those": 979,
    "Ġthose": 980,
    "Ġend": 981,
    "ject": 982,
    "een": 983,
    "ull": 984,
    "ĠBut": 985,
    "Ġsystem": 986,
    "Ġart": 987,
    "tal": 988,
    "chool": 989,
    "Ġ9": 990,
    "Ġlife": 991,
    "Ġ),": 992,
    "Ġinter": 993,
    "Ġdevelop": 994,
    "Ġright": 995,
    "ĠTr": 996,
    "Ġpol": 997,
    "Ġav": 998,
    "Ġbusiness": 999,
    "ax": 1000,
    "Ġcall": 1001,
    "ĠPro": 1002,
    "Ġ0": 1003,
    "ĠThere": 1004,
    "Ġdet": 1005,
    "Ġinformation": 1006,
    "hes": 1007,
    "ĠEn": 1008,
    "io": 1009,
    "Ġlit": 1010,
    "rest": 1011,
    "hink": 1012,
    "Ġfree": 1013,
    "ives": 1014,
    "ward": 1015,
    "arket": 1016,
    "ouse": 1017,
    "Ġfol": 1018,
    "Ġ$": 1019,
    "Ġhand": 1020,
    "amp": 1021,
    "Ġi": 1022,
    "Ġ200": 1023,
    "ĠAr": 1024,
    "ek": 1025,
    "Ġreally": 1026,
    "ality": 1027,
    "Ġvis": 1028,
    "Ġed": 1029,
    "ues": 1030,
    "Ġmed": 1031,
    "Ġmet": 1032,
    "oup": 1033,
    "Ġcre": 1034,
    "ize": 1035,
    "Ġinte": 1036,
    "Ġmem": 1037,
    "Ġresp": 1038,
    "Ġnum": 1039,
    "Ġprovid": 1040,
    "Ġchar": 1041,
    "think": 1042,
    "ix": 1043,
    "ĠSp": 1044,
    "ork": 1045,
    "Ġthink": 1046,
    "ather": 1047,
    "Ġlook": 1048,
    "Ġ%": 1049,
    "ters": 1050,
    "ages": 1051,
    "Ġser": 1052,
    "rol": 1053,
    "ince": 1054,
    "Ġeach": 1055,
    "atch": 1056,
    "Ġcomple": 1057,
    "Ġinst": 1058,
    "gram": 1059,
    "Ġloo": 1060,
    "Ġwhile": 1061,
    "akes": 1062,
    "Ġlove": 1063,
    "Ġcur": 1064,
    "Ġthough": 1065,
    "ale": 1066,
    "iving": 1067,
    "ton": 1068,
    "Ġpost": 1069,
    "iet": 1070,
    "ner": 1071,
    "ines": 1072,
    "turn": 1073,
    "ros": 1074,
    "land": 1075,
    "ivers": 1076,
    "other": 1077,
    "Ġaround": 1078,
    "Ġdifferent": 1079,
    "ĠThey": 1080,
    "ĠNew": 1081,
    "Ġpubl": 1082,
    "ason": 1083,
    "ĠOn": 1084,
    "Ġeas": 1085,
    "Ġadv": 1086,
    "Ġcare": 1087,
    "olut": 1088,
    "Ġbetw": 1089,
    "Ġsomet": 1090,
    "Ġbetween": 1091,
    "Ġlast": 1092,
    "ness": 1093,
    "Ġsign": 1094,
    "Ġprof": 1095,
    "ict": 1096,
    "Ġcle": 1097,
    "ĠFr": 1098,
    "Ġcour": 1099,
    "ized": 1100,
    "Ġfac": 1101,
    "Ġlead": 1102,
    "Ġchild": 1103,
    "Ġdef": 1104,
    "ys": 1105,
    "Ġsame": 1106,
    "Ġbo": 1107,
    "ier": 1108,
    "Ġsk": 1109,
    "ior": 1110,
    "view": 1111,
    "Ġ]": 1112,
    "ock": 1113,
    "Ġ[": 1114,
    "alth": 1115,
    "ata": 1116,
    "Ġ.âĢĿ": 1117,
    "Ġfollow": 1118,
    "Ġplan": 1119,
    "Ġform": 1120,
    "Ġboth": 1121,
    "Ġstill": 1122,
    "Ġtec": 1123,
    "ven": 1124,
    "plic": 1125,
    "Ġfeel": 1126,
    "ved": 1127,
    "tter": 1128,
    "ets": 1129,
    "ory": 1130,
    "Ġcommun": 1131,
    "ling": 1132,
    "Ġtop": 1133,
    "ars": 1134,
    "Ġgoing": 1135,
    "ĠSo": 1136,
    "Ġfound": 1137,
    "ature": 1138,
    "ash": 1139,
    "arn": 1140,
    "ways": 1141,
    "read": 1142,
    "lease": 1143,
    "ects": 1144,
    "ene": 1145,
    "man": 1146,
    "ount": 1147,
    "ds": 1148,
    "Ġ00": 1149,
    "Ġlar": 1150,
    "Ġgener": 1151,
    "oint": 1152,
    "Ġpur": 1153,
    "Ġlot": 1154,
    "Ġprocess": 1155,
    "Ġmarket": 1156,
    "Ġmod": 1157,
    "load": 1158,
    "ra": 1159,
    "Ġsay": 1160,
    "Ġplace": 1161,
    "Ġonline": 1162,
    "Ġreal": 1163,
    "ft": 1164,
    "aving": 1165,
    "Ġter": 1166,
    "Ġcor": 1167,
    "ional": 1168,
    "ically": 1169,
    "Ġob": 1170,
    "Ġfew": 1171,
    "ĠHow": 1172,
    "Ġtechn": 1173,
    "arm": 1174,
    "hree": 1175,
    "Ġusing": 1176,
    "Ġprogram": 1177,
    "Ġwom": 1178,
    "Ġsite": 1179,
    "Ġcus": 1180,
    "Ġdire": 1181,
    "Ġhapp": 1182,
    "ying": 1183,
    "Ġdating": 1184,
    "cc": 1185,
    "Ġvar": 1186,
    "Ġint": 1187,
    "Ġinf": 1188,
    "ailable": 1189,
    "pos": 1190,
    "ĠCl": 1191,
    "Ġdel": 1192,
    "ces": 1193,
    "Ġll": 1194,
    "onth": 1195,
    "typ": 1196,
    "less": 1197,
    "Ġsit": 1198,
    "Ġide": 1199,
    "Ġrun": 1200,
    "Ġbel": 1201,
    "Ġsupport": 1202,
    "Ġwrit": 1203,
    "ired": 1204,
    "iel": 1205,
    "ists": 1206,
    "ĠSh": 1207,
    "Ġlist": 1208,
    "Ġincluding": 1209,
    "ĠAd": 1210,
    "min": 1211,
    "self": 1212,
    "iqu": 1213,
    "Ġthings": 1214,
    "Ġfil": 1215,
    "iend": 1216,
    "Ġval": 1217,
    "ology": 1218,
    "Ġref": 1219,
    "Ġimport": 1220,
    "Ġfriend": 1221,
    "Ġmus": 1222,
    "Ġcent": 1223,
    "Ġinterest": 1224,
    "Ġlittle": 1225,
    "Ġwithout": 1226,
    "ĠLe": 1227,
    "Ġsw": 1228,
    "ants": 1229,
    "Ġweek": 1230,
    "Ġsing": 1231,
    "Ġpar": 1232,
    "Ġexc": 1233,
    "Ġpat": 1234,
    "ered": 1235,
    "ĠShe": 1236,
    "Ġteam": 1237,
    "uss": 1238,
    "Ġposs": 1239,
    "ger": 1240,
    "ric": 1241,
    "ump": 1242,
    "iver": 1243,
    "Ġmain": 1244,
    "Ġsmall": 1245,
    "meric": 1246,
    "ody": 1247,
    "orn": 1248,
    "ĠWhen": 1249,
    "Ġpartic": 1250,
    "hoto": 1251,
    "three": 1252,
    "Ġrece": 1253,
    "Ġbook": 1254,
    "br": 1255,
    "por": 1256,
    "Ġduring": 1257,
    "Ġsl": 1258,
    "Ġtyp": 1259,
    "Ġthree": 1260,
    "arly": 1261,
    "ross": 1262,
    "ves": 1263,
    "Ġexam": 1264,
    "Ġshort": 1265,
    "ah": 1266,
    "ĠDe": 1267,
    "Ġconc": 1268,
    "Ġkeep": 1269,
    "Ġservice": 1270,
    "Ġmonth": 1271,
    "ĠAp": 1272,
    "els": 1273,
    "ember": 1274,
    "crip": 1275,
    "ank": 1276,
    "Ġalways": 1277,
    "Ġschool": 1278,
    "Ġcap": 1279,
    "Ġavailable": 1280,
    "Ġopen": 1281,
    "ished": 1282,
    "ital": 1283,
    "ĠAf": 1284,
    "ins": 1285,
    "ural": 1286,
    "stand": 1287,
    "ĠBe": 1288,
    "Ġcome": 1289,
    "ĠEx": 1290,
    "Ġconf": 1291,
    "ĠAmeric": 1292,
    "ially": 1293,
    "Ġph": 1294,
    "Ġsoc": 1295,
    "Ġfamily": 1296,
    "bers": 1297,
    "vern": 1298,
    "Ġiss": 1299,
    "ention": 1300,
    "ames": 1301,
    "Ġmust": 1302,
    "Ġclass": 1303,
    "Ġdata": 1304,
    "ĠTo": 1305,
    "fect": 1306,
    "Ġsomething": 1307,
    "tors": 1308,
    "Ġexperience": 1309,
    "Ġgroup": 1310,
    "ering": 1311,
    "ĠAll": 1312,
    "Ġnumber": 1313,
    "Ġold": 1314,
    "Ġstand": 1315,
    "Ġbuild": 1316,
    "gy": 1317,
    "uck": 1318,
    "Ġbetter": 1319,
    "Ġcompany": 1320,
    "Ġhard": 1321,
    "Ġorgan": 1322,
    "Ġput": 1323,
    "Ġallow": 1324,
    "Ġperform": 1325,
    "Ġproble": 1326,
    "Ġbig": 1327,
    "ared": 1328,
    "Ġwater": 1329,
    "Ġpass": 1330,
    "Ġ12": 1331,
    "ĠGr": 1332,
    "Ġpay": 1333,
    "ĠAt": 1334,
    "Ġcontin": 1335,
    "Ġnever": 1336,
    "Ġanother": 1337,
    "Ġtal": 1338,
    "Ġfile": 1339,
    "Ġgot": 1340,
    "orth": 1341,
    "ute": 1342,
    "Ġquest": 1343,
    "Ġhead": 1344,
    "ately": 1345,
    "ĠBr": 1346,
    "Ġ18": 1347,
    "get": 1348,
    "ph": 1349,
    "Ġsince": 1350,
    "Ġsure": 1351,
    "ertain": 1352,
    "Ġsecond": 1353,
    "Ġwon": 1354,
    "ction": 1355,
    "ĠPr": 1356,
    "uff": 1357,
    "ĠSe": 1358,
    "Ġmight": 1359,
    "ĠIs": 1360,
    "ĠInd": 1361,
    "ights": 1362,
    "ĠPl": 1363,
    "Ġview": 1364,
    "Ġpower": 1365,
    "ism": 1366,
    "Ġwebs": 1367,
    "ards": 1368,
    "ĠChr": 1369,
    "ĠWith": 1370,
    "ĠWhat": 1371,
    "Ġ*": 1372,
    "Ġfull": 1373,
    "Ġlevel": 1374,
    "Ġeng": 1375,
    "Ġroom": 1376,
    "ced": 1377,
    "ustr": 1378,
    "Ġservices": 1379,
    "Ġnext": 1380,
    "ĠCon": 1381,
    "Ġexpl": 1382,
    "Ġprovide": 1383,
    "Ġgive": 1384,
    "hor": 1385,
    "Ġwithin": 1386,
    "Ġmanag": 1387,
    "Ġincre": 1388,
    "Ġcost": 1389,
    "aj": 1390,
    "Ġspe": 1391,
    "Ġimportant": 1392,
    "ĠQ": 1393,
    "Ġbre": 1394,
    "ert": 1395,
    "Ġext": 1396,
    "aim": 1397,
    "Ġcontr": 1398,
    "rence": 1399,
    "ik": 1400,
    "Ġbro": 1401,
    "Ġproper": 1402,
    "Ġ15": 1403,
    "Ġ.\"": 1404,
    "aining": 1405,
    "Ġdep": 1406,
    "Ġlooking": 1407,
    "con": 1408,
    "ploy": 1409,
    "Ġarea": 1410,
    "ĠMy": 1411,
    "ĠThat": 1412,
    "Ġappro": 1413,
    "Ġel": 1414,
    "oney": 1415,
    "ĠWh": 1416,
    "Ġlaw": 1417,
    "Ġelec": 1418,
    "Ġpop": 1419,
    "Ġless": 1420,
    "ective": 1421,
    "Ġoper": 1422,
    "Ġphoto": 1423,
    "ived": 1424,
    "Ġable": 1425,
    "ivid": 1426,
    "ĠBl": 1427,
    "Ġmeet": 1428,
    "Ġpublic": 1429,
    "Ġgame": 1430,
    "Ġsuc": 1431,
    "mit": 1432,
    "Ġorder": 1433,
    "Ġpresent": 1434,
    "reen": 1435,
    "ision": 1436,
    "uit": 1437,
    "Ġrese": 1438,
    "Ġleg": 1439,
    "Ġequ": 1440,
    "ĠâĢĺ": 1441,
    "ably": 1442,
    "rap": 1443,
    "test": 1444,
    "Ġhum": 1445,
    "ugg": 1446,
    "Ġest": 1447,
    "oot": 1448,
    "ense": 1449,
    "Ġdays": 1450,
    "ĠSc": 1451,
    "outh": 1452,
    "til": 1453,
    "be": 1454,
    "Ġdoc": 1455,
    "Ġcontrol": 1456,
    "Ġbelie": 1457,
    "Ġcurrent": 1458,
    "Ġseem": 1459,
    "struc": 1460,
    "Ġ30": 1461,
    "Ġgl": 1462,
    "Ġmar": 1463,
    "Ġaccess": 1464,
    "joy": 1465,
    "omm": 1466,
    "Ġintern": 1467,
    "Ġbas": 1468,
    "Ġhealth": 1469,
    "Ġpo": 1470,
    "Ġspecial": 1471,
    "ently": 1472,
    "Ġ,âĢĿ": 1473,
    "me": 1474,
    "und": 1475,
    "Ġgrow": 1476,
    "ope": 1477,
    "ified": 1478,
    "ĠOur": 1479,
    "oss": 1480,
    "ĠCol": 1481,
    "iven": 1482,
    "ency": 1483,
    "Ġ000": 1484,
    "ĠTh": 1485,
    "Ġmen": 1486,
    "iversity": 1487,
    "Ġagainst": 1488,
    "ients": 1489,
    "aren": 1490,
    "Ġ11": 1491,
    "dition": 1492,
    "ands": 1493,
    "Ġaddition": 1494,
    "Ġprofess": 1495,
    "inal": 1496,
    "ised": 1497,
    "Ġapplic": 1498,
    "Ġprev": 1499,
    "Ġwomen": 1500,
    "aff": 1501,
    "Ġmat": 1502,
    "Ġpract": 1503,
    "Ġlarge": 1504,
    "Ġlight": 1505,
    "Ġunderstand": 1506,
    "Ġdem": 1507,
    "Ġhouse": 1508,
    "ases": 1509,
    "room": 1510,
    "Ġturn": 1511,
    "ium": 1512,
    "Ġworking": 1513,
    "Ġdownload": 1514,
    "Ġprom": 1515,
    "ield": 1516,
    "Ġtoday": 1517,
    "ĠOr": 1518,
    "cription": 1519,
    "Ġvisit": 1520,
    "ply": 1521,
    "ĠNo": 1522,
    "ator": 1523,
    "ĠJo": 1524,
    "Ġvide": 1525,
    "ex": 1526,
    "Ġaway": 1527,
    "Ġstate": 1528,
    "Ġmaking": 1529,
    "ected": 1530,
    "Ġwr": 1531,
    "Ġchildren": 1532,
    "ĠZ": 1533,
    "irl": 1534,
    "ĠNot": 1535,
    "Ġreport": 1536,
    "ission": 1537,
    "ization": 1538,
    "ains": 1539,
    "ery": 1540,
    "work": 1541,
    "gether": 1542,
    "Ġcase": 1543,
    "aper": 1544,
    "Ġstat": 1545,
    "iron": 1546,
    "Ġlocal": 1547,
    "irt": 1548,
    "ll": 1549,
    "Ġwebsite": 1550,
    "ĠUS": 1551,
    "Ġhour": 1552,
    "esp": 1553,
    "illion": 1554,
    "gin": 1555,
    "Ġquality": 1556,
    "Ġlet": 1557,
    "ury": 1558,
    "med": 1559,
    "ability": 1560,
    "Ġfood": 1561,
    "Ġdev": 1562,
    "Ġhaving": 1563,
    "Ġstudents": 1564,
    "Ġann": 1565,
    "Ġactiv": 1566,
    "ime": 1567,
    "Ġenjoy": 1568,
    "Ġbeh": 1569,
    "Ġaut": 1570,
    "tell": 1571,
    "Ġchang": 1572,
    "Ġair": 1573,
    "Ġcomplete": 1574,
    "Ġwin": 1575,
    "eng": 1576,
    "Ġwhy": 1577,
    "Ġkind": 1578,
    "treat": 1579,
    "Ġcourse": 1580,
    "ults": 1581,
    "icle": 1582,
    "ĠThese": 1583,
    "vernment": 1584,
    "Ġ2018": 1585,
    "Ġname": 1586,
    "Ġcollec": 1587,
    "hod": 1588,
    "Ġet": 1589,
    "Ġchange": 1590,
    "ĠGod": 1591,
    "iety": 1592,
    "Ġmoney": 1593,
    "ider": 1594,
    "Ġhot": 1595,
    "istr": 1596,
    "orts": 1597,
    "Ġconn": 1598,
    "Ġalong": 1599,
    "Ġpoint": 1600,
    "ret": 1601,
    "Ġimpro": 1602,
    "Ġlo": 1603,
    "aring": 1604,
    "Ġbased": 1605,
    "Ġinvest": 1606,
    "Ġpain": 1607,
    "Ġcustom": 1608,
    "Ġtest": 1609,
    "Ġlearn": 1610,
    "ection": 1611,
    "here": 1612,
    "ĠChrist": 1613,
    "ode": 1614,
    "ern": 1615,
    "Ġask": 1616,
    "Ġbeaut": 1617,
    "Ġfour": 1618,
    "Ġprin": 1619,
    "Ġdetail": 1620,
    "oci": 1621,
    "ising": 1622,
    "Ġsuccess": 1623,
    "ills": 1624,
    "itc": 1625,
    "augh": 1626,
    "Ġoften": 1627,
    "ipp": 1628,
    "ream": 1629,
    "Ġtrad": 1630,
    "Ġoffer": 1631,
    "ĠOne": 1632,
    "ential": 1633,
    "olution": 1634,
    "ĠDr": 1635,
    "ina": 1636,
    "Ġcreat": 1637,
    "ats": 1638,
    "ĠMan": 1639,
    "cept": 1640,
    "aterial": 1641,
    "Ġrecord": 1642,
    "orm": 1643,
    "Ġtimes": 1644,
    "Ġ100": 1645,
    "Ġanal": 1646,
    "Ġuntil": 1647,
    "Ġreview": 1648,
    "ique": 1649,
    "Ġtogether": 1650,
    "Ġeasy": 1651,
    "aster": 1652,
    "Ġproducts": 1653,
    "ĠEng": 1654,
    "Ġtreat": 1655,
    "ending": 1656,
    "Ġpersonal": 1657,
    "Ġsaf": 1658,
    "Ġnet": 1659,
    "way": 1660,
    "ured": 1661,
    "Ġline": 1662,
    "ĠâĢĶ": 1663,
    "Ġevent": 1664,
    "Ġinclude": 1665,
    "ividual": 1666,
    "Ġred": 1667,
    "co": 1668,
    "uct": 1669,
    "Ġresearch": 1670,
    "ĠCan": 1671,
    "ids": 1672,
    "Ġau": 1673,
    "Ġneeds": 1674,
    "Ġproduct": 1675,
    "Ġrest": 1676,
    "Ġsingle": 1677,
    "Ġocc": 1678,
    "Ġemploy": 1679,
    "Ġside": 1680,
    "Ġever": 1681,
    "Ġfar": 1682,
    "ird": 1683,
    "Ġbody": 1684,
    "aud": 1685,
    "ĠMar": 1686,
    "Ġshare": 1687,
    "Ġmov": 1688,
    "urs": 1689,
    "ocus": 1690,
    "Ġsever": 1691,
    "ley": 1692,
    "Ġ|": 1693,
    "Ġmusic": 1694,
    "Ġtell": 1695,
    "ĠRes": 1696,
    "cent": 1697,
    "pr": 1698,
    "Ġpossible": 1699,
    "acy": 1700,
    "Ġwal": 1701,
    "Ġboo": 1702,
    "Ġleft": 1703,
    "Ġselec": 1704,
    "Ġbecome": 1705,
    "Ġdone": 1706,
    "ajor": 1707,
    "ended": 1708,
    "ged": 1709,
    "Ġmove": 1710,
    "utes": 1711,
    "Ġcertain": 1712,
    "Ġcommunity": 1713,
    "Ġcharac": 1714,
    "Ġindividual": 1715,
    "Ġcalled": 1716,
    "Ġmakes": 1717,
    "Ġworks": 1718,
    "Ġproject": 1719,
    "Ġbit": 1720,
    "Ġbene": 1721,
    "Ġenough": 1722,
    "fort": 1723,
    "ips": 1724,
    "itive": 1725,
    "Ġperfect": 1726,
    "ĠMay": 1727,
    "Ġmeans": 1728,
    "atures": 1729,
    "Ġstory": 1730,
    "bo": 1731,
    "une": 1732,
    "Ġdidn": 1733,
    "Ġsex": 1734,
    "side": 1735,
    "Ġmaterial": 1736,
    "Ġnight": 1737,
    "ĠAfter": 1738,
    "Ġseveral": 1739,
    "Ġcountry": 1740,
    "ee": 1741,
    "Ġlive": 1742,
    "Ġeduc": 1743,
    "Ġsocial": 1744,
    "ĠCoun": 1745,
    "ĠAm": 1746,
    "ready": 1747,
    "ĠÂ": 1748,
    "hys": 1749,
    "Ġpot": 1750,
    "ney": 1751,
    "Ġorig": 1752,
    "Ġstor": 1753,
    "Ġgetting": 1754,
    "Ġmean": 1755,
    "Ġnon": 1756,
    "ither": 1757,
    "ĠCent": 1758,
    "Ġdevelopment": 1759,
    "viron": 1760,
    "conom": 1761,
    "Ġmembers": 1762,
    "Ġlim": 1763,
    "Ġpast": 1764,
    "Ġsol": 1765,
    "Ġ#": 1766,
    "tt": 1767,
    "ps": 1768,
    "Ġren": 1769,
    "Ġsal": 1770,
    "Ġcondition": 1771,
    "Ġlow": 1772,
    "ait": 1773,
    "Ġothers": 1774,
    "Ġmil": 1775,
    "tic": 1776,
    "ination": 1777,
    "ienc": 1778,
    "iful": 1779,
    "Ġfore": 1780,
    "Ġ14": 1781,
    "Ġleast": 1782,
    "tem": 1783,
    "Ġbuy": 1784,
    "ined": 1785,
    "Ġ25": 1786,
    "fer": 1787,
    "Ġpage": 1788,
    "ote": 1789,
    "sw": 1790,
    "Ġsays": 1791,
    "Ġalready": 1792,
    "Ġarr": 1793,
    "Ġmult": 1794,
    "Ġ16": 1795,
    "Ġcheck": 1796,
    "Ġess": 1797,
    "aps": 1798,
    "Ġmind": 1799,
    "crib": 1800,
    "aces": 1801,
    "com": 1802,
    "Ġcreate": 1803,
    "ane": 1804,
    "Ġactually": 1805,
    "Ġyoun": 1806,
    "Ġfocus": 1807,
    "Ġfriends": 1808,
    "ann": 1809,
    "Ġsty": 1810,
    "Ġparticular": 1811,
    "Ġdoing": 1812,
    "arl": 1813,
    "lish": 1814,
    "ording": 1815,
    "Ġspecific": 1816,
    "Ġmajor": 1817,
    "arr": 1818,
    "ĠHis": 1819,
    "Ġjob": 1820,
    "ĠHowever": 1821,
    "ape": 1822,
    "Ġfollowing": 1823,
    "alf": 1824,
    "cep": 1825,
    "imes": 1826,
    "ians": 1827,
    "portun": 1828,
    "Ġbenef": 1829,
    "Ġcity": 1830,
    "Ġmethod": 1831,
    "uly": 1832,
    "Ġstep": 1833,
    "sp": 1834,
    "sel": 1835,
    "Ġthought": 1836,
    "ained": 1837,
    "idd": 1838,
    "Ġtry": 1839,
    "Ġquick": 1840,
    "ĠUniversity": 1841,
    "osp": 1842,
    "by": 1843,
    "Ġgirl": 1844,
    "oice": 1845,
    "ots": 1846,
    "atic": 1847,
    "erm": 1848,
    "Ġfav": 1849,
    "Ġ13": 1850,
    "Ġacross": 1851,
    "Ġtem": 1852,
    "Ġoffic": 1853,
    "Ġfact": 1854,
    "Ġpriv": 1855,
    "Ġcame": 1856,
    "Ġbed": 1857,
    "uce": 1858,
    "Ġce": 1859,
    "ateg": 1860,
    "ĠDo": 1861,
    "ift": 1862,
    "Ġcover": 1863,
    "Ġ,\"": 1864,
    "Ġident": 1865,
    "ergy": 1866,
    "uture": 1867,
    "Ġvers": 1868,
    "ĠCo": 1869,
    "Ġ199": 1870,
    "ĠAmerican": 1871,
    "avel": 1872,
    "artment": 1873,
    "Ġcomes": 1874,
    "urity": 1875,
    "Ġclean": 1876,
    "Ġreason": 1877,
    "uary": 1878,
    "ances": 1879,
    "Ġonce": 1880,
    "Ġexample": 1881,
    "iec": 1882,
    "Ġopportun": 1883,
    "ĠThan": 1884,
    "Ġrelations": 1885,
    "urther": 1886,
    "Ġele": 1887,
    "ulation": 1888,
    "Ġvideo": 1889,
    "Ġproblem": 1890,
    "ĠWor": 1891,
    "ĠComm": 1892,
    "vironment": 1893,
    "Ġmom": 1894,
    "Ġhuman": 1895,
    "Ġblog": 1896,
    "ought": 1897,
    "Ġgovernment": 1898,
    "Ġstudy": 1899,
    "Ġpict": 1900,
    "Ġnec": 1901,
    "Ġdi": 1902,
    "most": 1903,
    "Ġweb": 1904,
    "Ġinvol": 1905,
    "Ġkey": 1906,
    "Ġdist": 1907,
    "Ġrequire": 1908,
    "Ġprice": 1909,
    "Ġknown": 1910,
    "Ġey": 1911,
    "ides": 1912,
    "ster": 1913,
    "Ġteac": 1914,
    "Ġdoesn": 1915,
    "of": 1916,
    "Ġcamp": 1917,
    "ER": 1918,
    "ustry": 1919,
    "Ġhig": 1920,
    "ĠComp": 1921,
    "Ġdeal": 1922,
    "ead": 1923,
    "enn": 1924,
    "Ġ50": 1925,
    "ister": 1926,
    "yc": 1927,
    "aken": 1928,
    "arning": 1929,
    "Ġenc": 1930,
    "ests": 1931,
    "Ġhold": 1932,
    "Ġauthor": 1933,
    "ĠYour": 1934,
    "Ġcomput": 1935,
    "ok": 1936,
    "ows": 1937,
    "Ġcomb": 1938,
    "Ġ17": 1939,
    "ference": 1940,
    "tra": 1941,
    "Ġmon": 1942,
    "ĠIntern": 1943,
    "ĠMore": 1944,
    "ĠNe": 1945,
    "Ġstarted": 1946,
    "ument": 1947,
    "Ġcompan": 1948,
    "Ġsum": 1949,
    "Ġreturn": 1950,
    "Ġcontact": 1951,
    "Ġsearch": 1952,
    "ĠRo": 1953,
    "Ġtook": 1954,
    "Ġdescription": 1955,
    "irc": 1956,
    "ource": 1957,
    "Ġstrong": 1958,
    "taking": 1959,
    "Ġyet": 1960,
    "Ġwent": 1961,
    "Ġsomeone": 1962,
    "Ġ2017": 1963,
    "Ġstay": 1964,
    "Ġwind": 1965,
    "ief": 1966,
    "Ġeverything": 1967,
    "Ġcou": 1968,
    "Ġearly": 1969,
    "ones": 1970,
    "resent": 1971,
    "Ġfuture": 1972,
    "Ġdiscuss": 1973,
    "jects": 1974,
    "Ġcult": 1975,
    "par": 1976,
    "Ġshop": 1977,
    "Ġbeautiful": 1978,
    "ify": 1979,
    "let": 1980,
    "Ġclose": 1981,
    "ony": 1982,
    "Ġprob": 1983,
    "Ġvol": 1984,
    "Ġbring": 1985,
    "iod": 1986,
    "ding": 1987,
    "Ġz": 1988,
    "Ġeconom": 1989,
    "Ġgiven": 1990,
    "Ġpurch": 1991,
    "Ġsound": 1992,
    "Ġhappen": 1993,
    "Ġelectr": 1994,
    "book": 1995,
    "Ġposition": 1996,
    "ution": 1997,
    "Ġrele": 1998,
    "yn": 1999,
    "ai": 2000,
    "Ġaddress": 2001,
    "urance": 2002,
    "Ġnear": 2003,
    "eral": 2004,
    "Ġcompet": 2005,
    "bal": 2006,
    "ĠJohn": 2007,
    "Ġfre": 2008,
    "Ġmonths": 2009,
    "Ġtool": 2010,
    "Ġseries": 2011,
    "Ġlater": 2012,
    "ĠX": 2013,
    "Ġseason": 2014,
    "Ġresults": 2015,
    "acks": 2016,
    "Ġspace": 2017,
    "ilities": 2018,
    "Ġhours": 2019,
    "ĠFe": 2020,
    "Ġrespons": 2021,
    "Ġfeatures": 2022,
    "hin": 2023,
    "Ġabove": 2024,
    "Ġstop": 2025,
    "Ġris": 2026,
    "Ġbelow": 2027,
    "Ġhistory": 2028,
    "Ġpolic": 2029,
    "Ġcut": 2030,
    "Ġappear": 2031,
    "Ġitem": 2032,
    "Ġcal": 2033,
    "Ġrange": 2034,
    "Ġoffers": 2035,
    "Ġmag": 2036,
    "Ġbegin": 2037,
    "Ġnat": 2038,
    "ued": 2039,
    "Ġret": 2040,
    "iously": 2041,
    "Ġyoung": 2042,
    "Ġens": 2043,
    "Ġamong": 2044,
    "ners": 2045,
    "ĠRep": 2046,
    "stit": 2047,
    "Ġphys": 2048,
    "Ġ.,": 2049,
    "tax": 2050,
    "Ġindustry": 2051,
    "urch": 2052,
    "ental": 2053,
    "Ġcontent": 2054,
    "action": 2055,
    "Ġwhole": 2056,
    "Ġdirect": 2057,
    "Ġblack": 2058,
    "illed": 2059,
    "err": 2060,
    "Ġrecomm": 2061,
    "idence": 2062,
    "ĠChe": 2063,
    "ĠServ": 2064,
    "urop": 2065,
    "ources": 2066,
    "ĠPh": 2067,
    "ges": 2068,
    "Ġmillion": 2069,
    "ĠUnited": 2070,
    "ept": 2071,
    "Ġemail": 2072,
    "Ġpolit": 2073,
    "table": 2074,
    "Ġcommon": 2075,
    "tar": 2076,
    "Ġ24": 2077,
    "Ġbelieve": 2078,
    "lege": 2079,
    "Ġseen": 2080,
    "wards": 2081,
    "ĠMed": 2082,
    "ĠSte": 2083,
    "Ġrelationship": 2084,
    "Ġpress": 2085,
    "Ġsof": 2086,
    "Ġmor": 2087,
    "ush": 2088,
    "ĠDec": 2089,
    "Ġliving": 2090,
    "Ġdistr": 2091,
    "ledge": 2092,
    "ilt": 2093,
    "ler": 2094,
    "mp": 2095,
    "Ġansw": 2096,
    "Ġvalue": 2097,
    "Ġchall": 2098,
    "Ġdue": 2099,
    "Ġwhether": 2100,
    "ume": 2101,
    "Ġheart": 2102,
    "Ġplease": 2103,
    "ecially": 2104,
    "Ġface": 2105,
    "ĠSome": 2106,
    "Ġhope": 2107,
    "ule": 2108,
    "Ġbad": 2109,
    "ĠAss": 2110,
    "tre": 2111,
    "Ġwall": 2112,
    "Ġenvironment": 2113,
    "fully": 2114,
    "Ġperiod": 2115,
    "Ġclaim": 2116,
    "ĠMe": 2117,
    "Ġcompanies": 2118,
    "ival": 2119,
    "ĠNow": 2120,
    "Ġdiff": 2121,
    "Ġmess": 2122,
    "uf": 2123,
    "Ġvi": 2124,
    "Ġtype": 2125,
    "Ġtax": 2126,
    "ĠPD": 2127,
    "ĠBy": 2128,
    "ino": 2129,
    "Ġbuilding": 2130,
    "Ġesp": 2131,
    "Ġjoin": 2132,
    "Ġprofessional": 2133,
    "Ġvarious": 2134,
    "Ġmeas": 2135,
    "Ġanything": 2136,
    "Ġtaking": 2137,
    "Ġbar": 2138,
    "Ġissues": 2139,
    "ĠMin": 2140,
    "Ġwriting": 2141,
    "Ġaccount": 2142,
    "ogn": 2143,
    "ĠCar": 2144,
    "roduc": 2145,
    "ibility": 2146,
    "oose": 2147,
    "Ġdirec": 2148,
    "Ġlat": 2149,
    "aun": 2150,
    "Ġinstall": 2151,
    "Ġquestion": 2152,
    "Ġprovides": 2153,
    "Ġcred": 2154,
    "Ġhy": 2155,
    "Ġflo": 2156,
    "ĠDes": 2157,
    "Ġcell": 2158,
    "Ġpack": 2159,
    "Ġeither": 2160,
    "ibr": 2161,
    "Ġsugg": 2162,
    "ĠFl": 2163,
    "reet": 2164,
    "Ġfront": 2165,
    "tware": 2166,
    "over": 2167,
    "urope": 2168,
    "Ġconsider": 2169,
    "hers": 2170,
    "ĠJust": 2171,
    "Ġself": 2172,
    "ping": 2173,
    "Ġtechnology": 2174,
    "Ġengine": 2175,
    "ĠSup": 2176,
    "Ġmanagement": 2177,
    "ford": 2178,
    "Ġfit": 2179,
    "asing": 2180,
    "Ġsize": 2181,
    "ming": 2182,
    "gle": 2183,
    "selves": 2184,
    "Ġant": 2185,
    "ĠTe": 2186,
    "Ġpoin": 2187,
    "Ġidea": 2188,
    "Ġminutes": 2189,
    "Ġsent": 2190,
    "Ġinsp": 2191,
    "ancial": 2192,
    "Ġquite": 2193,
    "itor": 2194,
    "Ġwonder": 2195,
    "Ġfive": 2196,
    "Ġsn": 2197,
    "ĠSec": 2198,
    "thin": 2199,
    "df": 2200,
    "Ġpiec": 2201,
    "ĠAb": 2202,
    "Ġhtt": 2203,
    "iday": 2204,
    "uation": 2205,
    "Ġ+": 2206,
    "Ġste": 2207,
    "Ġmedia": 2208,
    "Ġclos": 2209,
    "Ġpret": 2210,
    "Ġfurther": 2211,
    "Ġwatch": 2212,
    "aph": 2213,
    "Ġmoder": 2214,
    "taken": 2215,
    "ensive": 2216,
    "ĠCont": 2217,
    "Ġnews": 2218,
    "Ġalmost": 2219,
    "Ġsell": 2220,
    "Ġage": 2221,
    "Ġsimple": 2222,
    "Ġwhite": 2223,
    "rew": 2224,
    "ites": 2225,
    "Ġquestions": 2226,
    "ilar": 2227,
    "int": 2228,
    "ral": 2229,
    "...": 2230,
    "Ġtraining": 2231,
    "Ġago": 2232,
    "Ġ:/": 2233,
    "omes": 2234,
    "Ġ2016": 2235,
    "Ġtold": 2236,
    "Ġcard": 2237,
    "Ġcrit": 2238,
    "oud": 2239,
    "Ġimprove": 2240,
    "ging": 2241,
    "Ġenergy": 2242,
    "Ġabs": 2243,
    "Ġfall": 2244,
    "vert": 2245,
    "ĠWhile": 2246,
    "Ġperformance": 2247,
    "Ġthin": 2248,
    "Ġproperty": 2249,
    "Ġespecially": 2250,
    "angu": 2251,
    "Ġ://": 2252,
    "Ġsignific": 2253,
    "Ġ=": 2254,
    "abor": 2255,
    "mb": 2256,
    "ided": 2257,
    "Ġaud": 2258,
    "Ġentire": 2259,
    "Ġcharacter": 2260,
    "ison": 2261,
    "play": 2262,
    "Ġland": 2263,
    "Ġcirc": 2264,
    "not": 2265,
    "Ġparen": 2266,
    "ĠSy": 2267,
    "Ġlog": 2268,
    "Ġprot": 2269,
    "use": 2270,
    "Ġpaper": 2271,
    "Ġcop": 2272,
    "itchen": 2273,
    "Ġexperienc": 2274,
    "ĠGo": 2275,
    "Ġbat": 2276,
    "aur": 2277,
    "ched": 2278,
    "ends": 2279,
    "Ġhalf": 2280,
    "ille": 2281,
    "Ġeveryone": 2282,
    "ishing": 2283,
    "ĠEurope": 2284,
    "Ġpercent": 2285,
    "astic": 2286,
    "Ġmodel": 2287,
    "Ġbreak": 2288,
    "Ġpdf": 2289,
    "Ġdefin": 2290,
    "ĠPDF": 2291,
    "Ġexist": 2292,
    "ĠPlease": 2293,
    "Ġfilm": 2294,
    "ĠMr": 2295,
    "Ġtravel": 2296,
    "Ġoffice": 2297,
    "Ġrequired": 2298,
    "Ġsat": 2299,
    "Ġsites": 2300,
    "Ġfunction": 2301,
    "Ġareas": 2302,
    "Ġdou": 2303,
    "Ġbooks": 2304,
    "gest": 2305,
    "Ġtre": 2306,
    "Ġtrying": 2307,
    "erc": 2308,
    "Ġtaken": 2309,
    "ĠHere": 2310,
    "lus": 2311,
    "Ġincludes": 2312,
    "ufact": 2313,
    "Ġresult": 2314,
    "ĠOff": 2315,
    "Ġhost": 2316,
    "ball": 2317,
    "ĠTw": 2318,
    "Ġdig": 2319,
    "Ġnecess": 2320,
    "IN": 2321,
    "Ġgames": 2322,
    "iate": 2323,
    "Ġprovided": 2324,
    "Ġreading": 2325,
    "ĠSouth": 2326,
    "Ġprobably": 2327,
    "come": 2328,
    "Ġsimply": 2329,
    "ĠGu": 2330,
    "ring": 2331,
    "Ġunique": 2332,
    "Ġassoci": 2333,
    "ĠCity": 2334,
    "Ġproblems": 2335,
    "Ġtalk": 2336,
    "ving": 2337,
    "Ġlov": 2338,
    "onic": 2339,
    "Ġupd": 2340,
    "Ġneeded": 2341,
    "ification": 2342,
    "Ġglo": 2343,
    "umb": 2344,
    "Ġhowever": 2345,
    "Ġ21": 2346,
    "Ġmiss": 2347,
    "Ġpopular": 2348,
    "Ġ--": 2349,
    "ators": 2350,
    "ĠCal": 2351,
    "hie": 2352,
    "tit": 2353,
    "Ġrepresent": 2354,
    "Ġdam": 2355,
    "Ġcommit": 2356,
    "ises": 2357,
    "Ġdesigned": 2358,
    "iam": 2359,
    "rec": 2360,
    "ches": 2361,
    "icult": 2362,
    "hird": 2363,
    "Ġcolor": 2364,
    "iple": 2365,
    "third": 2366,
    "oll": 2367,
    "aver": 2368,
    "ĠPres": 2369,
    "Ġcustomers": 2370,
    "ĠSchool": 2371,
    "Ġwanted": 2372,
    "Ġsystems": 2373,
    "Ġrather": 2374,
    "Ġfail": 2375,
    "Ġwide": 2376,
    "Ġdeb": 2377,
    "Ġelse": 2378,
    "Ġ..": 2379,
    "ĠDep": 2380,
    "ĠDon": 2381,
    "Ġassist": 2382,
    "ĠState": 2383,
    "tas": 2384,
    "Ġclear": 2385,
    "Ġsuper": 2386,
    "Ġflow": 2387,
    "Ġideas": 2388,
    "Ġfavor": 2389,
    "Ġetc": 2390,
    "ĠRead": 2391,
    "Ġamount": 2392,
    "Ġtradition": 2393,
    "ĠBo": 2394,
    "Ġparticip": 2395,
    "Ġdate": 2396,
    "ĠAc": 2397,
    "Ġtable": 2398,
    "Ġeffective": 2399,
    "ĠCr": 2400,
    "Ġwait": 2401,
    "Ġthird": 2402,
    "ĠWorld": 2403,
    "Ġpretty": 2404,
    "Ġnice": 2405,
    "Ġnatural": 2406,
    "Ġinfl": 2407,
    "gress": 2408,
    "Ġprep": 2409,
    "ires": 2410,
    "Ġupon": 2411,
    "Ġtext": 2412,
    "ĠJan": 2413,
    "takes": 2414,
    "ories": 2415,
    "aced": 2416,
    "Ġhol": 2417,
    "Ġill": 2418,
    "Ġgen": 2419,
    "Ġsignificant": 2420,
    "Ġregard": 2421,
    "Ġshall": 2422,
    "Ġ2015": 2423,
    "ĠNational": 2424,
    "Ġsoon": 2425,
    "go": 2426,
    "Ġstaff": 2427,
    "Ġknowledge": 2428,
    "Ġdraw": 2429,
    "sy": 2430,
    "Ġcommunic": 2431,
    "irm": 2432,
    "ĠNorth": 2433,
    "rown": 2434,
    "Ġrad": 2435,
    "Ġsoftware": 2436,
    "ĠPer": 2437,
    "Ġfoot": 2438,
    "Ġmatter": 2439,
    "Ġissue": 2440,
    "struction": 2441,
    "iting": 2442,
    "Ġtrue": 2443,
    "Ġtakes": 2444,
    "Ġrepl": 2445,
    "top": 2446,
    "lex": 2447,
    "tomer": 2448,
    "Ġinit": 2449,
    "ON": 2450,
    "Ġstruct": 2451,
    "Ġgeneral": 2452,
    "Ġfield": 2453,
    "sh": 2454,
    "ĠRec": 2455,
    "Ġparty": 2456,
    "isc": 2457,
    "Ġamaz": 2458,
    "elt": 2459,
    "Ġnothing": 2460,
    "uge": 2461,
    "Ġevents": 2462,
    "Ġtas": 2463,
    "Ġlink": 2464,
    "ĠStates": 2465,
    "ĠJune": 2466,
    "pose": 2467,
    "ysis": 2468,
    "ĠPe": 2469,
    "Ġways": 2470,
    "reme": 2471,
    "Ġ40": 2472,
    "Ġcomputer": 2473,
    "resh": 2474,
    "ww": 2475,
    "Ġdescrib": 2476,
    "Ġhon": 2477,
    "Ġwords": 2478,
    "20": 2479,
    "Ġachie": 2480,
    "Ġlikely": 2481,
    "Ġstyle": 2482,
    "Ġx": 2483,
    "izing": 2484,
    "ped": 2485,
    "Ġeducation": 2486,
    "Ġcomfort": 2487,
    "ĠPol": 2488,
    "ĠSun": 2489,
    "aged": 2490,
    "Ġpick": 2491,
    "Ġoriginal": 2492,
    "ama": 2493,
    "Ġusually": 2494,
    "ĠFrom": 2495,
    "Ġapplication": 2496,
    "ĠQu": 2497,
    "Ġattr": 2498,
    "Ġmach": 2499,
    "Ġfast": 2500,
    "ples": 2501,
    "Ġwalk": 2502,
    "time": 2503,
    "Ġsuggest": 2504,
    "face": 2505,
    "Ġsecurity": 2506,
    "Ġimage": 2507,
    "Ġcoming": 2508,
    "Ġphone": 2509,
    "Ġestab": 2510,
    "Ġaction": 2511,
    "ublic": 2512,
    "Ġyourself": 2513,
    "vent": 2514,
    "ĠYork": 2515,
    "Ġreceived": 2516,
    "ĠAcc": 2517,
    "tered": 2518,
    "Ġsimilar": 2519,
    "Ġcreated": 2520,
    "Ġroad": 2521,
    "Ġful": 2522,
    "Ġshows": 2523,
    "Ġinsurance": 2524,
    "ules": 2525,
    "Ġstar": 2526,
    "Ġmodern": 2527,
    "Ġlay": 2528,
    "Ġadded": 2529,
    "Ġaccording": 2530,
    "plement": 2531,
    "ES": 2532,
    "Ġtreatment": 2533,
    "AT": 2534,
    "Ġoutside": 2535,
    "Ġcaus": 2536,
    "Ġarticle": 2537,
    "Ġwww": 2538,
    "Ġinside": 2539,
    "Ġseems": 2540,
    "Ġsong": 2541,
    "Ġisn": 2542,
    "Ġlocated": 2543,
    "Ġfinancial": 2544,
    "we": 2545,
    "itch": 2546,
    "aging": 2547,
    "eks": 2548,
    "Ġrate": 2549,
    "Ġoil": 2550,
    "ining": 2551,
    "Ġfire": 2552,
    "Ġexpect": 2553,
    "Ġcannot": 2554,
    "overed": 2555,
    "do": 2556,
    "Ġsle": 2557,
    "airs": 2558,
    "Ġrisk": 2559,
    "Ġexpress": 2560,
    "Ġanim": 2561,
    "Ġrequest": 2562,
    "ety": 2563,
    "Ġchanges": 2564,
    "arth": 2565,
    "ada": 2566,
    "Ġlangu": 2567,
    "Ġbot": 2568,
    "Ġ.)": 2569,
    "Ġsens": 2570,
    "Ġrecogn": 2571,
    "Ġdom": 2572,
    "de": 2573,
    "Ġtown": 2574,
    "Ġmanufact": 2575,
    "Ġjour": 2576,
    "ades": 2577,
    "Ġkitchen": 2578,
    "ĠKe": 2579,
    "Ġrole": 2580,
    "Ġforward": 2581,
    "ables": 2582,
    "Ġut": 2583,
    "ried": 2584,
    "aul": 2585,
    "Ġmember": 2586,
    "aft": 2587,
    "Ġkids": 2588,
    "Ġbehind": 2589,
    "AN": 2590,
    "tee": 2591,
    "Ġheld": 2592,
    "Ġhappy": 2593,
    "ĠPart": 2594,
    "iction": 2595,
    "Ġanyone": 2596,
    "Ġveh": 2597,
    "AR": 2598,
    "oid": 2599,
    "Ġdetails": 2600,
    "Ġchoose": 2601,
    "where": 2602,
    "ung": 2603,
    "Ġprivate": 2604,
    "ĠReg": 2605,
    "Ġ2014": 2606,
    "Ġtar": 2607,
    "Ġhigher": 2608,
    "Ġdeath": 2609,
    "ĠWill": 2610,
    "Ġra": 2611,
    "Ġbi": 2612,
    "ograp": 2613,
    "Ġdog": 2614,
    "Ġincrease": 2615,
    "Ġground": 2616,
    "ĠStud": 2617,
    "stant": 2618,
    "hib": 2619,
    "Ġthroughout": 2620,
    "ĠGe": 2621,
    "Ġple": 2622,
    "ĠEd": 2623,
    "posed": 2624,
    "Ġwood": 2625,
    "era": 2626,
    "Ġindic": 2627,
    "Ġnorm": 2628,
    "Ġfig": 2629,
    "Ġcoll": 2630,
    "athe": 2631,
    "son": 2632,
    "Ġsubject": 2633,
    "Ġadmin": 2634,
    "ĠInc": 2635,
    "Ġwar": 2636,
    "Ġcontinue": 2637,
    "Ġlearning": 2638,
    "Ġtit": 2639,
    "Ġsafe": 2640,
    "ĠIm": 2641,
    "Ġpractice": 2642,
    "Ġfeature": 2643,
    "back": 2644,
    "Ġfamil": 2645,
    "Ġcouple": 2646,
    "ĠAg": 2647,
    "ĠEl": 2648,
    "Ġtotal": 2649,
    "Ġmass": 2650,
    "ĠAustr": 2651,
    "ĠHigh": 2652,
    "Ġobs": 2653,
    "ĠSm": 2654,
    "Ġ22": 2655,
    "mber": 2656,
    "ĠSept": 2657,
    "Ġready": 2658,
    "ĠAug": 2659,
    "izes": 2660,
    "Ġdifficult": 2661,
    "Ġasked": 2662,
    "ude": 2663,
    "Ġoptions": 2664,
    "bor": 2665,
    "aily": 2666,
    "Ġautom": 2667,
    "Ġrecent": 2668,
    "Ġopportunity": 2669,
    "ological": 2670,
    "Ġmob": 2671,
    "Ġsuff": 2672,
    "ĠOf": 2673,
    "ux": 2674,
    "Ġneg": 2675,
    "Ġ198": 2676,
    "Ġfinal": 2677,
    "eter": 2678,
    "Ġur": 2679,
    "Ġuser": 2680,
    "Ġlives": 2681,
    "Ġextra": 2682,
    "istic": 2683,
    "OR": 2684,
    "Ġrunning": 2685,
    "Ġrelated": 2686,
    "aven": 2687,
    "Ġweeks": 2688,
    "ecut": 2689,
    "Ġprim": 2690,
    "Ġversion": 2691,
    "iddle": 2692,
    "Ġbox": 2693,
    "cer": 2694,
    "Ġpoints": 2695,
    "ĠEvery": 2696,
    "Ġdrive": 2697,
    "Ġeffect": 2698,
    "Ġlonger": 2699,
    "ĠThen": 2700,
    "Ġbrand": 2701,
    "Ġinj": 2702,
    "Ġep": 2703,
    "Ġsix": 2704,
    "ĠFin": 2705,
    "Ġpolicy": 2706,
    "Ġexact": 2707,
    "Ġaff": 2708,
    "ĠBu": 2709,
    "Ġpotential": 2710,
    "Ġstore": 2711,
    "ipment": 2712,
    "Ġmedical": 2713,
    "ĠPre": 2714,
    "Ġdeg": 2715,
    "Ġconcern": 2716,
    "Ġensure": 2717,
    "Ġwoman": 2718,
    "Ġbuilt": 2719,
    "iation": 2720,
    "Ġexcell": 2721,
    "Ġannoun": 2722,
    "Ġcurrently": 2723,
    "Ġwrite": 2724,
    "Ġfloor": 2725,
    "ovember": 2726,
    "head": 2727,
    "Ġmatch": 2728,
    "Ġactivities": 2729,
    "Ġnational": 2730,
    "atory": 2731,
    "Ġpan": 2732,
    "ĠApr": 2733,
    "ese": 2734,
    "Ġinternational": 2735,
    "lebr": 2736,
    "Ġloss": 2737,
    "icient": 2738,
    "Ġterms": 2739,
    "ored": 2740,
    "Ġcontrib": 2741,
    "olutions": 2742,
    "Ġsil": 2743,
    "Ġ!!": 2744,
    "Ġleave": 2745,
    "Ġwritten": 2746,
    "irit": 2747,
    "Ġword": 2748,
    "ĠMc": 2749,
    "ĠUs": 2750,
    "Ġregular": 2751,
    "Ġhear": 2752,
    "ham": 2753,
    "Ġfurn": 2754,
    "erson": 2755,
    "inary": 2756,
    "Ġcustomer": 2757,
    "Ġreceive": 2758,
    "ĠNovember": 2759,
    "Ġcredit": 2760,
    "Ġbath": 2761,
    "ĠHer": 2762,
    "Ġskin": 2763,
    "Ġnetwork": 2764,
    "Ġvia": 2765,
    "Ġdeep": 2766,
    "Ġhair": 2767,
    "ceed": 2768,
    "hood": 2769,
    "Ġcam": 2770,
    "Ġrecently": 2771,
    "Ġcause": 2772,
    "Ġ2013": 2773,
    "Ġmaintain": 2774,
    "cto": 2775,
    "Ġreduc": 2776,
    "ĠCor": 2777,
    "Ġskills": 2778,
    "ground": 2779,
    "my": 2780,
    "Ġsaw": 2781,
    "Ġinn": 2782,
    "ached": 2783,
    "Ġcorre": 2784,
    "Ġrecommend": 2785,
    "Ġamazing": 2786,
    "uk": 2787,
    "Ġsense": 2788,
    "ĠOp": 2789,
    "Ġusers": 2790,
    "Ġmoment": 2791,
    "ĠAct": 2792,
    "Ġimm": 2793,
    "Ġadditional": 2794,
    "Ġproduction": 2795,
    "Ġhit": 2796,
    "aves": 2797,
    "Ġemb": 2798,
    "Ġ>": 2799,
    "Ġpor": 2800,
    "ĠEnglish": 2801,
    "Ġlocation": 2802,
    "Ġincluded": 2803,
    "Ġitems": 2804,
    "inks": 2805,
    "tries": 2806,
    "Ġbal": 2807,
    "Ġpatients": 2808,
    "Ġlooks": 2809,
    "ĠBar": 2810,
    "reg": 2811,
    "ĠWell": 2812,
    "ctober": 2813,
    "istration": 2814,
    "adem": 2815,
    "Ġprior": 2816,
    "ĠArt": 2817,
    "Ġgrowt": 2818,
    "Ġgrowth": 2819,
    "Ġmyself": 2820,
    "Ġstandard": 2821,
    "ĠAmerica": 2822,
    "idge": 2823,
    "Ġsales": 2824,
    "oke": 2825,
    "Ġdrop": 2826,
    "ĠWest": 2827,
    "Ġaver": 2828,
    "Ġintegr": 2829,
    "udd": 2830,
    "cial": 2831,
    "Ġapproach": 2832,
    "Ġweight": 2833,
    "lect": 2834,
    "ĠJuly": 2835,
    "ĠSat": 2836,
    "ees": 2837,
    "ĠHouse": 2838,
    "Ġthemselves": 2839,
    "Ġcool": 2840,
    "Ġeasily": 2841,
    "Ġ23": 2842,
    "Ġgrad": 2843,
    "Ġsun": 2844,
    "Ġsqu": 2845,
    "Ġparts": 2846,
    "Ġmorning": 2847,
    "Ġcompl": 2848,
    "Ġlatest": 2849,
    "Ġitself": 2850,
    "Ġconditions": 2851,
    "Ġbab": 2852,
    "epend": 2853,
    "Ġlate": 2854,
    "ĠBrit": 2855,
    "oogle": 2856,
    "ĠPresident": 2857,
    "ĠMarch": 2858,
    "Ġmot": 2859,
    "Ġmarketing": 2860,
    "Ġcas": 2861,
    "wor": 2862,
    "Ġmother": 2863,
    "ĠPar": 2864,
    "Ġofficial": 2865,
    "Ġspeed": 2866,
    "ĠAustral": 2867,
    "Ġagre": 2868,
    "icles": 2869,
    "Ġchoice": 2870,
    "Ġ....": 2871,
    "Ġvariety": 2872,
    "ender": 2873,
    "Ġanalysis": 2874,
    "Ġboy": 2875,
    "Ġ2012": 2876,
    "Ġquickly": 2877,
    "Ġstudent": 2878,
    "Ġphotogr": 2879,
    "icro": 2880,
    "na": 2881,
    "Ġleaders": 2882,
    "ĠMost": 2883,
    "Ġcollection": 2884,
    "Ġoption": 2885,
    "ĠSw": 2886,
    "Ġsetting": 2887,
    "ĠOctober": 2888,
    "Ġworked": 2889,
    "Ġmix": 2890,
    "anced": 2891,
    "Ġhands": 2892,
    "irth": 2893,
    "year": 2894,
    "Ġsource": 2895,
    "oon": 2896,
    "ĠPark": 2897,
    "Ġarch": 2898,
    "Ġones": 2899,
    "AS": 2900,
    "Ġsepar": 2901,
    "ĠAlso": 2902,
    "ĠSoc": 2903,
    "Ġformer": 2904,
    "Ġprojects": 2905,
    "Ġlower": 2906,
    "Ġplans": 2907,
    "Ġlost": 2908,
    "Ġmeeting": 2909,
    "Ġten": 2910,
    "iture": 2911,
    "Ġcat": 2912,
    "amed": 2913,
    "Ġrev": 2914,
    "Ġasp": 2915,
    "Ġscreen": 2916,
    "ĠSeptember": 2917,
    "Ġfa": 2918,
    "Ġimpact": 2919,
    "uel": 2920,
    "Ġleading": 2921,
    "ky": 2922,
    "Ġability": 2923,
    "Ġswe": 2924,
    "nes": 2925,
    "Ġboard": 2926,
    "ĠCounty": 2927,
    "Ġworth": 2928,
    "Ġterr": 2929,
    "Ġremember": 2930,
    "Ġhttp": 2931,
    "Ġplat": 2932,
    "ening": 2933,
    "Ġpolitical": 2934,
    "Ġfeed": 2935,
    "Ġtour": 2936,
    "ibly": 2937,
    "ĠAfric": 2938,
    "Ġappl": 2939,
    "earch": 2940,
    "Ġprograms": 2941,
    "ĠApril": 2942,
    "Ġintroduc": 2943,
    "Ġapply": 2944,
    "dr": 2945,
    "ĠFirst": 2946,
    "aker": 2947,
    "50": 2948,
    "Ġblood": 2949,
    "thern": 2950,
    "Ġnecessary": 2951,
    "Ġdoor": 2952,
    "agement": 2953,
    "Ġviol": 2954,
    "Ġcelebr": 2955,
    "Ġclients": 2956,
    "ott": 2957,
    "Ġmention": 2958,
    "Ġimmed": 2959,
    "Ġinstead": 2960,
    "Ġsale": 2961,
    "Ġlevels": 2962,
    "Ġdisplay": 2963,
    "put": 2964,
    "Ġbase": 2965,
    "hel": 2966,
    "Ġhuge": 2967,
    "Ġsection": 2968,
    "Ġinvestig": 2969,
    "Ġdise": 2970,
    "ĠEm": 2971,
    "Ġhor": 2972,
    "Ġscr": 2973,
    "Ġpred": 2974,
    "ĠHar": 2975,
    "Ġcases": 2976,
    "Ġguide": 2977,
    "Ġ@": 2978,
    "yr": 2979,
    "Ġlif": 2980,
    "cl": 2981,
    "Ġsummer": 2982,
    "Ġball": 2983,
    "ĠStr": 2984,
    "ĠDav": 2985,
    "ties": 2986,
    "ĠThanks": 2987,
    "Ġcode": 2988,
    "Ġround": 2989,
    "ĠUK": 2990,
    "Ġremov": 2991,
    "Ġglobal": 2992,
    "uth": 2993,
    "Ġplaying": 2994,
    "Ġtypes": 2995,
    "Ġparents": 2996,
    "Ġcountries": 2997,
    "Ġdevice": 2998,
    "Ġinteresting": 2999,
    "ĠRuss": 3000,
    "Ġproviding": 3001,
    "Ġdecision": 3002,
    "imum": 3003,
    "Ġlegal": 3004,
    "ĠCenter": 3005,
    "pro": 3006,
    "imate": 3007,
    "Ġcross": 3008,
    "haps": 3009,
    "itely": 3010,
    "Ġgoes": 3011,
    "erous": 3012,
    "ox": 3013,
    "unch": 3014,
    "Ġhighly": 3015,
    "pe": 3016,
    "erve": 3017,
    "althy": 3018,
    "Ġbecame": 3019,
    "Ġcand": 3020,
    "Ġallows": 3021,
    "Ġtrack": 3022,
    "Ġinvolved": 3023,
    "Ġlanguage": 3024,
    "Ġcook": 3025,
    "Ġord": 3026,
    "Ġgroups": 3027,
    "Ġdecided": 3028,
    "Ġdrug": 3029,
    "mercial": 3030,
    "Ġattem": 3031,
    "ny": 3032,
    "Ġsam": 3033,
    "Ġlab": 3034,
    "ĠFree": 3035,
    "Ġwrong": 3036,
    "ĠCour": 3037,
    "Ġexcellent": 3038,
    "Ġcomment": 3039,
    "rup": 3040,
    "iff": 3041,
    "nal": 3042,
    "ech": 3043,
    "Ġsolution": 3044,
    "based": 3045,
    "reng": 3046,
    "Ġdest": 3047,
    "iring": 3048,
    "Ġgets": 3049,
    "cil": 3050,
    "Ġcompletely": 3051,
    "Ġconsum": 3052,
    "ooking": 3053,
    "ĠGet": 3054,
    "Ġattention": 3055,
    "iable": 3056,
    "IS": 3057,
    "ĠAugust": 3058,
    "Ġgives": 3059,
    "aign": 3060,
    "ĠMus": 3061,
    "ĠGener": 3062,
    "Ġchalleng": 3063,
    "yl": 3064,
    "Ġcareer": 3065,
    "hous": 3066,
    "hus": 3067,
    "idered": 3068,
    "Ġpath": 3069,
    "Ġvic": 3070,
    "Ġsurpr": 3071,
    "Ġrights": 3072,
    "Ġslow": 3073,
    "onse": 3074,
    "duce": 3075,
    "Ġobtain": 3076,
    "ĠWar": 3077,
    "ED": 3078,
    "ĠEven": 3079,
    "Ġfund": 3080,
    "Ġchance": 3081,
    "Ġsave": 3082,
    "Ġcourt": 3083,
    "Ġconduc": 3084,
    "ĠMany": 3085,
    "che": 3086,
    "ropri": 3087,
    "Ġarg": 3088,
    "ĠAny": 3089,
    "Ġequipment": 3090,
    "Ġthinking": 3091,
    "ĠLet": 3092,
    "ession": 3093,
    "Ġaverage": 3094,
    "Ġfavorite": 3095,
    "Ġimages": 3096,
    "Ġemer": 3097,
    "Ġpurchase": 3098,
    "ivity": 3099,
    "illing": 3100,
    "ĠWas": 3101,
    "Ġextreme": 3102,
    "ension": 3103,
    "enty": 3104,
    "iment": 3105,
    "Ġplayers": 3106,
    "apan": 3107,
    "Ġsend": 3108,
    "Ġmaterials": 3109,
    "Ġjud": 3110,
    "ondon": 3111,
    "ĠHealth": 3112,
    "atives": 3113,
    "Ġcenter": 3114,
    "Ġadj": 3115,
    "Ġfair": 3116,
    "avy": 3117,
    "sych": 3118,
    "ĠJanuary": 3119,
    "Ġdeter": 3120,
    "Ġappe": 3121,
    "Ġsuit": 3122,
    "Ġbegan": 3123,
    "ron": 3124,
    "ana": 3125,
    "Ġ28": 3126,
    "Ġbur": 3127,
    "Ġ26": 3128,
    "Ġ197": 3129,
    "Ġpublished": 3130,
    "Ġlaun": 3131,
    "amb": 3132,
    "Ġdaily": 3133,
    "Ġsometimes": 3134,
    "Ġphotos": 3135,
    "Ġfix": 3136,
    "Ġmobile": 3137,
    "uments": 3138,
    "Ġresources": 3139,
    "ountain": 3140,
    "Ġâ": 3141,
    "ĠDire": 3142,
    "Ġstuff": 3143,
    "Ġgiving": 3144,
    "ĠTV": 3145,
    "itation": 3146,
    "Ġwel": 3147,
    "Ġpicture": 3148,
    "ively": 3149,
    "acking": 3150,
    "Ġanswer": 3151,
    "ker": 3152,
    "Ġcomplex": 3153,
    "Ġinterested": 3154,
    "ĠAre": 3155,
    "Ġfelt": 3156,
    "ĠPat": 3157,
    "ĠBlack": 3158,
    "Ġinflu": 3159,
    "Ġnature": 3160,
    "ounts": 3161,
    "ma": 3162,
    "eth": 3163,
    "Ġwasn": 3164,
    "ĠBus": 3165,
    "ĠBec": 3166,
    "rows": 3167,
    "Ġenter": 3168,
    "ales": 3169,
    "Ġcosts": 3170,
    "Ġdistrib": 3171,
    "Ġdocument": 3172,
    "Ġplant": 3173,
    "ĠVal": 3174,
    "ederal": 3175,
    "asons": 3176,
    "Ġsafety": 3177,
    "Ġmultiple": 3178,
    "Ġqual": 3179,
    "Ġdark": 3180,
    "Ġfresh": 3181,
    "ĠGreat": 3182,
    "itary": 3183,
    "ags": 3184,
    "Ġhistor": 3185,
    "Ġsched": 3186,
    "Ġtools": 3187,
    "ĠDay": 3188,
    "Ġsold": 3189,
    "Ġterm": 3190,
    "Ġdiv": 3191,
    "osed": 3192,
    "Ġgoal": 3193,
    "ĠDis": 3194,
    "Ġpiece": 3195,
    "Ġexpert": 3196,
    "Ġport": 3197,
    "ĠInternational": 3198,
    "Ġ60": 3199,
    "inc": 3200,
    "Ġvac": 3201,
    "Ġeyes": 3202,
    "Ġplatform": 3203,
    "Ġimplement": 3204,
    "ĠIndia": 3205,
    "ĠBro": 3206,
    "ĠCons": 3207,
    "Ġ2011": 3208,
    "Ġrelease": 3209,
    "Ġ27": 3210,
    "ams": 3211,
    "Ġgave": 3212,
    "Ġdeveloped": 3213,
    "Ġencour": 3214,
    "wise": 3215,
    "ĠSim": 3216,
    "Ġsus": 3217,
    "Ġ\".": 3218,
    "Ġdigital": 3219,
    "Ġconsidered": 3220,
    "wood": 3221,
    "Ġban": 3222,
    "Ġaffect": 3223,
    "ements": 3224,
    "igr": 3225,
    "echan": 3226,
    "oul": 3227,
    "EN": 3228,
    "dom": 3229,
    "olute": 3230,
    "Ġrestaur": 3231,
    "Ġphysical": 3232,
    "Ġlic": 3233,
    "val": 3234,
    "ocr": 3235,
    "Ġstreng": 3236,
    "Ġul": 3237,
    "ĠDecember": 3238,
    "esc": 3239,
    "Ġmovie": 3240,
    "Ġtouch": 3241,
    "Ġobject": 3242,
    "Ġdirectly": 3243,
    "Ġfine": 3244,
    "iding": 3245,
    "light": 3246,
    "Ġtrip": 3247,
    "urer": 3248,
    "Ġfully": 3249,
    "ĠSince": 3250,
    "Ġbenefits": 3251,
    "Ġtowards": 3252,
    "orge": 3253,
    "Ġ2010": 3254,
    "arden": 3255,
    "Ġpositive": 3256,
    "Ġfight": 3257,
    "acts": 3258,
    "Ġborn": 3259,
    "AL": 3260,
    "band": 3261,
    "ĠHome": 3262,
    "mission": 3263,
    "Ġapplications": 3264,
    "ĠLondon": 3265,
    "ĠChina": 3266,
    "Ġclick": 3267,
    "Ġhimself": 3268,
    "Ġfem": 3269,
    "Ġdream": 3270,
    "isf": 3271,
    "Ġbehav": 3272,
    "Ġver": 3273,
    "aries": 3274,
    "ague": 3275,
    "Ġund": 3276,
    "round": 3277,
    "agn": 3278,
    "Ġgreen": 3279,
    "Ġtarget": 3280,
    "Ġmedic": 3281,
    "Ġposted": 3282,
    "mas": 3283,
    "Ġeffects": 3284,
    "Ġreve": 3285,
    "Ġsaying": 3286,
    "tur": 3287,
    "acing": 3288,
    "ĠRed": 3289,
    "Ġprec": 3290,
    "aches": 3291,
    "Ġband": 3292,
    "Ġsolutions": 3293,
    "ashion": 3294,
    "Ġinternet": 3295,
    "ester": 3296,
    "Ġprem": 3297,
    "ĠMo": 3298,
    "Ġliter": 3299,
    "kn": 3300,
    "Ġload": 3301,
    "ĠAir": 3302,
    "Ġded": 3303,
    "sc": 3304,
    "Ġlimited": 3305,
    "Ġplaces": 3306,
    "ĠGoogle": 3307,
    "Ġmid": 3308,
    "ville": 3309,
    "Ġtraditional": 3310,
    "Ġtrust": 3311,
    "Ġheard": 3312,
    "Ġgold": 3313,
    "ĠSan": 3314,
    "10": 3315,
    "ĠUp": 3316,
    "Ġjo": 3317,
    "Ġcampaign": 3318,
    "Ġresponse": 3319,
    "ĠDepartment": 3320,
    "Ġhotel": 3321,
    "ipe": 3322,
    "Ġconsist": 3323,
    "ĠInter": 3324,
    "Ġgas": 3325,
    "iant": 3326,
    "ĠSer": 3327,
    "Ġpictures": 3328,
    "ĠJes": 3329,
    "Ġorganization": 3330,
    "yond": 3331,
    "sequ": 3332,
    "ĠMich": 3333,
    "engt": 3334,
    "iber": 3335,
    "arter": 3336,
    "Ġsuppl": 3337,
    "Ġsyn": 3338,
    "Ġstories": 3339,
    "Ġprices": 3340,
    "Ġactivity": 3341,
    "Ġstock": 3342,
    "Ġhous": 3343,
    "Ġprevent": 3344,
    "Ġnote": 3345,
    "IC": 3346,
    "aly": 3347,
    "Ġcollege": 3348,
    "Ġfather": 3349,
    "Ġdress": 3350,
    "Ġculture": 3351,
    "lim": 3352,
    "body": 3353,
    "ĠDown": 3354,
    "Ġindividuals": 3355,
    "rences": 3356,
    "IT": 3357,
    "ĠPost": 3358,
    "iforn": 3359,
    "ipped": 3360,
    "Ġled": 3361,
    "board": 3362,
    "Ġneigh": 3363,
    "ĠJapan": 3364,
    "Ġstates": 3365,
    "Ġ\",": 3366,
    "Ġanaly": 3367,
    "AC": 3368,
    "Ã©": 3369,
    "ivil": 3370,
    "ĠDesign": 3371,
    "Ġfrequ": 3372,
    "Ġassess": 3373,
    "ĠAssoci": 3374,
    "Ġprogress": 3375,
    "uate": 3376,
    "Ġcarry": 3377,
    "Ġaltern": 3378,
    "Ġacqu": 3379,
    "isions": 3380,
    "rench": 3381,
    "like": 3382,
    "aling": 3383,
    "Ġwish": 3384,
    "Ġmaybe": 3385,
    "Ġpurpose": 3386,
    "Ġunderstanding": 3387,
    "thous": 3388,
    "Ġbirth": 3389,
    "Ġhop": 3390,
    "ube": 3391,
    "Ġdefinitely": 3392,
    "Ġgirls": 3393,
    "Ġimag": 3394,
    "Ġsuccessful": 3395,
    "Ġsituation": 3396,
    "Ġreported": 3397,
    "Ġtried": 3398,
    "active": 3399,
    "echn": 3400,
    "ĠOver": 3401,
    "Ġson": 3402,
    "Ġpromot": 3403,
    "Ġcert": 3404,
    "Ġthous": 3405,
    "Ġwonderful": 3406,
    "Ġstorage": 3407,
    "Ġrelig": 3408,
    "Ġbroad": 3409,
    "eed": 3410,
    "Ġprevious": 3411,
    "ĠLaw": 3412,
    "ĠCommun": 3413,
    "Ġnor": 3414,
    "Ġplanning": 3415,
    "Ġwarm": 3416,
    "ĠKing": 3417,
    "Ġaware": 3418,
    "ĠOb": 3419,
    "Ġdead": 3420,
    "Ġblock": 3421,
    "aught": 3422,
    "Ġfurniture": 3423,
    "ĠThank": 3424,
    "âĢĶ": 3425,
    "Ġglass": 3426,
    "Ġscience": 3427,
    "Ġhelps": 3428,
    "Ġstarting": 3429,
    "ĠOther": 3430,
    "Ġeye": 3431,
    "Ġshown": 3432,
    "Ġaim": 3433,
    "ifornia": 3434,
    "Ġplayed": 3435,
    "Ġexpected": 3436,
    "ulations": 3437,
    "hol": 3438,
    "etic": 3439,
    "OT": 3440,
    "Ġsleep": 3441,
    "Ġinstit": 3442,
    "ously": 3443,
    "Ġachieve": 3444,
    "iles": 3445,
    "Ġknew": 3446,
    "Ġbrought": 3447,
    "thes": 3448,
    "Ġexactly": 3449,
    "Ġstudies": 3450,
    "Ġ500": 3451,
    "oming": 3452,
    "Ġreleased": 3453,
    "Ġassociated": 3454,
    "oring": 3455,
    "Ġalthough": 3456,
    "ĠGl": 3457,
    "ellow": 3458,
    "ception": 3459,
    "Ġpattern": 3460,
    "Ġwife": 3461,
    "tection": 3462,
    "Ġinnov": 3463,
    "itions": 3464,
    "vant": 3465,
    "Ġspirit": 3466,
    "ĠWhy": 3467,
    "Ġestabl": 3468,
    "Ġimpress": 3469,
    "enge": 3470,
    "Ġmax": 3471,
    "Ġcorrect": 3472,
    "Ġregion": 3473,
    "Ġbud": 3474,
    "ulated": 3475,
    "ancy": 3476,
    "Ġexerc": 3477,
    "ĠOnce": 3478,
    "Ġmessage": 3479,
    "Ġclub": 3480,
    "ĠWind": 3481,
    "Ġsusp": 3482,
    "aran": 3483,
    "Ġinterview": 3484,
    "vey": 3485,
    "Ġindepend": 3486,
    "aint": 3487,
    "aughter": 3488,
    "asc": 3489,
    "Ġbeginning": 3490,
    "iance": 3491,
    "Ġgrowing": 3492,
    "Ġpartners": 3493,
    "ĠGood": 3494,
    "ĠFriday": 3495,
    "omen": 3496,
    "ware": 3497,
    "Ġ31": 3498,
    "Ġprotect": 3499,
    "Ġturned": 3500,
    "Ġwed": 3501,
    "Ġdemon": 3502,
    "Ġconvers": 3503,
    "Ġrequirements": 3504,
    "iers": 3505,
    "Ġ196": 3506,
    "ĠWhe": 3507,
    "Ġcertainly": 3508,
    "used": 3509,
    "istry": 3510,
    "Ġsubs": 3511,
    "RE": 3512,
    "ĠAng": 3513,
    "Ġstage": 3514,
    "Ġoccur": 3515,
    "Ġspeak": 3516,
    "ĠFace": 3517,
    "Ġeconomic": 3518,
    "hold": 3519,
    "Ġcommercial": 3520,
    "Ġappropri": 3521,
    "Ġreach": 3522,
    "bruary": 3523,
    "ĠHol": 3524,
    "Ġtele": 3525,
    "Ġfinally": 3526,
    "Ġbank": 3527,
    "ĠService": 3528,
    "Ġdifference": 3529,
    "Ġpaid": 3530,
    "aching": 3531,
    "Ġsort": 3532,
    "Ġdeliver": 3533,
    "bum": 3534,
    "Ġmachine": 3535,
    "ĠTod": 3536,
    "ĠTH": 3537,
    "Ġtur": 3538,
    "ĠTrans": 3539,
    "idents": 3540,
    "Ġaccom": 3541,
    "Ġfeeling": 3542,
    "Ġcreating": 3543,
    "Ġstrateg": 3544,
    "Ġearl": 3545,
    "Ġcab": 3546,
    "ences": 3547,
    "Ġprinc": 3548,
    "bert": 3549,
    "Ġfirm": 3550,
    "Ġmoving": 3551,
    "Ġaccept": 3552,
    "Ġ29": 3553,
    "Ġnormal": 3554,
    "actions": 3555,
    "Ġvehicle": 3556,
    "Ġhosp": 3557,
    "icks": 3558,
    "ĠProf": 3559,
    "Ġmark": 3560,
    "Ġadvert": 3561,
    "ibrary": 3562,
    "ned": 3563,
    "mitted": 3564,
    "Ġevidence": 3565,
    "arily": 3566,
    "ĠSatur": 3567,
    "Ġloved": 3568,
    "Ġavoid": 3569,
    "Ġdetermin": 3570,
    "Ġtemper": 3571,
    "Ġadvant": 3572,
    "ĠBest": 3573,
    "estern": 3574,
    "Ġconstruction": 3575,
    "Ġorganiz": 3576,
    "Ġcompon": 3577,
    "rel": 3578,
    "OC": 3579,
    "Ġge": 3580,
    "ĠSen": 3581,
    "oes": 3582,
    "ses": 3583,
    "ivery": 3584,
    "Ġuses": 3585,
    "ĠSee": 3586,
    "ails": 3587,
    "Ġpolice": 3588,
    "Ġenhan": 3589,
    "Ġabsolute": 3590,
    "amic": 3591,
    "ĠAlthough": 3592,
    "Ġspend": 3593,
    "ipping": 3594,
    "iced": 3595,
    "ĠEach": 3596,
    "Ġeffort": 3597,
    "elling": 3598,
    "Ġstress": 3599,
    "Ġowners": 3600,
    "Ġdecor": 3601,
    "Ġpool": 3602,
    "ĠCalifornia": 3603,
    "ĠOut": 3604,
    "Ġspot": 3605,
    "undred": 3606,
    "Ġspent": 3607,
    "ĠGroup": 3608,
    "...]": 3609,
    "Ġ32": 3610,
    "Ġmis": 3611,
    "cast": 3612,
    "ĠCollege": 3613,
    "ength": 3614,
    "ĠInternet": 3615,
    "Ġsupply": 3616,
    "ze": 3617,
    "Ġsurface": 3618,
    "ĠFebruary": 3619,
    "Ġmeaning": 3620,
    "ĠNor": 3621,
    "ĠJesus": 3622,
    "rote": 3623,
    "Ġpressure": 3624,
    "Ġcateg": 3625,
    "mat": 3626,
    "ĠJe": 3627,
    "Ġeat": 3628,
    "Ġ[...]": 3629,
    "Ġlooked": 3630,
    "wide": 3631,
    "ĠMet": 3632,
    "ĠBusiness": 3633,
    "bur": 3634,
    "Ġerr": 3635,
    "Ġtruly": 3636,
    "Ġmeasure": 3637,
    "Ġunc": 3638,
    "Ġrock": 3639,
    "Ġran": 3640,
    "Ġtrade": 3641,
    "Ġemot": 3642,
    "Ġfeet": 3643,
    "Ġstra": 3644,
    "Ġbaby": 3645,
    "Ġmechan": 3646,
    "Ġprefer": 3647,
    "Ġbasic": 3648,
    "Ġwants": 3649,
    "istics": 3650,
    "Ġbedroom": 3651,
    "tick": 3652,
    "Ġsatisf": 3653,
    "ĠServices": 3654,
    "ĠInst": 3655,
    "ha": 3656,
    "iately": 3657,
    "Ġbeyond": 3658,
    "uted": 3659,
    "Ġpen": 3660,
    "ĠTechn": 3661,
    "Ġadvice": 3662,
    "ecutive": 3663,
    "Ġcorpor": 3664,
    "Ġactive": 3665,
    "Ġproced": 3666,
    "Ġlik": 3667,
    "Ġmiddle": 3668,
    "house": 3669,
    "Ġfab": 3670,
    "ĠMon": 3671,
    "Ġchurch": 3672,
    "hest": 3673,
    "aks": 3674,
    "att": 3675,
    "hreat": 3676,
    "Ġhealthy": 3677,
    "Ġprofession": 3678,
    "Ġapprec": 3679,
    "Ġschools": 3680,
    "threat": 3681,
    "Ġscient": 3682,
    "ĠEast": 3683,
    "Ġdemand": 3684,
    "Ġstraight": 3685,
    "ara": 3686,
    "Ġplayer": 3687,
    "Ġpresident": 3688,
    "ĠIr": 3689,
    "Ġfant": 3690,
    "ened": 3691,
    "ĠPhil": 3692,
    "Ġfamilies": 3693,
    "Ġlots": 3694,
    "ĠSaturday": 3695,
    "off": 3696,
    "ĠOh": 3697,
    "Ġincreased": 3698,
    "ĠDirec": 3699,
    "Ġparticularly": 3700,
    "Ġrespect": 3701,
    "cy": 3702,
    "Ġchem": 3703,
    "Ġalbum": 3704,
    "Ġdegree": 3705,
    "Ġdemonstr": 3706,
    "Ġpages": 3707,
    "Ġframe": 3708,
    "Ġclin": 3709,
    "ĠIndian": 3710,
    "Ġunit": 3711,
    "OS": 3712,
    "ĠSunday": 3713,
    "Ġnovel": 3714,
    "Ġbasis": 3715,
    "Ġclient": 3716,
    "Ġfat": 3717,
    "Ġemp": 3718,
    "Ġdisease": 3719,
    "Ġsurround": 3720,
    "stitute": 3721,
    "Ġvot": 3722,
    "Ġplus": 3723,
    "Ġcharge": 3724,
    "key": 3725,
    "Ġtransfer": 3726,
    "Ġcapital": 3727,
    "Ġlargest": 3728,
    "Ġconv": 3729,
    "Ġnearly": 3730,
    "Ġmethods": 3731,
    "Ġopin": 3732,
    "Ġtherap": 3733,
    "oly": 3734,
    "Ġblue": 3735,
    "ĠMod": 3736,
    "Ġwhose": 3737,
    "unk": 3738,
    "Ġalone": 3739,
    "Ġaward": 3740,
    "ida": 3741,
    "Ġhus": 3742,
    "Ġheat": 3743,
    "Ġbenefit": 3744,
    "Ġtick": 3745,
    "Ġincreasing": 3746,
    "Ġrates": 3747,
    "Ġconnect": 3748,
    "gen": 3749,
    "Ġagree": 3750,
    "Ġden": 3751,
    "formation": 3752,
    "Ġstructure": 3753,
    "Ġessential": 3754,
    "ĠWed": 3755,
    "Ġsmart": 3756,
    "ooks": 3757,
    "ĠChristian": 3758,
    "Ġeval": 3759,
    "amm": 3760,
    "Ġsen": 3761,
    "Ġrules": 3762,
    "ban": 3763,
    "Ġfort": 3764,
    "press": 3765,
    "Ġnation": 3766,
    "Ġrace": 3767,
    "Ġcry": 3768,
    "ĠSpec": 3769,
    "Ġpet": 3770,
    "ĠDem": 3771,
    "olf": 3772,
    "Ġreviews": 3773,
    "ategy": 3774,
    "Ġrespond": 3775,
    "Ġsav": 3776,
    "Ġserious": 3777,
    "agra": 3778,
    "Ġessay": 3779,
    "Ġcheap": 3780,
    "Ġuseful": 3781,
    "arent": 3782,
    "ycle": 3783,
    "ĠEuropean": 3784,
    "lation": 3785,
    "Ġcapt": 3786,
    "Ġimmediately": 3787,
    "Ġoffered": 3788,
    "Ġhundred": 3789,
    "erved": 3790,
    "Ġpsych": 3791,
    "zz": 3792,
    "Ġfarm": 3793,
    "ĠFacebook": 3794,
    "itter": 3795,
    "Ġsurv": 3796,
    "porary": 3797,
    "Ġthreat": 3798,
    "imin": 3799,
    "ĠÐ": 3800,
    "ĠBel": 3801,
    "icking": 3802,
    "Ġcash": 3803,
    "Ġtitle": 3804,
    "Ġdouble": 3805,
    "Ġbathroom": 3806,
    "Ġbusinesses": 3807,
    "Ġwrote": 3808,
    "Ġguys": 3809,
    "ĠII": 3810,
    "Ġir": 3811,
    "Ġ2009": 3812,
    "hop": 3813,
    "Ġforce": 3814,
    "tren": 3815,
    "Ġopportunities": 3816,
    "Ġinvestment": 3817,
    "Ġmodels": 3818,
    "ament": 3819,
    "Ġemployees": 3820,
    "Ġdamage": 3821,
    "Ġ<": 3822,
    "Ġlines": 3823,
    "atively": 3824,
    "ĠâĢĿ.": 3825,
    "ĠRem": 3826,
    "Ġchanged": 3827,
    "Ġattack": 3828,
    "order": 3829,
    "Ġvill": 3830,
    "ĠBecause": 3831,
    "ĠCanada": 3832,
    "Ġoffering": 3833,
    "riend": 3834,
    "rael": 3835,
    "Ġcomfortable": 3836,
    "Ġfashion": 3837,
    "lin": 3838,
    "ĠDavid": 3839,
    "ffee": 3840,
    "Ġtrain": 3841,
    "Ġweekend": 3842,
    "Ġsem": 3843,
    "ĠCompany": 3844,
    "Ġprop": 3845,
    "ĠCle": 3846,
    "Ġtalking": 3847,
    "Ġcompared": 3848,
    "door": 3849,
    "ĠChurch": 3850,
    "ĠWeb": 3851,
    "town": 3852,
    "ĠYes": 3853,
    "ager": 3854,
    "ald": 3855,
    "Ġtransport": 3856,
    "Ġoptim": 3857,
    "Ġresponsible": 3858,
    "ĠHot": 3859,
    "ĠPaul": 3860,
    "Ġthank": 3861,
    "aled": 3862,
    "change": 3863,
    "Ġexperienced": 3864,
    "Ġchr": 3865,
    "ĠLoc": 3866,
    "Ġcontain": 3867,
    "ael": 3868,
    "ÂŃ": 3869,
    "Ġcentury": 3870,
    "Ġaccur": 3871,
    "xim": 3872,
    "Ġnumbers": 3873,
    "ĠWhite": 3874,
    "iques": 3875,
    "ĠAccording": 3876,
    "Ġpeace": 3877,
    "uing": 3878,
    "ĠCourt": 3879,
    "Ġteaching": 3880,
    "Ġdedic": 3881,
    "ĠFind": 3882,
    "Ġpowerful": 3883,
    "ĠBritish": 3884,
    "ĠÂ£": 3885,
    "ios": 3886,
    "add": 3887,
    "Ġoverall": 3888,
    "Ġguy": 3889,
    "Ġdevices": 3890,
    "Ġedition": 3891,
    "mm": 3892,
    "iest": 3893,
    "Ġdry": 3894,
    "Ġtren": 3895,
    "Ġmiles": 3896,
    "Ġsingles": 3897,
    "Ġthanks": 3898,
    "Ġgreater": 3899,
    "Ġdoll": 3900,
    "Ġindustr": 3901,
    "Ġselection": 3902,
    "ĠSch": 3903,
    "Ġdoub": 3904,
    "Ġcalc": 3905,
    "Ġorigin": 3906,
    "Ġearlier": 3907,
    "Ġpatient": 3908,
    "Ġoccas": 3909,
    "ĠToday": 3910,
    "ĠMond": 3911,
    "Ġperhaps": 3912,
    "ĠStreet": 3913,
    "ĠNet": 3914,
    "AM": 3915,
    "Ġreports": 3916,
    "ĠChristmas": 3917,
    "ĠEduc": 3918,
    "Ġextremely": 3919,
    "Ġmilitary": 3920,
    "Ġ80": 3921,
    "ĠMarket": 3922,
    "ĠCap": 3923,
    "Ġjobs": 3924,
    "Ġcandid": 3925,
    "Ġchat": 3926,
    "mon": 3927,
    "Ġsociety": 3928,
    "Ġ35": 3929,
    "Ġfear": 3930,
    "Ġ2008": 3931,
    "Ġregarding": 3932,
    "Ġshoot": 3933,
    "ĠPal": 3934,
    "urt": 3935,
    "tery": 3936,
    "hington": 3937,
    "Ġcouldn": 3938,
    "Ġgraph": 3939,
    "Ġeasier": 3940,
    "Ġmaster": 3941,
    "rehen": 3942,
    "arc": 3943,
    "Ġpow": 3944,
    "Ġmanual": 3945,
    "ĠDel": 3946,
    "ĠAv": 3947,
    "Ġserve": 3948,
    "Ġafford": 3949,
    "Ġquot": 3950,
    "Ġvoice": 3951,
    "ici": 3952,
    "ipl": 3953,
    "anch": 3954,
    "tive": 3955,
    "ĠTrump": 3956,
    "then": 3957,
    "Ġcancer": 3958,
    "Ġnut": 3959,
    "Ġgrand": 3960,
    "bed": 3961,
    "Ġgenerally": 3962,
    "ugh": 3963,
    "Ġmoved": 3964,
    "Ġbackground": 3965,
    "Ġcells": 3966,
    "Ġdelivery": 3967,
    "Ġnotice": 3968,
    "set": 3969,
    "lying": 3970,
    "ico": 3971,
    "Ġpoor": 3972,
    "iar": 3973,
    "yle": 3974,
    "ections": 3975,
    "ĠPeople": 3976,
    "Ġfiles": 3977,
    "ulate": 3978,
    "Ġcharacters": 3979,
    "EO": 3980,
    "Ġtruth": 3981,
    "Ġdeterm": 3982,
    "Ġpartner": 3983,
    "Ġadjust": 3984,
    "Ġappropriate": 3985,
    "ifying": 3986,
    "ĠIsrael": 3987,
    "Ġhomes": 3988,
    "Ġhun": 3989,
    "ĠDevelop": 3990,
    "Ġhusband": 3991,
    "ĠÃ": 3992,
    "Ġallowed": 3993,
    "Ġsu": 3994,
    "itect": 3995,
    "ram": 3996,
    "Ġdat": 3997,
    "Ġlaws": 3998,
    "ĠFrench": 3999,
    "Ġproduce": 4000,
    "Ġsmo": 4001,
    "Ġreasons": 4002,
    "ĠSto": 4003,
    "Ġestablished": 4004,
    "ĠKn": 4005,
    "Ġentry": 4006,
    "Ġgar": 4007,
    "inner": 4008,
    "asts": 4009,
    "Ġcit": 4010,
    "ĠNews": 4011,
    "ĠLord": 4012,
    "Ġfaith": 4013,
    "ask": 4014,
    "omb": 4015,
    "Ġcontract": 4016,
    "Ġstatement": 4017,
    "Ġpopulation": 4018,
    "ĠMor": 4019,
    "Ġinstruc": 4020,
    "gg": 4021,
    "ĠSystem": 4022,
    "olic": 4023,
    "utions": 4024,
    "Ġdescribed": 4025,
    "Ġsoft": 4026,
    "ĠTex": 4027,
    "Ġideal": 4028,
    "Ġreduce": 4029,
    "erman": 4030,
    "Ġbottom": 4031,
    "Ġweather": 4032,
    "Ġstrugg": 4033,
    "bon": 4034,
    "Ġviews": 4035,
    "Ġprimary": 4036,
    "ĠAustralia": 4037,
    "Ġearn": 4038,
    "ĠâĢ¢": 4039,
    "Ġexisting": 4040,
    "Ġconstant": 4041,
    "Ġvideos": 4042,
    "Ġremain": 4043,
    "Ġelectric": 4044,
    "Ġannual": 4045,
    "IG": 4046,
    "Ġ36": 4047,
    "ĠPhoto": 4048,
    "ĠSub": 4049,
    "Ġentertain": 4050,
    "Ġ90": 4051,
    "tips": 4052,
    "Ġchallenge": 4053,
    "ĠResearch": 4054,
    "ĠDuring": 4055,
    "riage": 4056,
    "ologies": 4057,
    "Ġfinding": 4058,
    "Ġcreative": 4059,
    "Ġconcept": 4060,
    "Ġesc": 4061,
    "Ġbudget": 4062,
    "Ġlack": 4063,
    "Ġsports": 4064,
    "ĠCong": 4065,
    "Ġtraff": 4066,
    "Ġbeg": 4067,
    "Ġmer": 4068,
    "Ġbrows": 4069,
    "inese": 4070,
    "Ġprotection": 4071,
    "Ġincome": 4072,
    "Ġwedding": 4073,
    "Ġtherefore": 4074,
    "Ġdang": 4075,
    "Ġhom": 4076,
    "Ġfinish": 4077,
    "Ġgoals": 4078,
    "force": 4079,
    "ĠJew": 4080,
    "Ġincred": 4081,
    "umn": 4082,
    "ounds": 4083,
    "Ġpleas": 4084,
    "Ġgone": 4085,
    "Ġletter": 4086,
    "ĠOnline": 4087,
    "iated": 4088,
    "Ġtips": 4089,
    "ĠWashington": 4090,
    "Ġannounced": 4091,
    "Ġbrother": 4092,
    "Ġnamed": 4093,
    "Ġdirector": 4094,
    "ĠMonday": 4095,
    "OU": 4096,
    "Ġolder": 4097,
    "18": 4098,
    "Ġstrengt": 4099,
    "Ġfollowed": 4100,
    "apers": 4101,
    "Ġstrength": 4102,
    "more": 4103,
    "Ġspread": 4104,
    "Ġowner": 4105,
    "Ġhelped": 4106,
    "Ġhelping": 4107,
    "ores": 4108,
    "Ġutil": 4109,
    "Ġphotograp": 4110,
    "Ġserver": 4111,
    "ss": 4112,
    "Ġcards": 4113,
    "Ġcold": 4114,
    "Ġchann": 4115,
    "Ġshot": 4116,
    "esome": 4117,
    "Ġwear": 4118,
    "tend": 4119,
    "Ġproduced": 4120,
    "ĠCouncil": 4121,
    "Ġcommunication": 4122,
    "Ġorg": 4123,
    "Ġhappened": 4124,
    "Ġrepair": 4125,
    "word": 4126,
    "forts": 4127,
    "Ġstrategy": 4128,
    "Ġconnection": 4129,
    "Ġ70": 4130,
    "ĠDan": 4131,
    "Ġactual": 4132,
    "Ġmovement": 4133,
    "Ġguaran": 4134,
    "Ġestate": 4135,
    "ĠSur": 4136,
    "ahead": 4137,
    "Ġacadem": 4138,
    "Ġeight": 4139,
    "lands": 4140,
    "Ġlands": 4141,
    "ĠSing": 4142,
    "ĠGeneral": 4143,
    "Ġhar": 4144,
    "Ġ45": 4145,
    "iny": 4146,
    "Ġmemory": 4147,
    "Ġslight": 4148,
    "Ġcompr": 4149,
    "Ġgift": 4150,
    "rey": 4151,
    "Ġsteps": 4152,
    "ĠPC": 4153,
    "Ġpresented": 4154,
    "ĠGold": 4155,
    "ta": 4156,
    "Ġhighest": 4157,
    "Ġdied": 4158,
    "Ġcompleted": 4159,
    "Ġdriving": 4160,
    "Ġpark": 4161,
    "ken": 4162,
    "apter": 4163,
    "Ġcamera": 4164,
    "Ġobv": 4165,
    "ĠChan": 4166,
    "ĠProgram": 4167,
    "Ġexhib": 4168,
    "Ġcomments": 4169,
    "ĠPort": 4170,
    "Ġwindow": 4171,
    "Ġrooms": 4172,
    "Ġcritical": 4173,
    "12": 4174,
    "Ġ.[": 4175,
    "Ġspr": 4176,
    "ĠSam": 4177,
    "Ġwild": 4178,
    "Ġonto": 4179,
    "Ġaren": 4180,
    "ĠPlay": 4181,
    "Ġahead": 4182,
    "Ġvirt": 4183,
    "Ġcast": 4184,
    "ixt": 4185,
    "nd": 4186,
    "Ġdecl": 4187,
    "iverse": 4188,
    "Ġseeing": 4189,
    "ĠGreen": 4190,
    "que": 4191,
    "Ġserved": 4192,
    "ĠJames": 4193,
    "Ġing": 4194,
    "Ġpayment": 4195,
    "ĠRepublic": 4196,
    "Ġrap": 4197,
    "Ġassign": 4198,
    "Ġmill": 4199,
    "Ġlength": 4200,
    "Ġcivil": 4201,
    "Ġrelax": 4202,
    "ĠAP": 4203,
    "Ġopening": 4204,
    "Ġstation": 4205,
    "ĠLike": 4206,
    "ĠWilliam": 4207,
    "Ġfigure": 4208,
    "Ġlinks": 4209,
    "Ġsust": 4210,
    "ĠiP": 4211,
    "Ġdaughter": 4212,
    "ours": 4213,
    "place": 4214,
    "Ġgarden": 4215,
    "ĠLove": 4216,
    "anging": 4217,
    "ĠMac": 4218,
    "Ġwat": 4219,
    "Ġkept": 4220,
    "orrow": 4221,
    "acity": 4222,
    "Ġlarger": 4223,
    "Ġpull": 4224,
    "encies": 4225,
    "Ġdesp": 4226,
    "Ġexpand": 4227,
    "Ġhaven": 4228,
    "resp": 4229,
    "Ġconven": 4230,
    "Ġtrial": 4231,
    "Ġtrou": 4232,
    "Ġsweet": 4233,
    "Ġcentral": 4234,
    "Ġdisapp": 4235,
    "Ġrich": 4236,
    "Ġelements": 4237,
    "Ġattend": 4238,
    "Ġearth": 4239,
    "ĠBoard": 4240,
    "Ġton": 4241,
    "ĠChar": 4242,
    "Ġdirection": 4243,
    "Ġharm": 4244,
    "Ġthousands": 4245,
    "ST": 4246,
    "Ġexperiences": 4247,
    "overy": 4248,
    "Ġbillion": 4249,
    "bit": 4250,
    "Ġbul": 4251,
    "ĠProduc": 4252,
    "Ġseven": 4253,
    "ET": 4254,
    "Ġbrain": 4255,
    "Ġcollabor": 4256,
    "Ġcabin": 4257,
    "ID": 4258,
    "Ġresist": 4259,
    "ĠLear": 4260,
    "Ġpray": 4261,
    "Ġef": 4262,
    "friend": 4263,
    "ĠMem": 4264,
    "Ġfinished": 4265,
    "Ġsolid": 4266,
    "Ġcounter": 4267,
    "Ġrelationships": 4268,
    "Ġlad": 4269,
    "ĠHall": 4270,
    "istered": 4271,
    "Ġadop": 4272,
    "uated": 4273,
    "Ġteams": 4274,
    "OM": 4275,
    "ole": 4276,
    "field": 4277,
    "Ġfactors": 4278,
    "Ġheavy": 4279,
    "venue": 4280,
    "Ġauto": 4281,
    "ograph": 4282,
    "EC": 4283,
    "ĠUnder": 4284,
    "hips": 4285,
    "Ġcovered": 4286,
    "Ġcoffee": 4287,
    "ĠJer": 4288,
    "ĠLa": 4289,
    "ĠFlor": 4290,
    "Ġcontains": 4291,
    "ĠTop": 4292,
    "thus": 4293,
    "ĠRom": 4294,
    "Ġnames": 4295,
    "Ġfriendly": 4296,
    "ï¿": 4297,
    "Ġpieces": 4298,
    "ĠRel": 4299,
    "Ġdiscover": 4300,
    "Ġmotor": 4301,
    "ï¿½": 4302,
    "gn": 4303,
    "Ġstatus": 4304,
    "roid": 4305,
    "ĠWal": 4306,
    "Ġforms": 4307,
    "Ġwhatever": 4308,
    "odes": 4309,
    "Ġdiet": 4310,
    "ĠAdd": 4311,
    "Ġreality": 4312,
    "ING": 4313,
    "Ġcontem": 4314,
    "atically": 4315,
    "rehens": 4316,
    "Ġrequires": 4317,
    "ĠMake": 4318,
    "Ġvalues": 4319,
    "fit": 4320,
    "Ġtechnical": 4321,
    "semb": 4322,
    "Ġlearned": 4323,
    "ĠAssociation": 4324,
    "Ġforget": 4325,
    "Ġanti": 4326,
    "Ġextr": 4327,
    "BC": 4328,
    "Ġprincip": 4329,
    "ĠManagement": 4330,
    "Ġstream": 4331,
    "Ġselected": 4332,
    "Ġefforts": 4333,
    "ĠTwo": 4334,
    "âĢĻ": 4335,
    "ago": 4336,
    "Ġguess": 4337,
    "Ġforeign": 4338,
    "Ġsouth": 4339,
    "Ġconsult": 4340,
    "Ġdetermine": 4341,
    "standing": 4342,
    "Ġfans": 4343,
    "Ġadvantage": 4344,
    "Ġscen": 4345,
    "ĠUse": 4346,
    "rem": 4347,
    "Ġknows": 4348,
    "ij": 4349,
    "Ġjourney": 4350,
    "Ġtend": 4351,
    "Ġstandards": 4352,
    "ĠOffice": 4353,
    "Ġexclus": 4354,
    "ĠThurs": 4355,
    "Ġillustr": 4356,
    "oices": 4357,
    "ĠRich": 4358,
    "Ġthus": 4359,
    "Ġwouldn": 4360,
    "fr": 4361,
    "Ġ2007": 4362,
    "itude": 4363,
    "Ġroll": 4364,
    "Ġstreet": 4365,
    "Ġsecure": 4366,
    "Ġparties": 4367,
    "ĠTexas": 4368,
    "Ġfederal": 4369,
    "Ġshared": 4370,
    "ields": 4371,
    "30": 4372,
    "Ġrout": 4373,
    "Ġleader": 4374,
    "ĠCur": 4375,
    "ĠClass": 4376,
    "ĠDownload": 4377,
    "ica": 4378,
    "aming": 4379,
    "Ġsexual": 4380,
    "Ġshopping": 4381,
    "ĠWindows": 4382,
    "vest": 4383,
    "Ġrestr": 4384,
    "Ġtechniques": 4385,
    "ĠAnn": 4386,
    "text": 4387,
    "iling": 4388,
    "Ġmetal": 4389,
    "Ġluck": 4390,
    "Ġrefer": 4391,
    "Ġrare": 4392,
    "tu": 4393,
    "Ġpassed": 4394,
    "toms": 4395,
    "--": 4396,
    "Ġmission": 4397,
    "Ġtraffic": 4398,
    "Ġsymp": 4399,
    "Ġflat": 4400,
    "Ġoppos": 4401,
    "Ġgovern": 4402,
    "Ġscene": 4403,
    "ae": 4404,
    "Ġguid": 4405,
    "LL": 4406,
    "ĠChinese": 4407,
    "Ġincor": 4408,
    "PS": 4409,
    "Ġefficient": 4410,
    "iger": 4411,
    "ĠAN": 4412,
    "icing": 4413,
    "Ġpassion": 4414,
    "ĠBook": 4415,
    "nel": 4416,
    "erg": 4417,
    "Ġpul": 4418,
    "Ġselect": 4419,
    "entr": 4420,
    "ĠPlan": 4421,
    "unately": 4422,
    "Ġdeveloping": 4423,
    "tree": 4424,
    "antic": 4425,
    "Ġmonitor": 4426,
    "coming": 4427,
    "oma": 4428,
    "ĠLife": 4429,
    "Ġplaced": 4430,
    "Ġvolun": 4431,
    "Ġmanage": 4432,
    "Ġhonest": 4433,
    "ĠTues": 4434,
    "roll": 4435,
    "ĠWho": 4436,
    "Ġmentioned": 4437,
    "ĠIT": 4438,
    "Ġrecords": 4439,
    "Ġsharing": 4440,
    "ĠCheck": 4441,
    "Ġwaiting": 4442,
    "Ġcompar": 4443,
    "Ġrepe": 4444,
    "Ġquarter": 4445,
    "ries": 4446,
    "Ġorganizations": 4447,
    "ommod": 4448,
    "acement": 4449,
    "osure": 4450,
    "Ġsecret": 4451,
    "Ġfan": 4452,
    "Ġbag": 4453,
    "vision": 4454,
    "ĠSk": 4455,
    "ancing": 4456,
    "ĠMary": 4457,
    "Ġfamous": 4458,
    "Ġinfo": 4459,
    "works": 4460,
    "Ġspl": 4461,
    "ĠEducation": 4462,
    "izz": 4463,
    "Ġeconomy": 4464,
    "Ġbeach": 4465,
    "Ġmist": 4466,
    "hi": 4467,
    "ĠEv": 4468,
    "cel": 4469,
    "Ġshape": 4470,
    "care": 4471,
    "itar": 4472,
    "term": 4473,
    "ums": 4474,
    "ĠPublic": 4475,
    "Ġsch": 4476,
    "ĠBig": 4477,
    "Ġlimit": 4478,
    "ĠLast": 4479,
    "leg": 4480,
    "Ġrob": 4481,
    "Ġflex": 4482,
    "lic": 4483,
    "Ġtor": 4484,
    "amin": 4485,
    "azine": 4486,
    "ĠThursday": 4487,
    "Ġsand": 4488,
    "Ġwebsites": 4489,
    "ĠIts": 4490,
    "Ġadvanced": 4491,
    "Ġprote": 4492,
    "Ġbecomes": 4493,
    "Ġultim": 4494,
    "ĠApp": 4495,
    "ym": 4496,
    "Ġevening": 4497,
    "ĠMag": 4498,
    "Ġcars": 4499,
    "Ġbill": 4500,
    "NA": 4501,
    "Ġcopy": 4502,
    "Ġretail": 4503,
    "Ġbiggest": 4504,
    "Ġholiday": 4505,
    "Ġadvent": 4506,
    "Ġcontinued": 4507,
    "tenance": 4508,
    "Ġmanufacturer": 4509,
    "Ġchair": 4510,
    "Ġwine": 4511,
    "Ġhandle": 4512,
    "Ġoutdoor": 4513,
    "tro": 4514,
    "lig": 4515,
    "ĠMichael": 4516,
    "ĠEngland": 4517,
    "Ġprint": 4518,
    "Ġfish": 4519,
    "ius": 4520,
    "Ġabsolutely": 4521,
    "Ġoperations": 4522,
    "ĠAnother": 4523,
    "pm": 4524,
    "Ġaccep": 4525,
    "ĠIS": 4526,
    "Ġbow": 4527,
    "sey": 4528,
    "ĠYear": 4529,
    "Ġdesk": 4530,
    "Ġreference": 4531,
    "Ġnorth": 4532,
    "Ġscore": 4533,
    "Ġotherwise": 4534,
    "cing": 4535,
    "Ġestim": 4536,
    "Ġloan": 4537,
    "Ġlisted": 4538,
    "Ġdoctor": 4539,
    "Ġshowed": 4540,
    "ault": 4541,
    "Ġmagn": 4542,
    "ĠFound": 4543,
    "Ġworkers": 4544,
    "inger": 4545,
    "Ġproperties": 4546,
    "ĠWednes": 4547,
    "ĠWhether": 4548,
    "uty": 4549,
    "Ġconference": 4550,
    "Ġmeant": 4551,
    "men": 4552,
    "ĠSal": 4553,
    "akers": 4554,
    "Ġrelevant": 4555,
    "Ġindependent": 4556,
    "ĠMal": 4557,
    "ĠAmaz": 4558,
    "ĠAfrica": 4559,
    "ulting": 4560,
    "Ġtoward": 4561,
    "ĠTuesday": 4562,
    "ror": 4563,
    "Ġreb": 4564,
    "Ġcompos": 4565,
    "ĠAu": 4566,
    "Ġpainting": 4567,
    "Ġgun": 4568,
    "entially": 4569,
    "Ġchallenges": 4570,
    "Ġperformed": 4571,
    "Ġdedicated": 4572,
    "ĠFore": 4573,
    "ĠVi": 4574,
    "enses": 4575,
    "Ġclassic": 4576,
    "ervation": 4577,
    "Ġmap": 4578,
    "Ġcalls": 4579,
    "Ġexplore": 4580,
    "Ġdesigns": 4581,
    "Ġbought": 4582,
    "ĠTer": 4583,
    "asy": 4584,
    "Ġprepared": 4585,
    "Ġbeauty": 4586,
    "Ġyout": 4587,
    "Ġneighbor": 4588,
    "Ġrou": 4589,
    "Ġtot": 4590,
    "Ġwaste": 4591,
    "Ġflu": 4592,
    "down": 4593,
    "Ġfill": 4594,
    "Ġsets": 4595,
    "ading": 4596,
    "fl": 4597,
    "col": 4598,
    "Ġepis": 4599,
    "eless": 4600,
    "Ġkeeping": 4601,
    "gal": 4602,
    "Ġmountain": 4603,
    "Ġbehavior": 4604,
    "edom": 4605,
    "apped": 4606,
    "Ġarticles": 4607,
    "Ġ\\": 4608,
    "Ġsources": 4609,
    "ented": 4610,
    "Ġdistance": 4611,
    "ads": 4612,
    "Ġoperating": 4613,
    "Ġartist": 4614,
    "Ġgain": 4615,
    "ĠClub": 4616,
    "Ġexercise": 4617,
    "tail": 4618,
    "cks": 4619,
    "estival": 4620,
    "Ġremind": 4621,
    "Ġremove": 4622,
    "Ġcitiz": 4623,
    "Ġarchitect": 4624,
    "Ġtree": 4625,
    "Ġhelpful": 4626,
    "oyal": 4627,
    "Ġadult": 4628,
    "gency": 4629,
    "Ġapplied": 4630,
    "ĠChild": 4631,
    "Ġplenty": 4632,
    "Ġcaused": 4633,
    "Ġdyn": 4634,
    "Ġtask": 4635,
    "ĠWin": 4636,
    "Ġaudience": 4637,
    "ĠCam": 4638,
    "Ġ194": 4639,
    "Ġfemale": 4640,
    "inct": 4641,
    "Ġshowing": 4642,
    "Ġconcentr": 4643,
    "Ġfacilities": 4644,
    "Ġbalance": 4645,
    "ĠRet": 4646,
    "Ġteacher": 4647,
    "Ġnumerous": 4648,
    "ximately": 4649,
    "ĠArch": 4650,
    "ĠAdv": 4651,
    "ĠHave": 4652,
    "Ġign": 4653,
    "Ġmusc": 4654,
    "Ġaccommod": 4655,
    "ĠUSA": 4656,
    "Ġseparate": 4657,
    "Ġcup": 4658,
    "ĠSocial": 4659,
    "ĠDistr": 4660,
    "Ġopinion": 4661,
    "Ġhappens": 4662,
    "inking": 4663,
    "Ġwelcome": 4664,
    "Ġadvance": 4665,
    "ĠST": 4666,
    "Ġdiagn": 4667,
    "Ġdepend": 4668,
    "ĠVis": 4669,
    "Ġphil": 4670,
    "agon": 4671,
    "ulty": 4672,
    "Ġdisp": 4673,
    "Ġupdate": 4674,
    "Ġgall": 4675,
    "Ġcore": 4676,
    "Ġquant": 4677,
    "Ġ300": 4678,
    ").": 4679,
    "ĠAngel": 4680,
    "ĠIN": 4681,
    "ĠMicro": 4682,
    "ĠWednesday": 4683,
    "Ġclasses": 4684,
    "Ġconnected": 4685,
    "ports": 4686,
    "Ġjump": 4687,
    "Ġoperation": 4688,
    "Ġpurs": 4689,
    "ucle": 4690,
    "Ġsequ": 4691,
    "ishes": 4692,
    "Ġwire": 4693,
    "Ġlose": 4694,
    "ĠRiver": 4695,
    "ula": 4696,
    "ĠLit": 4697,
    "ĠCare": 4698,
    "Ġaid": 4699,
    "Ġbuying": 4700,
    "Ġpoly": 4701,
    "Ġcommunities": 4702,
    "Ġclearly": 4703,
    "Ġexperts": 4704,
    "iciency": 4705,
    "pet": 4706,
    "ĠGovernment": 4707,
    "vere": 4708,
    "Ġdriver": 4709,
    "Ġtesting": 4710,
    "fast": 4711,
    "Ġspring": 4712,
    "ĠThr": 4713,
    "Ġshel": 4714,
    "ĠAC": 4715,
    "Ġreflec": 4716,
    "Ġbecoming": 4717,
    "ĠHel": 4718,
    "Ġtheory": 4719,
    "Ġwatching": 4720,
    "isation": 4721,
    "Ġrain": 4722,
    "ĠFlorida": 4723,
    "Ġappears": 4724,
    "ĠSum": 4725,
    "Ġclaims": 4726,
    "Ġradio": 4727,
    "Ġunless": 4728,
    "Ġmarried": 4729,
    "ĠBay": 4730,
    "Ġthoughts": 4731,
    "ocks": 4732,
    "ĠFam": 4733,
    "itors": 4734,
    "Ġsteel": 4735,
    "poses": 4736,
    "Ġinitial": 4737,
    "Ġmajority": 4738,
    "icial": 4739,
    "AP": 4740,
    "Ġrom": 4741,
    "Ġposts": 4742,
    "Ġgrant": 4743,
    "ĠMark": 4744,
    "Ġopened": 4745,
    "ĠTheir": 4746,
    "ston": 4747,
    "icted": 4748,
    "Ġcatch": 4749,
    "ĠCommission": 4750,
    "Ġremains": 4751,
    "Ġvolume": 4752,
    "apt": 4753,
    "eds": 4754,
    "idential": 4755,
    "aked": 4756,
    "ĠProfess": 4757,
    "Ġtrail": 4758,
    "Ġcolors": 4759,
    "estic": 4760,
    "Ġmanner": 4761,
    "miss": 4762,
    "Ġmostly": 4763,
    "Ġprofile": 4764,
    "Ġinstr": 4765,
    "phone": 4766,
    "Ġpresence": 4767,
    "ternal": 4768,
    "ography": 4769,
    "icious": 4770,
    "Ġcapacity": 4771,
    "Ġvisual": 4772,
    "ils": 4773,
    "Ġexcept": 4774,
    "Ġanimals": 4775,
    "Ġroof": 4776,
    "Ġwinter": 4777,
    "ĠElec": 4778,
    "ĠDirector": 4779,
    "Ġtemperature": 4780,
    "Ġbright": 4781,
    "ette": 4782,
    "Ġvision": 4783,
    "Ġrestaurant": 4784,
    "Ġmanager": 4785,
    "outhern": 4786,
    "Ġsenior": 4787,
    "Ġuns": 4788,
    "Ġprofessionals": 4789,
    "Ġcombination": 4790,
    "Ġship": 4791,
    "Ġpersp": 4792,
    "Ġalternative": 4793,
    "Ġarm": 4794,
    "Ġhospital": 4795,
    "Ġchanging": 4796,
    "Ġplants": 4797,
    "ĠEngine": 4798,
    "ĠBank": 4799,
    "ĠCD": 4800,
    "omin": 4801,
    "ĠAut": 4802,
    "Ġcompetition": 4803,
    "ĠHum": 4804,
    "ctions": 4805,
    "Ġpractices": 4806,
    "ĠMart": 4807,
    "11": 4808,
    "ĠSl": 4809,
    "ĠTur": 4810,
    "Ġmarriage": 4811,
    "ĠâĢĿ,": 4812,
    "ĠAbout": 4813,
    "ĠCus": 4814,
    "Ġcoverage": 4815,
    "Ġadding": 4816,
    "yer": 4817,
    "uration": 4818,
    "Ġprocessing": 4819,
    "Ġsounds": 4820,
    "Ġu": 4821,
    "ĠRoad": 4822,
    "Ġagreement": 4823,
    "itness": 4824,
    "Ġic": 4825,
    "Ġhttps": 4826,
    "Ġarrang": 4827,
    "IP": 4828,
    "mar": 4829,
    "Ġwilling": 4830,
    "osop": 4831,
    "ras": 4832,
    "ĠSuper": 4833,
    "ĠInstitute": 4834,
    "Ġapart": 4835,
    "Ġwalking": 4836,
    "Ġder": 4837,
    "Ġsongs": 4838,
    "ĠGerman": 4839,
    "Ġer": 4840,
    "Ġsea": 4841,
    "Ġsession": 4842,
    "reek": 4843,
    "rd": 4844,
    "Ġended": 4845,
    "Ġjournal": 4846,
    "ĠPet": 4847,
    "ĠFol": 4848,
    "ĠVol": 4849,
    "Ġdecide": 4850,
    "azy": 4851,
    "Ġcommand": 4852,
    "Ġleaving": 4853,
    "Ġpreviously": 4854,
    "Ġsmaller": 4855,
    "Ġproud": 4856,
    "Ĥ¬": 4857,
    "Ġcount": 4858,
    "hone": 4859,
    "Ġlovely": 4860,
    "ĠMiss": 4861,
    "Ġlux": 4862,
    "Ġexception": 4863,
    "Ġflav": 4864,
    "usion": 4865,
    "ĠTake": 4866,
    "Ġawesome": 4867,
    "Ġrid": 4868,
    "Ġprocesses": 4869,
    "ĠThom": 4870,
    "AD": 4871,
    "Ġpal": 4872,
    "Ġdetailed": 4873,
    "Ġformat": 4874,
    "cell": 4875,
    "unning": 4876,
    "osing": 4877,
    "ĠCommit": 4878,
    "19": 4879,
    "Ġelement": 4880,
    "Ġtopic": 4881,
    "Ġkill": 4882,
    "Ġpair": 4883,
    "Ġenjoyed": 4884,
    "Ġactions": 4885,
    "Ġdiscussion": 4886,
    "ĠGerm": 4887,
    "Ġvote": 4888,
    "Ġidentify": 4889,
    "Ġruns": 4890,
    "Ġbutton": 4891,
    "Ġstick": 4892,
    "Ġteachers": 4893,
    "ĠSomet": 4894,
    "ero": 4895,
    "hrow": 4896,
    "Ġmir": 4897,
    "abilities": 4898,
    "ĠBlue": 4899,
    "Ġminute": 4900,
    "iled": 4901,
    "Ġseemed": 4902,
    "throw": 4903,
    "Ġmovies": 4904,
    "ares": 4905,
    "Ġdatab": 4906,
    "ĠIns": 4907,
    "Ġcorner": 4908,
    "Ġexcited": 4909,
    "Ġattemp": 4910,
    "Ġcontext": 4911,
    "Ġmulti": 4912,
    "Ġspecies": 4913,
    "Ġcomprehens": 4914,
    "ĠDOC": 4915,
    "Ġice": 4916,
    "ĠGeorge": 4917,
    "ĠPower": 4918,
    "Ġ2006": 4919,
    "unction": 4920,
    "Ġcontinues": 4921,
    "ĠTy": 4922,
    "osis": 4923,
    "Ġselling": 4924,
    "Ġwhom": 4925,
    "Ġmicro": 4926,
    "ipes": 4927,
    "Ð¾": 4928,
    "bing": 4929,
    "Ġdump": 4930,
    "gery": 4931,
    "Ġmedium": 4932,
    "ado": 4933,
    "ĠâĤ¬": 4934,
    "Ġpolicies": 4935,
    "Ġreaders": 4936,
    "ĠMil": 4937,
    "truct": 4938,
    "Ġapproximately": 4939,
    "Ġtotally": 4940,
    "Ġinterp": 4941,
    "Ġcircum": 4942,
    "Ġagency": 4943,
    "Ġcleaning": 4944,
    "Ġattempt": 4945,
    "Ġfantastic": 4946,
    "Ġrule": 4947,
    "Ġ!!!": 4948,
    "Ġgrade": 4949,
    "ugar": 4950,
    "Ġcrow": 4951,
    "ption": 4952,
    "ĠSil": 4953,
    "âĢĵ": 4954,
    "ĠLou": 4955,
    "ĠRob": 4956,
    "Ġbreat": 4957,
    "Ġvalid": 4958,
    "ĠHi": 4959,
    "Ġclosed": 4960,
    "Ġwid": 4961,
    "Ġkid": 4962,
    "Ġdepartment": 4963,
    "ĠLake": 4964,
    "ĠWhere": 4965,
    "Ġmail": 4966,
    "Ġdocuments": 4967,
    "ellig": 4968,
    "Ġmanaged": 4969,
    "verse": 4970,
    "Ġsample": 4971,
    "Ġintr": 4972,
    "Ġla": 4973,
    "Ġod": 4974,
    "Ġunits": 4975,
    "ĠMex": 4976,
    "ferences": 4977,
    "rep": 4978,
    "Ġsmooth": 4979,
    "Ġlaunch": 4980,
    "Ġsoul": 4981,
    "ĠApple": 4982,
    "ĠStar": 4983,
    "Ġenvironmental": 4984,
    "ĠReal": 4985,
    "ordin": 4986,
    "Ġguests": 4987,
    "Ġraised": 4988,
    "ĠBen": 4989,
    "Ġtheme": 4990,
    "Ġartists": 4991,
    "ooper": 4992,
    "Ġsector": 4993,
    "ota": 4994,
    "Ġpossibly": 4995,
    "Ġgeneration": 4996,
    "Ġintellig": 4997,
    "ona": 4998,
    "Ġfell": 4999,
    "ĠAnt": 5000,
    "Ġleadership": 5001,
    "ĠNat": 5002,
    "edy": 5003,
    "Ġfunds": 5004,
    "anta": 5005,
    "ĠAlex": 5006,
    "icians": 5007,
    "ĠBoth": 5008,
    "otic": 5009,
    "Ġlandsc": 5010,
    "Ġbrief": 5011,
    "Ġinfluence": 5012,
    "ĠWomen": 5013,
    "Ġconfig": 5014,
    "umin": 5015,
    "Ġexciting": 5016,
    "Ġvir": 5017,
    "Ġseeking": 5018,
    "Ġyes": 5019,
    "Ġcities": 5020,
    "ĠAM": 5021,
    "Ġmort": 5022,
    "Ġtransform": 5023,
    "Ġstarts": 5024,
    "ĠWord": 5025,
    "ĠTom": 5026,
    "ĠScience": 5027,
    "Ġtow": 5028,
    "Ġcultural": 5029,
    "Ġ33": 5030,
    "istan": 5031,
    "Ġrespective": 5032,
    "Ġeating": 5033,
    "Ġbrings": 5034,
    "cript": 5035,
    "Ġengineering": 5036,
    "Ġexpensive": 5037,
    "ĠGlo": 5038,
    "Ġquiet": 5039,
    "Ġlabor": 5040,
    "ĠClick": 5041,
    "Ġdespite": 5042,
    "ĠDef": 5043,
    "EM": 5044,
    "ĠDevelopment": 5045,
    "Ġfootball": 5046,
    "ĠRock": 5047,
    "ĠWork": 5048,
    "uous": 5049,
    "mark": 5050,
    "Ġfocused": 5051,
    "ĠBre": 5052,
    "ican": 5053,
    "Ġupload": 5054,
    "Ġmaintenance": 5055,
    "Ġschedule": 5056,
    "Ġfactor": 5057,
    "new": 5058,
    "going": 5059,
    "Ġmur": 5060,
    "Ġmental": 5061,
    "Ġfilled": 5062,
    "icy": 5063,
    "Ġfuel": 5064,
    "Ġvictim": 5065,
    "ĠBack": 5066,
    "Ġmale": 5067,
    "roy": 5068,
    "iration": 5069,
    "Ġ?âĢĿ": 5070,
    "ĠCall": 5071,
    "gment": 5072,
    "ĠSpecial": 5073,
    "Ġbound": 5074,
    "ship": 5075,
    "oos": 5076,
    "ĠMat": 5077,
    "Ġestablish": 5078,
    "othes": 5079,
    "Ġseat": 5080,
    "ĠDating": 5081,
    "ari": 5082,
    "ĠView": 5083,
    "ĠBill": 5084,
    "ĠDemocr": 5085,
    "Ġdinner": 5086,
    "box": 5087,
    "Ġpackage": 5088,
    "ĠVir": 5089,
    "Ġdining": 5090,
    "OL": 5091,
    "antly": 5092,
    "ĠOpen": 5093,
    "Ġmarkets": 5094,
    "Ġcomponents": 5095,
    "Ġtu": 5096,
    "ĠBefore": 5097,
    "Ġnotes": 5098,
    "Ġride": 5099,
    "Ġcasino": 5100,
    "uction": 5101,
    "ĠWater": 5102,
    "Ġ2000": 5103,
    "Ġtaste": 5104,
    "Ġvisitors": 5105,
    "cont": 5106,
    "Ġthrow": 5107,
    "Ġtrading": 5108,
    "gers": 5109,
    "actor": 5110,
    "Ġmaximum": 5111,
    "tight": 5112,
    "ĠChris": 5113,
    "ĠCamp": 5114,
    "Ġisland": 5115,
    "Ġlisten": 5116,
    "Ġ34": 5117,
    "ĠHy": 5118,
    "Ġworry": 5119,
    "Ġaspects": 5120,
    "hick": 5121,
    "Ġplastic": 5122,
    "ĠLat": 5123,
    "cient": 5124,
    "Ġnegative": 5125,
    "rete": 5126,
    "Ġrub": 5127,
    "ipt": 5128,
    "Ġexchange": 5129,
    "Ġminim": 5130,
    "Ġconstruc": 5131,
    "thick": 5132,
    "Ġconsid": 5133,
    "Ġrent": 5134,
    "ĠMain": 5135,
    "apes": 5136,
    "Ġputting": 5137,
    "Ġcorporate": 5138,
    "Ġpractical": 5139,
    "Ġsustain": 5140,
    "Ġpun": 5141,
    "Ġmouth": 5142,
    "ĠCentral": 5143,
    "Ġking": 5144,
    "Ġ99": 5145,
    "uses": 5146,
    "orry": 5147,
    "Ġscale": 5148,
    "Ġdiss": 5149,
    "Ġang": 5150,
    "ĠCommunity": 5151,
    "ĠCongress": 5152,
    "Ġchemical": 5153,
    "soft": 5154,
    "Ġspending": 5155,
    "Ġswim": 5156,
    "ampions": 5157,
    "Ġpropos": 5158,
    "ĠVe": 5159,
    "ifts": 5160,
    "Ġresidents": 5161,
    "ĠIsland": 5162,
    "stances": 5163,
    "Ġslightly": 5164,
    "ĠBur": 5165,
    "Ġlegis": 5166,
    "uries": 5167,
    "ĠProv": 5168,
    "Ġvan": 5169,
    "Ġacademic": 5170,
    "Ġupgr": 5171,
    "Ġpump": 5172,
    "Ġresponsibility": 5173,
    "Ġthick": 5174,
    "Ġsnow": 5175,
    "bour": 5176,
    "tag": 5177,
    "Ġinternal": 5178,
    "Ġextensive": 5179,
    "Ġpros": 5180,
    "Ġoccup": 5181,
    "Ġwriter": 5182,
    "ĠWood": 5183,
    "Ġfunctions": 5184,
    "Ġexamples": 5185,
    "Ġbeat": 5186,
    "ĠReview": 5187,
    "ĠMaster": 5188,
    "ION": 5189,
    "mail": 5190,
    "ien": 5191,
    "Ġbrowser": 5192,
    "Ġaccident": 5193,
    "Ġnone": 5194,
    "Ġedge": 5195,
    "Ġassistance": 5196,
    "Ġproceed": 5197,
    "Ġdecisions": 5198,
    "Ġcourses": 5199,
    "Ġforg": 5200,
    "ĠInformation": 5201,
    "iences": 5202,
    "Ġdoubt": 5203,
    "Ġseek": 5204,
    "ĠContin": 5205,
    "ga": 5206,
    "Ġaccompl": 5207,
    "Ġuniversity": 5208,
    "Ġuk": 5209,
    "odies": 5210,
    "Ġleaves": 5211,
    "ĠSol": 5212,
    "Ġvolunte": 5213,
    "Ġfee": 5214,
    "Ġdecre": 5215,
    "ĠOnly": 5216,
    "Ġ].": 5217,
    "known": 5218,
    "Ġbusy": 5219,
    "Ġpurposes": 5220,
    "Ġswitch": 5221,
    "Ġmic": 5222,
    "ĠFranc": 5223,
    "fortunately": 5224,
    "Ġeventually": 5225,
    "torney": 5226,
    "Ġhab": 5227,
    "ĠHill": 5228,
    "hab": 5229,
    "Ġinjury": 5230,
    "Ġadministration": 5231,
    "ĠCommittee": 5232,
    "ĠPerson": 5233,
    "ĠBet": 5234,
    "Ġexplain": 5235,
    "ĠDet": 5236,
    "ĠTime": 5237,
    "dy": 5238,
    "Ġspecifically": 5239,
    "ĠPM": 5240,
    "ĠStep": 5241,
    "Ġbattle": 5242,
    "Ġtypically": 5243,
    "andom": 5244,
    "TM": 5245,
    "Ġreached": 5246,
    "ĠOk": 5247,
    "uations": 5248,
    "Ġrecommended": 5249,
    "Ġ39": 5250,
    "ĠPay": 5251,
    "Ġminimum": 5252,
    "ression": 5253,
    "Ġfavour": 5254,
    "ĠSecurity": 5255,
    "Ġcommitted": 5256,
    "Ġasking": 5257,
    "Ġ75": 5258,
    "Ġsport": 5259,
    "ĠAfrican": 5260,
    "ĠTHE": 5261,
    "IV": 5262,
    "Ðµ": 5263,
    "Ġdie": 5264,
    "uable": 5265,
    "ĠQue": 5266,
    "well": 5267,
    "itz": 5268,
    "state": 5269,
    "Ġwinning": 5270,
    "ĠBer": 5271,
    "Ġdesire": 5272,
    "rene": 5273,
    "Ġcris": 5274,
    "Ġanswers": 5275,
    "Ġcollect": 5276,
    "ĠPR": 5277,
    "Ġdrink": 5278,
    "idden": 5279,
    "Ġtermin": 5280,
    "Ġburn": 5281,
    "Ġincorpor": 5282,
    "Ġlibrary": 5283,
    "Ġpaint": 5284,
    "ĠOld": 5285,
    "ĠNY": 5286,
    "Ġresolution": 5287,
    "ĠHD": 5288,
    "Ġenhance": 5289,
    "iability": 5290,
    "tical": 5291,
    "Ġporn": 5292,
    "Ġsitting": 5293,
    "Ġindustrial": 5294,
    "Ġstores": 5295,
    "Ġerror": 5296,
    "Ġallowing": 5297,
    "ĠThose": 5298,
    "Ġimportance": 5299,
    "Ġyouth": 5300,
    "oe": 5301,
    "ĠIP": 5302,
    "ĠChic": 5303,
    "ops": 5304,
    "Ġstrategies": 5305,
    "Ġreturned": 5306,
    "Ġleads": 5307,
    "tes": 5308,
    "Ġschol": 5309,
    "esterday": 5310,
    "ushing": 5311,
    "Ġmine": 5312,
    "Ġupdated": 5313,
    "Ġ2005": 5314,
    "ĠMaybe": 5315,
    "Ġdetermined": 5316,
    "Ġsymb": 5317,
    "Ġkilled": 5318,
    "Ġproperly": 5319,
    "Ġ48": 5320,
    "rees": 5321,
    "Ġinterior": 5322,
    "Ġfacility": 5323,
    "ĠExper": 5324,
    "EL": 5325,
    "ĠKore": 5326,
    "ĠAmazon": 5327,
    "ounting": 5328,
    "Ġforces": 5329,
    "Ġclim": 5330,
    "Ġfabric": 5331,
    "iminal": 5332,
    "Ġfeels": 5333,
    "ef": 5334,
    "ĠRussian": 5335,
    "ĠBal": 5336,
    "Ġcovers": 5337,
    "alls": 5338,
    "Ġrise": 5339,
    "onom": 5340,
    "osen": 5341,
    "ĠNote": 5342,
    "Ġintended": 5343,
    "Ġteen": 5344,
    "tun": 5345,
    "Ġminor": 5346,
    "Ġremoved": 5347,
    "arge": 5348,
    "Ġcombined": 5349,
    "Ġelectronic": 5350,
    "ĠGrand": 5351,
    "ĠVic": 5352,
    "ĠGermany": 5353,
    "Ġapartment": 5354,
    "Ġjew": 5355,
    "Ġreligious": 5356,
    "Ġtrees": 5357,
    "Ġsquare": 5358,
    "ĠConn": 5359,
    "ls": 5360,
    "Ġtight": 5361,
    "Ġlived": 5362,
    "ĠSet": 5363,
    "ĠWestern": 5364,
    "Ġbac": 5365,
    "ĠFull": 5366,
    "Ġdiscovered": 5367,
    "udden": 5368,
    "Ġlocations": 5369,
    "Ġregistered": 5370,
    "Ġloans": 5371,
    "Ġbon": 5372,
    "ĠFrance": 5373,
    "ĠTor": 5374,
    "aped": 5375,
    "Ġanimal": 5376,
    "Ġpanel": 5377,
    "Ġveget": 5378,
    "ĠMusic": 5379,
    "Ġingred": 5380,
    "agram": 5381,
    "ĠFort": 5382,
    "Ġjoined": 5383,
    "Ġprofit": 5384,
    "Ġwindows": 5385,
    "Ġring": 5386,
    "ĠMad": 5387,
    "Ġbond": 5388,
    "ĠMedic": 5389,
    "Ġconsequ": 5390,
    "uled": 5391,
    "Ġpregn": 5392,
    "tub": 5393,
    "Ġmotiv": 5394,
    "Ġfees": 5395,
    "Ġclimate": 5396,
    "Ġsche": 5397,
    "eline": 5398,
    "Ġtransl": 5399,
    "aturing": 5400,
    "ointed": 5401,
    "Ġfreedom": 5402,
    "ĠLo": 5403,
    "Â®": 5404,
    "Ġrat": 5405,
    "Ġourselves": 5406,
    "cean": 5407,
    "iat": 5408,
    "Ġformed": 5409,
    "Ġclinical": 5410,
    "adian": 5411,
    "vin": 5412,
    "Ġadults": 5413,
    "ĠObama": 5414,
    "Ġhook": 5415,
    "win": 5416,
    "Ġintroduced": 5417,
    "Ġprovider": 5418,
    "Ġ195": 5419,
    "Ġsubmit": 5420,
    "ĠStand": 5421,
    "Ġfamiliar": 5422,
    "DA": 5423,
    "Ġcentre": 5424,
    "Ġcomprehensive": 5425,
    "Ġrating": 5426,
    "Ġmissing": 5427,
    "Ġnurs": 5428,
    "ĠDistrict": 5429,
    "Ġportion": 5430,
    "alian": 5431,
    "Ġrapid": 5432,
    "Ġadvertising": 5433,
    "Ġanywhere": 5434,
    "Ġrealize": 5435,
    "ĠPriv": 5436,
    "Ġ37": 5437,
    "Ġamb": 5438,
    "ander": 5439,
    "Ġiron": 5440,
    "ialis": 5441,
    "Ġconcerns": 5442,
    "ĠMen": 5443,
    "Ġweap": 5444,
    "Ġegg": 5445,
    "bl": 5446,
    "Ġworkshop": 5447,
    "arrant": 5448,
    "Ġinterests": 5449,
    "Ġcolle": 5450,
    "Ġcolour": 5451,
    "Ġcream": 5452,
    "ĠMel": 5453,
    "Ġapps": 5454,
    "ĠSecond": 5455,
    "cohol": 5456,
    "Ġphotograph": 5457,
    "eries": 5458,
    "ĠJud": 5459,
    "ya": 5460,
    "Ġaudio": 5461,
    "respond": 5462,
    "ĠDiv": 5463,
    "Ġoccasion": 5464,
    "ulous": 5465,
    "ĠJapanese": 5466,
    "ĠUnion": 5467,
    "ĠScott": 5468,
    "ĠData": 5469,
    "Ġlock": 5470,
    "Ġagent": 5471,
    "Ġmeasures": 5472,
    "Ġproposed": 5473,
    "wh": 5474,
    "Ġvehicles": 5475,
    "Ġphilosop": 5476,
    "Ġshipping": 5477,
    "ĠBeach": 5478,
    "Ġnucle": 5479,
    "ĠAS": 5480,
    "ĠWil": 5481,
    "Ġinstalled": 5482,
    "Ġvent": 5483,
    "Ġdance": 5484,
    "Ġflight": 5485,
    "ĠUN": 5486,
    "cious": 5487,
    "Ġholding": 5488,
    "ĠEarth": 5489,
    "Ġinstallation": 5490,
    "15": 5491,
    "Ġdoors": 5492,
    "Ġliqu": 5493,
    "Ġsuitable": 5494,
    "Ġhistorical": 5495,
    "ĠMass": 5496,
    "ĠMinister": 5497,
    "Ġsigned": 5498,
    "ĠID": 5499,
    "Ġtherapy": 5500,
    "ĠEnter": 5501,
    "Ġinves": 5502,
    "Ġmal": 5503,
    "eal": 5504,
    "Ġstret": 5505,
    "Ġresource": 5506,
    "olate": 5507,
    "list": 5508,
    "ĠLight": 5509,
    "lor": 5510,
    "Ġdepos": 5511,
    "Ġshut": 5512,
    "Ġcarried": 5513,
    "Ġhearing": 5514,
    "Ġstone": 5515,
    "Ġhousing": 5516,
    "ĠAcadem": 5517,
    "apping": 5518,
    "Ġdim": 5519,
    "essions": 5520,
    "equ": 5521,
    "Ġec": 5522,
    "Ġappoint": 5523,
    "ĠPeter": 5524,
    "ĠNov": 5525,
    "tests": 5526,
    "Ġserving": 5527,
    "Ġeducational": 5528,
    "Ġsupposed": 5529,
    "free": 5530,
    "phas": 5531,
    "Ġgoods": 5532,
    "Ġcategory": 5533,
    "ias": 5534,
    "fol": 5535,
    "Ġid": 5536,
    "Ġdial": 5537,
    "ĠDoc": 5538,
    "ĠMill": 5539,
    "Ġsurvey": 5540,
    "ava": 5541,
    "Ġdistribution": 5542,
    "Ġpin": 5543,
    "Ġ38": 5544,
    "Ġsignal": 5545,
    "ups": 5546,
    "Ġpromote": 5547,
    "Ġapparent": 5548,
    "life": 5549,
    "ĠShow": 5550,
    "Ð°": 5551,
    "ivered": 5552,
    "alog": 5553,
    "Ġiniti": 5554,
    "Ġcontemporary": 5555,
    "ucks": 5556,
    "ĠClin": 5557,
    "Ġpure": 5558,
    "ictions": 5559,
    "Ġviagra": 5560,
    "lowing": 5561,
    "Ġsigns": 5562,
    "Ġofficials": 5563,
    "Ġcauses": 5564,
    "Ġappeared": 5565,
    "aded": 5566,
    "Ġscientific": 5567,
    "Ġplays": 5568,
    "ĠHell": 5569,
    "irty": 5570,
    "ĠJack": 5571,
    "Ġtechnologies": 5572,
    "igation": 5573,
    "Ġlap": 5574,
    "aser": 5575,
    "alk": 5576,
    "Ġsac": 5577,
    "Ġdepending": 5578,
    "Ġmut": 5579,
    "ĠLong": 5580,
    "obile": 5581,
    "Ġinstance": 5582,
    "ĠThrough": 5583,
    "ĠFrank": 5584,
    "Ġgreatest": 5585,
    "lusion": 5586,
    "ĠParty": 5587,
    "Ġtun": 5588,
    "Ġcoast": 5589,
    "Ġcock": 5590,
    "uits": 5591,
    "Ġinspired": 5592,
    "ĠFil": 5593,
    "Ġseconds": 5594,
    "Ġparking": 5595,
    "ĠFood": 5596,
    "Ġlights": 5597,
    "ĠCarol": 5598,
    "ĠBuild": 5599,
    "Ġfailure": 5600,
    "ician": 5601,
    "cking": 5602,
    "iments": 5603,
    "vention": 5604,
    "ĠPan": 5605,
    "Ġhundreds": 5606,
    "Ġidentified": 5607,
    "ĠChicago": 5608,
    "ushed": 5609,
    "ĠFire": 5610,
    "Ġconstit": 5611,
    "Ġcitizens": 5612,
    "Ġtests": 5613,
    "Ġsupported": 5614,
    "Ġgay": 5615,
    "ĠTwitter": 5616,
    "Ġsignificantly": 5617,
    "Ġvoc": 5618,
    "Ġaffordable": 5619,
    "Ġdatabase": 5620,
    "Ġnav": 5621,
    "Ġfixed": 5622,
    "Ġbelief": 5623,
    "Ġcalling": 5624,
    "ĠMedical": 5625,
    "Ġreduced": 5626,
    "Ġstanding": 5627,
    "ĠBat": 5628,
    "terest": 5629,
    "ded": 5630,
    "Ġfunding": 5631,
    "Ġfruit": 5632,
    "iveness": 5633,
    "ingly": 5634,
    "Ġelection": 5635,
    "ugs": 5636,
    "ĠSn": 5637,
    "Ġreliable": 5638,
    "ĠRad": 5639,
    "ĠBas": 5640,
    "Ġbroken": 5641,
    "ĠRobert": 5642,
    "anish": 5643,
    "Ġdogs": 5644,
    "atholic": 5645,
    "Ġunivers": 5646,
    "ĠKeep": 5647,
    "azz": 5648,
    "Ġtag": 5649,
    "Ġaccounts": 5650,
    "ĠSaf": 5651,
    "Ġdrugs": 5652,
    "Ġgather": 5653,
    "Ġstated": 5654,
    "Ġencoun": 5655,
    "isco": 5656,
    "Ġjoy": 5657,
    "ĠFamily": 5658,
    "Ġtells": 5659,
    "Ġbelong": 5660,
    "Ġdefined": 5661,
    "Ġinput": 5662,
    "Ġtrave": 5663,
    "Ġtopics": 5664,
    "Ġarrived": 5665,
    "Ġviewed": 5666,
    "ĠAuthor": 5667,
    "Ġexpression": 5668,
    "Ġgod": 5669,
    "Ġoutput": 5670,
    "SA": 5671,
    "Ġdistrict": 5672,
    "ĠJour": 5673,
    "ĠEr": 5674,
    "Ġprivacy": 5675,
    "prise": 5676,
    "Ġmode": 5677,
    "ĠBrown": 5678,
    "Ġteach": 5679,
    "Ġchick": 5680,
    "Ġdebt": 5681,
    "ĠElectr": 5682,
    "Ġdeals": 5683,
    "ĠMer": 5684,
    "ĠMicrosoft": 5685,
    "oses": 5686,
    "ĠFig": 5687,
    "Ġunf": 5688,
    "Ġmel": 5689,
    "Ġkinds": 5690,
    "Ð¸": 5691,
    "Ġconfidence": 5692,
    "Ġbattery": 5693,
    "Ġwa": 5694,
    "ifications": 5695,
    "Ġalle": 5696,
    "Ġ!)": 5697,
    "Ġ42": 5698,
    "Ġstars": 5699,
    "ĠProject": 5700,
    "Ġcreation": 5701,
    "Ġsugar": 5702,
    "den": 5703,
    "Ġtreated": 5704,
    "gu": 5705,
    "Ġappreciate": 5706,
    "Ġfaster": 5707,
    "ĠSmith": 5708,
    "Ġhyp": 5709,
    "ĠTim": 5710,
    "outs": 5711,
    "Ġglad": 5712,
    "Ġimproved": 5713,
    "vit": 5714,
    "berg": 5715,
    "Ġsubstant": 5716,
    "ĠInt": 5717,
    "Ġautomatically": 5718,
    "ternoon": 5719,
    "Ġsurgery": 5720,
    "Ġcomplic": 5721,
    "Ġok": 5722,
    "gl": 5723,
    "14": 5724,
    "Ġsister": 5725,
    "ĠAddition": 5726,
    "Ġfields": 5727,
    "Ġju": 5728,
    "ĠSociety": 5729,
    "Ġneck": 5730,
    "Ġhero": 5731,
    "ĠList": 5732,
    "Ġtelevision": 5733,
    "Ġresearc": 5734,
    "acted": 5735,
    "ĠAmericans": 5736,
    "Ġdecades": 5737,
    "ĠWel": 5738,
    "Ġraise": 5739,
    "Ġviolence": 5740,
    "Ġturns": 5741,
    "Ġannounce": 5742,
    "ĠLu": 5743,
    "Ġweak": 5744,
    "Ġhyd": 5745,
    "Ġ):": 5746,
    "ems": 5747,
    "Ġdelivered": 5748,
    "abled": 5749,
    "ania": 5750,
    "ilit": 5751,
    "mosp": 5752,
    "oles": 5753,
    "Ġox": 5754,
    "Ġregister": 5755,
    "Ġsad": 5756,
    "Ġrot": 5757,
    "Ġconversation": 5758,
    "LE": 5759,
    "Ġsymptoms": 5760,
    "hread": 5761,
    "Ġcoach": 5762,
    "Ġcorrespond": 5763,
    "Ġprosp": 5764,
    "Ġchannel": 5765,
    "ĠFre": 5766,
    "how": 5767,
    "ĠTem": 5768,
    "ĠCas": 5769,
    "Ġcharges": 5770,
    "ĠNOT": 5771,
    "pan": 5772,
    "Ġperspective": 5773,
    "ĠFoundation": 5774,
    "Ġspiritual": 5775,
    "Ġcloud": 5776,
    "Ġcaught": 5777,
    "Ġappearance": 5778,
    "Ġ400": 5779,
    "Ġfo": 5780,
    "Ġemergency": 5781,
    "thread": 5782,
    "MS": 5783,
    "writ": 5784,
    "ste": 5785,
    "ĠColor": 5786,
    "Ġbreakfast": 5787,
    "umes": 5788,
    "Ġbringing": 5789,
    "othing": 5790,
    "Ġguest": 5791,
    "Ġboys": 5792,
    "Ġconcerned": 5793,
    "Ġboat": 5794,
    "Ġfailed": 5795,
    "Ġpush": 5796,
    "Ġprepare": 5797,
    "Ġhouses": 5798,
    "Ġchoices": 5799,
    "ĠTown": 5800,
    "Ġcompetitive": 5801,
    "Ġfle": 5802,
    "ĠValley": 5803,
    "Ġneighborhood": 5804,
    "Ġapproved": 5805,
    "Ġ2004": 5806,
    "ounted": 5807,
    "ĠArab": 5808,
    "estyle": 5809,
    "ĠFurther": 5810,
    "rs": 5811,
    "ĠThough": 5812,
    "Ġben": 5813,
    "arian": 5814,
    "rove": 5815,
    "igration": 5816,
    "ĠAtl": 5817,
    "ĠIsl": 5818,
    "Ġlunch": 5819,
    "Ġvillage": 5820,
    "ensions": 5821,
    "Ġexpertise": 5822,
    "OW": 5823,
    "Ġvary": 5824,
    "Ġworldwide": 5825,
    "anda": 5826,
    "Ġemphas": 5827,
    "arp": 5828,
    "ĠStart": 5829,
    "Ġrestaurants": 5830,
    "Ġ);": 5831,
    "Ġconcer": 5832,
    "ĠMS": 5833,
    "Ġsudden": 5834,
    "Ġvisiting": 5835,
    "Ġped": 5836,
    "ĠOrgan": 5837,
    "Ġsides": 5838,
    "ĠVirgin": 5839,
    "Ġissued": 5840,
    "Ġcoin": 5841,
    "Ġperfectly": 5842,
    "illa": 5843,
    "Ġrandom": 5844,
    "ĠCA": 5845,
    "Ġbuildings": 5846,
    "ĠPress": 5847,
    "Ġmagazine": 5848,
    "Ġlayer": 5849,
    "Ġremote": 5850,
    "Ġdistinct": 5851,
    "Ġmenu": 5852,
    "Ġbet": 5853,
    "ibilities": 5854,
    "40": 5855,
    "elines": 5856,
    "Ġequal": 5857,
    "Ġsole": 5858,
    "ĠJim": 5859,
    "Ġtrouble": 5860,
    "nam": 5861,
    "bre": 5862,
    "uro": 5863,
    "Ġfilms": 5864,
    "Ġherself": 5865,
    "17": 5866,
    "Ġconsumer": 5867,
    "CC": 5868,
    "Ġdomin": 5869,
    "Ġforest": 5870,
    "ano": 5871,
    "Ġlabel": 5872,
    "Ġacid": 5873,
    "ĠRussia": 5874,
    "Ġprotein": 5875,
    "PA": 5876,
    "Ġ?\"": 5877,
    "Ġassemb": 5878,
    "ĠTimes": 5879,
    "Ġdiam": 5880,
    "ĠDoes": 5881,
    "umption": 5882,
    "Ġencourage": 5883,
    "Ġsurf": 5884,
    "Ġinnovative": 5885,
    "Ġterror": 5886,
    "paper": 5887,
    "Ġcrime": 5888,
    "Ġsin": 5889,
    "Ġpaying": 5890,
    "Ġven": 5891,
    "Ġshares": 5892,
    "tast": 5893,
    "Ġobtained": 5894,
    "Ġtough": 5895,
    "Ġrecorded": 5896,
    "Ġthread": 5897,
    "lets": 5898,
    "ĠEU": 5899,
    "ĠWrit": 5900,
    "ket": 5901,
    "Ġfly": 5902,
    "Ġvs": 5903,
    "burg": 5904,
    "ĠLim": 5905,
    "BS": 5906,
    "ĠHuman": 5907,
    "16": 5908,
    "Ġowned": 5909,
    "Ġfeedback": 5910,
    "Ġbrown": 5911,
    "ĠWatch": 5912,
    "IA": 5913,
    "hs": 5914,
    "ĠLos": 5915,
    "know": 5916,
    "Ġconsidering": 5917,
    "ĠGen": 5918,
    "ĠGlobal": 5919,
    "Ġafternoon": 5920,
    "ĠDig": 5921,
    "Ġshoes": 5922,
    "Ġenable": 5923,
    "Ġarrest": 5924,
    "ĠEqu": 5925,
    "urally": 5926,
    "ĠHotel": 5927,
    "Ġdivid": 5928,
    "Ġbegins": 5929,
    "Ġupper": 5930,
    "Ġdepart": 5931,
    "ĠTechnology": 5932,
    "ĠOper": 5933,
    "ĠInstead": 5934,
    "Ġforced": 5935,
    "Ġexcess": 5936,
    "Ġpremium": 5937,
    "Ġknowing": 5938,
    "tons": 5939,
    "Ġdollars": 5940,
    "eration": 5941,
    "ĠAdmin": 5942,
    "Ġproviders": 5943,
    "Ġspeech": 5944,
    "tiss": 5945,
    "ector": 5946,
    "Ġimagine": 5947,
    "Ġspeaking": 5948,
    "BA": 5949,
    "Ġeffectively": 5950,
    "oor": 5951,
    "Ġnoted": 5952,
    "Ġstopped": 5953,
    "org": 5954,
    "Ġcutting": 5955,
    "Ġjoint": 5956,
    "Ġworse": 5957,
    "tan": 5958,
    "ruit": 5959,
    "Ġlighting": 5960,
    "ĠMuse": 5961,
    "Ġpurchased": 5962,
    "Ġapos": 5963,
    "Ġadministr": 5964,
    "yright": 5965,
    "tructure": 5966,
    "Ġcy": 5967,
    "mes": 5968,
    "RA": 5969,
    "Ġauthority": 5970,
    "ĠJul": 5971,
    "ĠHam": 5972,
    "uts": 5973,
    "Ġlicense": 5974,
    "Ġrental": 5975,
    "irds": 5976,
    "Ġmere": 5977,
    "ĠWall": 5978,
    "Ġsettle": 5979,
    "Ġhousehold": 5980,
    "Ġchain": 5981,
    "Ġath": 5982,
    "Ġ55": 5983,
    "ĠSecret": 5984,
    "Ġparticipants": 5985,
    "Ġemployee": 5986,
    "Ġsymbol": 5987,
    "Ġtast": 5988,
    "Ġsettings": 5989,
    "Ġrelatively": 5990,
    "Ġcounty": 5991,
    "taught": 5992,
    "ĠCop": 5993,
    "Ġchosen": 5994,
    "ĠVery": 5995,
    "Ġepisode": 5996,
    "Ġatmosp": 5997,
    "water": 5998,
    "Ġwitness": 5999,
    "ĠTest": 6000,
    "Ġmatters": 6001,
    "thor": 6002,
    "ĠIll": 6003,
    "Ġoblig": 6004,
    "Ġconvenient": 6005,
    "rupt": 6006,
    "eper": 6007,
    "ocket": 6008,
    "ĠUsing": 6009,
    "Ġtiss": 6010,
    "Ġelimin": 6011,
    "Ġsupporting": 6012,
    "Ġpas": 6013,
    "ĠAustralian": 6014,
    "Ġtrib": 6015,
    "Ġincredible": 6016,
    "Ġconfir": 6017,
    "rier": 6018,
    "ĠNext": 6019,
    "Ġconver": 6020,
    "Ġfulf": 6021,
    "ĠDisc": 6022,
    "Ġmassive": 6023,
    "ĠCard": 6024,
    "Ġfourt": 6025,
    "isher": 6026,
    "Ġtail": 6027,
    "aints": 6028,
    "Ġexecutive": 6029,
    "Ġperman": 6030,
    "Ġrail": 6031,
    "Ġassessment": 6032,
    "Ġwest": 6033,
    "thentic": 6034,
    "ikes": 6035,
    "Ġtwice": 6036,
    "Ġconsumers": 6037,
    "Ġcraf": 6038,
    "Ġmanufacturing": 6039,
    "Ġriver": 6040,
    "Ġprocedure": 6041,
    "TS": 6042,
    "Ġrac": 6043,
    "ĠDen": 6044,
    "Ġreceiving": 6045,
    "Ġfourth": 6046,
    "Ġtelling": 6047,
    "Ġchief": 6048,
    "night": 6049,
    "Ġaccurate": 6050,
    "see": 6051,
    "Ġpapers": 6052,
    "hors": 6053,
    "Ġvaluable": 6054,
    "Ġmotion": 6055,
    "Ġbigger": 6056,
    "Ġstre": 6057,
    "LC": 6058,
    "Ġtea": 6059,
    "Ġaccepted": 6060,
    "IM": 6061,
    "igan": 6062,
    "ĠTeam": 6063,
    "ĠTherefore": 6064,
    "Ġprocedures": 6065,
    "Ġcommitment": 6066,
    "Ġlaunched": 6067,
    "Ġsevere": 6068,
    "Ġguitar": 6069,
    "Ġaffected": 6070,
    "ĠLouis": 6071,
    "ensity": 6072,
    "Ġ}": 6073,
    "Ġreasonable": 6074,
    "right": 6075,
    "Ġkick": 6076,
    "Ġ2003": 6077,
    "Ġidentity": 6078,
    "Ġancient": 6079,
    "Ġmedicine": 6080,
    "ĠSite": 6081,
    "Ġbirthday": 6082,
    "ĠAsia": 6083,
    "Ġaffil": 6084,
    "Ġends": 6085,
    "Ġwalls": 6086,
    "Ġwearing": 6087,
    "ĠDid": 6088,
    "orter": 6089,
    "ĠSometimes": 6090,
    "Ġdelight": 6091,
    "Ġ',": 6092,
    "ĠSand": 6093,
    "Ġalcohol": 6094,
    "Ġyesterday": 6095,
    "ĠCO": 6096,
    "umber": 6097,
    "Ġeditor": 6098,
    "Ġsurrounding": 6099,
    "Ġemotional": 6100,
    "ĠDou": 6101,
    "met": 6102,
    "Ġstudio": 6103,
    "ĠLab": 6104,
    "Ġbike": 6105,
    "Ġwarrant": 6106,
    "Ġmessages": 6107,
    "Ġenem": 6108,
    "Ġprison": 6109,
    "Ġtaught": 6110,
    "ĠThomas": 6111,
    "Ġhighlight": 6112,
    "reens": 6113,
    "ĠRE": 6114,
    "ĠDi": 6115,
    "lines": 6116,
    "Ġbrands": 6117,
    "erves": 6118,
    "ĠÂ»": 6119,
    "Ġindex": 6120,
    "theless": 6121,
    "Ġrecipe": 6122,
    "Ġtickets": 6123,
    "ĠKr": 6124,
    "Ġpatterns": 6125,
    "inding": 6126,
    "aine": 6127,
    "ĠSearch": 6128,
    "Ġentirely": 6129,
    "Ġrough": 6130,
    "ĠHaving": 6131,
    "Ġexternal": 6132,
    "Ġhorse": 6133,
    "zen": 6134,
    "Ġshower": 6135,
    "ĠMeet": 6136,
    "Ġpresentation": 6137,
    "Ġtub": 6138,
    "Ġclothes": 6139,
    "Ġroute": 6140,
    "Ġreput": 6141,
    "Ġwheel": 6142,
    "ĠMiddle": 6143,
    "ita": 6144,
    "....": 6145,
    "ðŁ": 6146,
    "Ġrevealed": 6147,
    "Ġbless": 6148,
    "Ġimpl": 6149,
    "Ġconducted": 6150,
    "ingu": 6151,
    "Ġdangerous": 6152,
    "Ġ{": 6153,
    "Ġinstructions": 6154,
    "Ġfrequently": 6155,
    "Ġphen": 6156,
    "ĠCanadian": 6157,
    "Ġnine": 6158,
    "Ġplate": 6159,
    "Ġforth": 6160,
    "ĠJose": 6161,
    "ulating": 6162,
    "Ġconstantly": 6163,
    "Ġadvis": 6164,
    "ml": 6165,
    "Ġpharm": 6166,
    "Ġtruck": 6167,
    "ĠLead": 6168,
    "Ġorders": 6169,
    "ocolate": 6170,
    "Ġinvolve": 6171,
    "Ġ2019": 6172,
    "Ġfal": 6173,
    "ĠHosp": 6174,
    "point": 6175,
    "gets": 6176,
    "Ġcircumstances": 6177,
    "Ġfeaturing": 6178,
    "Ġusual": 6179,
    "Ġremaining": 6180,
    "ĠEp": 6181,
    "Ġrevenue": 6182,
    "Ġinvestigation": 6183,
    "Ġdefense": 6184,
    "arsh": 6185,
    "ĠLeague": 6186,
    "Ġfunny": 6187,
    "ĠPlus": 6188,
    "rency": 6189,
    "uzz": 6190,
    "ĠAward": 6191,
    "Ġgrab": 6192,
    "Ġupdates": 6193,
    "Ġmainly": 6194,
    "Ġrecovery": 6195,
    "ĠAud": 6196,
    "Ġmeal": 6197,
    "Ġkeeps": 6198,
    "Ġnegot": 6199,
    "Ġsearching": 6200,
    "Ġefficiency": 6201,
    "ossible": 6202,
    "Ġinfras": 6203,
    "ĠRev": 6204,
    "craft": 6205,
    "Ġcriminal": 6206,
    "Ġreflect": 6207,
    "inder": 6208,
    "ĠSign": 6209,
    "Ġpolitics": 6210,
    "ĠLearn": 6211,
    "Ġtypical": 6212,
    "Ġentertainment": 6213,
    "enced": 6214,
    "Ġfacts": 6215,
    "Ġunders": 6216,
    "Ġgear": 6217,
    "Ġvacation": 6218,
    "Ġvit": 6219,
    "Ġfoods": 6220,
    "Ġoverl": 6221,
    "ĠGirl": 6222,
    "ĠMedia": 6223,
    "Ġ95": 6224,
    "Ġemployment": 6225,
    "Ġindeed": 6226,
    "Ġtom": 6227,
    "isters": 6228,
    "Ġauthors": 6229,
    "Ġphase": 6230,
    "Ġdomestic": 6231,
    "Ġinstitutions": 6232,
    "Ġnoticed": 6233,
    "Ġdestroy": 6234,
    "orable": 6235,
    "Ġflowers": 6236,
    "Ġcookies": 6237,
    "Ġmonthly": 6238,
    "Ġofficer": 6239,
    "ĠCorpor": 6240,
    "Ġretain": 6241,
    "rition": 6242,
    "Ġdomain": 6243,
    "ĠMont": 6244,
    "road": 6245,
    "Ġimprovement": 6246,
    "Ġresol": 6247,
    "Ġdept": 6248,
    "Ġcarefully": 6249,
    "Ġcycle": 6250,
    "awn": 6251,
    "la": 6252,
    "merce": 6253,
    "Ġexclusive": 6254,
    "Ġagreed": 6255,
    "ounder": 6256,
    "ĠCentre": 6257,
    "Ġboost": 6258,
    "ĠHead": 6259,
    "ĠStat": 6260,
    "Ġluxury": 6261,
    "Ġrow": 6262,
    "ĠBi": 6263,
    "ĠMP": 6264,
    "ĠReport": 6265,
    "Ġ44": 6266,
    "ache": 6267,
    "Ġ\":": 6268,
    "CA": 6269,
    "Ġexplained": 6270,
    "greg": 6271,
    "Ġcritic": 6272,
    "oph": 6273,
    "Ġdifferences": 6274,
    "Ġparent": 6275,
    "Ġagencies": 6276,
    "Ġorganic": 6277,
    "US": 6278,
    "Ġextended": 6279,
    "Ġobvious": 6280,
    "IL": 6281,
    "orders": 6282,
    "Ġye": 6283,
    "Ġ150": 6284,
    "Ġkit": 6285,
    "ĠItalian": 6286,
    "ĠThus": 6287,
    "mal": 6288,
    "arrow": 6289,
    "ĠSpring": 6290,
    "Ġdesigner": 6291,
    "Ġobjects": 6292,
    "Ġmeat": 6293,
    "Ġpleasure": 6294,
    "Ġingredients": 6295,
    "acle": 6296,
    "Ġdrivers": 6297,
    "Ġrecognized": 6298,
    "Ġpositions": 6299,
    "Ġthor": 6300,
    "iors": 6301,
    "ĠTour": 6302,
    "Ġhur": 6303,
    "Ġguarantee": 6304,
    "Ġtrig": 6305,
    "icip": 6306,
    "ĠWeek": 6307,
    "tering": 6308,
    "Ġintroduction": 6309,
    "Ġsick": 6310,
    "Ġanx": 6311,
    "Ġpicked": 6312,
    "ini": 6313,
    "Ġgrown": 6314,
    "ighter": 6315,
    "Ġdates": 6316,
    "Ġfollows": 6317,
    "weight": 6318,
    "Ġtechnique": 6319,
    "ĠShop": 6320,
    "ka": 6321,
    "Ġmoments": 6322,
    "ĠFederal": 6323,
    "Ġlaugh": 6324,
    "ĠUl": 6325,
    "Ġrenew": 6326,
    "Ġcloser": 6327,
    "Ġpup": 6328,
    "teen": 6329,
    "etry": 6330,
    "Ġeveryday": 6331,
    "td": 6332,
    "Ġholds": 6333,
    "Ġregularly": 6334,
    "atre": 6335,
    "Ġads": 6336,
    "Ġassets": 6337,
    "Ġdelicious": 6338,
    "Ġpoll": 6339,
    "25": 6340,
    "13": 6341,
    "Ġliterature": 6342,
    "Ġcapable": 6343,
    "eff": 6344,
    "ĠBuy": 6345,
    "ĠCEO": 6346,
    "ĠMcC": 6347,
    "ĠPolicy": 6348,
    "Ġregistration": 6349,
    "Ġprinciples": 6350,
    "Ġloves": 6351,
    "Ġcarbon": 6352,
    "tore": 6353,
    "Ġparticipate": 6354,
    "Ġunlike": 6355,
    "Ġchapter": 6356,
    "ĠLibrary": 6357,
    "ĠChildren": 6358,
    "Ġdiscussed": 6359,
    "Ġbreath": 6360,
    "Ġcrew": 6361,
    "Ġcooking": 6362,
    "Ġplanned": 6363,
    "Ġsurprise": 6364,
    "iking": 6365,
    "ĠMike": 6366,
    "Ġnearby": 6367,
    "ĠHim": 6368,
    "Ġreplace": 6369,
    "ĠDesp": 6370,
    "Ġacknow": 6371,
    "oga": 6372,
    "Ġconduct": 6373,
    "Ġhang": 6374,
    "azil": 6375,
    "exp": 6376,
    "ĠLeg": 6377,
    "ĠBab": 6378,
    "ady": 6379,
    "Ġregional": 6380,
    "gage": 6381,
    "Ġattached": 6382,
    "Ġrein": 6383,
    "ola": 6384,
    "ki": 6385,
    "Ġpersonally": 6386,
    "Ġarms": 6387,
    "Ġcommission": 6388,
    "Ġvisitor": 6389,
    "Ġjustice": 6390,
    "Ġcos": 6391,
    "Ġsilver": 6392,
    "ĠArts": 6393,
    "Ġprepar": 6394,
    "Ġ:)": 6395,
    "Ġille": 6396,
    "hand": 6397,
    "ĠFinally": 6398,
    "Ġdegrees": 6399,
    "ĠNE": 6400,
    "Ġ193": 6401,
    "80": 6402,
    "Ġeast": 6403,
    "working": 6404,
    "ĠHope": 6405,
    "ĠSeries": 6406,
    "ĠVide": 6407,
    "Ġyounger": 6408,
    "Ġleather": 6409,
    "Ġskill": 6410,
    "ĠFIG": 6411,
    "ĠMuseum": 6412,
    "Ġcontrast": 6413,
    "ĠTable": 6414,
    "appy": 6415,
    "Ġdram": 6416,
    "Ġprotected": 6417,
    "Ġrank": 6418,
    "Ġproto": 6419,
    "Ġstim": 6420,
    "Ġdele": 6421,
    "ĠAndroid": 6422,
    "ĠCat": 6423,
    "Ġgro": 6424,
    "Ġfasc": 6425,
    "Ġtransition": 6426,
    "60": 6427,
    "uine": 6428,
    "Ġconcrete": 6429,
    "Ġspok": 6430,
    "ĠGal": 6431,
    "ords": 6432,
    "ĠBob": 6433,
    "tiny": 6434,
    "ĠId": 6435,
    "Ġheight": 6436,
    "Ġintegrated": 6437,
    "Ġhardware": 6438,
    "Ġcond": 6439,
    "Ġages": 6440,
    "ĠPolice": 6441,
    "ĠDev": 6442,
    "ĠAD": 6443,
    "Ġagents": 6444,
    "ĠConference": 6445,
    "Ġ49": 6446,
    "Ġwet": 6447,
    "trop": 6448,
    "ĠStudents": 6449,
    "pass": 6450,
    "Ġhate": 6451,
    "Ġpil": 6452,
    "Ġrear": 6453,
    "ĠMic": 6454,
    "Ġembod": 6455,
    "ĠSar": 6456,
    "Ġcrazy": 6457,
    "ĠMexico": 6458,
    "inations": 6459,
    "ĠEconom": 6460,
    "Ġmixed": 6461,
    "Ġbear": 6462,
    "Ġcruc": 6463,
    "ĠLooking": 6464,
    "yan": 6465,
    "Ġdish": 6466,
    "Ġentered": 6467,
    "Ġfolks": 6468,
    "ĠSpanish": 6469,
    "Ġtiny": 6470,
    "ĠImp": 6471,
    "Ġabuse": 6472,
    "Ġjack": 6473,
    "Ġentr": 6474,
    "Ġreferred": 6475,
    "Ġnetworks": 6476,
    "ĠðŁ": 6477,
    "Ġwallpaper": 6478,
    "Ġfeatured": 6479,
    "Ġmillions": 6480,
    "Ġcandidates": 6481,
    "Ġmusical": 6482,
    "ĠCert": 6483,
    "ĠHun": 6484,
    "gry": 6485,
    "Ġhappening": 6486,
    "Ġ!âĢĿ": 6487,
    "ĠMax": 6488,
    "abet": 6489,
    "Ġsituations": 6490,
    "Ġpersons": 6491,
    "ĠVictor": 6492,
    "ĠJoe": 6493,
    "Ġsuggested": 6494,
    "Ġdefend": 6495,
    "Ġnative": 6496,
    "Ġcollected": 6497,
    "Ġnewsp": 6498,
    "Ġnarr": 6499,
    "Ġsuccessfully": 6500,
    "ĠCre": 6501,
    "mary": 6502,
    "Ġhall": 6503,
    "alled": 6504,
    "ye": 6505,
    "plate": 6506,
    "Ġveter": 6507,
    "ĠHistory": 6508,
    "Ġliquid": 6509,
    "Ġinfrastructure": 6510,
    "Ġturning": 6511,
    "ĠRoom": 6512,
    "Ġsizes": 6513,
    "ĠSpe": 6514,
    "Ġconfl": 6515,
    "west": 6516,
    "Ġmilk": 6517,
    "Ġwriters": 6518,
    "ĠMuslim": 6519,
    "Ġcyc": 6520,
    "ĠQual": 6521,
    "oosing": 6522,
    "ĠVer": 6523,
    "Ġshr": 6524,
    "ĠControl": 6525,
    "Ġoutstanding": 6526,
    "ĠDescription": 6527,
    "Ġdiverse": 6528,
    "Ġreligion": 6529,
    "gent": 6530,
    "Ġparam": 6531,
    "Ġsheet": 6532,
    "ĠParis": 6533,
    "cover": 6534,
    "ĠAngeles": 6535,
    "tics": 6536,
    "Ġmachines": 6537,
    "Ġadvoc": 6538,
    "arks": 6539,
    "Ġattacks": 6540,
    "Ġvibr": 6541,
    "Ġsight": 6542,
    "rowse": 6543,
    "ĠChief": 6544,
    "resents": 6545,
    "Ġplug": 6546,
    "Ġarts": 6547,
    "tab": 6548,
    "tles": 6549,
    "Ġcolumn": 6550,
    "related": 6551,
    "Ġreplacement": 6552,
    "Ġaspect": 6553,
    "Ġvast": 6554,
    "Ġeth": 6555,
    "ogue": 6556,
    "ĠDespite": 6557,
    "ĠHand": 6558,
    "ĠCharl": 6559,
    "ifies": 6560,
    "ena": 6561,
    "Ġlinked": 6562,
    "Ġaccord": 6563,
    "cepts": 6564,
    "ĠJournal": 6565,
    "Ġlifestyle": 6566,
    "ĠEnergy": 6567,
    "Ġcharged": 6568,
    "luded": 6569,
    "ilst": 6570,
    "ĠCS": 6571,
    "Ġ43": 6572,
    "ĠIran": 6573,
    "OD": 6574,
    "Ġgrew": 6575,
    "Ġseriously": 6576,
    "Ġbread": 6577,
    "ĠCost": 6578,
    "Ġ2001": 6579,
    "ĠJeff": 6580,
    "ĠManager": 6581,
    "ĠInvest": 6582,
    "Ġstands": 6583,
    "Ġroot": 6584,
    "orial": 6585,
    "Ġfold": 6586,
    "Ġsolar": 6587,
    "Ġscholars": 6588,
    "Ġyellow": 6589,
    "Ġcompens": 6590,
    "Ġrol": 6591,
    "while": 6592,
    "Ġinterface": 6593,
    "Ġurban": 6594,
    "ĠYet": 6595,
    "ansion": 6596,
    "Ġoperate": 6597,
    "Ġimpossible": 6598,
    "ĠFac": 6599,
    "Ġdescribe": 6600,
    "ÑĤ": 6601,
    "lers": 6602,
    "athemat": 6603,
    "Ġsubsequ": 6604,
    "OP": 6605,
    "Ġcomponent": 6606,
    "Ġeleg": 6607,
    "Ġproof": 6608,
    "ĠSqu": 6609,
    "Ġnormally": 6610,
    "cher": 6611,
    "Ġthorough": 6612,
    "ĠYoun": 6613,
    "Ġgarage": 6614,
    "ĠApplic": 6615,
    "Ġamp": 6616,
    "ĠLand": 6617,
    "Ġrepresents": 6618,
    "ĠCH": 6619,
    "Ġsupplies": 6620,
    "Ġpleased": 6621,
    "Ġplanet": 6622,
    "Ġ65": 6623,
    "Ġguard": 6624,
    "Ġbes": 6625,
    "Ġauthentic": 6626,
    "Ġavail": 6627,
    "tack": 6628,
    "tables": 6629,
    "Ġbodies": 6630,
    "Ġattrib": 6631,
    "ĠHaw": 6632,
    "Ġborder": 6633,
    "Ġfoundation": 6634,
    "Ġsupports": 6635,
    "Ġenthus": 6636,
    "Ġconfirm": 6637,
    "Ġinspiration": 6638,
    "Ġdur": 6639,
    "Ġ2002": 6640,
    "Ġcooper": 6641,
    "Ġobserved": 6642,
    "ĠHen": 6643,
    "zy": 6644,
    "ĠFour": 6645,
    "Ġinstrument": 6646,
    "orgeous": 6647,
    "Ġstunning": 6648,
    "ĠJewish": 6649,
    "ĠiPhone": 6650,
    "Ġofficers": 6651,
    "alle": 6652,
    "Ġlicens": 6653,
    "Ġscript": 6654,
    "ĠLook": 6655,
    "Ġliked": 6656,
    "isms": 6657,
    "ĠBible": 6658,
    "ĠExam": 6659,
    "**": 6660,
    "ĠAsian": 6661,
    "onn": 6662,
    "gar": 6663,
    "Ġtasks": 6664,
    "Ġresearchers": 6665,
    "ĠIde": 6666,
    "ĠCup": 6667,
    "ĠWay": 6668,
    "kins": 6669,
    "Ġlessons": 6670,
    "ificate": 6671,
    "ĠPass": 6672,
    "Ġoriginally": 6673,
    "Ġregul": 6674,
    "lywood": 6675,
    "comes": 6676,
    "ĠWelcome": 6677,
    "ĠNever": 6678,
    "Ġfuck": 6679,
    "ĠPac": 6680,
    "ĠWhich": 6681,
    "Ġbelieved": 6682,
    "ĠDV": 6683,
    "Ġgolf": 6684,
    "Ġpoker": 6685,
    "Ġfalse": 6686,
    "Ġmissed": 6687,
    "Ġunable": 6688,
    "Ġreward": 6689,
    "Ġfacilit": 6690,
    "Ġfellow": 6691,
    "Ġcandidate": 6692,
    "Ġcrisis": 6693,
    "Ġunp": 6694,
    "ett": 6695,
    "Ġexecut": 6696,
    "Ġfighting": 6697,
    "Ġcable": 6698,
    "Ġamer": 6699,
    "Ġexceed": 6700,
    "ĠWebs": 6701,
    "Ġfacing": 6702,
    "Ġvirtual": 6703,
    "Ġlandscape": 6704,
    "Ġbare": 6705,
    "ĠLog": 6706,
    "ĠInn": 6707,
    "bi": 6708,
    "Ġbreast": 6709,
    "utch": 6710,
    "ĠIC": 6711,
    "Ġresulting": 6712,
    "Ġnuclear": 6713,
    "Ġhire": 6714,
    "Ġstyles": 6715,
    "onym": 6716,
    "Ġdelay": 6717,
    "Ġawareness": 6718,
    "ellect": 6719,
    "itis": 6720,
    "Ġlikes": 6721,
    "ĠThree": 6722,
    "Ġmuse": 6723,
    "kin": 6724,
    "Ġreader": 6725,
    "Ġpill": 6726,
    "Ġspect": 6727,
    "Ġelev": 6728,
    "asters": 6729,
    "ĠCreat": 6730,
    "ĠBoy": 6731,
    "bu": 6732,
    "iations": 6733,
    "ĠOF": 6734,
    "ĠPenn": 6735,
    "Ġcute": 6736,
    "ĠAcademy": 6737,
    "Ġrealized": 6738,
    "Ġworst": 6739,
    "Ġpresents": 6740,
    "Ġresistance": 6741,
    "Ġlegs": 6742,
    "RL": 6743,
    "Ġfairly": 6744,
    "Ġelig": 6745,
    "Ġantic": 6746,
    "Ġchallenging": 6747,
    "ĠSP": 6748,
    "Ġroutine": 6749,
    "wing": 6750,
    "Ġreporting": 6751,
    "Ġ47": 6752,
    "Ġsufficient": 6753,
    "ĠUnfortunately": 6754,
    "Ġreform": 6755,
    "ocking": 6756,
    "ĠNetwork": 6757,
    "tall": 6758,
    "Ġdemocr": 6759,
    "Ġinvestors": 6760,
    "ĠFair": 6761,
    "Ġregulations": 6762,
    "Ġtab": 6763,
    "ray": 6764,
    "Ġprecise": 6765,
    "ĠBeaut": 6766,
    "Ġexec": 6767,
    "Ġ!\"": 6768,
    "Ġtables": 6769,
    "ĠRichard": 6770,
    "Ġpossibility": 6771,
    "Ġtested": 6772,
    "Ġincreases": 6773,
    "Ġexpectations": 6774,
    "ĠSuch": 6775,
    "ogy": 6776,
    "ĠCode": 6777,
    "ĠFun": 6778,
    "Ġsimpl": 6779,
    "Ġaccessible": 6780,
    "Ġtrained": 6781,
    "Ġarchitecture": 6782,
    "Ġfro": 6783,
    "ĠSC": 6784,
    "what": 6785,
    "ĠDC": 6786,
    "ĠOl": 6787,
    "oston": 6788,
    "ĠJoin": 6789,
    "sis": 6790,
    "Ġcompare": 6791,
    "Ġfigures": 6792,
    "Ġremark": 6793,
    "Ġpm": 6794,
    "Ġimplementation": 6795,
    "tum": 6796,
    "Ġadventure": 6797,
    "Ġheav": 6798,
    "ĠLittle": 6799,
    "ĠAT": 6800,
    "Ġretire": 6801,
    "Ġdiscl": 6802,
    "Ġtra": 6803,
    "making": 6804,
    "Ġphotography": 6805,
    "lection": 6806,
    "Ġvital": 6807,
    "Ġteeth": 6808,
    "Ġlistening": 6809,
    "ĠRoyal": 6810,
    "Ġsurprised": 6811,
    "Ġconsistent": 6812,
    "Ġorganized": 6813,
    "ulture": 6814,
    "acious": 6815,
    "Ġdefe": 6816,
    "bles": 6817,
    "Ġbeer": 6818,
    "Ġserves": 6819,
    "Ġpayments": 6820,
    "Ġexposure": 6821,
    "ĠRight": 6822,
    "Ġhumans": 6823,
    "Ġresidential": 6824,
    "Ġdealing": 6825,
    "Ġrecognize": 6826,
    "Ġexperiment": 6827,
    "Ġsplit": 6828,
    "eding": 6829,
    "ĠCross": 6830,
    "ĠMa": 6831,
    "Ġdiscount": 6832,
    "Ġtutor": 6833,
    "Ġgenuine": 6834,
    "ĠFund": 6835,
    "Ġconflict": 6836,
    "Ġordered": 6837,
    "utional": 6838,
    "Ġatmosphere": 6839,
    "aired": 6840,
    "Ġappeal": 6841,
    "Ġextent": 6842,
    "Ġhidden": 6843,
    "Ġbasket": 6844,
    "Ġrecording": 6845,
    "ĠMur": 6846,
    "ĠInf": 6847,
    "ĠVirginia": 6848,
    "Ġspaces": 6849,
    "uting": 6850,
    "Ġspin": 6851,
    "ĠNon": 6852,
    "Ġimpressive": 6853,
    "Ġabsor": 6854,
    "Ġsky": 6855,
    "andon": 6856,
    "Ġletters": 6857,
    "astern": 6858,
    "ĠMartin": 6859,
    "Ġbanks": 6860,
    "Ð½": 6861,
    "Ġbasically": 6862,
    "ĠCatholic": 6863,
    "ĠScot": 6864,
    "ĠSu": 6865,
    "Ġprove": 6866,
    "Ġairport": 6867,
    "Ġtall": 6868,
    "ulf": 6869,
    "Ġsmile": 6870,
    "Ġ52": 6871,
    "Ġcoordin": 6872,
    "Ġwidely": 6873,
    "ĠBrazil": 6874,
    "Ġslowly": 6875,
    "Ġdirected": 6876,
    "Ġtrends": 6877,
    "ĠSpirit": 6878,
    "gas": 6879,
    "Ġdynamic": 6880,
    "Ġcomparison": 6881,
    "Ġhealthcare": 6882,
    "ĠTre": 6883,
    "Ġevil": 6884,
    "Ġ'.": 6885,
    "Ġslot": 6886,
    "ĠMid": 6887,
    "grad": 6888,
    "urb": 6889,
    "Ġiv": 6890,
    "Ġinner": 6891,
    "Ġprimarily": 6892,
    "Ġclassroom": 6893,
    "ĠMountain": 6894,
    "Ġgraduate": 6895,
    "inity": 6896,
    "ployment": 6897,
    "xic": 6898,
    "Ġenforce": 6899,
    "Ġ46": 6900,
    "mond": 6901,
    "sters": 6902,
    "ĠAccess": 6903,
    "entle": 6904,
    "Ġfishing": 6905,
    "illiant": 6906,
    "Ġstructures": 6907,
    "cur": 6908,
    "ĠOct": 6909,
    "Ġdefinition": 6910,
    "Ġupcoming": 6911,
    "Ġqualified": 6912,
    "host": 6913,
    "Ġflood": 6914,
    "Ġrisks": 6915,
    "Ġfiction": 6916,
    "Ġreaction": 6917,
    "Ġfitness": 6918,
    "Ġinnovation": 6919,
    "ĠâĢĻ.": 6920,
    "thetic": 6921,
    "yard": 6922,
    "Ġreturns": 6923,
    "ĠJun": 6924,
    "Ġassum": 6925,
    "ĠInterior": 6926,
    "ĠJon": 6927,
    "Ġmeetings": 6928,
    "py": 6929,
    "ixture": 6930,
    "Ġanyway": 6931,
    "Ġduty": 6932,
    "Ġperforming": 6933,
    "ĠCP": 6934,
    "Ġgal": 6935,
    "Ġclothing": 6936,
    "ĠGame": 6937,
    "orthy": 6938,
    "Ġquote": 6939,
    "Ġargument": 6940,
    "Ġrelative": 6941,
    "Ġattorney": 6942,
    "Ġmonitoring": 6943,
    "Ġsessions": 6944,
    "Ġintim": 6945,
    "Ġattractive": 6946,
    "ĠKen": 6947,
    "Ġinterpret": 6948,
    "Ġjudge": 6949,
    "Ġmagic": 6950,
    "Ġlosing": 6951,
    "Ġshooting": 6952,
    "Ġlogo": 6953,
    "Ġther": 6954,
    "IR": 6955,
    "ials": 6956,
    "Ġphr": 6957,
    "),": 6958,
    "away": 6959,
    "ĠSof": 6960,
    "Ġclosely": 6961,
    "gor": 6962,
    "ĠHard": 6963,
    "ographic": 6964,
    "ĠLtd": 6965,
    "Ġsamples": 6966,
    "Ġcampus": 6967,
    "Ġhonor": 6968,
    "ĠAvailable": 6969,
    "ĠGall": 6970,
    "Ġprinted": 6971,
    "Ġtalent": 6972,
    "ĠAff": 6973,
    "part": 6974,
    "Ġnarrow": 6975,
    "ĠChair": 6976,
    "hal": 6977,
    "ĠEle": 6978,
    "Ġtwenty": 6979,
    "tood": 6980,
    "ĠLee": 6981,
    "case": 6982,
    "Ġlib": 6983,
    "Ġchicken": 6984,
    "ĠOR": 6985,
    "Ġcounsel": 6986,
    "Ġticket": 6987,
    "Ġvul": 6988,
    "edia": 6989,
    "ĠContinue": 6990,
    "Ġfrustr": 6991,
    "etr": 6992,
    "Ġfeelings": 6993,
    "endar": 6994,
    "Ġelectrical": 6995,
    "Ġbutter": 6996,
    "actors": 6997,
    "Ġestimated": 6998,
    "Ġhurt": 6999,
    "Ġauthorities": 7000,
    "Ġcommittee": 7001,
    "irms": 7002,
    "ĠYoung": 7003,
    "hire": 7004,
    "ĠKey": 7005,
    "Ġgifts": 7006,
    "Ġintelligence": 7007,
    "ĠAND": 7008,
    "Ġgenerate": 7009,
    "Ġcake": 7010,
    "gypt": 7011,
    "Ġclar": 7012,
    "Ġreplaced": 7013,
    "ĠPerhaps": 7014,
    "Ġfrag": 7015,
    "Ġwinner": 7016,
    "tank": 7017,
    "ĠKnow": 7018,
    "IF": 7019,
    "Ġachieved": 7020,
    "ogen": 7021,
    "ĠIra": 7022,
    "Ġappointment": 7023,
    "eria": 7024,
    "osc": 7025,
    "Ġrecruit": 7026,
    "Ġble": 7027,
    "Ġinformed": 7028,
    "Ġregions": 7029,
    "etime": 7030,
    "Ġguarante": 7031,
    "ĠPosted": 7032,
    "Ġchocolate": 7033,
    "ĠItaly": 7034,
    "itage": 7035,
    "Ġcrowd": 7036,
    "Ġforum": 7037,
    "Ġfiled": 7038,
    "Ġdeck": 7039,
    "Ġsomewhere": 7040,
    "tone": 7041,
    "Ġstatements": 7042,
    "Ġwalked": 7043,
    "ĠBed": 7044,
    "ĠGeorg": 7045,
    "tol": 7046,
    "auc": 7047,
    "Ġguidance": 7048,
    "reland": 7049,
    "eler": 7050,
    "Ġconfident": 7051,
    "FL": 7052,
    "ĠCurrent": 7053,
    "Ġaccessories": 7054,
    "Ġsalt": 7055,
    "Ġflexible": 7056,
    "ĠTry": 7057,
    "ĠSupport": 7058,
    "Ġcommunications": 7059,
    "Ġdrawing": 7060,
    "Ġdestination": 7061,
    "ĠBeing": 7062,
    "ĠFestival": 7063,
    "ĠAssist": 7064,
    "Ġstrategic": 7065,
    "ĠPak": 7066,
    "ĠSteve": 7067,
    "Ġvisited": 7068,
    "ĠMov": 7069,
    "22": 7070,
    "Ġdepth": 7071,
    "Ġhoping": 7072,
    "Ġstretch": 7073,
    "Ġsuperv": 7074,
    "Ġsomewhat": 7075,
    "osh": 7076,
    "Ġcelebrate": 7077,
    "Ġpassing": 7078,
    "Ġgallery": 7079,
    "Ġongoing": 7080,
    "ĠBoston": 7081,
    "Ġmac": 7082,
    "Ġblow": 7083,
    "pers": 7084,
    "Ġpossess": 7085,
    "Ġacts": 7086,
    "Ġopposite": 7087,
    "ĠStill": 7088,
    "ĠViagra": 7089,
    "Ġultimate": 7090,
    "Ġversions": 7091,
    "Ġformal": 7092,
    "stream": 7093,
    "Ġengage": 7094,
    "Ġnoise": 7095,
    "Ġ03": 7096,
    "Ġrig": 7097,
    "pon": 7098,
    "Ġhistoric": 7099,
    "Ġrevolution": 7100,
    "inem": 7101,
    "Ġfunctional": 7102,
    "Ġfinds": 7103,
    "idays": 7104,
    "Ġdebate": 7105,
    "elled": 7106,
    "Ġ64": 7107,
    "Ġbench": 7108,
    "Ġcreates": 7109,
    "ĠMatt": 7110,
    "aug": 7111,
    "Ġsaved": 7112,
    "ĠExpl": 7113,
    "Ġequipped": 7114,
    "Ġimmediate": 7115,
    "REE": 7116,
    "Ġsuggests": 7117,
    "Ġfavourite": 7118,
    "Ġease": 7119,
    "ĠIreland": 7120,
    "Ġtaxes": 7121,
    "Ġ??": 7122,
    "Ġexistence": 7123,
    "using": 7124,
    "Ġtrick": 7125,
    "ĠPage": 7126,
    "Ġconfirmed": 7127,
    "Ġgender": 7128,
    "pat": 7129,
    "ĠContact": 7130,
    "Ġmuscle": 7131,
    "ĠArmy": 7132,
    "Ġspoke": 7133,
    "ĠStor": 7134,
    "ĠAR": 7135,
    "Ġentit": 7136,
    "itcoin": 7137,
    "ĠYe": 7138,
    "Ġstrange": 7139,
    "Ġtrend": 7140,
    "Ġsucceed": 7141,
    "Ġentrep": 7142,
    "Ġplot": 7143,
    "iner": 7144,
    "ĠAgain": 7145,
    "ĠSouthern": 7146,
    "ĠCoast": 7147,
    "real": 7148,
    "vy": 7149,
    "ludes": 7150,
    "iano": 7151,
    "Ġobviously": 7152,
    "ÑĢ": 7153,
    "ancer": 7154,
    "ĠKat": 7155,
    "Ġprogramming": 7156,
    "Ġdecade": 7157,
    "Ġ.'": 7158,
    "Ġstruggle": 7159,
    "ĠSex": 7160,
    "Ġforever": 7161,
    "lymp": 7162,
    "Ġmanaging": 7163,
    "Ġheads": 7164,
    "Ġearning": 7165,
    "Ġsexy": 7166,
    "Ġgorgeous": 7167,
    "ĠBan": 7168,
    "Ġentreprene": 7169,
    "Ġreduction": 7170,
    "Ġposting": 7171,
    "Ġshops": 7172,
    "Ġmoves": 7173,
    "Ġhosting": 7174,
    "Ġ.âĢĻ": 7175,
    "Ġimproving": 7176,
    "Ġchoosing": 7177,
    "ĠTit": 7178,
    "Ġmining": 7179,
    "Ġcapture": 7180,
    "ua": 7181,
    "Ġconcepts": 7182,
    "Ġwireless": 7183,
    "Ġsubmitted": 7184,
    "ĠEnjoy": 7185,
    "Ġfounded": 7186,
    "iament": 7187,
    "Ġevol": 7188,
    "ibl": 7189,
    "Ġtransportation": 7190,
    "ĠLive": 7191,
    "aze": 7192,
    "Ġshock": 7193,
    "Ġsuffering": 7194,
    "stone": 7195,
    "ĠIraq": 7196,
    "ĠHoly": 7197,
    "Ġanticip": 7198,
    "Ġdumpster": 7199,
    "ĠHon": 7200,
    "Ġpartnership": 7201,
    "ĠâĨ": 7202,
    "Ġzone": 7203,
    "ĠFinancial": 7204,
    "ĠGar": 7205,
    "lights": 7206,
    "Ġfilter": 7207,
    "ĠSmall": 7208,
    "Ġscan": 7209,
    "Ġtomorrow": 7210,
    "Ġtank": 7211,
    "Ġconcerning": 7212,
    "Ġkm": 7213,
    "Ġcontest": 7214,
    "till": 7215,
    "amental": 7216,
    "TC": 7217,
    "Ġdispl": 7218,
    "uter": 7219,
    "Ġcontrolled": 7220,
    "Ġprofiles": 7221,
    "ĠExecutive": 7222,
    "ĠCarolina": 7223,
    "acked": 7224,
    "Ġfinance": 7225,
    "Ġlucky": 7226,
    "elly": 7227,
    "ĠSports": 7228,
    "ventional": 7229,
    "Ġcasual": 7230,
    "Ġincident": 7231,
    "ultural": 7232,
    "Ġpulled": 7233,
    "ĠSS": 7234,
    "Ġmanufacturers": 7235,
    "ella": 7236,
    "Ġstreets": 7237,
    "Ġsoil": 7238,
    "ĠCharles": 7239,
    "ieve": 7240,
    "Ġchrist": 7241,
    "Ġcoup": 7242,
    "Ġclock": 7243,
    "Ġproven": 7244,
    "ĠPhys": 7245,
    "Ġcrucial": 7246,
    "Ġsuperior": 7247,
    "Ġearned": 7248,
    "ĠPrem": 7249,
    "Ġcommonly": 7250,
    "Ġwealth": 7251,
    "ĠFather": 7252,
    "Ġtracks": 7253,
    "enger": 7254,
    "Ġpromise": 7255,
    "ĠFar": 7256,
    "ingers": 7257,
    "LA": 7258,
    "Ġintellect": 7259,
    "ĠEnd": 7260,
    "Ġexplan": 7261,
    "Ġoutl": 7262,
    "tip": 7263,
    "ĠWould": 7264,
    "ĠSyr": 7265,
    "Ġ600": 7266,
    "Ġbottle": 7267,
    "iana": 7268,
    "Ġbonus": 7269,
    "âĢľ": 7270,
    "flow": 7271,
    "Ġquotes": 7272,
    "icts": 7273,
    "ĠDigital": 7274,
    "Ġgrass": 7275,
    "ĠMult": 7276,
    "Ġscenar": 7277,
    "Ġhole": 7278,
    "Ġillness": 7279,
    "Ġadap": 7280,
    "Ġcheese": 7281,
    "ĠPri": 7282,
    "Ġexpressed": 7283,
    "iot": 7284,
    "aping": 7285,
    "Ġhat": 7286,
    "tube": 7287,
    "ĠSection": 7288,
    "ĠHello": 7289,
    "Ġshift": 7290,
    "Ġconsists": 7291,
    "Ġ%.": 7292,
    "Ġwave": 7293,
    "Ġcertified": 7294,
    "Ġagric": 7295,
    "II": 7296,
    "Ġadm": 7297,
    "Ġtex": 7298,
    "Ġmini": 7299,
    "ĠEgypt": 7300,
    "Ġpassword": 7301,
    "Ġsorry": 7302,
    "igned": 7303,
    "Ġunw": 7304,
    "Ġcharacteristics": 7305,
    "ĠColumb": 7306,
    "Ġscheduled": 7307,
    "amps": 7308,
    "Ġsubjects": 7309,
    "Ñģ": 7310,
    "iser": 7311,
    "ĠLuc": 7312,
    "ĠPop": 7313,
    "Ġprogramme": 7314,
    "Ġlie": 7315,
    "Ġsolve": 7316,
    "Ġinches": 7317,
    "Ġchose": 7318,
    "Ġdreams": 7319,
    "owned": 7320,
    "Ġincredibly": 7321,
    "Ġdropped": 7322,
    "Ġamounts": 7323,
    "ĠSU": 7324,
    "Ġmembership": 7325,
    "24": 7326,
    "Ġattended": 7327,
    "aes": 7328,
    "ĠProfessor": 7329,
    "Ġreputation": 7330,
    "ĠHospital": 7331,
    "Ġultimately": 7332,
    "Ġequival": 7333,
    "Ġinvited": 7334,
    "Ġcollaboration": 7335,
    "Ġintent": 7336,
    "ackson": 7337,
    "ato": 7338,
    "inn": 7339,
    "ĠON": 7340,
    "Ġtissue": 7341,
    "yers": 7342,
    "Ġbags": 7343,
    "Ġcategories": 7344,
    "ĠEngineering": 7345,
    "ĠCast": 7346,
    "illy": 7347,
    "Ġyard": 7348,
    "Ġintro": 7349,
    "Ġtalks": 7350,
    "neys": 7351,
    "Ġblind": 7352,
    "Ġcontribute": 7353,
    "Ġsending": 7354,
    "ĠPersonal": 7355,
    "Ġremoval": 7356,
    "ayer": 7357,
    "Ġdrinking": 7358,
    "Ġbrilliant": 7359,
    "ĠCe": 7360,
    "uls": 7361,
    "Ġtum": 7362,
    "ĠHor": 7363,
    "Ġliterally": 7364,
    "stance": 7365,
    "Ġ05": 7366,
    "ĠWebsite": 7367,
    "Ġ~": 7368,
    "agues": 7369,
    "Ġterrit": 7370,
    "Ġapplicable": 7371,
    "ĠMach": 7372,
    "Ġproducing": 7373,
    "ifth": 7374,
    "Ġhotels": 7375,
    "Ġï¿½": 7376,
    "za": 7377,
    "lock": 7378,
    "ĠPS": 7379,
    "ĠJohnson": 7380,
    "Ġengagement": 7381,
    "Ġvictory": 7382,
    "ĠOS": 7383,
    "MA": 7384,
    "ĠAuto": 7385,
    "adow": 7386,
    "ĠLocal": 7387,
    "Ġinvention": 7388,
    "ĠSenate": 7389,
    "Ġincreasingly": 7390,
    "Ġ54": 7391,
    "ĠDaniel": 7392,
    "Ġoccurred": 7393,
    "Ġrelief": 7394,
    "Ġbridge": 7395,
    "Ġchart": 7396,
    "Ġdust": 7397,
    "Ġ250": 7398,
    "Ġmerch": 7399,
    "70": 7400,
    "Ġattract": 7401,
    "tled": 7402,
    "otton": 7403,
    "Ġgenerated": 7404,
    "stery": 7405,
    "Ġevolution": 7406,
    "Ġrequested": 7407,
    "Ġportr": 7408,
    "UT": 7409,
    "Ġtack": 7410,
    "Ġtwe": 7411,
    "Ġswimming": 7412,
    "Ġlies": 7413,
    "intage": 7414,
    "Ġstored": 7415,
    "OV": 7416,
    "oop": 7417,
    "ĠOffic": 7418,
    "Ġhabit": 7419,
    "Ġcru": 7420,
    "ĠPract": 7421,
    "Ġpermanent": 7422,
    "Ġengaged": 7423,
    "ĠCome": 7424,
    "Ġ01": 7425,
    "anger": 7426,
    "ora": 7427,
    "ĠEnvironment": 7428,
    "Ġapproval": 7429,
    "Ġrose": 7430,
    "profit": 7431,
    "iece": 7432,
    "Ġneither": 7433,
    "ashed": 7434,
    "Ġear": 7435,
    "Ġpersonality": 7436,
    "Ġpreparation": 7437,
    "ĠWild": 7438,
    "ĠMean": 7439,
    "Ġcausing": 7440,
    "23": 7441,
    "Ġacting": 7442,
    "Ġpink": 7443,
    "Ġdivor": 7444,
    "Ġassociation": 7445,
    "Ġmile": 7446,
    "Ġwarning": 7447,
    "Ġcontaining": 7448,
    "ĠMrs": 7449,
    "ĠOlymp": 7450,
    "ĠContr": 7451,
    "whel": 7452,
    "Ġdesired": 7453,
    "Ġadds": 7454,
    "Ġrespectively": 7455,
    "Ġmolec": 7456,
    "ĠVan": 7457,
    "Ġweekly": 7458,
    "Ġtro": 7459,
    "Ġhydro": 7460,
    "icate": 7461,
    "ealand": 7462,
    "ĠMarketing": 7463,
    "Ġsharp": 7464,
    "ĠGames": 7465,
    "Ġconnections": 7466,
    "ĠLow": 7467,
    "Ġera": 7468,
    "Ġles": 7469,
    "Ġinvolves": 7470,
    "ĠPrice": 7471,
    "Ġcontrols": 7472,
    "ĠCR": 7473,
    "asp": 7474,
    "Ġmemories": 7475,
    "Ġconsideration": 7476,
    "folio": 7477,
    "Ġaccordance": 7478,
    "eling": 7479,
    "lessly": 7480,
    "ĠTurn": 7481,
    "Ġ53": 7482,
    "Ġsurprising": 7483,
    "Ġvend": 7484,
    "ĠPack": 7485,
    "irts": 7486,
    "Ġillegal": 7487,
    "Ġtip": 7488,
    "Ġroles": 7489,
    "Ġexplains": 7490,
    "ĠEll": 7491,
    "Ġdepends": 7492,
    "Ġrecon": 7493,
    "Ġhospit": 7494,
    "imental": 7495,
    "Ġisol": 7496,
    "Ġpreferred": 7497,
    "Ġrepeated": 7498,
    "inent": 7499,
    "ĠFed": 7500,
    "eller": 7501,
    "Ġlawyer": 7502,
    "Ġnewly": 7503,
    "ĠAndrew": 7504,
    "Ġmand": 7505,
    "Ġmath": 7506,
    "verage": 7507,
    "gorith": 7508,
    "vis": 7509,
    "date": 7510,
    "Ġraw": 7511,
    "Ġoffices": 7512,
    "ĠEss": 7513,
    "ENT": 7514,
    "Ġtil": 7515,
    "hm": 7516,
    "ucking": 7517,
    "ĠPubl": 7518,
    "Ġcabinet": 7519,
    "Ġcircuit": 7520,
    "Ġwhis": 7521,
    "Ġexpenses": 7522,
    "Ġcontained": 7523,
    "ĠBow": 7524,
    "ĠSky": 7525,
    "Ġwooden": 7526,
    "Ġunus": 7527,
    "cribe": 7528,
    "tense": 7529,
    "ĠNight": 7530,
    "ĠInsurance": 7531,
    "ĠSon": 7532,
    "ĠPA": 7533,
    "Ġlets": 7534,
    "agged": 7535,
    "Ġlect": 7536,
    "Ġapproaches": 7537,
    "Ġlady": 7538,
    "Ġgate": 7539,
    "Ġbars": 7540,
    "ĠKim": 7541,
    "ĠMA": 7542,
    "oured": 7543,
    "Ġdriven": 7544,
    "Ġguidelines": 7545,
    "ĠGuide": 7546,
    "Ġframework": 7547,
    "ĠFlo": 7548,
    "rect": 7549,
    "ĠRemember": 7550,
    "ĠJones": 7551,
    "ĠResp": 7552,
    "ĠOhio": 7553,
    "Ġenterprise": 7554,
    "Ġphenomen": 7555,
    "Ġ190": 7556,
    "Ġcontinuing": 7557,
    "ĠRoman": 7558,
    "Ġsavings": 7559,
    "Ġstuck": 7560,
    "Ġwhenever": 7561,
    "ĠCond": 7562,
    "ĠPakistan": 7563,
    "Ġflash": 7564,
    "BI": 7565,
    "ĠWi": 7566,
    "ĠPut": 7567,
    "Ġhyper": 7568,
    "raid": 7569,
    "Ġarrive": 7570,
    "anges": 7571,
    "eck": 7572,
    "Ġassume": 7573,
    "oration": 7574,
    "ĠChampions": 7575,
    "Ġcrop": 7576,
    "ĠWithout": 7577,
    "Ġscheme": 7578,
    "Ġmoist": 7579,
    "oms": 7580,
    "Ġsaving": 7581,
    "Ġdiseases": 7582,
    "Ġinqu": 7583,
    "Ġphones": 7584,
    "Ġspons": 7585,
    "Ġobjective": 7586,
    "Ġweapons": 7587,
    "ĠSecretary": 7588,
    "Ġinsight": 7589,
    "Ġcarrying": 7590,
    "Ġtalked": 7591,
    "Ġresc": 7592,
    "Ġstain": 7593,
    "Ġcompat": 7594,
    "amber": 7595,
    "Ġaside": 7596,
    "iversary": 7597,
    "GB": 7598,
    "Ġnutrition": 7599,
    "Ġevaluation": 7600,
    "Ġunderstood": 7601,
    "Ġempty": 7602,
    "Ġpic": 7603,
    "Ġalive": 7604,
    "Ġtrop": 7605,
    "ĠShould": 7606,
    "Ġlimits": 7607,
    "Ġ800": 7608,
    "Ġeverywhere": 7609,
    "Ġfirms": 7610,
    "ĠPacific": 7611,
    "Ġbelieves": 7612,
    "Ġregardless": 7613,
    "Ġwatched": 7614,
    "Ġfrequency": 7615,
    "pto": 7616,
    "Ð¾Ð": 7617,
    "ĠUr": 7618,
    "ĠTO": 7619,
    "ĠOrder": 7620,
    "Ġrecipes": 7621,
    "Ġgentle": 7622,
    "ĠJustice": 7623,
    "ansas": 7624,
    "Â°": 7625,
    "ala": 7626,
    "Ġcryst": 7627,
    "holders": 7628,
    "ĠBuilding": 7629,
    "Ġenjoying": 7630,
    "Ġlists": 7631,
    "Ġsustainable": 7632,
    "TA": 7633,
    "Ġtreatments": 7634,
    "Ġfundamental": 7635,
    "Ġneut": 7636,
    "Ġforgot": 7637,
    "Ġnecessarily": 7638,
    "Ġhealing": 7639,
    "Ġdoctors": 7640,
    "Ġcolon": 7641,
    "Ġcovering": 7642,
    "Ġrecommendations": 7643,
    "Ġlargely": 7644,
    "ĠTraining": 7645,
    "Ġconscious": 7646,
    "Ġtourn": 7647,
    "ĠComple": 7648,
    "Ġjun": 7649,
    "Ġcoal": 7650,
    "Ġtill": 7651,
    "Ġembr": 7652,
    "Ġseats": 7653,
    "ĠClean": 7654,
    "class": 7655,
    "Ġinhe": 7656,
    "Ġtech": 7657,
    "Ġsensitive": 7658,
    "Ġmurder": 7659,
    "ĠEt": 7660,
    "ĠFREE": 7661,
    "Ġblocks": 7662,
    "Ġlake": 7663,
    "Ġinvolving": 7664,
    "lyn": 7665,
    "ĠSanta": 7666,
    "Ġinven": 7667,
    "Ġorient": 7668,
    "Ġtube": 7669,
    "ĠJava": 7670,
    "Ġ56": 7671,
    "Ġaccomplish": 7672,
    "Ġtransp": 7673,
    "Ġalleged": 7674,
    "ĠOrig": 7675,
    "born": 7676,
    "Ġ1990": 7677,
    "Ġfestival": 7678,
    "Ġdecent": 7679,
    "ĠEff": 7680,
    "Ġarray": 7681,
    "ĠBritain": 7682,
    "ĠDVD": 7683,
    "Ġinstruction": 7684,
    "ĠVideo": 7685,
    "Ġclaimed": 7686,
    "Ġpotentially": 7687,
    "Ġresume": 7688,
    "Ġmature": 7689,
    "Ġ1999": 7690,
    "Ġrecognition": 7691,
    "long": 7692,
    "ili": 7693,
    "ĠZealand": 7694,
    "Ġdu": 7695,
    "UR": 7696,
    "oir": 7697,
    "Ġanymore": 7698,
    "ĠEveryone": 7699,
    "Ġgard": 7700,
    "ĠBang": 7701,
    "da": 7702,
    "Ġapparently": 7703,
    "Ġbooking": 7704,
    "ĠJackson": 7705,
    "ĠCab": 7706,
    "ĠPrime": 7707,
    "Ġscientists": 7708,
    "Ġconsumption": 7709,
    "ĠFrancisco": 7710,
    "ĠDar": 7711,
    "Ġpercentage": 7712,
    "Ġfaces": 7713,
    "Ġchairs": 7714,
    "ey": 7715,
    "Ġexposed": 7716,
    "Ġlesson": 7717,
    "Ġmarked": 7718,
    "eters": 7719,
    "Ġaddresses": 7720,
    "ĠJersey": 7721,
    "Ã¢": 7722,
    "Ġdrawn": 7723,
    "hem": 7724,
    "Ġnaturally": 7725,
    "Ġinjuries": 7726,
    "ĠMichigan": 7727,
    "ĠLin": 7728,
    "Ġadmit": 7729,
    "ĠRay": 7730,
    "ĠNorthern": 7731,
    "Ġinstant": 7732,
    "Ġwhilst": 7733,
    "missions": 7734,
    "Ġpod": 7735,
    "berry": 7736,
    "Ġhen": 7737,
    "Ġhandling": 7738,
    "front": 7739,
    "Ġaggress": 7740,
    "Ġoverwhel": 7741,
    "Ġlegislation": 7742,
    "âĢ²": 7743,
    "Ġmatches": 7744,
    "made": 7745,
    "Ġbacter": 7746,
    "tact": 7747,
    "Ġmg": 7748,
    "Ġvulner": 7749,
    "tie": 7750,
    "izer": 7751,
    "Ġstudied": 7752,
    "lv": 7753,
    "ologist": 7754,
    "Ġtracking": 7755,
    "Ġtransmission": 7756,
    "aka": 7757,
    "Ġphilosophy": 7758,
    "onics": 7759,
    "Ġsections": 7760,
    "Ġscenes": 7761,
    "aer": 7762,
    "Ġfindings": 7763,
    "Ġdefault": 7764,
    "Ġconserv": 7765,
    "itting": 7766,
    "Ġanalyz": 7767,
    "Ġobserv": 7768,
    "Ġchannels": 7769,
    "Ġpublication": 7770,
    "Ġstaying": 7771,
    "Ġrefr": 7772,
    "utor": 7773,
    "ĠPrin": 7774,
    "Ġgeneric": 7775,
    "ĠVill": 7776,
    "Ġbehalf": 7777,
    "ĠGreek": 7778,
    "Ġwestern": 7779,
    "Ġ59": 7780,
    "Ġcraft": 7781,
    "ĠWilliams": 7782,
    "ĠCC": 7783,
    "ĠQuest": 7784,
    "Ġ1000": 7785,
    "Ġstood": 7786,
    "Ġavailability": 7787,
    "afe": 7788,
    "Ġreducing": 7789,
    "aved": 7790,
    "ris": 7791,
    "Ġvisible": 7792,
    "Ġ`": 7793,
    "Ġmeals": 7794,
    "tang": 7795,
    "ĠTax": 7796,
    "Ġzero": 7797,
    "Ġsuggestions": 7798,
    "Ġstrict": 7799,
    "Ġcatalog": 7800,
    "stitution": 7801,
    "Ġindicate": 7802,
    "Ġratio": 7803,
    "Ġboot": 7804,
    "apore": 7805,
    "ĠDu": 7806,
    "Ġlaid": 7807,
    "Ġtone": 7808,
    "onder": 7809,
    "Ġcommunicate": 7810,
    "Ġocean": 7811,
    "ĠPlace": 7812,
    "Ġcapabilities": 7813,
    "Ġstring": 7814,
    "can": 7815,
    "Ġvess": 7816,
    "ĠJac": 7817,
    "Ġclicking": 7818,
    "Ġsecondary": 7819,
    "ruption": 7820,
    "tired": 7821,
    "Ġafraid": 7822,
    "ĠCommon": 7823,
    "Ġfactory": 7824,
    "Ġsupplement": 7825,
    "HS": 7826,
    "Ġfascin": 7827,
    "ĠLiving": 7828,
    "Ġpowers": 7829,
    "Ġextension": 7830,
    "Ġpermit": 7831,
    "Ġbroke": 7832,
    "Ġending": 7833,
    "Ġawarded": 7834,
    "Ġlanguages": 7835,
    "ĠBlog": 7836,
    "Ġgraphic": 7837,
    "Ġhell": 7838,
    "Ġindustries": 7839,
    "Ġbreaking": 7840,
    "Ġdevelopers": 7841,
    "ĠGre": 7842,
    "ĠTravel": 7843,
    "Ġgraphics": 7844,
    "Ġrequirement": 7845,
    "erry": 7846,
    "Ġbunch": 7847,
    "ĠWorks": 7848,
    "Ġcareful": 7849,
    "Ġstatistics": 7850,
    "Ġhorr": 7851,
    "laim": 7852,
    "ĠFarm": 7853,
    "ĠSea": 7854,
    "ĠSEO": 7855,
    "Ġmood": 7856,
    "Ġstayed": 7857,
    "Ġusage": 7858,
    "Ġalgorith": 7859,
    "Ġresponses": 7860,
    "Ġdental": 7861,
    "level": 7862,
    "ĠPerform": 7863,
    "Ġbuff": 7864,
    "Ġdivision": 7865,
    "Ġeld": 7866,
    "Ġshouldn": 7867,
    "Ġcouncil": 7868,
    "Ġurl": 7869,
    "Ġoccurs": 7870,
    "In": 7871,
    "Tube": 7872,
    "ĠCook": 7873,
    "Ġtired": 7874,
    "Ġprinting": 7875,
    "Ġgene": 7876,
    "ĠSystems": 7877,
    "Ġremained": 7878,
    "Ġleague": 7879,
    "Ġrequests": 7880,
    "ĠRepublican": 7881,
    "Ġarmy": 7882,
    "Ġrelation": 7883,
    "Ġwithdr": 7884,
    "ĠAsh": 7885,
    "Ġvictims": 7886,
    "urning": 7887,
    "enders": 7888,
    "books": 7889,
    "Ġsed": 7890,
    "ca": 7891,
    "ĠES": 7892,
    "Ġsacr": 7893,
    "hro": 7894,
    "Ġdisplayed": 7895,
    "Ġexpansion": 7896,
    "Ġrencont": 7897,
    "Ġax": 7898,
    "vas": 7899,
    "Ġloving": 7900,
    "ĠJoseph": 7901,
    "ĠSus": 7902,
    "Ġsuddenly": 7903,
    "Ġstable": 7904,
    "ĠDie": 7905,
    "Ġ08": 7906,
    "ĠâĢĻ,": 7907,
    "ubs": 7908,
    "Ġ85": 7909,
    "ĠKingdom": 7910,
    "Ġmerely": 7911,
    "Ġessays": 7912,
    "ais": 7913,
    "ĠSher": 7914,
    "ĠÂ·": 7915,
    "Ġfaculty": 7916,
    "Ġstrongly": 7917,
    "rog": 7918,
    "ells": 7919,
    "ĠKorea": 7920,
    "ĠProper": 7921,
    "ĠFord": 7922,
    "anted": 7923,
    "anche": 7924,
    "Ġeligible": 7925,
    "Ġbowl": 7926,
    "och": 7927,
    "ĠRam": 7928,
    "ĠCN": 7929,
    "Ġmarks": 7930,
    "onna": 7931,
    "Ġbirds": 7932,
    "arters": 7933,
    "Ġshots": 7934,
    "ĠCarl": 7935,
    "Ġhasn": 7936,
    "tent": 7937,
    "Ġintense": 7938,
    "Ġpermission": 7939,
    "Ġwash": 7940,
    "aret": 7941,
    "Ġlatter": 7942,
    "Ġrural": 7943,
    "Ġwanting": 7944,
    "Ġreferr": 7945,
    "ulum": 7946,
    "ĠCommunic": 7947,
    "ailing": 7948,
    "va": 7949,
    "anes": 7950,
    "Ġsau": 7951,
    "rics": 7952,
    "ulted": 7953,
    "ĠTal": 7954,
    "Ġbird": 7955,
    "law": 7956,
    "uling": 7957,
    "Ġdevot": 7958,
    "etary": 7959,
    "ĠInsp": 7960,
    "Ġexists": 7961,
    "Ġresort": 7962,
    "Ġnights": 7963,
    "ĠYOU": 7964,
    "rets": 7965,
    "ĠSir": 7966,
    "ione": 7967,
    "Ġaircraft": 7968,
    "Ġawards": 7969,
    "Ġworship": 7970,
    "Ġplane": 7971,
    "ĠDivision": 7972,
    "Ġplatforms": 7973,
    "ĠBased": 7974,
    "ĠColl": 7975,
    "Ġfinger": 7976,
    "pled": 7977,
    "Ġjoining": 7978,
    "Ġescape": 7979,
    "Ġblank": 7980,
    "Ġequivalent": 7981,
    "Ġcriteria": 7982,
    "obby": 7983,
    "Ġdad": 7984,
    "ĠSenior": 7985,
    "Ġgreatly": 7986,
    "Ġstake": 7987,
    "Ġimper": 7988,
    "Ġinch": 7989,
    "Ġalongside": 7990,
    "Ġ':": 7991,
    "Ġ120": 7992,
    "ĠTrust": 7993,
    "Ġspecialist": 7994,
    "Ġproposal": 7995,
    "Ġcig": 7996,
    "ĠConf": 7997,
    "oman": 7998,
    "Ġgranted": 7999,
    "Ġinteraction": 8000,
    "ĠColorado": 8001,
    "Ġunknown": 8002,
    "Ġentitled": 8003,
    "Ġconsent": 8004,
    "terior": 8005,
    "Ġstead": 8006,
    "ĠKind": 8007,
    "rovers": 8008,
    "Ġchecking": 8009,
    "Ġtact": 8010,
    "Ġhits": 8011,
    "ĠForm": 8012,
    "Ġmanagers": 8013,
    "ĠDNA": 8014,
    "ĠURL": 8015,
    "Ġromantic": 8016,
    "ensus": 8017,
    "ĠNiger": 8018,
    "Ġthousand": 8019,
    "ĠAirport": 8020,
    "ĠArea": 8021,
    "Ġimplic": 8022,
    "upid": 8023,
    "Ġenables": 8024,
    "bury": 8025,
    "Ġ],": 8026,
    "ĠOK": 8027,
    "Ġequally": 8028,
    "ĠStudies": 8029,
    "ieties": 8030,
    "Ġgiant": 8031,
    "Ġcomplicated": 8032,
    "Ġcro": 8033,
    "Ġchest": 8034,
    "ĠGeorgia": 8035,
    "Ġtransaction": 8036,
    "ĠExp": 8037,
    "ĠDist": 8038,
    "rick": 8039,
    "ĠSpr": 8040,
    "Ġloose": 8041,
    "Ġmaintained": 8042,
    "ĠâĨĴ": 8043,
    "Ġflying": 8044,
    "ĠSE": 8045,
    "ba": 8046,
    "page": 8047,
    "Ġadapt": 8048,
    "Ġsouthern": 8049,
    "reement": 8050,
    "Ġpriority": 8051,
    "ĠViet": 8052,
    "Ġfalling": 8053,
    "iour": 8054,
    "ĠModern": 8055,
    "Ġseed": 8056,
    "Ġexceptional": 8057,
    "Ġcomputers": 8058,
    "Ġoutcome": 8059,
    "Ġnursing": 8060,
    "Ġminimal": 8061,
    "ĠKitchen": 8062,
    "ĠAdditionally": 8063,
    "Ġmathemat": 8064,
    "inos": 8065,
    "Ġchildhood": 8066,
    "Ġpocket": 8067,
    "anned": 8068,
    "Ġrepresented": 8069,
    "Ġsatisfaction": 8070,
    "Ġstages": 8071,
    "bridge": 8072,
    "Ġ57": 8073,
    "Ġmortgage": 8074,
    "ĠProfessional": 8075,
    "ĠMobile": 8076,
    "21": 8077,
    "ĠCirc": 8078,
    "Ġ41": 8079,
    "ĠCustom": 8080,
    "Ġsurve": 8081,
    "ilder": 8082,
    "Ġreject": 8083,
    "ĠRose": 8084,
    "Ġcompliance": 8085,
    "Ġanxiety": 8086,
    "Ġyours": 8087,
    "Ġhopes": 8088,
    "Ġpricing": 8089,
    "Ġmeasured": 8090,
    "iac": 8091,
    "utors": 8092,
    "Ġ.....": 8093,
    "Ġretr": 8094,
    "ussy": 8095,
    "Ġfluid": 8096,
    "ĠQueen": 8097,
    "Ġdebut": 8098,
    "ĠShan": 8099,
    "Ġportfolio": 8100,
    "Ġmoral": 8101,
    "under": 8102,
    "Ġinduc": 8103,
    "Ġcalendar": 8104,
    "Ġchronic": 8105,
    "Ġdemands": 8106,
    "Ġdent": 8107,
    "Ġdispos": 8108,
    "inet": 8109,
    "Ġpig": 8110,
    "ĠConc": 8111,
    "Ġpurchasing": 8112,
    "redit": 8113,
    "wear": 8114,
    "Ġoutcomes": 8115,
    "abetes": 8116,
    "ĠMs": 8117,
    "Ġlisting": 8118,
    "Ġelectricity": 8119,
    "Ġadopted": 8120,
    "len": 8121,
    "ĠSummer": 8122,
    "Ġmeets": 8123,
    "Ġapplying": 8124,
    "Ġaccounting": 8125,
    "Ġtonight": 8126,
    "Ġmixture": 8127,
    "ĠStore": 8128,
    "Ġrecover": 8129,
    "Ġgrace": 8130,
    "eping": 8131,
    "Ġprofessor": 8132,
    "ington": 8133,
    "RI": 8134,
    "Ġ58": 8135,
    "Ġinfection": 8136,
    "ĠNick": 8137,
    "Ġcenters": 8138,
    "Ġdescribes": 8139,
    "onto": 8140,
    "Ġexhibition": 8141,
    "ĠHey": 8142,
    "Ġcart": 8143,
    "Ġchecked": 8144,
    "Ġ09": 8145,
    "Ġemployed": 8146,
    "Ġindicated": 8147,
    "Ġtraveling": 8148,
    "Ġattitude": 8149,
    "haust": 8150,
    "ĠSpain": 8151,
    "Ġadequ": 8152,
    "Ġdeeply": 8153,
    "isdom": 8154,
    "Ġconsequences": 8155,
    "oding": 8156,
    "ĠYouTube": 8157,
    "ĠEmp": 8158,
    "Ġrenov": 8159,
    "Ġmaintaining": 8160,
    "hou": 8161,
    "ĠMir": 8162,
    "Ġintellectual": 8163,
    "Ġbuyers": 8164,
    "Ġsop": 8165,
    "ĠLED": 8166,
    "ĠSales": 8167,
    "asure": 8168,
    "uties": 8169,
    "Ġstudying": 8170,
    "igate": 8171,
    "ĠGovern": 8172,
    "Ġassigned": 8173,
    "anny": 8174,
    "ĠEverything": 8175,
    "ĠSwed": 8176,
    "ĠFollowing": 8177,
    "ĠUk": 8178,
    "ucky": 8179,
    "Ġlip": 8180,
    "remony": 8181,
    "Ġheating": 8182,
    "ĠEst": 8183,
    "achel": 8184,
    "ĠHP": 8185,
    "Ġbass": 8186,
    "Ġgym": 8187,
    "Ġelegant": 8188,
    "Ġsees": 8189,
    "ĠBudd": 8190,
    "Ġerrors": 8191,
    "ambling": 8192,
    "Ġhanging": 8193,
    "Ġexem": 8194,
    "Ġfalls": 8195,
    "ampion": 8196,
    "Ġrapidly": 8197,
    "Ġupgrade": 8198,
    "ĠCivil": 8199,
    "ĠAmong": 8200,
    "Ġwondering": 8201,
    "ĠSoftware": 8202,
    "Ġlegit": 8203,
    "Ġchances": 8204,
    "itches": 8205,
    "Ġsubstantial": 8206,
    "DS": 8207,
    "Ġpace": 8208,
    "Ġdiscip": 8209,
    "ĠNC": 8210,
    "Ġscrew": 8211,
    "Ġdemonstrate": 8212,
    "Ġheaded": 8213,
    "Ġpowder": 8214,
    "Ġaccommodation": 8215,
    "Ġacquis": 8216,
    "Ġ66": 8217,
    "Ġrepresentative": 8218,
    "Ġattach": 8219,
    "Ġentrance": 8220,
    "Ġpep": 8221,
    "Ġboxes": 8222,
    "Ġintegration": 8223,
    "riends": 8224,
    "Ġ1998": 8225,
    "Ġtranslation": 8226,
    "Ġ02": 8227,
    "Ġht": 8228,
    "Ġunion": 8229,
    "Ġretirement": 8230,
    "Ġru": 8231,
    "Ġweren": 8232,
    "Ġfraud": 8233,
    "Ġpredict": 8234,
    "PN": 8235,
    "Ġsequence": 8236,
    "unt": 8237,
    "roduction": 8238,
    "Ġrecip": 8239,
    "Ġgaming": 8240,
    "ership": 8241,
    "ĠPen": 8242,
    "ĠHenry": 8243,
    "Ġopens": 8244,
    "Ġpride": 8245,
    "Ġrising": 8246,
    "usher": 8247,
    "Ġstorm": 8248,
    "ĠFred": 8249,
    "Ġprayer": 8250,
    "Ġconce": 8251,
    "SE": 8252,
    "ĠProp": 8253,
    "Ġstronger": 8254,
    "Ġacquired": 8255,
    "Ġharder": 8256,
    "iche": 8257,
    "thy": 8258,
    "stein": 8259,
    "Ġ1980": 8260,
    "Ġpounds": 8261,
    "alysis": 8262,
    "bel": 8263,
    "Ġnations": 8264,
    "Ġinteract": 8265,
    "Ġputs": 8266,
    "Ġ%,": 8267,
    "Ġinitially": 8268,
    "Ġlifetime": 8269,
    "lose": 8270,
    "Ġpitch": 8271,
    "Ġbone": 8272,
    "Ġlegend": 8273,
    "ĠTot": 8274,
    "ĠIM": 8275,
    "Ġsought": 8276,
    "Ġaccuracy": 8277,
    "Ġvert": 8278,
    "bar": 8279,
    "ĠTay": 8280,
    "ĠMembers": 8281,
    "site": 8282,
    "Ġdowntown": 8283,
    "Ġfif": 8284,
    "Ġcodes": 8285,
    "Ġcopyright": 8286,
    "orous": 8287,
    "ĠNeed": 8288,
    "aha": 8289,
    "eras": 8290,
    "Ġpropor": 8291,
    "ĠDaily": 8292,
    "ĠBox": 8293,
    "pted": 8294,
    "Ġtelephone": 8295,
    "Ġplain": 8296,
    "agrap": 8297,
    "Ġmirror": 8298,
    "Ġphotographs": 8299,
    "Ġinstitution": 8300,
    "Ġlift": 8301,
    "Ġcomposition": 8302,
    "Ġscope": 8303,
    "Ġcurrency": 8304,
    "Ġspectr": 8305,
    "issions": 8306,
    "Ġriding": 8307,
    "ĠSupreme": 8308,
    "Ġcialis": 8309,
    "Ġextend": 8310,
    "rid": 8311,
    "Ġmm": 8312,
    "ĠStan": 8313,
    "roke": 8314,
    "Ġactor": 8315,
    "itt": 8316,
    "Ġgained": 8317,
    "Ġspark": 8318,
    "Ġhosted": 8319,
    "Ġlaptop": 8320,
    "Ġspots": 8321,
    "ĠFox": 8322,
    "elry": 8323,
    "Ġdirections": 8324,
    "Ġsatisfied": 8325,
    "ĠIrish": 8326,
    "Ġparticipation": 8327,
    "Ġnewspaper": 8328,
    "Ġedit": 8329,
    "Ġreveal": 8330,
    "alty": 8331,
    "Ġflavor": 8332,
    "urse": 8333,
    "Ġcontrovers": 8334,
    "ĠThing": 8335,
    "ĠLine": 8336,
    "Ġintention": 8337,
    "athered": 8338,
    "cribed": 8339,
    "Ġscores": 8340,
    "Ġfocuses": 8341,
    "Ġbranch": 8342,
    "Ġcoc": 8343,
    "Ġhes": 8344,
    "Ġje": 8345,
    "bec": 8346,
    "riers": 8347,
    "Ġwise": 8348,
    "ura": 8349,
    "ĠGarden": 8350,
    "Ġranking": 8351,
    "ĠInstagram": 8352,
    "Ġ04": 8353,
    "90": 8354,
    "Ġformation": 8355,
    "Ġgre": 8356,
    "Ġpackages": 8357,
    "Ġantib": 8358,
    "ateful": 8359,
    "Ġsuffer": 8360,
    "Ġlens": 8361,
    "Ġeggs": 8362,
    "Ġtrim": 8363,
    "ĠForce": 8364,
    "Ġengines": 8365,
    "Ġshoulder": 8366,
    "phones": 8367,
    "Ġrecyc": 8368,
    "ani": 8369,
    "ĠMade": 8370,
    "war": 8371,
    "zer": 8372,
    "iform": 8373,
    "Ġnom": 8374,
    "Ġboss": 8375,
    "oster": 8376,
    "arat": 8377,
    "ref": 8378,
    "quality": 8379,
    "hnic": 8380,
    "ador": 8381,
    "ashes": 8382,
    "Ġsegment": 8383,
    "iah": 8384,
    "Ġborrow": 8385,
    "Ġdepression": 8386,
    "ĠMD": 8387,
    "Ġabandon": 8388,
    "Ġmold": 8389,
    "ĠGM": 8390,
    "theast": 8391,
    "Ġlayout": 8392,
    "Ġthinks": 8393,
    "icide": 8394,
    "Ġeverybody": 8395,
    "odge": 8396,
    "Ġinteractive": 8397,
    "Ġpersonnel": 8398,
    "mers": 8399,
    "Ġmyt": 8400,
    "mith": 8401,
    "sen": 8402,
    "aqu": 8403,
    "Ġconventional": 8404,
    "Ġconclusion": 8405,
    "amics": 8406,
    "ĠCountry": 8407,
    "orses": 8408,
    "Ġdiversity": 8409,
    "ĠSingapore": 8410,
    "ĠTerms": 8411,
    "jection": 8412,
    "ĠBul": 8413,
    "Ġ''": 8414,
    "Ġdiamond": 8415,
    "Ġenforcement": 8416,
    "Ġelected": 8417,
    "Ġtan": 8418,
    "ĠEastern": 8419,
    "imp": 8420,
    "Ġbrowse": 8421,
    "ĠHollywood": 8422,
    "ĠPot": 8423,
    "Ġmistake": 8424,
    "Ġshell": 8425,
    "Ġelectro": 8426,
    "Ġgotten": 8427,
    "Ġ07": 8428,
    "ĠFigure": 8429,
    "Ġhide": 8430,
    "ĠBush": 8431,
    "Ġstrike": 8432,
    "Ġcertificate": 8433,
    "Ġmanif": 8434,
    "inois": 8435,
    "ĠQuality": 8436,
    "ĠAL": 8437,
    "ĠEvent": 8438,
    "Ġensuring": 8439,
    "Ġcorrectly": 8440,
    "Ġham": 8441,
    "Ġappointed": 8442,
    "Ġrestor": 8443,
    "lusive": 8444,
    "ĠLink": 8445,
    "mo": 8446,
    "ĠPin": 8447,
    "ĠPo": 8448,
    "Ġcarpet": 8449,
    "ĠFoot": 8450,
    "ĠDisney": 8451,
    "Ġholidays": 8452,
    "Ġpregnancy": 8453,
    "Ġencouraged": 8454,
    "ĠSpace": 8455,
    "ouston": 8456,
    "imination": 8457,
    "ĠLind": 8458,
    "Ġinhib": 8459,
    "Ġpainted": 8460,
    "Ġincom": 8461,
    "Ġheaven": 8462,
    "Ġmaxim": 8463,
    "Ġprohib": 8464,
    "rosc": 8465,
    "ĠDam": 8466,
    "ĠAdam": 8467,
    "Ġexamination": 8468,
    "Ġladies": 8469,
    "ĠSilver": 8470,
    "lude": 8471,
    "ressed": 8472,
    "tap": 8473,
    "Ġweird": 8474,
    "Ġstations": 8475,
    "Ġodd": 8476,
    "ĠSever": 8477,
    "Ġ^": 8478,
    "Ġpra": 8479,
    "ĠProduct": 8480,
    "Ġgap": 8481,
    "Ġtitles": 8482,
    "ĠKenn": 8483,
    "ĠLatin": 8484,
    "brid": 8485,
    "Ġdetect": 8486,
    "Ġrecre": 8487,
    "Ġprovision": 8488,
    "ĠRod": 8489,
    "Ġrice": 8490,
    "rend": 8491,
    "ĠRen": 8492,
    "Ġattempts": 8493,
    "ĠAdministration": 8494,
    "Ġbands": 8495,
    "igen": 8496,
    "ificial": 8497,
    "iki": 8498,
    "Ġthemes": 8499,
    "Ġentering": 8500,
    "ĠWH": 8501,
    "erts": 8502,
    "ĠOx": 8503,
    "ĠBooks": 8504,
    "ĠRef": 8505,
    "ĠFall": 8506,
    "Ġlegisl": 8507,
    "ĠLabor": 8508,
    "Ġsetup": 8509,
    "Ġessentially": 8510,
    "Ġminister": 8511,
    "Ġspeaker": 8512,
    "Ġment": 8513,
    "ĠBall": 8514,
    "Ġdeposit": 8515,
    "Ġemails": 8516,
    "Fi": 8517,
    "ĠMother": 8518,
    "Ġroads": 8519,
    "Ġpreparing": 8520,
    "Ġkilling": 8521,
    "acular": 8522,
    "adium": 8523,
    "ĠRos": 8524,
    "Ġsolo": 8525,
    "Ġloud": 8526,
    "Ġautomatic": 8527,
    "ĠEC": 8528,
    "ieved": 8529,
    "ĠKent": 8530,
    "Ġsomehow": 8531,
    "ĠCy": 8532,
    "ĠRest": 8533,
    "rich": 8534,
    "Ġcow": 8535,
    "ĠLas": 8536,
    "Ġclosing": 8537,
    "Ġsanc": 8538,
    "Ġcompensation": 8539,
    "Ġliber": 8540,
    "rell": 8541,
    "Ġassembly": 8542,
    "Ġassistant": 8543,
    "Ġunusual": 8544,
    "ĠDonald": 8545,
    "ecess": 8546,
    "ĠTar": 8547,
    "Ġdrama": 8548,
    "Ġchap": 8549,
    "Ġcontribution": 8550,
    "uster": 8551,
    "histic": 8552,
    "Ġtwist": 8553,
    "ĠDog": 8554,
    "Ġdont": 8555,
    "Ġmaps": 8556,
    "ĠLearning": 8557,
    "Ġjur": 8558,
    "Ġsink": 8559,
    "Ġdrinks": 8560,
    "ĠConnect": 8561,
    "Ġliability": 8562,
    "Ġrely": 8563,
    "ĠSeat": 8564,
    "friendly": 8565,
    "Ġheading": 8566,
    "ustin": 8567,
    "Ġrelating": 8568,
    "ĠMess": 8569,
    "ĠBC": 8570,
    "Ġfits": 8571,
    "izona": 8572,
    "udes": 8573,
    "Ġstability": 8574,
    "ĠMethod": 8575,
    "ĠRights": 8576,
    "Ġengaging": 8577,
    "Ġmechanism": 8578,
    "Ġfunctionality": 8579,
    "Ġdollar": 8580,
    "oty": 8581,
    "stract": 8582,
    "thro": 8583,
    "Ġimprovements": 8584,
    "Ġwaters": 8585,
    "Ġsmoke": 8586,
    "ĠTM": 8587,
    "Ġyards": 8588,
    "ao": 8589,
    "Ã¡": 8590,
    "Ġdesigners": 8591,
    "Ġprime": 8592,
    "ĠRS": 8593,
    "itative": 8594,
    "Ġpointed": 8595,
    "ĠFurthermore": 8596,
    "asm": 8597,
    "Ġmigr": 8598,
    "des": 8599,
    "Ġwake": 8600,
    "Ġdeeper": 8601,
    "ĠExt": 8602,
    "Ġebook": 8603,
    "Ġflag": 8604,
    "Ġceiling": 8605,
    "unicip": 8606,
    "Ġblend": 8607,
    "!!": 8608,
    "ĠPsych": 8609,
    "Ġoral": 8610,
    "ĠRadio": 8611,
    "Ġdefine": 8612,
    "Ġuniverse": 8613,
    "Ġcontinu": 8614,
    "tegr": 8615,
    "Ġnorthern": 8616,
    "Ġsuppliers": 8617,
    "Ġoh": 8618,
    "ĠRun": 8619,
    "Ġstrip": 8620,
    "Ġvacc": 8621,
    "Ġsentence": 8622,
    "Ġadvertis": 8623,
    "ocation": 8624,
    "Ġunto": 8625,
    "ĠHarr": 8626,
    "Ġcrack": 8627,
    "ĠMedicine": 8628,
    "Ġresidence": 8629,
    "ĠBes": 8630,
    "Ġbid": 8631,
    "Ġdivided": 8632,
    "Ġmuseum": 8633,
    "RS": 8634,
    "ears": 8635,
    "Ġreturning": 8636,
    "ĠBroad": 8637,
    "Ġutility": 8638,
    "star": 8639,
    "criptions": 8640,
    "Ġguaranteed": 8641,
    "Ġintroduce": 8642,
    "bra": 8643,
    "Ġtouc": 8644,
    "ouch": 8645,
    "ĠLib": 8646,
    "Ġconcert": 8647,
    "Ġperiods": 8648,
    "ĠSav": 8649,
    "ifting": 8650,
    "Ġouts": 8651,
    "quis": 8652,
    "Ġfaced": 8653,
    "Ġhoriz": 8654,
    "sole": 8655,
    "iances": 8656,
    "Ġviewing": 8657,
    "Ġexamine": 8658,
    "ught": 8659,
    "ĠDun": 8660,
    "Ġspecified": 8661,
    "Ġopinions": 8662,
    "Ġarrival": 8663,
    "Ġopposed": 8664,
    "Ġresid": 8665,
    "ĠSmart": 8666,
    "ĠInterest": 8667,
    "Ġwrap": 8668,
    "Ġamongst": 8669,
    "EE": 8670,
    "expected": 8671,
    "Ġenemy": 8672,
    "Ġcuts": 8673,
    "bsp": 8674,
    "Ġwrites": 8675,
    "ĠCorporation": 8676,
    "ĠNAS": 8677,
    "Ġtrips": 8678,
    "Ġcontinuous": 8679,
    "uma": 8680,
    "Ġoperated": 8681,
    "Ġrib": 8682,
    "Ġsignals": 8683,
    "Ġprotocol": 8684,
    "Ġbull": 8685,
    "Ġ06": 8686,
    "Ġaims": 8687,
    "gical": 8688,
    "ĠRyan": 8689,
    "Ġtoler": 8690,
    "Ġcul": 8691,
    "Ġorganis": 8692,
    "Ġmad": 8693,
    "ĠHelp": 8694,
    "ĠLA": 8695,
    "ĠChapter": 8696,
    "ashing": 8697,
    "Ġske": 8698,
    "Ġordinary": 8699,
    "Ġimplemented": 8700,
    "Ġmechanical": 8701,
    "adel": 8702,
    "boy": 8703,
    "Ġexhaust": 8704,
    "sored": 8705,
    "ĠExpress": 8706,
    "Ġfifth": 8707,
    "riculum": 8708,
    "Ġscored": 8709,
    "Ġdistributed": 8710,
    "Ġoppon": 8711,
    "Ġfocusing": 8712,
    "ĠSafety": 8713,
    "Ġdeveloper": 8714,
    "ĠVegas": 8715,
    "icon": 8716,
    "Ġtons": 8717,
    "Ġhaz": 8718,
    "ĠSM": 8719,
    "Ġcalm": 8720,
    "Ġbedrooms": 8721,
    "ĠIndustr": 8722,
    "olit": 8723,
    "Ġcolleagues": 8724,
    "Ġloyal": 8725,
    "Ġchampions": 8726,
    "Ġaged": 8727,
    "Ġprivile": 8728,
    "Ġlowest": 8729,
    "ĠAwards": 8730,
    "ĠEdition": 8731,
    "Ġvintage": 8732,
    "ĠAgency": 8733,
    "Ġconstr": 8734,
    "ĠStephen": 8735,
    "Ġenthusi": 8736,
    "sts": 8737,
    "iculty": 8738,
    "ĠFL": 8739,
    "ĠEliz": 8740,
    "Ġskilled": 8741,
    "ĠPalest": 8742,
    "abeth": 8743,
    "Ġceremony": 8744,
    "Ġestimate": 8745,
    "Ġlocks": 8746,
    "Ġes": 8747,
    "Ġbuck": 8748,
    "ĠTenn": 8749,
    "char": 8750,
    "Ġtap": 8751,
    "Ġracing": 8752,
    "Ġwond": 8753,
    "Ġbroadcast": 8754,
    "Ġexploring": 8755,
    "ĠProm": 8756,
    "Ġought": 8757,
    "ĠJenn": 8758,
    "Ġsinger": 8759,
    "Ġdual": 8760,
    "Ġdraft": 8761,
    "Ġcabinets": 8762,
    "ĠMoreover": 8763,
    "ĠSA": 8764,
    "Ġaer": 8765,
    "Ġalumin": 8766,
    "Ġdil": 8767,
    "ĠPH": 8768,
    "Ġflour": 8769,
    "Ġexport": 8770,
    "ĠStation": 8771,
    "Ġtransactions": 8772,
    "ĠÃ¢": 8773,
    "Ġcontributions": 8774,
    "Ġsubsequent": 8775,
    "fall": 8776,
    "Ġtemporary": 8777,
    "ĠPhilipp": 8778,
    "Ġsauce": 8779,
    "Ġfest": 8780,
    "FC": 8781,
    "encing": 8782,
    "Ġpacked": 8783,
    "Ġconcentration": 8784,
    "Ġanniversary": 8785,
    "ĠNO": 8786,
    "ĠPolit": 8787,
    "Ġprinciple": 8788,
    "ĠFA": 8789,
    "urities": 8790,
    "Ġsuffered": 8791,
    "ĠFeb": 8792,
    "Ġpeak": 8793,
    "Ġwarn": 8794,
    "ĠEs": 8795,
    "Ġcrypto": 8796,
    "Ġlicensed": 8797,
    "Ġdistingu": 8798,
    "ĠCustomer": 8799,
    "dney": 8800,
    "Ġcouples": 8801,
    "enda": 8802,
    "athy": 8803,
    "iology": 8804,
    "Ġ1997": 8805,
    "asting": 8806,
    "Ġkeys": 8807,
    "PC": 8808,
    "ĠBath": 8809,
    "pling": 8810,
    "ivals": 8811,
    "Ġuncertain": 8812,
    "ĠText": 8813,
    "Ġ\",\"": 8814,
    "pes": 8815,
    "Ġspray": 8816,
    "Ġevaluate": 8817,
    "ĠStock": 8818,
    "ila": 8819,
    "ĠScotland": 8820,
    "Ġcourts": 8821,
    "Ġcotton": 8822,
    "Ġclubs": 8823,
    "ĠAgreement": 8824,
    "Ġinstruments": 8825,
    "Ġsituated": 8826,
    "Ġacquire": 8827,
    "Ġoven": 8828,
    "Ġ72": 8829,
    "ĠCT": 8830,
    "vironments": 8831,
    "Ġdamaged": 8832,
    "days": 8833,
    "Ġdiscr": 8834,
    "Ġtoile": 8835,
    "Ġpromoting": 8836,
    "ounded": 8837,
    "Ġwithdraw": 8838,
    "Ġlayers": 8839,
    "Ġrarely": 8840,
    "Ġraising": 8841,
    "Ġcontents": 8842,
    "tension": 8843,
    "ĠHappy": 8844,
    "anna": 8845,
    "ghan": 8846,
    "Ġscul": 8847,
    "ĠPrivacy": 8848,
    "Ġunexpected": 8849,
    "Ġdose": 8850,
    "Ġprescription": 8851,
    "Ġinitiative": 8852,
    "Ġformula": 8853,
    "Ġparalle": 8854,
    "ĠOfficer": 8855,
    "Ġsurely": 8856,
    "Ġ\":\"": 8857,
    "Ġspir": 8858,
    "Ġvisits": 8859,
    "Ġpromotion": 8860,
    "ĠBM": 8861,
    "charge": 8862,
    "Ġimpression": 8863,
    "eness": 8864,
    "Ġblogs": 8865,
    "Ġcelebration": 8866,
    "Ġvolunteers": 8867,
    "Ġmerc": 8868,
    "Ġspeakers": 8869,
    "car": 8870,
    "Ġsummary": 8871,
    "ĠArticle": 8872,
    "Ġmes": 8873,
    "Ġholes": 8874,
    "Ġcombat": 8875,
    "rer": 8876,
    "burgh": 8877,
    "inyl": 8878,
    "Ġmodule": 8879,
    "ĠHas": 8880,
    "ĠSyn": 8881,
    "Ġmit": 8882,
    "inson": 8883,
    "Ġbeneficial": 8884,
    "ĠCialis": 8885,
    "LY": 8886,
    "ĠPrivate": 8887,
    "ĠExcell": 8888,
    "Ġsoldiers": 8889,
    "ĠLimited": 8890,
    "Ġconvert": 8891,
    "rix": 8892,
    "ĠSep": 8893,
    "tape": 8894,
    "EA": 8895,
    "ĠPas": 8896,
    "Ġemotions": 8897,
    "wan": 8898,
    "anged": 8899,
    "Ġdelivering": 8900,
    "Ġcombine": 8901,
    "Ġsurvive": 8902,
    "ĠShort": 8903,
    "ati": 8904,
    "Ġol": 8905,
    "Ġboards": 8906,
    "Ġdifficulty": 8907,
    "ĠBrian": 8908,
    "Ġexplo": 8909,
    "ĠTreat": 8910,
    "Ġdrain": 8911,
    "Ġlaser": 8912,
    "Ġcum": 8913,
    "ĠMinistry": 8914,
    "Ġ=\"": 8915,
    "uz": 8916,
    "Ġtargeted": 8917,
    "tos": 8918,
    "ĠRequ": 8919,
    "sylv": 8920,
    "uan": 8921,
    "Ġreaching": 8922,
    "ĠLLC": 8923,
    "Ġkiss": 8924,
    "omed": 8925,
    "ĠJews": 8926,
    "ĠPur": 8927,
    "ĠToronto": 8928,
    "Ġyoga": 8929,
    "Ġacknowled": 8930,
    "ĠHarry": 8931,
    "Ġperce": 8932,
    "ĠSH": 8933,
    "ĠMah": 8934,
    "Ġpanels": 8935,
    "Ġvenue": 8936,
    "Ġinterviews": 8937,
    "ĠThink": 8938,
    "ordan": 8939,
    "Ġhearts": 8940,
    "Ġ51": 8941,
    "Ġsophistic": 8942,
    "Ġminds": 8943,
    "ĠDeath": 8944,
    "Ġprincipal": 8945,
    "ĠArizona": 8946,
    "ordinary": 8947,
    "Ġopposition": 8948,
    "Ġsensor": 8949,
    "Ġsemi": 8950,
    "Ġinjured": 8951,
    "Ġproducer": 8952,
    "Ġwisdom": 8953,
    "Ġemotion": 8954,
    "ilty": 8955,
    "Ġinval": 8956,
    "etch": 8957,
    "Ġbomb": 8958,
    "Ġ1970": 8959,
    "hrop": 8960,
    "ĠIllinois": 8961,
    "GE": 8962,
    "olis": 8963,
    "Ġcameras": 8964,
    "Ġdeploy": 8965,
    "Ġperformances": 8966,
    "Ġtrem": 8967,
    "Ġadvantages": 8968,
    "Ġalter": 8969,
    "Ġwhereas": 8970,
    "Ġtooth": 8971,
    "Ġaccompan": 8972,
    "Ġfarmers": 8973,
    "ĠCapital": 8974,
    "oral": 8975,
    "Ġphp": 8976,
    "ĠSure": 8977,
    "Ġpregnant": 8978,
    "Ġbeds": 8979,
    "ĠCand": 8980,
    "Ġbehaviour": 8981,
    "Ġletting": 8982,
    "Ġsurvival": 8983,
    "Ġpassionate": 8984,
    "Ġmanip": 8985,
    "ĠBon": 8986,
    "Ġbasketball": 8987,
    "Ġokay": 8988,
    "hur": 8989,
    "ailed": 8990,
    "Ġprompt": 8991,
    "Ġamen": 8992,
    "Ġdishes": 8993,
    "aska": 8994,
    "olid": 8995,
    "ĠDue": 8996,
    "Ġwherein": 8997,
    "grap": 8998,
    "Ġflexibility": 8999,
    "ĠPoint": 9000,
    "Ġremem": 9001,
    "Ġemployer": 9002,
    "ĠAge": 9003,
    "Ġfiber": 9004,
    "ĠSty": 9005,
    "Ġasset": 9006,
    "Ġpatio": 9007,
    "ĠGive": 9008,
    "Ġsubsid": 9009,
    "Ġmedication": 9010,
    "atile": 9011,
    "Ġtemplate": 9012,
    "ĠIII": 9013,
    "CH": 9014,
    "iami": 9015,
    "Ġorange": 9016,
    "Ġcontracts": 9017,
    "Ġhip": 9018,
    "ĠAnim": 9019,
    "sylvania": 9020,
    "Ġsuspect": 9021,
    "Ġfloors": 9022,
    "ĠBrad": 9023,
    "Ġflower": 9024,
    "Ġtape": 9025,
    "izza": 9026,
    "mg": 9027,
    "ĠNatural": 9028,
    "Ġannoy": 9029,
    "Ġmountains": 9030,
    "ĠBa": 9031,
    "Ġgrat": 9032,
    "Ġemerging": 9033,
    "bian": 9034,
    "ĠTool": 9035,
    "Ġ63": 9036,
    "cle": 9037,
    "raham": 9038,
    "ĠHeart": 9039,
    "Ġdrives": 9040,
    "Ġmassage": 9041,
    "Ġicon": 9042,
    "ĠRon": 9043,
    "abil": 9044,
    "Ġrhy": 9045,
    "ĠIslam": 9046,
    "Ġseasons": 9047,
    "Ġconvenience": 9048,
    "Ġreply": 9049,
    "Ġdecrease": 9050,
    "ĠShare": 9051,
    "Ġbills": 9052,
    "Ġtalented": 9053,
    "Ġ1996": 9054,
    "Ġsinging": 9055,
    "Ġconj": 9056,
    "ĠBad": 9057,
    "Ġbol": 9058,
    "Ġattending": 9059,
    "ulator": 9060,
    "Ġshirt": 9061,
    "Ġrefuge": 9062,
    "Ġangle": 9063,
    "Ġarrested": 9064,
    "ĠEmer": 9065,
    "thew": 9066,
    "Ġha": 9067,
    "uis": 9068,
    "Ġkil": 9069,
    "Ġamerican": 9070,
    "Ġfewer": 9071,
    "Ġreplic": 9072,
    "ĠClinton": 9073,
    "Ġyield": 9074,
    "Ġpilot": 9075,
    "Ġgovernments": 9076,
    "unes": 9077,
    "ĠHistor": 9078,
    "Ġpip": 9079,
    "Ġsignature": 9080,
    "Ġtie": 9081,
    "ĠDark": 9082,
    "urches": 9083,
    "Ġlean": 9084,
    "ĠAsk": 9085,
    "earing": 9086,
    "Ġfingers": 9087,
    "Ġenvironments": 9088,
    "ĠTaylor": 9089,
    "RC": 9090,
    "uating": 9091,
    "ĠUSB": 9092,
    "Ġjudgment": 9093,
    "Ġproved": 9094,
    "ĠLew": 9095,
    "apy": 9096,
    "Ġswing": 9097,
    "tock": 9098,
    "Ġdrag": 9099,
    "fits": 9100,
    "Ġcopies": 9101,
    "Ġencounter": 9102,
    "Ġterrible": 9103,
    "ĠSho": 9104,
    "Ġparagrap": 9105,
    "ece": 9106,
    "Ġrum": 9107,
    "Ġconfiguration": 9108,
    "inch": 9109,
    "ih": 9110,
    "onymous": 9111,
    "tage": 9112,
    "Ġtrusted": 9113,
    "ĠChristians": 9114,
    "ĠCit": 9115,
    "Ġalign": 9116,
    "Ġdies": 9117,
    "ĠMeanwhile": 9118,
    "Ġhopefully": 9119,
    "Ġcomprom": 9120,
    "Ġnerv": 9121,
    "ĠBern": 9122,
    "ĠAutom": 9123,
    "Ġdanger": 9124,
    "Ġaccum": 9125,
    "ĠGuard": 9126,
    "Ġregulation": 9127,
    "Ġorganisation": 9128,
    "Ġabilities": 9129,
    "Ġdiagnosis": 9130,
    "Ġdemonstrated": 9131,
    "Ġconversion": 9132,
    "Ġwarranty": 9133,
    "ĠHouston": 9134,
    "Ġtournament": 9135,
    "ultane": 9136,
    "ĠComputer": 9137,
    "otive": 9138,
    "Ġfur": 9139,
    "icket": 9140,
    "ĠStudent": 9141,
    "ĠTam": 9142,
    "Ġoverse": 9143,
    "Ġprize": 9144,
    "itched": 9145,
    "ĠBeautiful": 9146,
    "Ġcompletion": 9147,
    "Ġslee": 9148,
    "EST": 9149,
    "Ġacceler": 9150,
    "ĠCB": 9151,
    "Ġfounder": 9152,
    "ĠWorking": 9153,
    "ĠSD": 9154,
    "ĠBrand": 9155,
    "Ġperf": 9156,
    "Ġvegetables": 9157,
    "Ġpleasant": 9158,
    "Ġstupid": 9159,
    "ĠPrim": 9160,
    "ĠCase": 9161,
    "Ġscar": 9162,
    "asty": 9163,
    "Ġabund": 9164,
    "atto": 9165,
    "Ġque": 9166,
    "Ġdesktop": 9167,
    "Ġroy": 9168,
    "Ġmatching": 9169,
    "Ġtemperatures": 9170,
    "ĠWr": 9171,
    "Ġdesper": 9172,
    "Ġscreens": 9173,
    "ĠMu": 9174,
    "Ġexercises": 9175,
    "Ġofficially": 9176,
    "Ġrepresentation": 9177,
    "ĠLady": 9178,
    "Ġfilling": 9179,
    "Ġbold": 9180,
    "ĠReading": 9181,
    "umer": 9182,
    "ospel": 9183,
    "ĠSeveral": 9184,
    "Ġnose": 9185,
    "Ġinvestments": 9186,
    "ĠGolden": 9187,
    "mach": 9188,
    "ĠNothing": 9189,
    "ja": 9190,
    "Ġfinest": 9191,
    "Ġdys": 9192,
    "Ġparameters": 9193,
    "ĠSarah": 9194,
    "ĠOil": 9195,
    "Ġhappiness": 9196,
    "Ġamend": 9197,
    "Ġtoys": 9198,
    "Ġpuzz": 9199,
    "Ġmounted": 9200,
    "ĠAnnual": 9201,
    "ishment": 9202,
    "Ġjer": 9203,
    "ĠStandard": 9204,
    "Ġcolours": 9205,
    "Ġsuppor": 9206,
    "Ġconstructed": 9207,
    "Ġsteam": 9208,
    "iter": 9209,
    "Ġfemin": 9210,
    "nis": 9211,
    "Ġstir": 9212,
    "Ġimpressed": 9213,
    "ĠProcess": 9214,
    "Ġinventory": 9215,
    "Ġknock": 9216,
    "proof": 9217,
    "aters": 9218,
    "ilton": 9219,
    "Ġreception": 9220,
    "ormal": 9221,
    "TV": 9222,
    "ĠLyn": 9223,
    "mble": 9224,
    "Ġ%)": 9225,
    "ĠOak": 9226,
    "cons": 9227,
    "ĠPict": 9228,
    "hyl": 9229,
    "Ġexplanation": 9230,
    "ĠHa": 9231,
    "Ġheavily": 9232,
    "mates": 9233,
    "Ġcreativity": 9234,
    "Ġgrateful": 9235,
    "Ġaimed": 9236,
    "Ġfib": 9237,
    "sex": 9238,
    "ĠVen": 9239,
    "ĠDemocratic": 9240,
    "Ġgig": 9241,
    "lar": 9242,
    "ĠOs": 9243,
    "acher": 9244,
    "Ġ67": 9245,
    "tied": 9246,
    "Ġvice": 9247,
    "Ġstainless": 9248,
    "ĠCredit": 9249,
    "Ġdiabetes": 9250,
    "ĠBol": 9251,
    "ĠTrade": 9252,
    "ĠToy": 9253,
    "Ġmodified": 9254,
    "Ġinstantly": 9255,
    "Ġroots": 9256,
    "Ġdiscovery": 9257,
    "Ġenhanced": 9258,
    "DP": 9259,
    "ĠGreg": 9260,
    "Ġcontainer": 9261,
    "Ġcontacts": 9262,
    "aza": 9263,
    "Ġhadn": 9264,
    "Ġcertification": 9265,
    "ĠDrive": 9266,
    "ifer": 9267,
    "Ġlibr": 9268,
    "Ġgolden": 9269,
    "ĠStone": 9270,
    "Ġnetworking": 9271,
    "ĠBelow": 9272,
    "Ġrust": 9273,
    "bered": 9274,
    "Ġca": 9275,
    "Ġasks": 9276,
    "Ġremarkable": 9277,
    "teries": 9278,
    "Ġwheels": 9279,
    "Ġapplies": 9280,
    "bourne": 9281,
    "eem": 9282,
    "Ġunn": 9283,
    "aws": 9284,
    "Ġgran": 9285,
    "letes": 9286,
    "ĠEasy": 9287,
    "Ġspacious": 9288,
    "inar": 9289,
    "ĠEric": 9290,
    "Ġtrash": 9291,
    "Ġexpanded": 9292,
    "vard": 9293,
    "Ġresident": 9294,
    "cut": 9295,
    "oked": 9296,
    "Ġstylish": 9297,
    "Ġreviewed": 9298,
    "Ġservers": 9299,
    "ĠAB": 9300,
    "ĠSale": 9301,
    "agers": 9302,
    "aron": 9303,
    "Ġdipl": 9304,
    "Ġthro": 9305,
    "Ġworried": 9306,
    "ellite": 9307,
    "Ġcorresponding": 9308,
    "Ġdisorder": 9309,
    "ĠSem": 9310,
    "Ġinsights": 9311,
    "Ġty": 9312,
    "Ġresulted": 9313,
    "Ġindicates": 9314,
    "Ġownership": 9315,
    "Ġbrothers": 9316,
    "alia": 9317,
    "Ġ186": 9318,
    "ĠAvenue": 9319,
    "istical": 9320,
    "ĠMatthew": 9321,
    "agen": 9322,
    "elve": 9323,
    "Ġelsewhere": 9324,
    "Ġuniversities": 9325,
    "itate": 9326,
    "iry": 9327,
    "Ġregulatory": 9328,
    "isa": 9329,
    "Ġpoetry": 9330,
    "isk": 9331,
    "ĠMom": 9332,
    "ĠCry": 9333,
    "ĠRub": 9334,
    "tile": 9335,
    "Ġworn": 9336,
    "ĠVisit": 9337,
    "Ġfranch": 9338,
    "Ġphotographer": 9339,
    "Ġrestore": 9340,
    "alo": 9341,
    "ourse": 9342,
    "Ġ700": 9343,
    "Ġvirus": 9344,
    "ĠDream": 9345,
    "Ġneighb": 9346,
    "ĠCasino": 9347,
    "Ġpit": 9348,
    "ĠUkr": 9349,
    "Ġspan": 9350,
    "Ġbelt": 9351,
    "Ġmovements": 9352,
    "step": 9353,
    "Ġfantasy": 9354,
    "26": 9355,
    "Ġelections": 9356,
    "Ġslip": 9357,
    "Ġpussy": 9358,
    "Ġromance": 9359,
    "ĠDave": 9360,
    "Ġnarrative": 9361,
    "ĠWriting": 9362,
    "Ġdirectory": 9363,
    "Ġinvestigate": 9364,
    "ĠTele": 9365,
    "assion": 9366,
    "ĠAnaly": 9367,
    "Ġembodiment": 9368,
    "Ġranging": 9369,
    "Ġquantity": 9370,
    "Ġdisplays": 9371,
    "foot": 9372,
    "Ġtargets": 9373,
    "Ġmistakes": 9374,
    "Ġsurrounded": 9375,
    "200": 9376,
    "TH": 9377,
    "Ġsear": 9378,
    "ologists": 9379,
    "Ġaddressed": 9380,
    "Ġcogn": 9381,
    "Ġduties": 9382,
    "Ġgoogle": 9383,
    "Ġtent": 9384,
    "Ġstruggling": 9385,
    "ĠSydney": 9386,
    "ĠKevin": 9387,
    "ĠOwn": 9388,
    "Ġdrum": 9389,
    "Ġparticipating": 9390,
    "Ġtrigger": 9391,
    "28": 9392,
    "Ġsevent": 9393,
    "makers": 9394,
    "Ġgrounds": 9395,
    "iatric": 9396,
    "ĠProducts": 9397,
    "ĠBarb": 9398,
    "Ġrecall": 9399,
    "Ġ189": 9400,
    "Ġdecline": 9401,
    "Ġbreaks": 9402,
    "Ġgenetic": 9403,
    "Ġdiscussions": 9404,
    "Ġvirtually": 9405,
    "Ġthesis": 9406,
    "Ġbaseball": 9407,
    "Ġfascinating": 9408,
    "Ġsubstance": 9409,
    "rolled": 9410,
    "Ġabroad": 9411,
    "Ġpublishing": 9412,
    "Ġenabled": 9413,
    "Ġfed": 9414,
    "ĠPers": 9415,
    "Ġhoney": 9416,
    "ĠEstate": 9417,
    "Ġcircle": 9418,
    "Ġflights": 9419,
    "ĠPaper": 9420,
    "Ġfabulous": 9421,
    "bow": 9422,
    "Ġscrap": 9423,
    "Ġcher": 9424,
    "ĠLar": 9425,
    "ints": 9426,
    "Ġhill": 9427,
    "Ġovercome": 9428,
    "Ġaccused": 9429,
    "Ġtradem": 9430,
    "Ġovers": 9431,
    "Ġprovisions": 9432,
    "Ġstamp": 9433,
    "ĠSquare": 9434,
    "ĠTony": 9435,
    "ceptions": 9436,
    "Ġ88": 9437,
    "Ġvolunteer": 9438,
    "Ġburning": 9439,
    "Ġaus": 9440,
    "Ġmyster": 9441,
    "Ġobjectives": 9442,
    "ĠNFL": 9443,
    "Ġfitting": 9444,
    "Ġ1995": 9445,
    "ĠThings": 9446,
    "ygen": 9447,
    "ĠDO": 9448,
    "ĠBrook": 9449,
    "ĠRome": 9450,
    "Ġlosses": 9451,
    "Ġguilty": 9452,
    "Ġexplos": 9453,
    "ĠYeah": 9454,
    "Ġhighlights": 9455,
    "uates": 9456,
    "uum": 9457,
    "Ġmetab": 9458,
    "isd": 9459,
    "Ġbub": 9460,
    "Ġsleeping": 9461,
    "Ġshit": 9462,
    "Ġemphasis": 9463,
    "Ġpublish": 9464,
    "Ġpushed": 9465,
    "uccess": 9466,
    "VER": 9467,
    "ĠColumbia": 9468,
    "Ġcorn": 9469,
    "ĠHom": 9470,
    "ĠPow": 9471,
    "ĠMember": 9472,
    "Ġpossibilities": 9473,
    "ali": 9474,
    "Ġcampaigns": 9475,
    "Ġthy": 9476,
    "ĠManufact": 9477,
    "Ġmouse": 9478,
    "awa": 9479,
    "Ġpover": 9480,
    "ĠCro": 9481,
    "anguage": 9482,
    "Ġhorn": 9483,
    "Ġgrey": 9484,
    "het": 9485,
    "Ġhorses": 9486,
    "onsored": 9487,
    "ĠPrince": 9488,
    "Ġpoverty": 9489,
    "usal": 9490,
    "Ġadministrative": 9491,
    "Ġsomebody": 9492,
    "ĠDS": 9493,
    "Ġreverse": 9494,
    "Ġimmun": 9495,
    "Ġenorm": 9496,
    "Ġcann": 9497,
    "Ġediting": 9498,
    "ĠParl": 9499,
    "ĠMoney": 9500,
    "Ġabsence": 9501,
    "Ġadmitted": 9502,
    "uten": 9503,
    "ĠPrinc": 9504,
    "Ġhtml": 9505,
    "Ġft": 9506,
    "Ġfool": 9507,
    "Ġrefe": 9508,
    "ĠForest": 9509,
    "Ġmoon": 9510,
    "ĠElizabeth": 9511,
    "Ġcomplement": 9512,
    "Ġwins": 9513,
    "istent": 9514,
    "Ġcollections": 9515,
    "Ġdestroyed": 9516,
    "Ġsimultane": 9517,
    "Ġmuscles": 9518,
    "ĠEarly": 9519,
    "Ġextraordinary": 9520,
    "allas": 9521,
    "chestr": 9522,
    "ĠAction": 9523,
    "Ġfault": 9524,
    "FA": 9525,
    "uer": 9526,
    "ĠBrother": 9527,
    "Ġresolve": 9528,
    "ĠRog": 9529,
    "Ġ68": 9530,
    "ĠExperience": 9531,
    "ĠSelf": 9532,
    "Ġindoor": 9533,
    "Ġdeclared": 9534,
    "ĠHad": 9535,
    "ĠRs": 9536,
    "Ġdismiss": 9537,
    "Ġrubber": 9538,
    "unate": 9539,
    "Ġversus": 9540,
    "aire": 9541,
    "Ġii": 9542,
    "iating": 9543,
    "Ġcaptured": 9544,
    "Ġrepairs": 9545,
    "Ġathle": 9546,
    "ĠKorean": 9547,
    "Ġsuite": 9548,
    "Ġjewelry": 9549,
    "Ġ77": 9550,
    "Ġanswered": 9551,
    "Ġglobe": 9552,
    "Ġhardly": 9553,
    "iev": 9554,
    "Ġmystery": 9555,
    "Ġbrush": 9556,
    "ĠLes": 9557,
    "ĠShip": 9558,
    "ĠFilm": 9559,
    "ĠHind": 9560,
    "Ġwaves": 9561,
    "ĠPortug": 9562,
    "bes": 9563,
    "ĠIndepend": 9564,
    "ĠPennsylvania": 9565,
    "ifted": 9566,
    "Ġgonna": 9567,
    "Ġtied": 9568,
    "icked": 9569,
    "ĠMiami": 9570,
    "Ġdivorce": 9571,
    "Ġzip": 9572,
    "Ġrepresenting": 9573,
    "ĠBridge": 9574,
    "GA": 9575,
    "ĠBell": 9576,
    "ishop": 9577,
    "ĠInit": 9578,
    "oween": 9579,
    "Ġsettlement": 9580,
    "Ġgathered": 9581,
    "ortion": 9582,
    "igious": 9583,
    "Ġforecast": 9584,
    "Ġdurable": 9585,
    "Ġimmigr": 9586,
    "Ġtries": 9587,
    "ĠLevel": 9588,
    "ĠJob": 9589,
    "PM": 9590,
    "Ġspectacular": 9591,
    "Ġmeasurements": 9592,
    "Ġdramatic": 9593,
    "Ġcoaching": 9594,
    "Ġ</": 9595,
    "ĠArm": 9596,
    "ĠCreek": 9597,
    "Ġflooring": 9598,
    "ĠComments": 9599,
    "Ġalarm": 9600,
    "ĠVar": 9601,
    "Ġdesigning": 9602,
    "Ġgang": 9603,
    "iley": 9604,
    "Ġgenerations": 9605,
    "Ġgenes": 9606,
    "Ġbudd": 9607,
    "Ġsmell": 9608,
    "Ġbeautifully": 9609,
    "ĠMarc": 9610,
    "Ġsmoking": 9611,
    "Ġrencontre": 9612,
    "Ġbanking": 9613,
    "Ġdisaster": 9614,
    "engers": 9615,
    "abb": 9616,
    "Ġdevelopments": 9617,
    "ĠStory": 9618,
    "Ġleaf": 9619,
    "CE": 9620,
    "Ġmild": 9621,
    "regon": 9622,
    "adelph": 9623,
    "Ġ180": 9624,
    "Ġguides": 9625,
    "ystem": 9626,
    "Ġoverview": 9627,
    "Ġ()": 9628,
    "Ġinvite": 9629,
    "Ġuncom": 9630,
    "Ġrefers": 9631,
    "graph": 9632,
    "Ġconsistently": 9633,
    "Ġwalks": 9634,
    "Ġrepeat": 9635,
    "ĠNS": 9636,
    "Ġfake": 9637,
    "hour": 9638,
    "etts": 9639,
    "Ġcrash": 9640,
    "Ġengineers": 9641,
    "Ġdelivers": 9642,
    "lah": 9643,
    "ĠBB": 9644,
    "ĠWant": 9645,
    "Ġshaped": 9646,
    "Ġethnic": 9647,
    "Ġseeds": 9648,
    "Ġbio": 9649,
    "Ġproportion": 9650,
    "bitr": 9651,
    "Ġslots": 9652,
    "limited": 9653,
    "ĠPerfect": 9654,
    "dered": 9655,
    "Ġhorm": 9656,
    "Ġreserve": 9657,
    "uana": 9658,
    "Ġboun": 9659,
    "Ġrolling": 9660,
    "ĠDJ": 9661,
    "ounge": 9662,
    "Ġaes": 9663,
    "Ġcharity": 9664,
    "Ġsurge": 9665,
    "ugged": 9666,
    "Ġcomedy": 9667,
    "ĠAh": 9668,
    "tong": 9669,
    "ĠUnlike": 9670,
    "Ġsafely": 9671,
    "ĠStudy": 9672,
    "Ġdisorders": 9673,
    "ĠTurkey": 9674,
    "ĠFOR": 9675,
    "Ġmas": 9676,
    "ĠUser": 9677,
    "holder": 9678,
    "ĠSchol": 9679,
    "Ġacquisition": 9680,
    "Ġfulfill": 9681,
    "ĠBesides": 9682,
    "Ġnervous": 9683,
    "ĠSaint": 9684,
    "Ġmakeup": 9685,
    "Ġ(\"": 9686,
    "olly": 9687,
    "ĠED": 9688,
    "Ġgam": 9689,
    "Ġfacebook": 9690,
    "ĠSeason": 9691,
    "ĠBand": 9692,
    "Ġconvey": 9693,
    "bell": 9694,
    "ĠKids": 9695,
    "Ġpackaging": 9696,
    "bage": 9697,
    "Ġconnecting": 9698,
    "Ġpreced": 9699,
    "Ġski": 9700,
    "ĠHur": 9701,
    "ĠTech": 9702,
    "retion": 9703,
    "Ġexpense": 9704,
    "Ġstruck": 9705,
    "Ġfrequent": 9706,
    "Ġexterior": 9707,
    "Ġreferences": 9708,
    "oh": 9709,
    "Ġjuice": 9710,
    "ilarly": 9711,
    "Ġmeasurement": 9712,
    "Ġthoroughly": 9713,
    "Ġpiano": 9714,
    "Ġcrown": 9715,
    "Ġcaut": 9716,
    "Ġshapes": 9717,
    "ĠDom": 9718,
    "Ġpicking": 9719,
    "ATION": 9720,
    "Ġcompete": 9721,
    "ĠWithin": 9722,
    "Ġregards": 9723,
    "Ġconsultation": 9724,
    "Ġshed": 9725,
    "adelphia": 9726,
    "bro": 9727,
    "Ġassignment": 9728,
    "Ġarrangements": 9729,
    "ĠOcean": 9730,
    "iffe": 9731,
    "ĠVictoria": 9732,
    "ayed": 9733,
    "ĠBitcoin": 9734,
    "cend": 9735,
    "Ġcurriculum": 9736,
    "Ġcosm": 9737,
    "ĠKong": 9738,
    "acles": 9739,
    "Ġworkshe": 9740,
    "Ġgirlfriend": 9741,
    "Ġdetection": 9742,
    "type": 9743,
    "ĠAccount": 9744,
    "Ġestimates": 9745,
    "ĠSorry": 9746,
    "Ġseam": 9747,
    "Ġduration": 9748,
    "Ġrated": 9749,
    "Ġcoat": 9750,
    "ĠFollow": 9751,
    "Ġdisability": 9752,
    "Ġampl": 9753,
    "Ġ76": 9754,
    "being": 9755,
    "ĠTrad": 9756,
    "ĠBreak": 9757,
    "Ġ78": 9758,
    "ĠFront": 9759,
    "Ġeliminate": 9760,
    "Ġprotec": 9761,
    "rooms": 9762,
    "Ġinnoc": 9763,
    "Ġtrials": 9764,
    "Ġdisag": 9765,
    "ela": 9766,
    "ĠIslamic": 9767,
    "ĠHold": 9768,
    "iary": 9769,
    "oln": 9770,
    "iscal": 9771,
    "Ġappreciated": 9772,
    "Ġtheore": 9773,
    "Ġ1960": 9774,
    "ĠJr": 9775,
    "Ġkeyword": 9776,
    "Ġtexture": 9777,
    "Ġparad": 9778,
    "Ġbeliefs": 9779,
    "Ġclip": 9780,
    "ĠHong": 9781,
    "avity": 9782,
    "Ġequity": 9783,
    "achus": 9784,
    "Ġvariable": 9785,
    "Ġoperational": 9786,
    "nesota": 9787,
    "acent": 9788,
    "Ġreleases": 9789,
    "ĠJordan": 9790,
    "loved": 9791,
    "ĠLess": 9792,
    "ERS": 9793,
    "ĠModel": 9794,
    "Ġloads": 9795,
    "Ġimportantly": 9796,
    "tees": 9797,
    "Ġbadly": 9798,
    "ĠVillage": 9799,
    "Ġprotest": 9800,
    "Ġheritage": 9801,
    "Ġhack": 9802,
    "ĠTheatre": 9803,
    "spec": 9804,
    "ture": 9805,
    "ĠUt": 9806,
    "Ġimmigration": 9807,
    "Ġhiring": 9808,
    "Ġcompact": 9809,
    "hell": 9810,
    "ĠTransport": 9811,
    "agan": 9812,
    "ĠHIV": 9813,
    "irect": 9814,
    "Ġhunting": 9815,
    "Ġmeaningful": 9816,
    "Ġcurious": 9817,
    "Ġ(âĢľ": 9818,
    "ĠLy": 9819,
    "Ġphrase": 9820,
    "Ġ69": 9821,
    "Ġderived": 9822,
    "Ġterritory": 9823,
    "ĠChat": 9824,
    "ĠGirls": 9825,
    "Ġutilize": 9826,
    "Ġsupplied": 9827,
    "Ġrepresentatives": 9828,
    "Ġbarely": 9829,
    "ĠJosh": 9830,
    "Ġunited": 9831,
    "Ġamenities": 9832,
    "Ġsuperb": 9833,
    "Ġelder": 9834,
    "Ġinspection": 9835,
    "Ġlawyers": 9836,
    "ĠFinance": 9837,
    "Ġ98": 9838,
    "Ġlogic": 9839,
    "otion": 9840,
    "Ġprecious": 9841,
    "Ġnaked": 9842,
    "ĠIss": 9843,
    "Ġcinem": 9844,
    "organ": 9845,
    "Ġintegrity": 9846,
    "Ġscream": 9847,
    "ĠSeattle": 9848,
    "undry": 9849,
    "Ġproduces": 9850,
    "Ġhub": 9851,
    "Ġrefund": 9852,
    "Ġfinishing": 9853,
    "pool": 9854,
    "Ġremoving": 9855,
    "Ġintervention": 9856,
    "ĠIB": 9857,
    "Ġventure": 9858,
    "ĠDate": 9859,
    "ĠLocated": 9860,
    "Ġactors": 9861,
    "Ġministry": 9862,
    "tario": 9863,
    "ĠContent": 9864,
    "Ġstops": 9865,
    "ĠJay": 9866,
    "Ġparallel": 9867,
    "Ġpractition": 9868,
    "ĠChem": 9869,
    "stic": 9870,
    "ĠÌ": 9871,
    "Ġcalculated": 9872,
    "Ġfert": 9873,
    "Ġtong": 9874,
    "ĠSwe": 9875,
    "leep": 9876,
    "Ġlogin": 9877,
    "ĠField": 9878,
    "aceut": 9879,
    "UN": 9880,
    "ĠVice": 9881,
    "Ġpaintings": 9882,
    "Ġ::": 9883,
    "Ġcomposed": 9884,
    "ĠMaterial": 9885,
    "Ġstructural": 9886,
    "dd": 9887,
    "Ġscenario": 9888,
    "ĠThird": 9889,
    "ĠChall": 9890,
    "Ġtoy": 9891,
    "Ġ74": 9892,
    "Ġhosts": 9893,
    "Press": 9894,
    "ĠUC": 9895,
    "ĠPlanning": 9896,
    "Ġpushing": 9897,
    "Ġ1994": 9898,
    "Ġexch": 9899,
    "Ġgathering": 9900,
    "Ġsorts": 9901,
    "heim": 9902,
    "Ġactively": 9903,
    "Ġcrafts": 9904,
    "Ġnomin": 9905,
    "Ġpursue": 9906,
    "gs": 9907,
    "graduate": 9908,
    "Ġsne": 9909,
    "Ġtestim": 9910,
    "po": 9911,
    "27": 9912,
    "ĠSource": 9913,
    "enth": 9914,
    "Ġstomach": 9915,
    "ifier": 9916,
    "Ġworkshops": 9917,
    "Ġexperimental": 9918,
    "ĠProtection": 9919,
    "Ġster": 9920,
    "ĠHay": 9921,
    "Ġcats": 9922,
    "Ġ73": 9923,
    "ĠPrior": 9924,
    "Ġvoters": 9925,
    "Ġsan": 9926,
    "Ġlyr": 9927,
    "pton": 9928,
    "Ġinitiatives": 9929,
    "ĠHawai": 9930,
    "opy": 9931,
    "Ġembed": 9932,
    "ĠCut": 9933,
    "achusetts": 9934,
    "Ġpowered": 9935,
    "ĠLarge": 9936,
    "pson": 9937,
    "ĠJason": 9938,
    "Ġcultures": 9939,
    "oof": 9940,
    "ĠSa": 9941,
    "Ġcompatible": 9942,
    "ĠAustin": 9943,
    "Ġunderlying": 9944,
    "Ġartistic": 9945,
    "Ġweapon": 9946,
    "Ġtablet": 9947,
    "Ġpron": 9948,
    "iler": 9949,
    "lahoma": 9950,
    "ĠMajor": 9951,
    "Ġsettled": 9952,
    "hum": 9953,
    "Ġdocumentation": 9954,
    "Ġrobust": 9955,
    "Ġbiological": 9956,
    "Ġimmune": 9957,
    "ĠWW": 9958,
    "Ġbabies": 9959,
    "Ġouter": 9960,
    "wich": 9961,
    "Ġovernight": 9962,
    "Ġchristian": 9963,
    "ĠUnivers": 9964,
    "Ġsalary": 9965,
    "ĠNav": 9966,
    "ĠSimply": 9967,
    "ĠDead": 9968,
    "Ġpasses": 9969,
    "Ġfriendship": 9970,
    "ĠAPI": 9971,
    "Ġexcit": 9972,
    "Ġattain": 9973,
    "Ġinvesting": 9974,
    "Ġchecks": 9975,
    "Ġinteractions": 9976,
    "ĠAltern": 9977,
    "ĠPartners": 9978,
    "Ġcooperation": 9979,
    "Ġcater": 9980,
    "ĠBud": 9981,
    "olesale": 9982,
    "Ġrack": 9983,
    "har": 9984,
    "letter": 9985,
    "Ġoperator": 9986,
    "ĠSelect": 9987,
    "igue": 9988,
    "Ġships": 9989,
    "ĠFive": 9990,
    "rogen": 9991,
    "ĠTen": 9992,
    "ĠMount": 9993,
    "ĠParliament": 9994,
    "Ġtransformation": 9995,
    "Ġtremend": 9996,
    "ĠRail": 9997,
    "Ġidentification": 9998,
    "ĠStudio": 9999,
    "ÃĤ": 10000,
    "ĠEver": 10001,
    "Ġexperiencing": 10002,
    "ĠMust": 10003,
    "Ġuniversal": 10004,
    "Ġworkplace": 10005,
    "ĠSingle": 10006,
    "Ġargue": 10007,
    "Ġgut": 10008,
    "Ġneutral": 10009,
    "Ġwider": 10010,
    "ijuana": 10011,
    "ilation": 10012,
    "Ġreveals": 10013,
    "ĠEM": 10014,
    "idal": 10015,
    "truction": 10016,
    "ĠDirect": 10017,
    "Ġanalys": 10018,
    "Ġvertical": 10019,
    "ĠiPad": 10020,
    "Ġdirty": 10021,
    "Ġmatt": 10022,
    "ĠDur": 10023,
    "erted": 10024,
    "tops": 10025,
    "torneys": 10026,
    "ĠNumber": 10027,
    "Ġscreening": 10028,
    "hirty": 10029,
    "Ġphysically": 10030,
    "Ġoutfit": 10031,
    "Ġdeserve": 10032,
    "wall": 10033,
    "tire": 10034,
    "Ġoccasionally": 10035,
    "Ġpatch": 10036,
    "Ġtoxic": 10037,
    "Ġnobody": 10038,
    "Ġcenturies": 10039,
    "arring": 10040,
    "Ġcm": 10041,
    "Ġemployers": 10042,
    "chers": 10043,
    "evit": 10044,
    "ĠAssistant": 10045,
    "Ġweigh": 10046,
    "Ġpassage": 10047,
    "Ġhence": 10048,
    "Ġartificial": 10049,
    "Ġenjoyable": 10050,
    "The": 10051,
    "obe": 10052,
    "Ġinterpretation": 10053,
    "Ġproductivity": 10054,
    "ĠCorn": 10055,
    "Ġ188": 10056,
    "ĠWinter": 10057,
    "Ġdelete": 10058,
    "Ġreven": 10059,
    "Ġrestrictions": 10060,
    "ĠAgr": 10061,
    "scale": 10062,
    "Ġsophisticated": 10063,
    "Ġcheaper": 10064,
    "ĠGrow": 10065,
    "Ġspecialized": 10066,
    "Ġcaf": 10067,
    "xx": 10068,
    "inery": 10069,
    "incoln": 10070,
    "Ġfacilitate": 10071,
    "ĠEsp": 10072,
    "Ġbacteria": 10073,
    "Ġconfused": 10074,
    "Ġprominent": 10075,
    "thirty": 10076,
    "ĠMuch": 10077,
    "Ġentertaining": 10078,
    "ĠCould": 10079,
    "Ġmyth": 10080,
    "viously": 10081,
    "Ġ97": 10082,
    "Ġmanufactured": 10083,
    "ĠDavis": 10084,
    "ĠPhiladelphia": 10085,
    "rett": 10086,
    "ĠAk": 10087,
    "Ġdifficulties": 10088,
    "Ġexperiments": 10089,
    "ĠðŁĻ": 10090,
    "aceutical": 10091,
    "Ġstem": 10092,
    "ĠEnvironmental": 10093,
    "ĠGallery": 10094,
    "Ġexclusively": 10095,
    "core": 10096,
    "Ġprevention": 10097,
    "ĠWilson": 10098,
    "ĠCateg": 10099,
    "Ġpad": 10100,
    "ĠCho": 10101,
    "Ġworker": 10102,
    "elfare": 10103,
    "Ġremod": 10104,
    "Ġbalanced": 10105,
    "Ġ018": 10106,
    "ationally": 10107,
    "Ġoldest": 10108,
    "ĠIndustry": 10109,
    "ĠFile": 10110,
    "QL": 10111,
    "ureau": 10112,
    "itivity": 10113,
    "luding": 10114,
    "Ġjurisd": 10115,
    "Ġcomic": 10116,
    "Ġradiation": 10117,
    "ĠDub": 10118,
    "ĠIV": 10119,
    "Ġpics": 10120,
    "ĠMagazine": 10121,
    "giving": 10122,
    "ĠApplication": 10123,
    "ÂĴ": 10124,
    "Ġvel": 10125,
    "ĠDiego": 10126,
    "Ġoccasions": 10127,
    "Ġgambling": 10128,
    "mn": 10129,
    "ĠCurrently": 10130,
    "Ġgreet": 10131,
    "Ġorganisations": 10132,
    "29": 10133,
    "Ġbuyer": 10134,
    "Ġdependent": 10135,
    "ĠChoose": 10136,
    "Ġfence": 10137,
    "abling": 10138,
    "HA": 10139,
    "Ġprosec": 10140,
    "Ġpersonals": 10141,
    "ĠRepresent": 10142,
    "Ġprocessed": 10143,
    "ĠFriends": 10144,
    "Ġpsychological": 10145,
    "Ġloaded": 10146,
    "Ġsigning": 10147,
    "Ġraces": 10148,
    "Ġphysics": 10149,
    "Ġtile": 10150,
    "Ġuniform": 10151,
    "ders": 10152,
    "Ġentity": 10153,
    "Ġintelligent": 10154,
    "oom": 10155,
    "ĠRou": 10156,
    "ĠHR": 10157,
    "Ġsurfaces": 10158,
    "ĠSteel": 10159,
    "Ġearnings": 10160,
    "Ġimpr": 10161,
    "ĠSolutions": 10162,
    "ĠExchange": 10163,
    "ĠIdeas": 10164,
    "ĠDI": 10165,
    "Ġeastern": 10166,
    "Ġbug": 10167,
    "itable": 10168,
    "ĠCL": 10169,
    "Ġward": 10170,
    "Ġdancing": 10171,
    "Ġsmartphone": 10172,
    "Ġconversations": 10173,
    "ĠAfghan": 10174,
    "li": 10175,
    "bul": 10176,
    "imens": 10177,
    "gi": 10178,
    "Ġ\")": 10179,
    "Ġarrangement": 10180,
    "Ġrefused": 10181,
    "ĠSO": 10182,
    "ĠQuick": 10183,
    "ĠGard": 10184,
    "ĠImage": 10185,
    "Ġhomeown": 10186,
    "Ġretired": 10187,
    "Ġparks": 10188,
    "ĠTan": 10189,
    "ĠMC": 10190,
    "Ġnewest": 10191,
    "function": 10192,
    "Ġdamages": 10193,
    "Ġcopper": 10194,
    "ĠBarn": 10195,
    "ĠAlong": 10196,
    "ĠStaff": 10197,
    "ĠMoon": 10198,
    "Ġseal": 10199,
    "Ġthirty": 10200,
[...]
