#version-knockout
e n
e r
c h
Ġ d
e i
u n
i e
Ġ .
s t
Ġ ,
i n
a n
Ġ s
ei n
i ch
e s
Ġ a
Ġ S
Ġ w
Ġ un
Ã ¼
o n
g e
t e
Ġ m
Ġun d
Ġd ie
Ã ¤
Ġ D
a s
l l
Ġ v
un g
Ġ A
Ġ ein
i t
Ġ b
a r
s ch
Ġd er
o r
Ġ B
a t
Ġ n
Ġ i
Ġ z
h r
Ġa u
t en
u r
Ġ M
g en
a l
e m
d er
Ġ h
Ġ E
Ġ f
a u
Ġ in
Ġ F
t er
Ġ K
Ġ W
Ġ k
d en
Ġ G
e l
Ã ¶
e t
Ġ P
Ġz u
l ich
i r
Ġ g
Ġ I
a ch
t i
b er
Ġ H
Ġ T
Ã¼ r
d e
Ġ V
Ġd as
ei t
Ġ ge
c k
Ġ L
Ġ R
Ġd en
i er
m m
Ġm it
r o
b en
Ġ er
Ġ an
i s
ich t
r e
u s
Ġ 1
Ġv on
Ġi st
r a
â Ģ
Ġau f
i g
l e
Ġ N
s en
st e
u t
Ġ U
Ã Ł
Ġ âĢ
s e
Ġv er
i sch
Ġf Ã¼r
u m
Ġ o
an d
an n
a m
Ġ l
o l
i l
Ġ :
r ei
Ġ Z
Ġ 2
Ġb e
en t
Ġs ich
Ġs o
ĠD ie
Ġn icht
Ġw ir
ĠS ch
n en
Ġs ch
f t
Ġ (
o ch
Ġi m
i on
ĠS t
s er
Ġau s
Ġ J
l s
Ġ p
ĠV er
n e
Ġ )
Ġein e
b e
in d
Ġd es
Ġau ch
Ġ es
Ġ C
ĠI n
a hr
h l
f f
Ġd em
o m
ĠS ie
u ch
k t
Ġ O
e hr
ĠA n
Ġb ei
a g
st en
s p
Ġ t
Ã¼ ber
ie l
Ã¤ n
ung en
Ġ j
in g
e u
Ġw er
Ġw ie
ei ch
Ġ ich
ll e
Ġa ls
Ġo der
Ġ "
et z
Ġ Ã¼ber
ll en
i en
es ch
i k
Ġh a
h en
v er
h m
ĠE in
w ei
Ġwer den
ĠU n
Ġh at
ĠE r
Ã¶ n
Ġs ind
er n
ĠB e
Ġ -
o mm
un d
Ġ2 0
Ġs ein
en n
Ġs ie
Ġd a
at ion
o s
o t
Ġv or
ch en
h n
Ġ um
u f
ei l
ĠS p
h e
ti g
Ġn ach
ung s
or t
r i
ur ch
isch en
r au
Ġdas s
Ġ e
Ġ st
Ġi hr
ĠG e
ĠR e
Ã¼ n
Ġwir d
Ġw ar
Ã¤ t
h al
u l
g er
an z
Ġ /
ĠP ro
a d
Ġein en
a b
au s
g t
p p
en d
Ġ 3
Ġein er
ĠD as
l a
Ġ r
w er
k ti
ein e
Ġm an
Ġzu m
Ġk ann
te t
a ll
an g
ch t
Ġ ;
au f
h t
Ġein em
Ġn och
ĠD er
sch a
Ġk Ã¶n
Ġa m
ei ter
Ġz ur
Ġa b
Ġ ent
Ã¼ ck
0 0
ĠA r
Ġd urch
i ck
p f
z en
b t
Ã¶ r
mm er
h er
ste ll
z u
Ġ !
ĠâĢ ľ
Ġun ter
i v
st er
ĠM it
Ġn ur
r u
ĠJ ahr
ĠA us
or m
lich en
n er
r Ã¤
i gen
. .
Ġa ber
Ġj e
ar t
Ġha ben
ĠâĢ ŀ
ier t
Ã¤ r
r ie
f Ã¼
Ġ ?
ei ten
Ġs p
ch e
Ġa ll
Ġ20 1
an k
Ġm ehr
l ie
isch e
Ì Ī
ge l
us s
ĠI hr
Ġw ur
i ge
lich e
ĠâĢ ĵ
ier en
ge b
hm en
o p
Ġb is
Ġun ser
scha ft
o g
l in
ĠE n
ĠkÃ¶n nen
ach t
Ġ 5
el t
o ll
Ġ 4
er s
a hl
te l
sch en
es s
b ar
at z
Ġd e
w e
b l
at en
Ġan der
ĠB er
omm en
k eit
der n
Ġdie s
as sen
ar b
ĠD e
as s
Ġ re
l ei
e st
z e
ĠW ir
Ġn eu
ĠA b
Ġ. ..
ĠV or
g lich
ĠA uf
i st
r Ã¼
m al
ter n
Ġw enn
Ġ c
h eit
Ġun s
er t
i ll
sch l
ĠE s
Ġ 0
ĠI ch
etz t
ĠS e
ĠUn ter
f en
ut z
Ã¤ hr
d u
ff en
ÃŁ en
ei gen
ĠG r
Ġb er
r it
Ġw o
Ġd ann
a mm
un den
ĠL e
Ġk l
g es
Ġ Â
e ll
on t
an t
Ġ1 9
Ġw eiter
Ġs ehr
il d
z i
f e
b st
l eich
k en
Ġwur de
Ġb es
Ġw as
ĠS o
Ġ gen
Ġg es
Ġwie der
o k
ĠZ u
f ahr
Ġd ar
i c
kti on
ĠA u
e d
p l
Ġso ll
s s
n is
w ie
a ge
al t
ĠB ei
i mm
Ġ et
w ar
a p
Ġsch on
f orm
Ġh ier
o b
d em
Ġi mmer
i bt
Ġv iel
Ġ ste
k l
g r
ĠH er
Ã¤ l
Ġl ie
Ġdie se
i z
Ġ 6
Ġg er
ĠW e
h o
ÃŁ e
p er
ĠZ eit
a st
Ġh in
ra g
ie le
Ã¶ glich
m it
Ġg ro
h a
ein en
f ach
ĠN ach
eit s
ĠU m
l er
Ġh er
e kt
Ġg ibt
n a
Ġg anz
Ġge w
f er
Ã¼ t
h nen
ar k
Ã¤ ch
l o
Ġv om
h ne
a k
Ġha be
Ġs el
Ġs e
ach en
Ġm ir
sch ie
at t
o sten
ĠI m
f ol
it Ã¤t
gen d
a ck
el d
b ei
ĠM en
el n
Ġa lle
Â Ń
ĠT e
Ġz wei
Ġet w
ĠG esch
in den
d ig
i m
ĠK l
ĠA l
ĠG es
ch n
hal ten
ĠM a
f l
Ġdie ser
on der
ĠB l
Ġm ich
ĠEn t
l os
fÃ¼ hr
p t
Ġd u
Ġ 7
ĠO r
ĠUn d
Ġ le
in der
Ġ 8
z eit
Ġge gen
q u
ra gen
ti gen
ne hmen
ĠAr b
r in
ich tig
ĠW as
Ġge m
al e
rei s
b ur
o hn
Ġg ut
ĠDe ut
Ġk on
et t
sch e
ei te
ĠA m
ÃŁ er
u d
Ġ 9
Ã¼ hr
Ġ eigen
au t
a gen
Ġein fach
k te
ad t
ĠD a
ĠW er
or d
ĠP l
g esch
h em
amm en
Ġm ein
Ġk eine
ĠF l
ck en
is sen
l au
Ġso wie
Ġ1 0
ĠF r
ation en
Ġein es
ĠSp iel
a te
ig er
in n
l ung
rei ch
v or
an gen
s am
Ã¼ s
ier ung
am it
Ġbe k
Ġo hne
al en
Ã¶ ch
Ġ) .
ei st
Ġ |
Ġm al
ĠK on
o d
Ġs on
uch t
ĠLe ben
g a
Ġp ro
Ġg esch
w ischen
i d
Ġn e
it z
stell t
ti ge
eu te
ĠE ur
ĠS te
el e
k e
Ġihr e
Ġsel bst
es en
ers on
Ġb et
st Ã¤n
w ick
hl en
Ġ20 0
ei m
b s
z ie
re u
Ġw en
at ur
t eil
st and
d ing
au m
ich er
Ġbei m
at iv
ĠC h
un de
ĠF rau
ĠH and
b r
ĠL and
Ġg r
sp iel
a de
Ġ Q
ĠD aten
kti v
ĠF Ã¼r
Ġw el
Ã¶ ff
ĠM ar
h Ã¶r
Ġm uss
Ġhat te
at er
ge ben
Ġdies em
u g
Ġetw as
wei se
ĠD u
ĠW ie
ĠR o
ti on
c e
w end
Ã¤ u
o ff
ĠN e
Ġzu s
Ġde ut
f all
ĠW enn
m e
z eu
ar ten
r an
Ġan ge
n o
f ten
Ġd ir
Ġb ie
Ġsein e
s atz
ĠB et
n te
i a
er en
ĠMen schen
Ġin s
Ġander en
Ġ) ,
ĠQ u
p ro
ĠG er
lin e
sp r
Ġ 00
hal t
u st
Ġ &
f or
Ġ1 8
n et
z t
st em
ar d
auf en
Ġ1 2
ĠM o
g ung
a y
b o
Ġw e
Ġo b
Ġge l
arb eit
omm t
Ġd amit
g l
ĠL ie
ch er
ĠPro du
Ġg leich
b au
Ġj a
ĠIhr e
om p
u ten
ier te
ĠT eil
ĠH a
Ġf inden
u te
Ġ1 5
Ġaus ge
Ġneu e
am en
h and
st imm
eich t
Ġer st
ĠH o
ĠT ag
Ġm achen
ĠR ei
ĠK inder
ĠB o
Ġd och
ĠA ut
m a
ĠA ll
ste llen
Ġge ht
Ġge f
ĠSe x
bur g
or en
re chen
an ge
hal b
k el
ru ck
i de
Ġm Ã¼s
it ion
ĠGr und
ĠJahr en
ĠâĢ ¦
ich te
y stem
ver s
Ã¤l t
Ġj etzt
ĠEin e
ĠK o
ĠB es
Ã¤ d
in e
Ġv iele
i o
schie den
uch en
d r
Ġa l
Ġbe g
ĠA uch
Ġk ein
schl and
Ġden n
ĠA ls
ei d
b es
m en
Ġall es
Ġz wischen
ĠÂ »
s st
r ank
in de
ĠB r
Ġw Ã¼r
ei ÃŁ
ĠI hnen
u e
Ġwur den
ĠM an
der t
Ã¶ s
at Ã¼r
z eich
g ang
Ġn un
ĠSt adt
z ahl
r en
Ġson dern
Ġ '
Ġl assen
Ġ1 1
ra d
Ġje d
z ent
ĠDie se
Ġwar en
at s
k eiten
Ġs eit
stell ung
ĠW elt
i al
o ur
fahr en
isch er
s etz
Ġb in
t ag
la ge
Ġsch ne
k ommen
te m
h ol
l and
ich ten
ĠM us
Ġe ben
m er
mit tel
w o
ĠP erson
ru pp
h in
Ã¤ re
Ġ %
an der
s k
Ġda bei
a hn
ge m
a kt
b ild
Ġsoll te
es se
x t
ĠVer s
ann t
ĠDeut schland
Ġbes onder
Ġunser e
ĠIn form
au pt
Ġber eits
ch s
Ġein z
as se
f Ã¼r
ĠF ahr
ĠN eu
u er
un ter
ĠM on
am t
in nen
ĠU hr
Ġander e
ĠA ber
o w
Ġer sten
an den
ei g
ur z
Ġall er
ĠH aus
i te
f te
ĠM in
Ġdies es
Ġm Ã¶ch
ĠS on
ĠJahr e
ĠP art
und es
lie ÃŁ
lich er
ĠG l
ach e
Ġsein er
en den
ĠB ild
r icht
ra ge
ste hen
k s
ol og
un ktion
Ġver l
g leich
ĠUnter nehmen
es sen
al d
Ġl etz
ĠP ol
w ir
Ġb esch
ĠGe w
Ġa r
Ġn ie
st ag
ro t
ig keit
g ra
or den
ĠK ont
bl em
Ġals o
ĠRe g
Ġm Ã¶glich
al itÃ¤t
i um
Ġw ill
rei chen
Ġk ommen
ĠC o
la gen
ĠW och
Ġp er
ĠW ei
Ġzur Ã¼ck
ul t
Ġh eute
ĠH ier
Ġ te
ĠIn tern
am il
Ã¤ hl
ĠmÃ¼s sen
m in
hm e
Ġge st
ĠF re
Ġzus ammen
ind et
ei den
Ã¤ uf
ber g
Ġ1 6
ĠT hem
u b
Ġver schieden
h eim
fol g
Ġk osten
ĠArb eit
Ġd rei
au er
Ġ3 0
s o
Ã¤t z
un kt
h Ã¤lt
Ġunser er
iv e
atÃ¼r lich
u ÃŁ
Ġ1 4
ĠF e
Ġw eil
ĠZ us
ĠDie s
z w
z ei
n ung
s icht
ĠSch l
o gen
ĠSt ra
Ġneu en
t t
Ġda zu
t rag
er v
er e
i an
Ġs ei
uch e
en s
Ġ [
Ã¤hr end
ĠR a
wer t
t schaft
ier ten
Ġschne ll
en de
ent lich
Ã¼n st
ĠD es
Ġk ommt
k lich
Ġ201 8
Ġ1 7
h aus
Ã¶ l
ĠD urch
al ten
ĠM e
rit t
Ġihr er
o v
Ġdie sen
Ġm eine
ĠSch w
ĠRe cht
rei ben
ĠWas ser
Ġf Ã¼hr
ĠE l
ĠIn ter
Ġein mal
Ġi hn
g an
Ã¤ ÃŁ
Ã¤ m
ĠG em
as ch
ĠG ro
ĠW ohn
Ġbe f
ĠGe b
n it
ĠH in
ĠB au
kl Ã¤r
p h
ei le
a den
il der
k ten
ĠU r
ĠE x
Ġihr en
ie s
ĠM ed
ĠG en
Ġh o
Ġver s
ĠP f
a ar
m ent
rau m
Ġ1 3
h Ã¤n
ĠK unden
b el
ĠS ti
g ar
ĠF ot
Ġste ht
Ġ en
Ġf ol
âĢ ľ
is s
o st
Ġh och
Ġ â
ĠF rei
Ġsp iel
we g
ie ll
ĠO n
ĠW ar
ag t
ig n
ei ster
g ie
t lich
a il
ch te
sch utz
t s
Ã¼n d
f Ã¤
w ort
Ġsein en
Ġje der
r um
ĠEur o
Ġsich er
ot t
st Ã¼t
a z
sch ein
Ġjed och
Ġs ol
Ġver b
ĠM ann
gra mm
ĠF orm
sp rechen
ĠF all
o ten
al is
ĠB undes
g lie
d ien
r at
st alt
ĠFrau en
Ġall em
Ġ em
r on
y m
ne hm
rin gen
fall s
r em
ĠS eite
k er
Ġl ang
ĠF or
ĠF il
na hme
Ġein ge
Ì ģ
f ern
Ġin ter
ĠwÃ¼r de
y p
gr und
ĠAr t
Ġre cht
Ġge b
i sten
m us
Ġb lei
Ġv oll
ĠB uch
t re
Ġd ort
ri v
ĠVer b
ben d
ĠâĢľ ,
p r
ach ten
ion en
u le
am p
ĠK omm
ra in
Ġ ]
b ung
le gen
ĠIntern et
ĠF amil
m ann
Ġwel che
or gen
en z
Ġg ar
nis se
re cht
Ġ on
Ġse hen
stÃ¤n d
Ġi hm
ĠR Ã¼ck
in gen
ĠL u
ĠBer lin
Ġ1 00
f ang
m an
Ġm acht
Ġf rei
p ti
Ġbie tet
ĠÂ «
Ġwir klich
ĠSch ul
u he
un der
Ã¤n ger
ck t
k ehr
ĠK osten
or f
enn t
ge w
zu g
ff e
ĠPro blem
ĠW eiter
or n
Ġb en
ĠEn de
Ġa llen
Ġste hen
ck er
ĠL in
p rÃ¤
ĠM Ã¶glich
ck e
Ġb zw
k un
zi mmer
Ġbes ser
Ġkon nte
Ġb r
ĠInform ationen
ĠBer eich
schie d
Ġnicht s
Ġge hÃ¶r
ga be
al s
ĠLeben s
Ã¤ ft
Ġn atÃ¼rlich
ding s
Ġa kt
en k
Ġw ichtig
eit ung
ĠJ u
Ġe x
a llen
Ġf est
i p
rie ben
Ġ2 5
o lle
y s
rie b
ĠB esch
z ogen
Ġm us
j ekt
ĠK ar
il fe
ti ert
i pp
sten s
wer k
el s
h Ã¶
ĠU S
w or
for der
it te
om e
e lle
tig t
f ort
ur en
ge hen
ĠS a
Ġletz ten
ic e
Ġk om
e hen
Ġlie gt
w eit
Ġgr Ã¶
as st
ll t
wo hl
ĠAn geb
g ri
ĠSt ud
schl uss
Ã¼n f
ĠP reis
i der
i f
ĠSt and
en nen
Ġse x
ach sen
um en
ĠOn line
ĠO ber
Ġger ne
Ġda fÃ¼r
z er
Ġwo hl
Ġwo llen
st a
ĠM al
Ġst att
Ġ Y
k on
ĠD ar
Ġgen au
kun ft
Ġer halten
ĠD r
ei der
Ġbe ste
un st
v on
g angen
f rei
scha ften
ĠS u
ie t
Ġ00 0
ĠWe bs
Ġgem ein
Ġn Ã¤ch
Ã¤n der
ers Ã¶n
ĠZus ammen
ga ben
ĠS el
Ġ5 0
in o
ĠmÃ¶ch te
ĠB Ã¼r
ra ft
Ġ ch
ĠArb eits
Ġger ade
an s
ĠS icher
ĠH och
ĠSt a
Ġge ben
ĠT he
in anz
ĠP h
Ġ u
ra f
ĠF a
wick lung
Ġsch Ã¶n
Ã¤ ter
Ġviel en
et te
et ten
Ġver w
Ġo f
Ġein ige
Ã¤ sst
ĠN utz
Ġw Ã¤re
au se
Ġm o
ĠO b
Ġw Ã¤hrend
Ġ *
Ġje den
ur e
v oll
Ġo ft
ing er
Ġsein em
zi al
Ġ or
on e
c o
ti er
Ã¶r per
ĠSp ort
Ġwen ig
ing t
ĠUn ser
Ġi r
Ġdir ekt
ein er
j e
ĠV ide
ĠGem ein
Ġgro ÃŁe
Ġn a
Ġr und
Ġf e
ation s
o te
ĠMus ik
Ġweiter e
Ġh Ã¤t
Ġge t
le x
ĠJ e
ier e
Ġden en
Ġbe stimm
ut zen
E R
ar e
ĠGe gen
ĠWe g
Ġh and
Ġt eil
Ġf r
Ġk urz
ĠG eld
iell eicht
ĠEur op
Ĥ ¬
ĠC hr
Ġbei den
Ġc a
ĠSt r
ĠK Ã¼
ĠD ien
ol it
Ġsch w
b ie
st ra
ut ter
ĠF ach
it zen
Ġgro ÃŁen
p unkt
ĠF ar
zeu g
Ġl ange
Ã¼ ss
Ġ" ,
ĠH e
Ġt he
Ġge hen
h le
Ġbesonder s
ick en
m o
is k
Ġo ffen
Ġâ Ĥ¬
ĠVer l
Ġg ute
chn ik
pf e
k auf
d ruck
rupp e
arb eiter
ti kel
ĠV on
Ġetw a
ell schaft
Ã¤ ss
ĠL eist
ĠWoch en
Ġer ste
sch eid
f il
rot z
u ell
ri ft
ge stellt
ater ial
Ġso gar
ch ten
ĠPl atz
Ġ19 9
Ġbie ten
ank en
ob il
st off
em ber
Ġdar auf
Ġb rau
ig ung
ĠP ar
ach te
Ġgro ÃŁ
Ġver m
ĠThem a
et ter
o pp
ativ e
Ġgem acht
Ġb el
ĠI de
gan is
Ġeigen en
Ġbe sten
ĠH Ã¶
v en
Ġw issen
ĠOr t
ag er
lau b
ei gt
Ġ ro
ol z
n ten
Ġ201 7
ĠMit glie
ĠM ehr
b et
Ġunser en
ĠH aupt
sch lieÃŁ
ĠkÃ¶n nte
ri st
ein ander
ur s
ĠD och
a ÃŁ
h op
ĠM ill
ĠS eiten
ĠK a
ĠZ ahl
lei st
Ã¼ b
Ġp l
Ġ Ã¶ff
Ġw ei
Ġau ÃŁer
m Ã¶glich
st adt
le gt
ĠN atur
Ġ x
Ġf ast
f on
al er
f eld
Ġ X
s ol
Ġ +
Ġl Ã¤sst
ro m
er k
w w
ĠD i
ei tet
u ter
it u
Ġe uch
r Ã¤n
Ġf rÃ¼
ĠT h
ber eich
ĠBei spiel
fÃ¼hr t
f el
j Ã¤hr
au en
ĠEr fahr
ult ur
Ġon line
ĠB ilder
lich t
ĠD enn
ĠZ iel
rei se
Ġfol gen
ĠJu gend
ĠT er
or e
in a
w ahl
Ġda von
ĠGesch Ã¤ft
Ġw oll
Ġz ahl
Ġg l
ĠIhr er
ĠAn t
ĠSp r
ĠK unst
ge gen
ing s
ĠF rage
se hen
m b
Ġr ichtig
re ffen
ĠF ol
Ġz ie
los sen
Ġent sprechen
il t
am e
ĠSel bst
w alt
Ġw eiÃŁ
g Ã¤n
Ã¼ d
Ġ. âĢľ
Ġgemein sam
Ġ2 4
zie h
ver b
Ġauf ge
ich tet
in ter
ĠA d
ĠM ein
Ġinter ess
Ġp aar
ei sten
ol d
Ġ #
ĠE igen
ĠK ir
Ġp ersÃ¶n
Ġje wei
ĠVer ein
au ft
Ġ rei
heit s
Ġin ner
Ġunser em
s i
Ġ. )
wei s
g lichen
m Ã¤ÃŁ
s el
ĠPro zent
Ġw ww
Ġd ich
Ġent wick
Ġmein er
Ġf indet
ho f
Ġsp e
ĠZ um
ĠA pp
ĠE ner
i ster
Ġir gend
Ġihr em
ĠF ir
uf en
kt ur
Ġkl eine
ĠD en
ĠRe gel
ie ls
Ġhin ter
or no
ti eren
ĠâĢ Ŀ
ĠM ark
Ġab ge
rau en
w and
Ġda ÃŁ
i x
le ben
Ġz war
ĠTe am
Ġin d
bild ung
ĠM et
sch nit
ĠMit tel
ti k
ĠPart ner
v e
Ġv ier
Ġg ab
nehm er
Ġhat ten
ĠIhr en
ĠK am
ĠRa hmen
a h
na hmen
as e
Ġkl einen
st Ã¼ck
ĠN icht
Ġher aus
Ġer folg
ĠS ystem
ann ten
e llen
etz en
st r
m ar
an stalt
Ġ2 1
Ã¤ ten
Ã¤ tig
k o
Ġg ilt
Ġaller dings
s y
ĠG o
Ġsch wer
ro ffen
ig es
ĠMo de
omm er
Ã¤tz lich
Ã¤ hlen
ĠMit arbeiter
ĠD ann
Ġk aufen
ĠIn st
ĠQu alitÃ¤t
w as
Ġw ahr
ĠVer fÃ¼
isch es
i b
ĠS k
ĠD ir
ant wort
Ġder en
Ġver fÃ¼
ĠD ank
ĠBes uch
eu er
imm t
ĠFr ank
iv i
c t
ĠA lle
in en
Ġt un
iel t
Ġ201 6
f ft
ĠS er
ĠM Ã¼n
Ġk am
Ġne ben
ĠT est
a x
Ġsoll ten
Ġsp Ã¤ter
ĠEin satz
ĠJ un
ag te
ĠF ragen
pl atz
Ġne hmen
war e
ĠV ol
ĠAr tikel
ĠAu ft
Ġunter schied
u bl
ĠW issen
Ġun be
ĠE U
ĠGesch ichte
w elt
a ffen
S t
Ġd i
o se
ĠK om
ĠF er
Ġ qu
ĠM Ã¤n
au sen
z ung
sch t
Ã¤hl t
bl ick
ĠP rÃ¤
re d
an ten
gen ommen
ĠW o
Ġ2 2
s l
Ġt o
Ġp rÃ¤
ĠVer t
ĠF est
olog ie
ĠN ie
Ã¤t ze
ich tige
ann te
al ter
h eiten
ĠP er
Ġd Ã¼r
Ġi hnen
Ġunter stÃ¼t
Ġbe st
Ġw eit
j ahr
ĠP at
fÃ¼hr ung
ar te
mal s
Ġbe de
u p
Ã¤ hn
Ã¤ us
ĠD at
inde st
ur t
ĠD ab
Ã¤n dern
ĠK at
u h
ĠPro gramm
Ġw orden
o ber
ra kti
Ġst ark
ĠB eit
ivi du
ĠSch wei
ĠB Ã¼
arbeit ung
Ġs agen
ĠL ehr
om at
ĠDab ei
b all
Ġeigen tlich
Ġbek ommen
ster reich
Ã¤ um
ĠN ov
sch er
b ach
ĠE m
ĠKont akt
y n
on d
Ġ >
at ten
ĠNe ben
Ġl eicht
it al
Ġsch Ã¶
ĠProdu kt
ĠMar kt
ĠPro jekt
lich keit
Ġ4 0
et s
ĠF rÃ¼
ĠBl ick
Ġsch l
Ġwen iger
E N
ĠF uÃŁ
lich es
i vers
ĠK rank
stell er
v ent
en te
ĠMÃ¶glich keit
i mmer
Ġb l
ĠW or
Ġges p
ze pt
Ġer klÃ¤r
e ch
Ã¶ff entlich
Ġkl ein
Ġver sch
i le
Ġkosten los
Ġbe w
ĠGro ÃŁ
le b
Ġc m
at te
ind ung
m Ã¶
g st
Ġz eigt
b uch
Ã¤d chen
ĠB ar
icht ung
Ġk einen
ĠhÃ¤t te
Ã¤n d
z Ã¼
Ġver k
ĠFil m
ĠG ott
it y
Ġau t
Ġ =
ĠAu gen
ri gen
ĠâĢľ .
le ge
un e
I N
fl Ã¤
ĠS erv
ĠV iel
f r
ĠC l
Ġv ielleicht
Ġf or
ĠBer uf
st o
Ġeben falls
d urch
Ġf re
ĠMin uten
ĠN acht
ĠT age
Ġf Ã¼
Ġverschieden en
ĠEner gie
ĠEr geb
ĠD em
ein t
ĠAut o
setz ung
Ġe her
ver l
rei che
Ġste llen
hl t
Ġf reu
ĠV ort
ĠL i
ges etzt
ĠR aum
Ġo pti
ĠRecht s
ra m
Ġda her
Ġakt ue
ation al
la den
ĠVerfÃ¼ gung
bar en
ĠHer r
s eite
age ment
ĠT ran
lo se
ĠâĢ Ļ
ĠK Ã¶rper
Ġle ben
Ã¼ l
er st
ab l
spr uch
Ġkann st
lie gen
Ġkl ar
ĠF unktion
ĠT ele
ĠChr ist
ĠEin z
on s
stÃ¤n dig
rÃ¤ ge
ĠC as
tt p
d es
Ġer z
ĠHo tel
Ġm einen
ar m
Ġ201 5
ĠAngeb ot
Ġsch reiben
Ġc om
ĠK ind
ĠT rain
rei fen
rupp en
Ġge k
ĠS eit
an ce
Ġ el
bar e
Ã¤ch st
Ġ: /
ĠPro f
Ġp assen
or g
den t
Ã¶r der
sp ro
ol f
ut t
ich tigen
Ã¤r en
mb H
ĠA t
ĠGr Ã¼n
ĠPerson en
Ġ. "
Ã¤n de
Ġso llen
ĠA bend
st ein
p tion
at or
ie f
ik er
re g
ĠT r
pf en
Ġ2 3
ter s
Ġwe gen
ch es
ĠM Ã¤r
sch eiden
Ġ end
ĠW ahl
Ġ:/ /
ĠDie ser
tre ten
ĠFl ug
Ġk ont
ĠP e
u mm
ĠK omp
Ġkom pl
- -
ĠS al
Ġspiel en
ĠB as
Ġin tern
Ġan d
in ner
arb eiten
pp en
Ġh ttp
ĠJahr es
wend ung
ĠWir tschaft
ĠRei se
ĠSp e
war z
Ã¼ ler
Ġg ing
zei tig
ĠSt Ã¼ck
ĠL a
ess ion
ge ber
de ut
art ner
ĠSt unden
I n
rÃ¼ f
Ġer sch
Ġsie ht
ĠÂ §
ĠLand es
Ġper fe
ĠNe w
Ġver t
ĠZ wei
ĠgehÃ¶r t
ĠS am
Ġbek annt
her ap
ĠN etz
as chen
ĠG mbH
ĠL es
hÃ¤n g
Ġ" .
gem ein
k ung
ĠR ad
ĠK ap
Ġan geb
ĠDes ign
b in
ĠH am
ti sch
Ġwer de
hand lung
ĠG ut
bes ser
Ġt rotz
Ã¤ te
ĠT o
Ġar b
ĠM aterial
ĠF Ã¤
st ru
Ġbeste ht
ĠW ert
z lich
ĠJ an
ĠSt art
ĠnÃ¤ch sten
ĠP o
Ġs agt
ĠE le
ĠJ ul
w ohn
ĠN amen
ĠB en
h aupt
ĠGr Ã¶
ĠEnt wicklung
Ġs agte
el fen
Ġbis her
ie g
Ġl eider
utz t
ĠProdu kte
ar f
ĠG arten
lei d
ĠK auf
Ġso fort
gri ff
rie den
ak te
ĠT a
i ff
Ġblei bt
onder e
ab el
ĠWer k
icht s
Ġson st
Ġwoll te
la f
Ġdeut lich
er nen
ĠG el
ik an
ĠW ind
Ġw under
ĠFamil ie
Ġm eisten
schl ag
i tel
Ġeinz el
ĠBÃ¼r ger
f in
hl er
la y
e ten
ĠPl an
st att
Ġ201 4
Ġdar f
ll ig
ĠDien st
ĠKo pf
u mmer
an c
Ġ0 1
ĠS ommer
ĠJ a
ĠWoch e
ĠL Ã¶s
C H
Ġje dem
wend et
os ition
ĠAu g
M ail
ĠGeschÃ¤ft s
ĠAb s
ik a
Ġdeut schen
iz in
is e
Ġre g
Ġdar Ã¼ber
Ġind ividu
Ġganz e
un dert
ass ung
Ġj em
ĠH ilfe
ĠI st
hr en
eig net
Ġf l
Ġsch le
ĠH olz
ber t
ĠIhr em
anz en
Ġb itte
z ess
ĠGe d
ig ht
ĠZ ur
ĠB ad
rit ten
tem ber
wei sen
Ã¤ f
Ġp riv
ĠB and
ĠVer anstalt
ĠS uche
A N
Ġinner halb
fol gt
ĠB el
ĠFre und
ĠN Ã¤
Ġmein em
sy ch
t ler
Ġh eiÃŁ
ar en
ĠFamil ien
ĠmÃ¶ch ten
hal te
in ge
b esch
Ã¤ch lich
sp e
Ġh Ã¶
un kte
Ġf unktion
ie gel
Ġ stellt
sch ule
sp ort
Ġlie gen
Ġk ennen
ĠEl tern
ĠG ast
ĠgrÃ¶ ÃŁ
ĠO kt
p en
ĠLu ft
Ġblei ben
Ġha st
ĠAn d
ĠT Ã¼r
sp l
ik ation
ĠF inanz
fÃ¤ h
Ġre gel
ĠVide o
ĠUn ivers
u ck
ff iz
ĠAn fang
ra x
ste lle
an te
ĠW inter
ĠD amit
Ã¶ hn
lie ÃŁen
p ar
Ġ6 0
ĠGes und
k a
Ġ. .
Ġer war
ĠK Ã¶n
sch ul
stell ungen
ĠL o
l ungs
ĠEr folg
ti f
Ġo ben
ĠDies es
in s
Ġha b
n t
Ġges am
Ġn utzen
un t
ĠBe d
ĠBe g
we chs
is mus
Ġn ot
Ġben Ã¶
us st
bes ondere
Ġz eigen
ha ft
zie hen
ĠGl Ã¼ck
Ġer w
Ġb ringen
Ġhin aus
Ġi de
Ġd ein
te ls
it er
ĠZu kunft
Ġje de
ĠA k
ĠHin ter
du z
ges amt
ĠHÃ¶ he
t ragen
schnit t
ĠSch Ã¼ler
ĠHer z
ktion en
rie g
ĠB i
Ġeigen e
al b
ĠUnser e
ĠNie der
il f
ĠJ o
m eld
ĠF ern
ĠP r
ĠEnt scheid
Ġa ktiv
ig t
Ġ Ã¼b
Ġgegen Ã¼ber
Ġg uten
Ġn orm
al y
Ġk aum
it Ã¤ten
og le
Ã¼ck en
ĠN ur
Ġ Ã¶
Ã¤uf ig
ĠS ing
Ġ. ,
ĠG Ã¤
ĠJun i
l es
ĠD ruck
ot he
Ġs uchen
ĠT our
v est
zeich net
r y
Ġp erson
ot or
Ġverschieden e
ĠSti mm
g or
Ġf Ã¼nf
is on
te gr
ĠK ultur
Ġin form
ĠP riv
Ġpro f
an ach
Ġ2 6
zi p
ĠM Ã¤dchen
Ġg Ã¼nst
be zogen
ĠSch utz
au ber
ll er
w Ã¼r
ding ungen
ge f
ĠN a
ĠMa i
Ġh alten
Ġ2 8
ĠS ol
Ġ201 3
Ġweiter en
l i
ti sche
ĠSe p
ĠVer trag
ĠN ord
Ġk omp
Ġab sol
ei en
fÃ¼ hl
ĠM ag
ĠR es
ĠP ark
ĠH eim
Ġh ei
sp iels
Ġs u
s a
ĠE d
ĠKl ein
en zen
bo ok
sch ung
it ter
ĠLie be
Ġl in
ĠAus wahl
Ġkon nten
r ichten
ĠH ei
Ġh elfen
ĠAu ÃŁer
ur op
ĠPol it
setz en
Ġbel ie
Ġer k
Ġem pf
m eister
l ungen
2 0
Ġ19 8
ĠL icht
ĠMill ionen
icher ung
un ge
ĠfÃ¼hr en
ĠKomm un
Ã¶ t
ft ware
g al
ĠB us
Ġher vor
ĠOkt ober
Ġ2 7
ĠL auf
r uf
5 0
ĠMa ÃŁ
ten s
ot s
we gen
ĠBo den
ĠGes ellschaft
z uf
ĠSicher heit
pf er
Ġte chn
ĠEr w
ĠWebs ite
ĠLie fer
Ġbe vor
ĠIn s
k sam
ĠEinz el
tig keit
o ck
a c
os it
ativ en
ent r
iz ei
ĠF Ã¼hr
ĠReg ion
ahr en
u tet
d orf
Ġspe zie
Ġmo der
Ġer f
re ch
ges etz
Ġdes sen
rad ition
ar i
t h
ĠB ro
p e
ĠD ach
ti v
te te
ĠFot o
z us
ĠG ra
ĠP orno
ĠMed ien
g te
ĠIn nen
ist or
d i
dien st
at h
ĠT em
s on
ĠSep tember
ĠIn f
Ġw elt
Ġver wendet
ĠT ra
ĠVer gleich
or gt
ĠTag es
ter t
ĠNov ember
âĢ ¦
Ġso wohl
ger e
un sch
kl us
f rage
ent lichen
rax is
a in
ĠAls o
ĠH aut
m et
eich en
an de
ĠK n
Ġver st
ĠCh ar
ĠB ay
ĠMÃ¤n ner
Ġp olit
f est
ĠGo ogle
mÃ¤ÃŁ ig
Ġmehr ere
Ġm ag
ĠSch m
p ort
ĠM ich
ĠJ etzt
Ġso mit
Ġarb eiten
ĠM utter
ow n
at is
Ġum f
ungs k
sen t
Ġander s
rÃ¤ gt
Ġ201 2
ĠfÃ¼hr t
ĠWei se
it ze
Ã¶ sen
Ġwe g
Ġer hÃ¤lt
ĠThem en
ĠS h
at ung
ĠB on
ĠW el
Ġdar an
Ġd eine
Ġt Ã¤
arb eitet
et ail
ĠK raft
d s
rit te
os sen
Ġg lau
Ġe xt
Ġz eit
l esen
Ġ3 1
sch uhe
ĠP ap
Ġl Ã¤nger
ord nung
un Ã¤chst
Ġp ass
ien ten
ĠTele fon
Ġh e
Ġs ucht
og raf
ĠK in
ĠL age
spiels weise
it ten
Ġhand elt
au sch
el te
ĠgrÃ¶ ÃŁer
ubl ik
Ġd am
ĠT ier
un k
ĠSpiel er
o llen
rie bs
Ġdes halb
Ì ĥ
omm un
Ġer fahren
ĠZ immer
bie ter
Ġmus ste
fahr t
ĠM ont
ĠTe xt
Ġst and
h ein
u ll
Ġun ver
ĠUS A
ĠE is
ĠMÃ¤r z
l en
gesch lossen
Ġal ten
ĠServ ice
ĠGen er
Ġ8 0
ĠL eute
um s
ĠA pr
Ã¼n dig
w ehr
ĠM Ã¼
Ġr ein
ĠC ar
on nen
w ill
Ġm eist
Ġent scheiden
ate gor
Ġber eit
ĠS Ã¼d
wir tschaft
ig in
ĠF euer
ĠMÃ¼n chen
al tet
Ġge geben
r ich
ĠheiÃŁ t
Ġsol che
Ġh Ã¶r
Ġvor h
ĠSch ne
ei er
ĠJul i
ĠT agen
Ġ2 9
en ten
Ġgef unden
ĠUnter stÃ¼t
stra ÃŁe
ĠW ien
ĠB is
Ġjed es
ĠN un
sp iele
in ne
ĠAr ch
Ã¤n ge
ĠS m
Ġt ats
ĠS itz
ick t
Ġk m
richt ung
ĠW ahr
rau ch
Ġw es
ĠSte uer
ĠD on
Ġbe stehen
ĠE ben
j a
as en
ĠD ort
ien en
ĠGe bur
ĠhÃ¶ her
g liche
ĠT ur
fÃ¼hr er
r et
ig it
eil en
e hn
ak ter
ĠSp aÃŁ
Ġzwei ten
n tag
Ġm m
ĠH el
l ang
ĠBeit rag
ĠV oll
ĠA c
rei cht
h ilfe
Ġ Ã¤hn
pp e
ĠTe chn
ĠWei hn
is ik
Ã¤ llt
ĠAug ust
f allen
ĠW ein
geb ung
och en
Ġ9 0
ĠW ider
ĠC omp
flÃ¤ che
ĠS il
w issen
forder ungen
ĠEr k
op h
mar kt
m el
Ġfreu en
Ġl esen
ĠBei m
ie ÃŁen
Ġganz en
Ġm Ã¶
ĠMen sch
ell er
ĠD amen
Ġbei spielsweise
ĠAuÃŁer dem
k reis
Ġins besondere
Ġp rakti
ne te
lieÃŁ lich
r acht
ĠH ause
ĠFot os
f Ã¤l
ĠdÃ¼r fen
k ont
rit er
ig keiten
ĠD is
Ġvor her
ĠK ur
red it
st at
ĠT op
ra gt
s or
is se
Ġer reichen
ĠDe z
Ġgew esen
ĠH all
Ġver gangen
om ent
s ystem
mit t
was ser
Ġbe d
Ġwel ches
ĠG ar
as che
b ahn
ĠP ost
ĠEr st
Ġnot wend
ĠÃ¼ber haupt
rei bt
Ġeben so
ab il
Ġjem and
ĠWe b
l auf
u ar
Ġ201 1
z eiten
Ã¶ st
Ġh Ã¶ch
wer b
ĠEurop a
ir t
ĠprÃ¤ sen
al ien
ĠH eil
Ġauf grund
e hm
Ġ Ð
ĠEle kt
ĠW Ã¤hrend
ĠPol izei
Ġ y
ĠL ei
ĠT ipp
iv en
ĠP ort
.. .
du st
ĠVer kehr
ĠAll er
ĠSch n
ĠI I
ĠNutz ung
ĠK r
ĠSt re
ĠG leich
il den
wie sen
ĠC on
ĠSch laf
pfe hlen
ĠApr il
Ġf inde
f urt
ĠHam burg
Ġperson en
ĠB itte
teil t
ĠOr ganis
ĠRo lle
sta ur
w Ã¤r
Ġvorh anden
ĠR om
ĠfrÃ¼ her
schlieÃŁ lich
f re
l eitung
ĠKomm ent
g ruppe
sch rift
Ġk ur
Ġ @
ĠGes amt
f rist
ĠGes etz
ĠW and
tig ung
ĠProblem e
ĠErfahr ung
sp h
ĠM il
Ġin nen
Ġver z
A n
gel n
! !
ĠT re
ĠSch ule
Ġaut omat
Ġbef indet
zeu gen
Ġbet roffen
ack en
Ġd ank
klÃ¤r ung
ĠJahr h
Ġ ur
Ġhoch wer
ĠSte lle
Ġm ed
herap ie
Ã¶ffentlich t
o c
ĠGrÃ¶ ÃŁe
Ġjewei ls
fol gen
ĠDa zu
ĠDaten schutz
ĠDeut schen
ĠN ot
ĠPf lege
o u
Ã¤uf er
ig ar
inn t
Ã¼hr en
ĠR ichtung
h Ã¤us
Ġge d
ĠZ we
ĠGÃ¤ ste
ĠBl og
ĠT or
min ister
Ġerfolg reich
Ġgew orden
ĠG ruppe
ĠI mm
ĠBl ut
ĠB aum
Ġjewei l
Ġintern ation
ver stÃ¤nd
ĠS or
Ã¤t zen
ĠEs sen
Ġander em
u sch
inde stens
Ġpersonen bezogen
Ġent fern
per atur
ĠSon ntag
teil ung
Ã¼nst ler
ĠAl t
Ġ201 0
Ġ rau
wert ung
ĠS c
pl an
ĠK urz
te st
ĠS en
Ġer folgt
ĠS an
k or
ge t
sicht lich
ĠFrÃ¼ h
ĠV iele
ĠBe handlung
Ġ us
Ġs etzen
chn ung
ĠMitglie der
ĠwÃ¼r den
sp ann
c l
ĠS itu
ĠD isk
dr esse
ĠW ort
u ster
os s
an geb
Ġein igen
Ġh Ã¤ufig
no v
be hÃ¶r
ĠBes onder
ĠE ro
Ġer ne
ĠErgeb nis
re ten
ĠW ald
Ġentwick elt
ĠO l
ĠIde en
hÃ¤lt nis
ĠW ett
ĠFar be
Ġ0 9
tig er
ĠGes prÃ¤
Ġi s
ĠTe chnik
zieh ung
Ã¤u ft
ĠA G
s sen
Ġer hÃ¶
ĠMÃ¶glich keiten
Ġp osit
h ang
ft ung
ĠSon nen
ĠR at
Ġdeut sche
zei gt
je kte
am er
ĠT itel
Ġr el
weg s
ĠSp iele
w agen
Ġaktue llen
ĠM otor
Ġ. :
Ġa t
s b
ĠS P
ĠKo lle
ĠBer g
ĠEx per
asch inen
iz iert
Ġer forder
ĠB ur
Ġgr und
uch ten
ĠG anz
ding t
Ġet c
ĠT ri
uch te
Ġwar um
ĠAuft rag
Ġall ein
ĠVer antwort
Ġges ehen
Ġl eich
ĠO der
ie w
ken nen
Ġ19 7
Ġbede utet
Ġsel ber
Ġbr ingt
Ã¤n dert
h ung
ktiv e
ĠJan uar
Ġ5 00
ĠHer ren
ĠK reis
st ieg
ĠB ru
ĠT ro
ĠWie der
stell te
Ġan ges
an ger
ĠSo ftware
meld ung
ĠB ank
Ġmit tler
8 0
Ġsu per
ĠNÃ¤ he
ĠG ri
i mal
ĠS ym
Ġw Ã¼n
ĠP ass
Ã¤u de
rei b
dr Ã¼ck
eit ag
ĠN r
lin gen
Ġkl ass
ab hÃ¤ng
Ġ7 0
sch w
ĠB ahn
ig a
zent r
ste ht
Ġent de
ĠH eute
Ġz unÃ¤chst
dust rie
ĠS oll
Ġ3 5
ĠGemein de
ĠVer arbeitung
ĠAn ge
ĠStra ÃŁe
h inder
rei ten
Ġf and
v olle
Ġm indestens
ĠâĢ ¢
ce book
am ent
ĠIn d
ĠDez ember
Ġl os
Ġk Ã¼
bar keit
amm lung
ĠCas ino
Ġel ekt
o o
Ġbelie b
ĠSam stag
Ġk na
ĠMode ll
ĠIn halt
ĠFar ben
Ġal te
l assen
sch au
z te
b ru
u hr
ĠAut or
Ġt reffen
ch mal
mittel n
ĠFl Ã¼
ĠSu per
ĠE ing
Ġal t
ĠW Ã¼r
ĠschÃ¶ ne
ĠF Ã¶rder
f ter
Ġb em
gr Ã¼nd
og ra
Ġf er
ĠA kt
al te
Ġho hen
an e
Ġgel ten
Ġz w
ĠEn d
g ien
Ġbrau cht
ion s
E S
wei le
ĠM er
ĠP rin
ĠUm welt
ĠUnterstÃ¼t zung
ĠP fl
ungs ver
la st
Ġver besser
ĠFer ien
Ġho he
ĠR ein
Ġneu es
Ġge eignet
ĠGebur t
rÃ¼f ung
Ġan zu
ĠK Ã¶l
Ġins gesamt
p reis
ĠF ort
Ġgen ug
ĠEn gl
halt ung
ĠgehÃ¶r en
Ġ4 5
Ã¤m lich
ĠBe st
k ungen
r Ã¼ck
ĠSch we
s ichtig
ei ger
gr Ã¼n
um ent
Ġbei de
Ġt h
ĠSt rom
r ach
m ack
Ġa k
m lich
ĠKin dern
Ġem pfehlen
Ġ0 8
k osten
eich er
ĠM eine
Ġv Ã¶
ĠEr n
rei bung
ĠM Ã¶
au l
fol ge
stimm ung
ist r
b ank
Ã¼t zen
Ġopti mal
Ġf ort
Ã¤l ter
ri ften
Ġ3 6
g ern
Ġl ernen
z ig
Ġverw enden
ĠSchwei z
Ġm in
em in
lo sen
h ausen
Ġend lich
ar r
Ġe urop
ĠI t
p rÃ¼
ĠInter esse
ĠSo zial
ĠSm art
Ġges etz
ich ter
ĠE t
ĠT od
1 0
rei sen
se e
Ġeinzel nen
ĠL og
st anden
ĠK il
ĠTe x
ĠSta ats
ĠK or
Ġar bei
Ġ0 7
Ġn immt
ĠSt ein
Ġer fÃ¼
Ġtats Ã¤chlich
ĠK ategor
Ġda durch
staur ant
ĠStra ÃŁen
ĠD etail
ĠHer aus
l ing
Ġvor bei
ĠWohn ung
Ġp h
ir e
it i
ĠW etter
Ġver ein
Ġzu dem
ste uer
Ġges agt
Ġj unge
ĠVer kauf
Ġf al
Ġsel ten
Ġent halten
reu de
br acht
ĠC D
ĠLeist ung
ĠD inge
ĠMitglie d
ĠF en
ĠUnivers itÃ¤t
Ġn Ã¤mlich
Ã¤ ischen
Ġn Ã¤
ier ungs
k ur
Ġentfern t
ĠAl ter
ĠRe gen
ĠJahrh undert
ĠSch ritt
V er
ĠA ktiv
rÃ¤ ger
Ġna he
ne ten
u be
Ġ... .
Ã¶l ker
z wischen
Ġf a
Ġvergangen en
h el
P ro
Ã¼r f
ĠErfahr ungen
wor ten
itz t
ĠB ran
Ġl aufen
ĠPolit ik
pro chen
ch ter
ĠSch Ã¶n
Ġsch eint
ĠP raxis
p or
ĠKÃ¼ che
rie d
ĠSa ison
Ġbek ommt
stalt ung
Ġb ist
schl Ã¤
ĠAn der
ĠVerb indung
ver t
Ġm ax
Ġso gen
ĠKir che
ĠBet rieb
Ġst Ã¤r
Ġz ehn
ĠW ill
ar ch
ĠPh il
d aten
ĠS icht
gel d
ĠStud ien
pro du
w esen
ĠPat ienten
t liche
Ġkompl ett
v ol
n ach
own lo
ĠK re
Ġsp ann
Ġ200 9
p el
o ol
ĠR ot
schlieÃŁ end
ges sen
bur ger
ĠC he
ĠGl as
ĠO st
f a
ĠPriv at
ĠProdu ktion
Ġlie be
bru ar
ĠTeil nehmer
ri fft
Ã¼ gen
ĠR isik
rei ber
Ġso zi
ĠGew inn
ho w
Ġdam als
pf lich
ĠT isch
ĠB all
Ġverb unden
asch ine
ĠEntscheid ung
Ġbe ein
S ch
Ġt oll
ĠBas is
ĠStand ard
au ch
ĠFe bruar
op er
ĠSt u
Ġf ahren
ĠH ome
ĠSe e
ĠBe deut
Ġin dem
zahl en
b ringen
Ġe hem
ĠH ig
en e
Ġzu l
ĠFa cebook
Ã¤hr t
Ġb ald
l Ã¶s
ĠIn halte
ĠHall o
Ġzus Ã¤tzlich
ĠFol ge
ĠB al
ĠMit te
g n
ĠSch uhe
ĠBesuch er
ĠVor aus
zeu ge
ĠIde e
E D
ĠerklÃ¤r t
Ġh Ã¤lt
ĠFr eitag
ĠKÃ¶n ig
Ġs etzt
I T
it h
ro p
Ġer reicht
ro ll
Ġfolgen den
off e
ĠAu ÃŁen
Ġl aut
ĠSch wer
s uch
ĠAus bildung
ll ung
ĠSte llen
m ed
A R
Ġaus zu
Ġst ar
Ġ19 6
Ġd anach
Ġm en
ĠDeut sche
ĠB ab
Ġd rau
ĠBe k
ĠvÃ¶ llig
ver ein
ĠunterstÃ¼t zen
ĠMe er
ĠN atÃ¼rlich
ĠMen ge
Ã¼s se
Ġakt uell
ĠWissen schaft
ĠAuf gaben
t ur
Ġf inanz
we gung
ser v
Ġbestimm t
ack t
si dent
ĠTer r
ff er
Ġt ragen
ck s
ĠR und
ĠKrank en
ĠFr anz
Ġer n
Ġw ider
g ten
Ġm on
Ã¼ss el
ge fÃ¼hrt
ĠEnt wick
ĠG et
ĠL iter
opp el
b y
es ser
st re
de te
d o
Ġer mÃ¶glich
c a
ro lle
Ã¤n dig
a ktion
uch s
att form
ist ischen
Ġun ten
ĠB ett
Ġjeweil igen
Ġrecht s
ĠW unsch
ĠunterstÃ¼t zt
ĠK an
zeich en
ĠVers and
im a
Ġwer t
ĠRe staurant
Ġwo bei
k ul
ĠD re
f ar
em ent
h ei
Ġgleich zeitig
stell ten
er in
ĠV ater
Ġ0 6
ĠM at
ĠCo ok
Ġb ele
alis ierung
ĠD ok
Ġspiel t
ĠVide os
Ġse chs
ĠG old
ĠZu dem
ĠVer k
o ver
ĠDeut sch
ho ben
ohn t
ĠSch au
Ġsein es
Ġkein er
Ġ Ã¤u
ĠUnternehmen s
a el
ĠSch warz
an lage
Ġs orgen
ue lle
ĠFir ma
et ing
Ġ3 2
ĠMon ate
Ġzum indest
schein lich
Ġwo hn
une hmen
ier ter
n ess
ĠWeiter e
reu z
Ġangeb oten
ĠK rieg
ĠW est
it t
Ġtrotz dem
fl uss
Ġge stellt
sp ar
chn et
f ert
Ġ0 5
Ġ200 8
Ġf rauen
Ġzie mlich
i lle
ĠS atz
jÃ¤hr ige
l ass
Ġh il
geb iet
ĠAll es
ĠS l
ĠBedeut ung
k om
b Ã¼r
z ul
Ġletz te
ĠS w
ar ian
ĠS and
s se
A T
ĠM ass
ĠM art
stÃ¤n de
be dingungen
Ġweiter hin
Ġr ichtige
v is
ĠBeg inn
zent rum
ra te
z eigen
ik e
ĠFir men
l ad
ĠDas s
ĠGesund heit
3 0
hr e
rei te
ĠAngeb ote
ĠBr em
ĠLÃ¶s ung
ĠGed anken
ĠAller dings
om aten
Ġder zeit
w ig
rÃ¤ um
Ġperfe kt
mÃ¶glich keiten
Ġwel cher
ĠUm gebung
ï ¿
Ġin tegr
qu em
Ġh eu
Ġzus Ã¤tz
ĠF Ã¼
Ġâ Ĩ
ti schen
ĠKam er
Ġg ern
gr Ã¶
st all
ĠMon at
teil en
Ġbesch Ã¤f
ï¿ ½
Ġ0 4
ĠÂ ·
ĠG ruppen
ĠVer fahren
s itzen
ĠIn vest
y l
Ġjeder zeit
Ġ0 2
Ġen g
O N
ĠP reise
i as
d et
ĠI s
Ġbe hand
ownlo ad
ĠFuÃŁ ball
al if
ĠD om
a fft
rÃ¤ fte
ar s
ĠR el
ĠJ ob
Ġver gleich
ð Ł
Ġe cht
Ġsch lieÃŁlich
at ik
ĠUr laub
A S
Ġfre und
ĠAn aly
be w
ur f
ĠAn bieter
ĠK e
ĠMet ho
us e
ĠHer steller
ĠT V
ĠP unkt
ĠÃ¼ber n
zu stellen
ĠPerson al
k unden
de ck
ĠD o
dig lich
ĠMein ung
Ġl o
ĠB ern
Ġs inn
leist ungen
ĠâĢ ĺ
w och
lie b
ĠW olf
h ard
den ten
Ġ) :
ho st
Ġh istor
rau t
Ã¼t zt
Ġo ber
ĠS ter
ĠEr d
re cher
au st
it ut
ĠM od
ĠR eich
ĠermÃ¶glich t
ĠVer walt
Ġer kennen
iss ion
ĠWeihn acht
ĠD rei
a ff
ĠI r
ĠVer m
zeu gt
ie ten
ĠverfÃ¼ g
Ġt ran
ĠAll tag
Ġgen ommen
Ġher r
ĠKa ffe
Ġor ganis
s ver
ĠFahr zeug
E L
sp rÃ¼
Ġ0 3
n ern
h ann
ĠFe hler
ĠS inn
p ark
ok rat
Ġgro ÃŁer
Ġgesch rieben
ĠBer atung
ĠNutz er
ĠP al
ĠZu stand
Ġ19 4
v iew
ĠPe ter
am pf
ĠSt Ã¤d
ĠS ache
es e
Ġfunktion iert
ĠSitu ation
y r
ĠRei he
ĠN ational
a ktiv
ĠR hein
ĠLin k
ĠMich ael
Ġbeg innt
ĠkÃ¶n nten
ĠIn dustrie
ber n
ei sen
G B
ist ik
ĠD ich
ĠL ust
ger icht
Ġge h
Ġge pl
u tion
ĠZ wischen
Ġt ot
Ġander es
Ġer le
ĠT yp
lei sch
ĠA p
ĠVol ks
ĠKÃ¶l n
lo ck
n der
ĠH ar
zahl ung
den ken
Ġer wei
ĠU l
Ġ3 00
jÃ¤hr igen
etz ung
i llen
o x
Ġzwei te
ak e
at es
Ġst ets
Ġsch affen
Ġprof ession
ĠZusammen arbeit
ĠAn gaben
sch riften
ĠFen ster
ap an
Ġsei en
ĠMe ter
Ġr uh
Ġehem al
ĠSpr ache
Ġver stehen
Ġ ehr
ĠComp uter
p a
Ġen gl
ĠschÃ¶ nen
Ġsch warz
ĠDes halb
ĠK u
imm el
ĠImm obil
ÃŁ t
Ġzahl reiche
b Ã¼
pro gramm
ĠKam pf
ĠAnd re
w ind
u ft
s ein
o ut
ĠS ehr
ĠGe fÃ¼hl
ĠGeb Ã¤ude
ĠS inne
ach st
Ġ ðŁ
I S
f ragen
ĠSch on
ist ische
ĠAl tern
gesch ichte
Ġlang sam
spr icht
Ã¶ ne
Ġext rem
Ġer l
richt ungen
ĠÃ¼b rigen
ĠBÃ¼ cher
geb aut
ĠF in
am a
ĠZ ahn
s Ã¤tzlich
ĠMa x
ĠFrank furt
ĠAn gst
ĠStr and
Ġh ol
ĠMon aten
Ġz er
be d
Ġbe ant
anz eigen
ĠBet riebs
ĠWar um
itz er
Ã¤n gt
Ġgleich en
leid ung
ul ar
Ġunbe dingt
Ġt ro
lie ben
Ġwelt weit
Ã¶r t
ĠMus e
ann e
ĠP sych
statt ung
Ġkna pp
ĠT rotz
ennt nis
ĠG rÃ¼
ĠFre unde
ĠSicher heits
Ġr ichtigen
ei dig
ĠL ang
eich ert
verb and
f le
ĠI S
Ġr es
Ġer he
te chnik
D F
mer zen
f rieden
Ġer g
wer te
Ġw ichtige
ig ur
ĠW ander
los s
ĠF reude
ĠBen utz
ĠM eister
Ġneu er
ĠWebs eite
enn ung
ĠL Ã¶
k ir
Ġd igit
ĠOr d
ge geben
ĠP osition
Ġschw ier
Ġver d
ow s
Ã¤ den
ĠNach dem
igin al
ĠM oment
om as
Ġ[ âĢ¦
Ġan gen
ome ter
g arten
m and
sp ir
tig es
Ġs orgt
b and
ĠAb schluss
i ver
Ġgesam ten
im e
Ġan sch
Ã¼t z
Ġunser es
in t
ĠP orn
ĠT on
el ten
ĠP unkte
az on
Ġm ass
ĠInter essen
ĠP aar
k arte
leist ung
Â «
ĠAn spruch
Ġdurch aus
Ġf orm
O R
Ġent stehen
Ġhil ft
Ġt olle
Ġerforder lich
ma ÃŁ
en der
Ġein zu
Ġ[âĢ¦ ]
u x
n ungs
ges ehen
ĠV ielleicht
ĠpersÃ¶n lichen
Ġl Ã¤uft
ĠK arten
ĠBeruf s
Ã¤ss ig
ĠLeist ungen
ĠE uch
ĠK redit
mer ksam
am es
ĠSal z
ĠVer wendung
O S
s ie
ĠJo hann
Ġsp rechen
ier ungen
ĠVers icher
Ġj ungen
Ġteil weise
z ir
ĠKon z
ĠR uhe
Ġumf assen
z in
Ġl au
ĠS onder
aus o
hol z
gew Ã¶hn
Ġa d
alis iert
ĠBay ern
Ġn atÃ¼r
Ġz entr
Ġihr es
it en
ze hn
ĠS hop
v a
ha fen
Ġp ar
ĠN ame
Ð ¾
ĠFol gen
ĠgrÃ¶ÃŁ ten
ĠTer min
ĠAn zahl
leb nis
ir m
anc en
kt or
och ter
ze p
ieren den
Ġzu vor
Ã¤hr ung
Ġman chmal
rÃ¤ f
Ġp asst
Ġaktue lle
ĠGe f
Ġbesonder e
bau en
ĠErw achsen
ĠAuf gabe
la ck
ra un
ĠTipp s
mitt lung
ĠE ind
ĠV is
Ġaus schlieÃŁlich
ĠM orgen
ĠS ach
ĠnÃ¤ch ste
ĠH ann
ĠErgeb nisse
ĠArb eiten
ru ktur
ĠL eider
Ġeinz igar
Ġdeut sch
w ser
tt ra
mÃ¶ glichen
zÃ¼ glich
h au
Ġgen ieÃŁen
ha ben
ĠB ade
gehen d
ĠVers ion
Ġob wohl
Ġbrau chen
Ġ3 4
a un
Ġf Ã¤llt
ĠEU R
ĠF arb
ĠhÃ¤t ten
Ġ200 7
Ġgen utzt
ĠGer Ã¤t
v el
Ġgar an
ĠSo hn
ĠIt alien
ei ls
ĠAnt wort
Ġdar in
Ġde fin
Ġzu frieden
ĠkÃ¶n nt
Ġpersonenbezogen en
ĠV ier
Ã¤tig keit
Ġge kommen
or gung
Ã¶ff net
Ġle diglich
ĠO ut
k Ã¼
ĠTem peratur
ĠPro zess
zi f
Ġ9 9
v an
Ġlie ber
ĠK er
Ġver Ã¶ffentlicht
ĠDisk uss
Ġzie hen
Ġunter wegs
Ġger e
ĠC a
ĠH und
ĠAn wendung
Ġschle cht
Ġlin ks
ĠK Ã¼nstler
ĠÃ¤u ÃŁer
Ġander er
ĠmÃ¶glich st
g ner
ĠWar en
ĠZeit punkt
rie f
ĠK urs
Ġsol chen
Ġh al
ĠI T
an st
Ġm uÃŁ
Ġ3 3
ĠP C
ĠHer bst
ĠB ack
Ġn Ã¶
ern t
Ġge bracht
Ġgesam te
sch rank
ĠG raf
ĠO ption
p ft
ĠA ktion
ĠK al
Ã¤n den
ĠD S
ĠM acht
ĠGott es
as h
ĠMann schaft
Ġent gegen
Ġs ah
ĠWirtschaft s
Ġmittler weile
ĠVeranstalt ung
Ġgew innen
f inden
ĠR uss
y t
Ġrau s
s etzt
we der
ieren de
k raft
ĠS Ã¼
ĠKl asse
ĠD ein
ent rum
g art
ĠSt utt
Ã¤um e
Ġab zu
pr ess
wohn er
Ġus w
lin ge
Ġd re
Ġdenn och
rau cher
o de
z Ã¤hl
Ġ Ã¤lter
ĠGes icht
v Ã¶lker
ĠU p
Ġer h
Ġent hÃ¤lt
ĠReg ierung
Ġverl oren
ĠAr zt
or ien
Ġvers ucht
ĠO hne
Ġso weit
n ungen
ĠHinter grund
Ġt radition
ĠMa in
gel t
ĠAu st
b ol
ĠverfÃ¼ gt
ĠauÃŁer dem
ĠT raum
Ġwir tschaft
v ollen
rau cht
Ġnach dem
ĠJe der
fl ug
lin ik
1 9
Ġein ger
Ġunterschied lichen
ĠKosten los
Ġ Ã¼
Ġsch war
ĠtÃ¤ glich
Ã¶ se
unter nehmen
ri m
ĠTh omas
ĠKom bin
i ent
etz te
ĠAl b
g s
1 2
ĠMont ag
ĠFor um
Ġo ffiz
lo w
Ġer lau
ĠK no
Ġregel mÃ¤ÃŁig
Ġdar um
b aum
ĠB rÃ¼
end et
stoff e
Ġbe quem
ĠSt unde
Ġm achte
ĠKommun ikation
ĠÃ¶ff entlichen
Ġp orno
ĠBe zug
Ġd at
Ġso d
ĠL ager
klus ive
s ei
an en
ĠV o
ĠGesch mack
ro h
Ġbis schen
ĠAn ti
y er
Ġaus reichen
ĠIhr es
Ġentsprechen d
Ã¤ ger
Ġkl einer
ĠZusammen hang
tion en
ĠSch aden
Ġwe chs
ĠV i
Ġver antwort
ĠLeist ungs
Ġgew Ã¤hr
Ġk or
uf e
ĠSch rift
ĠK ann
ĠS uch
Ġd rin
host w
Ġt yp
Ġs ing
ent liche
Ġein gesetzt
r aten
Ġautomat isch
ĠSmart ph
vers icherung
ick e
in k
ĠH unde
Ġer o
sch uss
Ġ reich
ig ten
ad em
ik al
er ikan
ĠpersÃ¶n lich
ĠP fer
Ġd au
ĠS achen
Ġhin zu
ĠA ss
Ġvers uchen
Ġerwar tet
ĠH ol
ĠP ublik
mittel t
ĠnÃ¤ her
Ġd isk
ĠSch nit
ĠSta at
ĠZ eiten
ver kehr
g ruppen
Ġun er
ĠHer zen
Ġw Ã¤hlen
fre und
sph Ã¤re
hl ung
olit ik
st ern
In nen
Ġhttp s
ĠDa her
ĠSt at
Ġentwick eln
ĠHeim at
ĠP a
Ġwen ige
zeich nung
spiel er
2 4
r t
ĠN orm
Ġh alt
ĠRe d
Ġzu ge
Ġp reis
Ġh aus
ĠEn g
ĠMaÃŁ nahmen
Ġer leben
ĠÃ¼ber r
ach er
ul ti
ĠNeu e
ĠO pti
r es
g ut
ĠK rit
ĠL aut
ĠSchl ag
Ġm orgen
ĠEin en
s wert
ĠF eld
ĠI mmer
Ã¤l te
ĠH Ã¼
ĠAn forderungen
Ġden ke
Ġbeg ann
Ġer ster
n ummer
A L
ĠD oppel
Ġge legen
ĠWochen ende
Ġe gal
Ġerne ut
an a
fer enz
ĠCh ance
ĠA bl
ĠF el
re ut
Ġabsol ut
ĠN och
ĠCook ies
Ġk rit
ĠM ir
Ġall gem
c ial
en ter
e g
Ġwunder sch
verstÃ¤nd lich
Ġb ein
fÃ¼hr en
ĠUnter such
Ġ! !!
ĠBe ste
Ġgem Ã¤ÃŁ
Ġbef inden
Ġk omm
Ġgen annt
ĠAn trag
ĠB il
ĠH alb
ĠM el
ha fte
de ten
ĠH y
ĠE vent
j en
Ã¤n gen
t ritt
Ġk amen
Ġbe stellen
ie te
othe k
br uch
ĠMed izin
ir n
Ġwen igen
Ġbestimm ten
tier te
be k
is iert
Ġi P
ĠC om
ur m
Ġz eig
wechs el
on en
tig ten
mo de
ĠEm pf
end es
ĠFrei zeit
spr Ã¼n
se x
ĠArch ite
s uche
Ġb ild
Ã¤ dig
la pp
ĠS eine
ĠBr and
ie lle
Ġver gessen
ĠD eine
Ġt ief
Ġ3 8
ie fer
ĠRÃ¼ck en
ĠMa il
grÃ¼nd et
ĠDon ner
ĠS zen
ĠKir chen
Ġun abhÃ¤ng
our n
Ġgen er
setz ungen
at ter
ĠfrÃ¼ h
a kti
ĠVerl ag
ĠâĢ Ķ
ĠTur n
ĠKat zen
Ġgl Ã¼ck
Ġwissen schaft
Ġ20 00
un kten
ĠA bt
ĠG eist
fÃ¤h igkeit
Ġbe wer
Ġnotwend ig
wer ke
mÃ¶ gen
v iel
f alt
Ġfer tig
ĠR u
ti l
duz iert
ĠLe der
Ġbesonder en
ĠG u
for dert
ĠM ess
ĠVer halten
ĠEr satz
ĠBe stand
b ieren
) .
ĠBesonder s
gang s
ĠAm azon
ĠM obil
Ġfolgen de
1 1
Ġber uf
ĠW Ã¤r
ĠPfl anzen
Ġdir e
ĠMar ken
Ġda gegen
ĠBed Ã¼rf
ĠAus s
ĠG ele
ĠT ochter
Ġwichtig sten
ĠAn schluss
hol t
Ġj Ã¤hr
ĠTrain ing
c m
Ġg uter
ĠA ir
it Ã¤r
ĠGeburt stag
spr ung
an lagen
ĠH or
Ġge z
un kel
Ġ200 6
ĠMart in
ĠWind ows
ĠDar Ã¼ber
spr ache
s h
iel en
ĠVer Ã¤nder
ĠGesprÃ¤ ch
k u
ĠFÃ¤ llen
ĠWir kung
st Ã¤t
Ġf ot
Ð µ
ĠIn sel
Ġverl assen
ĠW Ã¼n
Ġgef Ã¤hr
Ġgew Ã¼n
ĠW al
flÃ¤ chen
Ġgen auso
Ġgest alten
Ġeinz ige
h ause
Ã¤n g
Ġ3 7
Ġa cht
ber eitung
ĠSchwei zer
ĠSon ne
ĠLin ks
schaft s
Ġvor aus
ĠT at
ha ber
ĠVor stand
ĠH off
Ã¤ h
b a
Ġsod ass
Ġin tens
ie llen
ĠH Ã¶r
Ġm el
ĠO ffen
ĠP u
ĠLi ste
Ġwir kt
ĠChar akter
Ġ Ã¤ndern
bie ten
pf el
ei ert
ach tet
ob ile
ogra ph
ĠKaffe e
ĠD auer
ei ben
ĠLei p
Ġl angen
ĠA lex
Ġmehr eren
Ã¼ck e
U S
ent halt
Ġwar ten
ĠbenÃ¶ tigt
bo ten
ĠL ive
ten t
ĠW ild
w ald
ĠE he
Ġzul etzt
Ġwe der
ĠMit t
a ben
Ġber ech
Ġkon k
ĠSp an
Ġden ken
Ġf Ã¶r
Ð °
Â °
ram pf
spr ach
1 8
ĠFlÃ¼ cht
Ġirgend wie
ĠS ein
Ġ201 9
Ġkosten lose
-- --
ĠF rie
ll igen
ĠSchl uss
ĠSP D
Ã¤ st
Ġd einen
a be
Ġle gen
Ġ15 0
Ġbest Ã¤
ie gen
pf licht
Ġauf zu
Ġ <
Ġ3 9
ĠImmobil ien
ĠWo hl
p artner
ĠB u
ĠD ownload
ĠV arian
ges ellschaft
ĠSpe zial
Ġ4 9
ĠT eile
Ġsie he
ĠSer ver
S p
ĠHand el
U N
Ð ¸
i ar
Ġ7 5
bar er
ĠWe ge
ber ger
Ġl and
ĠBild ung
Ġbeg eister
ĠGer ade
Ġl ag
ĠW eiÃŁ
lich keiten
Ġin zwischen
Ġdurch gefÃ¼hrt
ĠFrank reich
Ġirgend w
Ġpass iert
ĠT ats
ĠhÃ¶r en
Ġerwar ten
ĠAn meldung
Ġun ge
ĠWel che
ĠgÃ¼nst ig
1 4
Ġer mÃ¶glichen
ĠJ ung
mit tag
ĠWett be
ĠSch war
ĠT iere
ĠG lau
ĠNach bar
Ġlie ÃŁ
Ġver pflich
ost et
se h
Ġmax imal
stat tet
Ġv ide
ĠVerkehr s
Ġ5 5
Ġer reich
m ehr
f assung
an walt
ĠK reuz
Ġrel ativ
Ã¤l fte
p s
Ġmo dern
ĠSer ie
Ġwahr scheinlich
Ġinform ieren
ak et
Ġver ste
ĠHa ar
ĠSp ann
ĠSti l
u ern
A dresse
ĠBo ok
ĠGer Ã¤te
ĠBe wegung
ĠNach richten
am s
ĠUr s
ĠGele gen
ym p
Ã¶t zlich
ĠW h
Ġs icht
ĠAus land
ĠH ans
ĠSie g
sp rech
stÃ¤n den
stru ktur
ĠSt ar
in ess
p ack
ĠSt off
ĠStutt gart
Ġum fang
as er
z unehmen
ĠThe ater
ti ve
ĠG rad
Ġher um
ĠInform ation
is ierung
ĠDonner stag
ĠJ ed
w a
ĠKl ass
b ald
Ġgut es
Ġdi ver
ĠTr end
Ġgef allen
Ġw or
s burg
ennt nisse
Ġan al
Ġ19 5
ĠBe griff
i bl
Ġ ti
ĠSchnit t
wir kungen
man agement
Ġ19 3
ĠN o
Ġb lau
ĠV om
ĠP lay
f angen
ĠT reffen
an gt
hostw riter
Ġst ud
Ġbe ob
ĠEin sch
ĠT radition
wÃ¼r dig
Ġausge w
ĠK unde
ru cken
Ġst Ã¤ndig
ĠS emin
f o
Ġs a
te uer
ic ro
Ġinternation alen
Ã¼ hm
ĠKar te
Ġbe achten
Ġf allen
Ã¼r en
ĠDetail s
ĠMet all
ĠBe w
ĠWe chs
ĠE xt
Ġbestimm te
ĠAr m
ĠZ entrum
ĠGrund lage
ĠFunktion en
Ġsie ben
r ein
ĠI P
Ġgesch lossen
Ġbet eil
g o
ĠDank e
wend ungen
Ġj Ã¼n
ra b
am in
v ier
ĠEigen t
Ġfe hlen
her r
st ud
ĠD orf
Ã¼ss eld
m aterial
ĠGesund heits
ĠSpiel en
in es
ĠBet reu
Ġ200 5
Ġf ach
Ġentsprechen den
umm ern
ĠverfÃ¼g bar
ĠHo tels
Ġbe ge
ĠRom an
le fon
p lay
ĠDa fÃ¼r
Ġ4 4
i zi
en a
Ġda hin
Ġmit tel
I E
ĠL Ã¤ndern
Ġindividu ell
ĠAn lage
Ġ4 2
ĠEr de
ĠGesch ichten
ĠBe vÃ¶lker
ĠEr inner
ĠVeranstalt ungen
ĠÃ¼ber all
ĠWeihnacht s
ach el
Ġt ra
it s
Ġsp richt
Ġk ennt
isch em
is er
Ġges und
ĠMark eting
ler nen
Ġfr anz
le gung
ffiz ien
Ġzahl reichen
Ġ4 00
Ġgest ern
Ġp sych
as ino
ktiv en
Ġt ut
ĠBerlin er
Ġgr Ã¼n
ĠR ie
ĠVerein s
Ġrei cht
r ik
d lich
Ġher unter
Ġviel fÃ¤l
ĠW eil
ĠS ucht
ĠExper ten
s Ã¤tze
spiel en
ĠBesch wer
Ã¼ ch
ĠC amp
ĠMitt woch
ĠFor schung
ĠRei sen
ĠT al
Ġd r
ĠPart ei
en ze
ti c
Ġlie ben
on g
Ġent schieden
ĠHand y
ĠBro wser
in st
ik ro
ĠMark e
ĠL eit
ĠU N
ab le
lei tet
f unktion
Ġbes uchen
ven tion
ĠLin ie
Ġnach hal
tre ter
ĠBÃ¼r o
Ġgen annten
ĠVol k
hol en
Ġun g
m ark
ĠFÃ¼hr ung
Ġent standen
Ġspezie ll
Ġent weder
Ġer inner
wor tet
ĠS im
ot h
ĠOr iginal
ĠDir ekt
st Ã¤r
ĠTran s
ĠFeuer wehr
rÃ¤um e
ĠWohn zimmer
Ġmen sch
p assen
sch n
Ġsp ort
o f
is h
kl asse
lÃ¶s ung
Ġbet rÃ¤gt
au b
ĠF C
ĠZ eichen
ĠRe st
ĠKl ima
ok al
Ġver n
ĠH om
Ġs auber
ĠP il
Ġarbei tet
ĠEin fach
ĠZwe ck
Ġ4 8
ĠLes er
Ġw ith
ĠElekt ro
ĠâĨ Ĵ
Ġb as
in os
Ġr ies
bo x
Ġgesp eichert
wissen schaft
ĠKil ometer
Ġsch n
Ġbeg innen
Ġvor ge
Ġgr atis
Ġkommen den
ĠM or
ie fel
ĠK ern
Ġun mittel
yn am
ĠFl Ã¤
ĠC hem
ĠFall s
or y
ĠFre e
om it
ĠL Ã¤nder
schein t
ĠH alt
ĠGe fahr
gri ffen
sch te
ĠHo f
Ġschnell er
ĠVer d
Ġausge stattet
V O
Ì Ģ
Ġglau be
T e
Ġnie mand
ĠLiter atur
ium s
ĠO per
ĠPr esse
Ġin stall
ĠZ er
ĠBereich en
ĠFÃ¤ h
Ġb o
Ġs org
ĠOrganis ation
ĠTrain er
Ġer gÃ¤n
l iga
Ġd ur
p o
Ġnie der
ĠRe chte
ĠL Ã¼
D R
ĠBab y
ĠSpr ach
ĠGew alt
ĠChrist ian
Ġges ucht
Ã¼nd ung
Ġk n
tif iz
ĠZ it
ĠgrÃ¶ÃŁ te
ĠP rem
Ġklein es
i ste
ĠPro jekte
x x
ĠB a
g reifen
fahr er
Ġk re
ĠBe dingungen
ri d
Ġp ol
ĠLÃ¶s ungen
Ã¤d ag
ĠJ es
ab t
ĠFahr t
ers eits
ĠbenÃ¶ tigen
Ġt rÃ¤gt
zep te
Ġein gesch
ha lle
Ġk Ã¼r
ĠAu ff
mer z
ĠP an
ab et
ĠBon us
Ġkom bin
gef Ã¤hr
ĠSt Ã¤r
a bend
d ung
ĠH ein
Ġsch rift
ĠGew icht
Ġan t
Ã¼nf tig
ĠF ein
ĠP DF
r Ã¶
hn ung
ĠFor sch
ĠSing le
Ġin kl
ĠEro tik
ĠW il
qu alitÃ¤t
Ġgeb oren
lei der
ch ner
Ġm er
Ġst ra
ĠMan agement
a dern
Ġheu tigen
ĠD ad
ĠUm gang
ĠD an
ĠKo oper
ele v
zahl t
v in
Ġer stellen
l Ã¤ss
ive au
ĠC ont
ĠJ ack
Ġpro blem
ar a
gr ess
p ublik
Ġer scheint
Ġunter s
ĠGe heim
Ġl a
ĠprÃ¤sen tiert
tier ung
i kt
b us
Ã¤n gst
p asst
ĠZu g
ĠÃ¼brigen s
ic a
Ġunterschied liche
1 5
ĠPap ier
Ġst imm
Ġ4 3
w art
vol ution
ĠFr em
Ġbe zeichnet
ar zt
Ġin nov
p unkte
c tion
Ġgem Ã¼t
ĠNetz werk
om en
atz e
ĠBe gl
ĠVer gangen
ĠZ uf
i os
ĠVort eil
Ġges etzt
ĠA s
Ġ9 5
all s
Ġd auer
ĠEd el
pf ung
un a
ĠF it
ĠFrÃ¼h stÃ¼ck
ĠWer bung
Ġmit tels
ĠGr enzen
ĠGe h
rie be
on es
ĠStra te
fl Ã¼
lin ie
ott o
ĠgroÃŁ es
ĠKon zept
ĠKategor ie
ĠZu gang
ĠZ eu
Ġall eine
ĠKombin ation
ĠA ben
em ente
ĠBed arf
Ġbew usst
Ġb ilden
6 0
ĠLu x
ĠMÃ¶ bel
Ġna hm
p ol
ĠM icro
T E
l d
Ġerz Ã¤hlt
ĠEin ige
Ġunterschied lich
ĠerhÃ¤lt lich
ĠHin weis
ob by
mm ern
f ass
ĠG i
mit glie
ĠZahl ungs
Ã¼ck sichtig
Ġprof it
Ġinteress ant
ourn al
ĠRo ck
Ġsicher lich
p art
ĠK rampf
ber eit
ĠBe wer
ĠInf os
ĠwÃ¼n schen
wind igkeit
Ġl etzt
Ġp artner
alen der
Ġvoll er
b ad
Ã¤r m
Ġge halten
ĠB or
ĠWechs el
ĠLie bl
Ġj ahr
ĠTa be
ĠLehr er
ĠP oten
ĠÃ¤hn lich
ff entlich
ĠBeit rÃ¤ge
Ġfranz Ã¶s
s ser
w urf
S V
ĠN ein
ĠW a
ĠCl ub
Ġm e
4 0
ĠHaus halt
stÃ¤nd ige
ĠKl assen
Ġverbesser n
ri ge
Ġversch w
Ġs uche
mo sphÃ¤re
bet rieb
ĠH immel
hin dern
w Ã¤
Ã¼ ten
Ġentsprechen de
ĠGrÃ¼n den
Ġh eim
fil m
ĠWeiter lesen
ver fahren
Ġaus drÃ¼ck
dien en
Ġmus sten
Ġs Ã¤m
l ern
ĠAuf bau
Ġk o
ĠK ol
angeb ot
ss ystem
Ġgrund sÃ¤tzlich
ĠVor der
Ġdar unter
Ġfol gt
ĠUnter richt
Ġf ein
Ġre ag
k arten
ĠW in
m essen
wert ungen
i us
fÃ¤ lle
ro chen
Ġvor stellen
al es
ch em
Ġw Ã¤ren
mm e
ĠKamer a
Ġt rifft
ĠVerb raucher
son sten
ĠR Ã¶
Ġsch auen
Ġange geben
ie ter
di ent
ĠMo tiv
ĠF ans
ĠAuf enthalt
Ġgel ungen
os oph
Ġz eich
d a
ĠW under
alis mus
ĠFahr rad
on ie
ĠInst itut
ri ck
ĠDien stag
ĠGesch enk
ĠR icht
ĠEin kauf
Ġsch m
Ġmit einander
stÃ¤nd igen
nit ten
ĠAl ters
ĠV it
Ã¤m pfen
c ri
ĠH ard
ĠVer besser
Ġd einer
ue llen
ĠIn tegr
olog ischen
se qu
Ġan s
ĠAus stellung
Ġge be
Ġern st
ĠD ro
ĠD anach
l eiter
ĠH Ã¤lfte
ĠGro ÃŁe
Ġvoll stÃ¤ndig
ĠSchlaf zimmer
schlÃ¤ ge
ĠR oll
ĠEin fluss
ĠP ersÃ¶n
Ġwir ken
Ġm ar
Ġmoder nen
a at
ĠUm setzung
2 5
ĠT abl
ĠPl attform
ĠStand ort
Ġb auen
ter ung
Ġl ei
ĠKrit ik
ĠH at
ha ften
ĠB ier
Ġf ragen
ip s
ĠC or
ei ge
at ische
Ġzu k
ĠK eine
Ġmoder ne
ĠWer be
Ġes sen
le cht
ic s
ĠBe stellung
b ilder
rÃ¤ gen
wei l
Ġur sprÃ¼n
d auer
ĠBe zir
olog ische
Ġ6 5
Ġe d
Ġl i
tier ten
ĠB lack
J Ã¤hr
ĠpersÃ¶n liche
ĠB aden
Ġzie ht
ichte te
Ġver treten
ff ekt
ĠL Ã¤nge
ĠMaterial ien
ĠRisik o
lin ien
ger Ã¤t
dr ich
Ġs an
ĠP S
Ġj en
ĠF rieden
ĠLeip zig
d at
A M
en ne
Ġab geschlossen
Ġbede uten
Ġpl Ã¶tzlich
ĠG as
Ġha bt
ĠÃ¼ber nehmen
ĠBe ziehung
ĠW ichtig
ĠG re
t eile
Ġd ritten
ĠL eiter
ĠK och
Ñ Ĥ
ĠKomment ar
au chen
ĠStud ie
ition en
ĠF leisch
ĠerklÃ¤r en
ru g
Ġ200 4
ĠEind ruck
Ġpriv ate
ĠK ein
Ġ; &
la fen
Ġelekt ron
b ett
w in
Ġgel esen
al z
ig ital
p age
ĠMa ster
ks hop
ĠR unde
ag no
âĢ Ŀ
Ġein geb
ĠP or
Ġne g
Ġauf genommen
1 6
Ġerlau bt
Ġa ttra
ĠM aschinen
Ġp f
k unde
ĠM und
Ġ! âĢľ
pf l
ĠT herapie
ĠIn iti
ĠBus iness
Ġw ann
Â ®
Ġge fÃ¼
ĠGraf ik
ĠL ED
Ġber ichtet
Ġge fÃ¼hrt
Ġgew onnen
ĠVor sitzen
ĠDad urch
ack te
ĠFlug hafen
l Ã¤nd
ĠV en
Ġf icken
en ken
ĠT Ã¤tigkeit
Ġdrau f
ĠVergangen heit
m und
Ġge zeigt
Ġc o
ĠBe weg
ach ung
ĠIn nov
ĠSch iff
Ġw achsen
b le
ĠProdu kten
A G
ĠBo x
ĠFil me
Ġtot al
ĠB rief
z ut
serv ice
ĠBer eits
un n
Ġan schlieÃŁend
Ġbesch rieben
f an
ist isch
ĠBe hÃ¶r
r ufen
Ġbek annte
Ġber aten
ĠPlan ung
ele g
Ġeinfach e
ĠT rin
g as
U n
Ġ4 7
y e
ĠP ri
sprÃ¼ che
Ġhochwer tige
ĠGe gner
l ag
ei ern
ĠBe wertung
Ġk Ã¶rper
Ġerst mals
ĠBru st
ĠS ign
Ġangen ehm
ĠD Ã¼sseld
Ã¼r t
Ìĥ Â
Ġnoch mal
ĠTran sport
1 7
ĠCh ina
it es
ĠS ind
Ġ stellte
ut lich
ĠHann over
forder ung
ĠT anz
Ġwichtig er
ĠÃ¼ber zeugt
ĠVertrag s
ĠBer icht
E T
Ġf rau
ĠB Ã¤
tig te
hand el
Ġa g
Ġwel chen
stimm ungen
ĠBet eil
s inn
ĠVort eile
ĠHerr n
Ġbelieb te
Ġe ffe
us ste
Ġdi ent
ĠSch u
ĠDr es
i bel
ĠPart y
ĠMo der
Ġm Ã¤n
ĠBevÃ¶lker ung
Ġf lex
na hm
ĠF akt
ĠInter view
Ġm ei
c ess
Ġf il
Ġmed izin
ĠSchl Ã¼ssel
ern er
s icher
Ġf indest
Ġsp rach
ĠIn ner
ĠF o
Ġerhe b
ĠBild ungs
Ġzu erst
Ì Ĥ
Ġl ust
Ġerw Ã¤hn
ge staltung
ens ion
Ġperfe kte
ĠB io
ĠRel ig
ĠKomp eten
etz ten
k an
ĠJ apan
ĠStra f
amm t
om in
ie ÃŁ
ĠLand kreis
Ġsozi alen
ĠKolle gen
Ġt Ã¤tig
h an
re chte
ti ment
ĠZ Ã¼r
Ġbegeister t
Ġger ing
Ġkur ze
le ger
oll ar
ĠDiskuss ion
gÃ¤n ge
ĠdÃ¼r fte
Ġs amm
h te
hÃ¤us er
ber icht
ĠP aul
k r
Ġtro cken
ĠMin ister
sp f
ĠSt ahl
ĠP rÃ¼f
z esse
Ġpassen de
Ġauf s
Ġn o
ffentlich keit
ĠAus gabe
ĠBe f
ĠLebens mittel
Ġk at
Ġso zial
ĠUnter schied
ĠZahl en
Ġw ichtigen
rei g
and id
ant as
m aschine
ĠM y
lad ung
I D
ĠfÃ¼hr te
ĠfÃ¼ hlen
Ġam erikan
ĠF ra
hn t
ĠAll gem
ĠMill iar
ĠKosten lose
f rau
Ġpolit ischen
gel assen
ma il
ĠMode lle
Ġj ung
ĠSmartph one
or ie
ĠDok ument
r ing
Ġ12 0
Ġin klusive
ĠKrampf adern
de u
Ã¤dag og
1 3
ĠFreund in
Ġbr eit
ĠT rau
wei te
Ġ;& #
Ġein st
Ġfal sch
ĠEigen schaften
Ġged acht
achel or
ĠA ch
auft rag
Ġ4 6
ĠGelegen heit
Ġst eigen
ĠG ute
ĠVerantwort ung
zei ge
ĠUn fall
acht ung
ĠE reig
I L
Ġver hindern
Ġverk aufen
ĠRuss land
ĠFrei heit
ehr t
rÃ¤n kt
b ungen
ĠKÃ¼ chen
Ġm Ã¼
Ġverantwort lich
ĠInform ations
ĠK ant
ko hol
ĠÃ¼ber prÃ¼
ĠM iet
Ġverpflich tet
Ġe vent
ĠSp eicher
i den
Ġdar aus
Ġvor ne
lie fer
ĠEis en
ĠB ud
Ã¤ ck
ucht ung
bild ungs
ĠM iss
ĠPro t
ĠM erk
R e
ĠGer man
ĠBesch Ã¤f
Ã¼ se
ĠP op
kt uren
ĠKomp on
ĠzusÃ¤tz liche
Ġzu verl
Ġent steht
ĠEngl isch
ĠInst rum
Ġdisk u
ĠO pfer
ĠSchul en
Ġgek auft
U R
ĠB ot
eu ten
Ġs Ã¼d
ĠDat ing
isch t
Ġf rem
s weise
or k
Ġlie b
u hl
ri ff
ĠauÃŁer halb
fer tigt
ger ufen
d ate
ĠD el
kont akte
ĠL eiden
Ġreg ion
ie fe
hl ight
s em
Ġsch reibt
ĠStud ium
Ġaus fÃ¼hr
Ġ ra
Ġposit iv
Ġb y
Ã¤ ne
Ġber Ã¼hm
Ã¶r ter
Ã¼s sen
Ġgen Ã¼
v id
ĠInternet seite
ĠT el
lie fert
te lligen
m esser
us sen
ur er
M S
Ġeurop Ã¤ischen
aler ie
u pp
b ack
Ġ. [
Ġg rÃ¼
ĠTeil nahme
Ġst arten
o le
ĠK rÃ¤
ĠN ummer
Ġh offe
ĠP ay
isten z
ol den
eil ung
ĠÃ¼ber w
Ġc asino
s g
ĠE p
et a
Ġges ellschaft
pl atte
er weise
ĠGer icht
c en
Ġgesp ielt
ĠSch loss
ĠK art
Ġent spricht
Ã¤hl te
ĠSchne e
r ang
ĠZ entr
Ġfe hlt
ĠAn frage
om ie
Ġm od
ĠInter ess
ĠGeb iet
Ġb lieb
ĠB in
ĠPublik um
ĠM uster
Ġw and
Ġte lefon
ĠStimm e
sl am
ĠM ikro
ĠAnaly se
ger Ã¤te
ĠFrie drich
at isch
Ġgleich e
ĠZu behÃ¶r
rei f
Ġkur zen
ick s
z a
ĠP rÃ¼fung
Ġwoll ten
ĠL ab
ĠbeschÃ¤f tigt
Ġer stellt
Ġto llen
ĠT aschen
Ġl ok
Ġver urs
ĠPl us
iv al
ĠM esse
Ġhin ein
Ġentde cken
ver trag
k ampf
ĠKar l
k rieg
ie d
k Ã¶
frist ig
gesch rieben
Ġd ienen
ra el
reg ierung
Ġsch Ã¼tzen
h Ã¼
ĠZ ul
Ġr Ã¼ck
Ġdein em
Ġf ur
fer nen
ograf ie
ĠQu elle
ier end
Ġeng ag
Ġl eisten
Ġ200 3
isch ung
in form
ĠF isch
ĠH al
Ġausreichen d
ĠA f
k le
Ġab sch
ĠLiefer ung
Ġget ragen
ĠR ab
Â ¼
Ġ: )
d igen
ĠFa lle
zeich nen
or ben
ĠÃ¼ber tragen
ur g
rem e
Ġersch einen
Ġeinzel ne
ĠAt mosphÃ¤re
ĠS et
hand lungen
amp e
ĠHa be
Ġa chten
ond on
ĠL ern
bl att
Ġ orden
Ġher gestellt
m Ã¼
ĠKomment are
wer be
ĠC re
sch irm
dig t
form en
on n
l y
ĠA gen
ĠH u
iel ten
ĠFahr er
ĠDeutschland s
ĠSil ber
qu e
ĠMed ik
Ġle bt
Ġex ist
ĠWÃ¤r me
ĠN or
ur a
ĠEr lebnis
ĠWas ch
Ġz Ã¤hlt
Ġverw ende
Ġb i
ose x
Ġzahl en
Ġext ra
ent wicklung
ĠApp le
ĠAn al
et isch
zen s
ahr ung
Ġprakti sch
Ġgef Ã¤llt
at oren
ĠW achst
ĠB M
Ġr uss
ill a
m on
Ġfest ge
scha ffen
it ar
Â ²
ĠForsch ungs
Ġs Ã¼
ĠKonz ert
k Ã¼ndig
ĠCD U
ĠTex te
Ġg rau
ipp en
ĠTe en
ĠH um
t es
Ġver f
Ġk ommun
ĠErn Ã¤hrung
ĠR ob
ĠRe chnung
ma ÃŁen
Ġpriv aten
ĠPro fil
ation alen
Ġvor ber
Ġbetroffen en
ĠZ iele
ĠGe staltung
ĠAr ten
en kt
Ġbem er
ĠCh ancen
Ġgew Ã¤hlt
ĠT ar
Ġreg istr
ĠArbeit geber
ĠerfÃ¼ llt
bo den
ĠUr lau
Ġpassen den
Ġein iges
Ġglau ben
ĠM ig
Ġerst mal
m l
ĠR os
jen igen
ĠZu sch
ĠIns gesamt
ĠSp itzen
or s
o hlen
Ġhin gegen
Ġbes itzt
m achen
pl Ã¤tze
Ġl ohnt
ĠÃ¶ff entlich
Ġgaran tiert
ĠÃ¼ber zeugen
ber blick
ĠWar e
ck te
ri min
Ġinteress iert
ĠA dresse
ĠMin ute
l ament
Ġk ostet
ĠHa ben
ag ra
Ġk g
ich ert
Ġsp aren
h och
ĠV e
ĠOb wohl
ĠZeit ung
2 1
ĠInst all
ĠT w
ym n
ĠG ir
Ġs erv
r iere
ĠVer z
ĠGe fÃ¼
Ġzu gleich
ĠServ ic
nis sen
ĠGlau ben
Ġbehand elt
ĠK linik
ak ten
ĠEin fÃ¼hrung
Ġindividu elle
c el
ĠDienst leistungen
p ert
ĠZu cker
ĠWor te
Ġse he
recht s
ĠErk rank
ital ien
ro ck
ĠMuse um
ĠNew s
ĠS how
Ġwes entlich
en ke
ro id
ĠGet rÃ¤n
sch reiben
ĠMilliar den
ĠD V
pf lege
ĠP re
Ġwei ss
eich ern
Ġung laub
Ġh ilf
Ġweiter er
ĠZ w
ver walt
f ot
Ġf rag
hau p
s itz
ĠG al
ĠMil ch
Ġopti m
Ġzeig te
ĠTechn ologie
ĠArbeit spl
rei tet
Ã¼ st
Ġleich ter
ie fen
Ġ200 2
ĠBl au
ĠAktiv itÃ¤ten
u al
ĠP rakti
Ġg eist
ĠWir d
der ung
ĠSch reib
ĠH D
ĠS Ã¤
ĠD rit
amp ag
Ġs er
ĠH ilf
ĠAndre as
m aschinen
ĠCh at
Ã¤ ische
ĠKon s
Ġstark e
ĠF ett
ĠViel zahl
as zin
Ġp orn
Ġ rot
ĠSing les
Ġhin ten
Ġaus geb
ĠRad io
ĠP et
ĠJ ose
Ġaus ges
Ġumf asst
Ġr en
ĠS amm
ĠL ad
ĠverfÃ¼ gen
Ġf alls
zen z
Ġl eist
ĠL ondon
Ġn ennen
ĠKont akte
Ġide al
sp ekt
ĠD igit
sch m
ĠT her
ĠKont rolle
duz ieren
Ġent lang
n etz
Ġbeg rÃ¼
Ġkon zentr
gri ffe
de cken
ĠerfÃ¼ llen
er klÃ¤rung
Ġz Ã¤hlen
Ġverst Ã¤r
Ġbek annten
fil me
Ġinteress ante
u gend
Ġsch ul
ra gend
Ġsinn voll
ĠC O
van gel
au te
Ġ! !
ĠO ff
ĠSoll te
st eiger
je kten
Ġher zlich
or te
Ġein iger
Ġer geben
ĠEs s
Ã¶ nen
ĠTeam s
sl etter
Ġgemeinsam en
Ġen orm
ĠBet roffen
ĠF inger
Ġm obil
gr enz
ĠSta aten
Ġbeein fl
me ter
vers ammlung
ber atung
ĠDe b
Ġin vest
d f
ĠSp iegel
r asch
a f
ĠH Ã¤us
ĠDe ck
Ġg eile
Ġ18 0
Ġso fern
den burg
v o
w enden
B e
ĠSe hen
ĠS V
Ġtechn ischen
ĠSchne ll
amp en
z y
Ġselbst verstÃ¤ndlich
Ġ \
ĠSe kunden
ĠOr ts
ĠS achsen
Ġbek omm
iv il
ĠAu ge
Ġwir st
gew icht
ĠWor kshop
ĠEing ang
u gen
G VO
v al
ĠSte fan
2 2
er ei
Ġh art
Ġp rÃ¼
P l
alis ieren
Ġ100 0
ĠForm en
A P
ĠZeit raum
ĠJ ohn
ĠAb satz
he ber
Ġstar ken
ĠDÃ¼sseld orf
scheid et
ĠUm satz
ĠAn zeige
ĠFÃ¶rder ung
Ġ5 4
p ap
Ġmus st
ĠD enk
ĠK op
Ġfre e
ĠÃ¶ sterreich
t lichen
ĠC ha
Ġsogen annte
Ġsogen annten
ĠJun ge
ĠAm er
ĠAnt worten
Ñ ģ
Ġ6 00
ĠL esen
ĠChe f
in er
ĠAuf grund
ĠBenutz er
Ġange zeigt
ant ie
st es
ĠSen i
ĠMit tag
ĠAl ten
y le
ĠBur g
Ġverk auft
Ġb ill
ĠSp er
Ġver Ã¤ndert
Ġn atur
Ġviel es
ĠPrin zip
ĠH Ã¤nde
hÃ¶ he
Ġer folgen
ĠM and
ĠAuf nahme
Ġaus ger
y d
stÃ¤nd nis
ĠKl aus
ĠK abel
ĠSt amm
ĠM os
m ine
Ġfr isch
Ġg eil
Ġk inder
ge ord
Ġein deu
ĠEng agement
zieh ungs
ĠP la
Ġbesser e
ĠFre unden
ĠHoch zeit
ĠnÃ¶ tig
l aufen
spruch s
ĠB Ã¶
ommun ity
ĠA kti
Ġe ure
d essen
riter ien
s Ã¤
Ġ ei
Ġschne lle
Ġklass ischen
ĠGegen satz
wÃ¤r ts
ĠOrd nung
hÃ¶r en
ĠHig hlight
vers orgung
ĠGemein sam
Ġfrei en
ĠS E
* *
ĠKooper ation
L AN
is st
Ġweiter es
Ġwieder um
ĠSo und
sp artner
Ġbe haup
ĠM att
ĠSt ruktur
ĠMetho den
ol a
auf nahme
ĠEurop Ã¤ischen
ĠJugend liche
Ġz erst
be g
Ġm ark
ĠH Ã¤nd
Ġge grÃ¼ndet
ĠW es
ĠErwachsen e
Ġnie dr
Ġ- -
Ġkont roll
I CH
I C
ĠHome page
st ahl
ĠWer te
on a
Ġs itzen
re ff
R E
ĠkÃ¶n ne
ĠB ra
frei e
Ġeigen es
it a
ĠSchw anz
Ġvor gestellt
ĠAus druck
k omp
r ess
Ġan bieten
ĠG rie
Ġh alb
Ġ5 3
Ġ5 6
ĠT im
Ġsch wei
ĠW ol
ĠJahr zehn
f igur
it or
Ġkomp lex
ĠBÃ¼ hne
kur ren
ĠVer hÃ¤ltnis
ĠWÃ¼n sche
ĠmÃ¼s ste
lie gt
le g
ĠT ick
ste chnik
Ġwen den
ĠK lo
sch ten
k urs
Ġi den
ĠH art
ĠDre h
Ġinform iert
mm en
Ġum ge
umen te
wer bs
zÃ¼ ge
Ġehemal igen
ige m
) ,
ĠZus atz
Ġbe wegen
r ig
Ġpolit ische
p erson
Ġz weit
ĠK Ã¶
rÃ¤ umen
hÃ¤n ger
ĠE gal
Ġst abil
d io
Ã¶r ung
ĠS yn
ĠKunst stoff
ĠPrÃ¤ sident
Ġm ache
ĠHand els
Ġlie fern
Ġm a
ar tige
ĠM ut
ĠDres den
Ġbis lang
ĠGrÃ¼n de
Ġindividu ellen
ĠKl ar
er gie
m ut
Ġd achte
Ã¼l tig
st eigen
tel n
ag d
Ġw eich
ĠStre cke
ag ten
ind ungen
zieh ungen
Ġ5 9
Ġverm eiden
zie ht
spann ung
Ġ6 4
te xt
ĠiP h
Ã¤d t
ĠAlb um
it iv
ĠAltern ative
Ġh aupt
sprechen d
Ġgef ragt
Ġteil en
Ã¤uf e
em m
Ġgepl ant
ĠB unde
ĠB lock
Ġver lie
ĠAr me
ĠBl umen
Ġ5 8
ĠAn lagen
ĠRei fe
ĠBru der
ĠprÃ¤sen tieren
ĠF le
ĠSchw imm
ĠZ ut
Ð ½
ĠK la
ĠG ang
utz ung
l eit
Ã¶r ungen
A C
g Ã¤nger
Ġget r
ĠUr teil
geb racht
Ġmus ikal
ĠA cht
Ġgesetz lichen
Ġkomp eten
ver k
ĠPar is
ĠS au
Ġ19 0
ĠJ ungen
Ã¶ d
ĠKont o
ĠDenn och
k und
ĠN utzen
ess el
bed arf
Ã¶r se
Ġau ÃŁen
Ġ25 0
ĠKategor ien
Ġ5 7
Ġ200 1
ĠM otto
ĠNew sletter
aler weise
b te
ĠFit ness
ru he
ber sicht
Ġ8 5
ĠPer spe
ĠB rot
tem berg
ĠW ell
Ġbr achte
Ġmein es
ĠBau ch
ĠTrain ings
schul en
stimm t
w ay
liegen den
l Ã¤nder
inn ern
opp en
gl eiten
k rank
sk i
usst sein
ĠRe zept
ĠM ad
Ġdat ing
Ġwel chem
ĠSt ock
spl an
ĠEin richtung
ok us
ank e
ĠJ ournal
ĠL ud
ĠAn teil
ĠRegel n
ĠBesch reibung
Ã¤t ter
reu en
ĠSti ftung
Ġ. Â«
ĠSo zi
ĠGrund stÃ¼ck
Ã¼r n
s eits
n Ã¼
Ã¶ tt
ĠLand schaft
ĠS ei
Ġverw and
ĠAm ts
ĠgrÃ¶ÃŁer e
Ġl Ã¤ngst
ĠB ill
ĠTÃ¼r k
Ġweiter lesen
ĠUn ion
Ã¼ m
Ġver g
Ġein s
ĠHig h
ĠÃ¶ff nen
ĠR Ã¤
Ñ Ģ
Ġverm utlich
stell ungs
ĠD E
ĠVert rauen
Ġbetroffen e
for schung
ĠO s
Ġ italien
ĠerhÃ¶ ht
.. ..
Ġtechn ische
as i
au ern
ĠSch reiben
ĠGut schein
Ġelekt r
Ġst aat
iz ieren
ĠAnd roid
ĠZÃ¼r ich
ĠJ ust
ĠEm pfe
ren nen
Ġt reten
ĠI hn
ĠAut os
ĠSe ele
ag es
ĠðŁ ĺ
au schen
k ap
Ġwar m
f amil
Ġ! "
w ander
ĠStu denten
ĠAben teuer
Ġ? ?
Ġk rank
b eln
Ġget an
wer ten
ĠK enn
ord in
Ġt rain
ĠMar ia
nder ungen
ĠMa c
so ft
zip lin
zuf Ã¼hren
far ben
ĠRe de
a der
h ar
Ġdau ert
b eit
ĠBei de
k rÃ¤fte
Ġf ahr
ĠGem Ã¼se
ste d
ĠSte ll
ĠL aden
ĠVoraus setzungen
wir ken
ĠBahn hof
o ge
ĠH an
Ġth is
k Ã¼n
ĠBe ge
ĠKÃ¼ hl
Ġl eiden
ĠB ele
ĠH yp
ĠMed ia
Ġgesch Ã¼tzt
ĠmÃ¶ glichen
Ġne un
j ob
c y
usch i
ate ur
ĠBe dien
ĠL ernen
A D
sp iegel
K W
re gen
ĠS omit
Ġnahe zu
ĠGen au
zus etzen
ĠZus Ã¤tzlich
cl ub
ĠKon fl
O L
angeb ote
g ig
gemein schaft
hel m
Ġentde ckt
ĠN et
I G
lie sen
ĠUm fang
ĠS at
Ġjeden falls
Ġc on
rit z
Ġget roffen
gesch Ã¤ft
ĠBÃ¼rger meister
b u
ze pti
ĠRe fer
ĠS T
Ġl ive
aut omaten
Ġschwier ig
Ġben utzt
Ġ5 2
b as
we ge
weis ung
ĠWahr heit
at ischen
ol er
zeich nis
ig ner
k ommt
Ġs eiten
ad a
ĠÂ °
li ste
Ġw est
ze llen
ĠRe al
ĠZwe cke
ĠHa lle
ĠJahrhundert s
Ġwechs eln
wie gend
ĠR and
p on
ĠSor timent
ĠKom pl
Ġb ilder
sp er
ed ia
hinder t
Ġv e
ĠVerwalt ungs
h et
ĠVers uch
ĠVerb and
Ã¤hl ten
Ġ eignet
Ġh ell
ĠausdrÃ¼ck lich
Ġle gt
ĠFe hl
Ġallgem einen
Ã¤ch er
Ã¼r e
ĠJugend lichen
m acht
ĠAust ausch
i othek
ik ations
Ġinternation ale
Ġverl ieren
ĠG olf
Ġange messen
mal e
ĠVer treter
s es
Ġin spir
leist et
ann en
ĠB ir
fÃ¼ llung
ĠKrank heit
Ġregel mÃ¤ÃŁ
ges p
ĠVer Ã¶ffentlich
ĠMin i
Ġspezie lle
ĠProf ess
Ġ? âĢľ
ĠUS B
Ġent fernen
g ro
merksam keit
r and
ĠunabhÃ¤ng ig
i ft
schl ossen
Ġ raum
Ġbet r
ĠAut oren
ĠSt iefel
ation ale
Ġ $
ĠBi bl
z ur
ĠVerwalt ung
Ġt r
lieÃŁ t
ĠBrem en
ĠSp itze
Ġfreu e
ĠBil dern
ĠbestÃ¤ tigt
ĠC H
ĠSch merzen
ĠS ens
st ar
ĠHin weise
ĠGener ation
Ġh Ã¤ngt
Ġm aÃŁ
or ganis
ch an
ĠGeschÃ¤fts fÃ¼hrer
ĠM indest
Ġgemeinsam e
i at
S ystem
ĠKom fort
an aly
Ġwas ser
Ġgest altet
Ġl aden
ĠHei z
ĠM ulti
ĠL eitung
rÃ¼ st
ĠGener al
Â »
ig ungs
ĠNach mittag
ĠBedÃ¼rf nisse
iert es
Ġa bend
Ġl Ã¶
az in
ĠU ser
Ġer hoben
t a
Ġge he
Ġein schlieÃŁlich
ĠC am
o ok
Ġgl ob
ĠSt ad
Ġge eig
Ġman che
Ġ01 80
b ungs
ĠO pen
pp ich
ĠEin richtungen
ĠstÃ¤r ker
Ġprofit ieren
fr ika
Ġwill st
Ġmei stens
an dern
Ġbe zahlen
ĠFl or
B er
ĠAkti en
ĠBade zimmer
ess our
ĠVersicher ungs
ĠViel en
ĠS ho
il ien
Ġ Ã¤r
wohn ung
ĠK Ã¶r
Ġt rin
ĠWider ruf
Ġnorm al
ĠM io
ĠBau ern
Ġh eil
Ġs etzte
ĠStÃ¤d te
ib il
u ert
ĠWeihn achten
ĠKranken haus
ĠP R
or ten
7 0
Ġerinner t
ĠSchwer punkt
Ġoffen bar
um in
ĠiPh one
ik ationen
ĠY ou
Ġirgendw ann
ĠglÃ¼ck lich
Ġy ou
Ġho her
ĠC S
ĠN ik
Ġkor re
he ben
Ġerle bt
ĠBer at
c on
e x
ĠR ett
ĠB ig
ĠBal kon
ĠE cht
ĠS tern
ĠC an
Ġan erk
ĠVer mÃ¶gen
Ġge gangen
Ġd Ã¼n
ĠW agen
ĠAn f
Ġgeb aut
ge fÃ¼hl
ĠA spe
ĠStart seite
ĠJ ur
ĠPf licht
Ã¤te stens
ĠBel ast
s f
ĠJes us
z ern
Ġent sp
ĠSchw ier
ĠTe e
ĠB ri
Ġsch afft
r zte
Ġgesch affen
ĠNach richt
ĠE hren
Ġun gefÃ¤hr
ĠZu griff
ĠR en
ĠVort rag
Ġletz ter
ĠDan iel
ĠRo sen
al og
Ġer leich
Ġver ab
ĠY ork
ĠC ap
ĠZusch auer
met ho
v ide
ĠSch Ã¤den
Ġl Ã¶sen
bÃ¼r ger
ĠZ oll
2 3
ĠAbl auf
d rucken
ul ation
ak er
k ing
ĠAm t
Ġhistor ischen
Â ´
ĠÃ¼berr aschen
it is
ul en
ĠKap ital
g ier
ĠÃ¼bern ommen
ĠMÃ¼ ller
Ġaus einander
te ten
Ġg o
ĠauÃŁer gewÃ¶hn
Ġruh ig
Ġer innern
fÃ¤h ig
ĠVer stÃ¤ndnis
ĠG Ã¼
Ġz og
ĠStr ess
Ġg g
Ġs h
Ġbeg leitet
ĠJ ungs
Ġunbe k
ĠK Ã¤
ind ust
ig uren
Ġaus sehen
ĠDar m
ĠÃ¤uÃŁer st
Ġre chten
ĠSemin ar
okrat ie
ĠW affen
Ġg ra
Ġeinfach en
ĠStr eit
Ġintern ational
arb eite
he bung
Ġ8 00
ĠE i
ĠMass age
ĠÃ¶ff entliche
Ġm ann
le hr
ĠPf arr
Ġoffen en
ĠGrund lagen
k ret
Ġt ritt
Ġkurz er
ĠBl u
p olitik
ĠÂ» ,
Ġhol en
ĠVer sch
b i
ĠVerk Ã¤ufer
ĠRo bert
Ġe chte
t l
Ġsozi ale
ort s
ĠStimm ung
ĠN ote
ĠC ol
Ġwunder bar
druck t
d y
l uss
ĠZu hause
sicht s
Ġerh ielt
rain ing
ĠViel falt
ĠR ichter
ĠG rau
ĠGemein schaft
ĠEin tritt
ĠLauf e
ĠAuf merksamkeit
ĠKr atz
Ġall gemein
ĠAus nahme
ĠSo cial
re chnung
ĠGr atis
ĠC ro
Ġge zogen
Ġschl imm
ĠGri ll
ĠWolf gang
med izin
ar kt
hal tet
P S
hl te
ĠRestaurant s
ĠPh ys
ĠAl kohol
ill er
par atur
Ġersch ienen
ĠKon kurren
indust rie
l ager
ĠD ial
le gten
ub il
ĠerklÃ¤r te
ĠAll gemein
ĠMon ats
ĠMicro soft
n ei
ĠVerÃ¤nder ungen
in i
Ġhei ÃŁen
O M
il de
ĠB und
ĠSw inger
ĠK leid
Ġd ro
o sen
ĠN erv
ĠHer stellung
ĠAr g
Ġpl atz
verwalt ung
Ġte uer
ĠSte llung
Ġgew Ã¶hn
Ġkl icken
arm on
Ġide en
Ġal tern
Ġeinfach er
ti s
b rechen
Ġn et
Ġkom fort
ien st
Ġ4 1
Ġpriv at
wor ben
Ġnorm alen
ĠFahr zeuge
bar ung
ĠsÃ¤m tliche
ĠDat ei
ĠP ubl
ĠHoff nung
Ġw id
hol ung
is ieren
ĠEr wei
Ġan ti
Ġhervor ragen
prÃ¤ gt
ĠK Ã¤ufer
am ing
ĠHa ft
ĠBetreu ung
Ġwei b
Ġaus pro
Ġh Ã¤uf
lo ud
Ġge legt
ĠY og
Ġex ter
ĠWer ke
ĠFr ont
f tet
n d
Ġn utz
fass ungs
ĠPart eien
Ġsollte st
ĠLud wig
mode ll
st ation
Ã¼hr t
Ġr um
ĠA g
ĠH istor
ĠH oll
ĠI N
Ġbild et
d re
al a
Ġdes wegen
ĠIntegr ation
ĠTechn olog
ĠE ich
ges prÃ¤
ĠDar stellung
z we
s be
Ġer Ã¶ffnet
ĠPo wer
ĠÃ¼ber sch
ĠerhÃ¶ hen
ĠF okus
ĠM as
Ġk rÃ¤f
ĠEin blick
Ġmon at
Ġintens iv
a pp
ĠSoll ten
ĠSchw anger
ĠH on
ĠF ab
un ken
ack e
p ass
lin es
ĠF ick
ĠSpan ien
ĠWebs eiten
T V
T S
ĠTeil en
er ischen
Ġs k
ĠT hr
ĠschÃ¶n er
ĠMetho de
ĠfÃ¶r dern
Ġgeh abt
u k
stru ktion
ĠN orden
ĠQu ad
Ġleich te
ĠH ab
Ġqu alif
ur n
ĠR enn
Ġben utzen
Ġgel ang
l og
ag s
ĠTats ache
ĠFÃ¤h igkeiten
tre ffen
le bt
Ġ6 6
ĠVarian te
ann ter
t Ã¤
Ġl es
de x
ĠRo h
ĠfÃ¼ hlt
ber ech
ĠHa fen
Ġak zepti
Ġver lei
licher weise
ĠPark platz
lo ÃŁ
b art
ĠW all
Ġmit ge
ĠSchul d
ĠBunde stag
Ġwill kommen
ĠN Ã¼rn
Ġerst es
Ġb eit
ĠEben e
Ġsicht bar
Ġmo tiv
ard s
ĠGrÃ¶ ÃŁen
in u
ĠPrÃ¤ sent
ĠArchite ktur
Ġbes itzen
b indung
lei sten
ra ges
w en
ĠAus wirkungen
Ġst er
Ġv ia
Ġw usste
ĠHeraus forderungen
sp art
ffizien z
ĠN Ã¤ch
ĠO ne
etz ungen
Ġauf merksam
un kl
ĠRo llen
Ġre den
st uhl
ĠHa are
Ġm y
ĠDa vid
ĠA B
ĠAkt uell
L E
az ier
be ck
ĠDi pl
rÃ¤ ch
Ġausge zeichnet
ĠKar riere
ĠgrÃ¶ÃŁer en
ĠDe kor
ĠMedik amen
Ġbek am
Ġdies mal
Ġan hand
Ġsch rieb
lich em
ĠSex y
wir kung
ĠB anken
Ġ reichen
ĠTerr asse
Ġan sehen
an ischen
Ġver arbeitet
ĠBehÃ¶r den
Ġbeg onnen
p rÃ¼fung
k omm
ĠJe de
ĠAn leitung
ĠAus gang
Ġgesch afft
Ġh ielt
sch auen
Ġp oten
ĠGe org
ch nen
Ġhier bei
Ġf iel
ord net
ĠZ e
ĠK Ã¼r
Ġbes ucht
Ġge Ã¶ffnet
Ġnach ge
Ġsch me
r hein
ĠÂ« ,
Ġvor gesehen
Ġb rit
ĠB em
Ã¼ mer
Ġge pf
ĠfÃ¼r s
grÃ¶ ÃŁe
Ġt op
pr et
ĠAut ob
ĠInd ividu
ĠB atter
9 0
ra struktur
Ġv gl
ĠTrin k
ĠC ity
gesch lagen
el en
Ġte sten
k at
ĠEin kommen
fÃ¤ llt
trag ung
abil itÃ¤t
ĠAut om
ĠAus stattung
Ġj ene
A us
ĠOber flÃ¤che
si denten
ach s
ĠSchm uck
s eiten
ant ast
Ġk ap
p os
ĠDurch fÃ¼hrung
Ġg ingen
Ġst anden
ĠGer ne
ĠPh ot
ĠKa iser
far be
p al
as ser
Ġspezie llen
Ġre zept
ĠD ra
Ġerg ibt
r ichtet
for dern
ff el
ĠG hostwriter
I I
Ġde sto
z ten
eld et
Ġmit ten
Ġlie fert
al it
ĠVor bereitung
ĠSon g
ĠnatÃ¼r liche
Ġl og
b ien
p u
Ġv ollen
Ġ6 3
a v
Ġf aszin
anz e
rei ter
Ð¾ Ð
ĠBet reiber
f unk
ĠK os
Ã¶ m
fÃ¤ llig
ĠSch lieÃŁlich
ĠerwÃ¤hn t
Ġgen auer
end ung
O P
sie ht
Ġteil nehmen
Ġfrei e
sam en
ĠSzen e
ĠBr un
ĠUnter kunft
en zt
ĠK ino
ĠBr enn
ig i
an o
Ġre al
ausen d
r eit
sel ben
Ġb undes
ĠHoch schule
ĠA st
ĠV ari
ĠPo ol
hÃ¶ rigen
hm end
fil ter
Ġa pp
Ġverb ringen
Ġsol cher
ĠÃ¼bern immt
sp or
a ce
Ġst immt
Ġd is
Ġerl Ã¤u
ĠQu alif
Ġverl etzt
s an
... ]
ĠVerl auf
Ġ6 8
Ġst ren
Ġ.) .
ĠO bst
ĠA R
Ġn ett
fÃ¼hr ten
ĠK ult
wo lle
ot ten
ĠWir klich
ti m
ic al
ĠjÃ¤hr lich
w eich
ĠTrotz dem
Ġp df
Ġmel den
w Ã¤hlen
ĠH als
ĠSch atten
s Ã¤chlich
ĠZ war
Ġgere cht
ĠR essour
ĠP unkten
ĠschÃ¶n sten
ĠHÃ¶ hen
wei st
Ġver Ã¤ndern
ĠHeraus forderung
ĠBran chen
ĠVerbesser ung
Ġnie mals
ib le
ĠEr klÃ¤rung
k ultur
Ġr elev
ĠKap itel
Ġoptimal e
Ġh t
ĠT itten
Ġeinge laden
ĠN R
rach tet
I M
t Ã¤u
Ġ16 0
ĠL ast
ĠK eller
Ġh olz
iels ei
ĠH ell
rei ft
gere chnet
fahr ung
wir t
osex uell
Ã¶ff nung
ĠmÃ¶glich erweise
Ġ" :
Ġm et
hal ter
heim er
ad s
ĠSym pt
ro llen
ĠA qu
Ġan zeigen
ge ht
Ġstatt finden
ĠK ab
Ġs ystem
ĠSt att
ĠK leidung
ir en
ĠEr gÃ¤n
z um
m od
ĠFrem d
fÃ¤ llen
Ġaus geschlossen
kir chen
mus ik
ge ls
JÃ¤hr ige
ger t
ĠF la
maÃŁ nahmen
hÃ¤ng ig
ĠZu ge
ĠZ eich
ĠAn lass
ĠH obby
ĠschÃ¶n es
Ġho ffen
d ler
Ġbe stellt
ĠN iveau
Ã¤tig ung
w s
stehen den
Ġhervor ragend
ĠUntersuch ung
ĠPr ess
Ġbe we
E r
ĠB ein
une hmend
ĠSystem e
Ġch rist
ĠEdel stahl
Ġsich ern
Ġdeut scher
ĠO hr
ĠMitarbeiter n
Ġle cker
o tion
ĠCo ach
ĠAn griff
Ġvoll kommen
I P
Ã¤tz ung
lo ser
ĠFrÃ¼ hl
ĠR ing
Ġab wechs
ĠKl eine
ser t
Ġ) ;
ĠWe gen
ĠK rie
ĠD ritte
Ġ[ ...]
âĢ ĵ
Ġverz ichten
Ġpro duziert
at ch
t o
ut sch
ĠP ok
ĠUm feld
ĠH eid
ĠKar ls
Ġgeb raucht
ĠAlex ander
i ale
Ã¼r k
ĠW M
ĠO ft
ĠAn gel
Ġviel er
Ġgg f
h eil
ĠCa fe
e k
sto ÃŁ
ĠLiebl ings
ĠIs rael
ĠWachst um
ze ption
ĠRei fen
A pp
Ã¶l f
ĠW ik
ĠD igital
ĠR em
Ġfrei will
ĠP en
Ġf anden
Ġr unter
ĠBon n
is en
Ġ6 9
ĠB re
ĠLie b
will igung
ĠAr sch
Ġmehr fach
ĠAnder e
Ġver dient
ge fÃ¼
ĠJohann es
od y
h es
Ġbe gleiten
Ġs enden
ĠPar lament
Ġvide o
Ġ rad
ĠF und
ĠWir k
ĠW en
ĠOb jekt
ĠFer tig
b ul
ĠReg istr
ei se
ĠF ass
Ġmein t
ĠIntern ational
Ġdigit alen
ĠBereich e
ĠB ord
sp recher
Ġt hem
ĠCas inos
rain er
A B
ĠEntscheid ungen
Ġfre ut
schie de
ĠM r
uch tigkeit
ĠP ack
ĠF al
ĠT rum
e ster
Ġ }
rau chs
ĠF ast
ĠNeu es
UN G
ĠK enntnis
h am
ĠAll ein
ĠB G
ĠF ischer
s ung
Ġ199 9
Ġsex y
do or
Ġf amil
ĠâĢĿ ,
ĠVor stellung
ĠSchwe ster
ĠT ief
ĠEntwick lungs
Ġe v
Ġvor be
Ġch ar
Ġf eiern
frei heit
Ġkomm e
ĠM assen
ri c
Ġd ran
ĠUnter nehmer
ĠB eine
ĠBe hinder
Ġengl isch
ĠB it
Ġdur fte
ĠBek annt
sor ge
Ġ199 8
ĠBes itz
opp elt
gl Ã¼ck
ĠhÃ¶her e
ĠR ang
ĠmÃ¶ gliche
bÃ¼ cher
Ġbe halten
b ay
ĠT om
ber rasch
Ġkeiner lei
ĠRe chn
ĠPhil osoph
wend ungs
Ġstar tet
Ġg arten
ĠBe wertungen
ĠWien er
Ġge Ã¤ndert
Ġw eite
ĠEben so
Ġspe zi
ĠG ab
gel Ã¶st
d am
ĠOption en
ĠR ennen
o ben
ĠGl ob
ĠMittel punkt
Ġum gesetzt
mel den
ichte ten
a ktionen
ĠVer Ã¶ffentlicht
ĠL at
ĠGe werbe
t au
ĠSu pp
ĠErw art
on str
Ġauf treten
Ġk ultur
Ġver br
ĠFrÃ¼h jahr
ĠErn st
ĠMont age
stÃ¼ck e
ĠTemperatur en
Ġverst anden
ĠH en
ĠG ru
ĠQu ellen
ĠR uf
Ġeigen er
ĠDatenschutz erklÃ¤rung
Ġm oment
ver anstalt
stÃ¤ndig keit
ĠDV D
ff eren
ĠSchÃ¼ler innen
ĠP aket
ĠVer n
Ġs itzt
ĠD ollar
Ġz unehmend
ĠAus sicht
t r
stand s
ĠGel Ã¤nde
ĠS Ã¤nger
ĠT asche
sch merzen
Ã¼nst ige
minister ium
ĠE hr
ber w
ĠAl te
ĠfrÃ¼ hen
ĠG umm
u cken
ĠR um
ĠSt ich
f alen
kehr t
Ġf Ã¤hrt
b iert
t op
O T
fel der
ĠGr enze
ar tig
D S
ĠEigen tlich
Ġ {
ĠArb eiter
sto ffen
Ġst eigt
wer ks
ĠEnt fern
ĠP ause
Ġneue sten
ĠS old
Ġd unkel
ĠnatÃ¼r lichen
Ġv irt
sto ck
lapp t
ĠSch ritte
Ġver steht
Ġk auf
re ck
2 8
az it
ĠSch alt
ver mittlung
nehm ern
ĠAuss age
amm elt
ĠKl Ã¤ger
on ym
ĠA S
2 7
Ġein sch
nder ung
ĠArch iv
Ġkein es
k eln
ĠGeb rauch
Ġ6 7
ĠSeni oren
Ġge prÃ¼
st ren
ig te
ĠR h
ĠA L
Ġph ys
Ġd ritte
ĠK riterien
Ġab gesch
ĠBer eit
ĠA dr
ie den
ĠAn s
y a
f Ã¶r
Ġkl ingt
ĠK Ã¼ndig
ĠD am
rÃ¤ glich
Ġeinger ichtet
Ġver sehen
Ã¤ch s
ĠI ll
str ich
S hop
Ġhier zu
ĠW esen
ĠhÃ¶ch ste
ĠF lex
Ġst ammt
adem ie
ĠEl emente
lich ten
Ġabsol v
ĠK uchen
ĠWor ld
ĠhÃ¶r t
ĠJed es
ĠGrÃ¼ nen
ĠII I
Ġbehand eln
Ġbege g
de ckt
Ġhand eln
den k
ut ze
Ġge p
ubil Ã¤um
ĠD ist
2 6
Ġdar gestellt
Ġgesp annt
Ġunmittel bar
ar tikel
iz ierte
Ġrei fe
Ġver mitteln
besch ichtung
Ġwir k
ĠAuf wand
Ã¼r gen
Ġin fo
ĠBeschwer de
Ġbelie bt
ĠKre ativ
ĠTurn ier
ĠH Ã¶ch
R A
ĠF ur
ĠDi agno
p ern
ĠStrate gie
ĠGe st
Ġgegen sei
Ġf arb
Ġerz Ã¤hlen
h or
ĠO tt
Ġkompl ette
ĠEin er
ĠLie bes
em en
ĠVer pack
ri b
eta ill
ĠE ck
deck ung
stÃ¤t te
Ġm Ã¤dchen
ĠTw itter
geb nisse
ĠH aust
on y
Ġm ach
Ġposit ive
zug s
rein igung
ĠNach w
ĠW LAN
ĠVerantwort lichen
ĠLux us
Ġ ter
Ã¶ hnen
spro zess
Ġsch lieÃŁen
Ġschwar ze
ĠprÃ¼ fen
em pl
ap e
Ġempf ohlen
as ste
Ġsamm eln
Ġakt u
spro gramm
te chn
rei be
ĠEr ste
gÃ¤n glich
Ġpass ieren
ra st
ĠRe paratur
u bs
p ekt
ĠB achelor
Ġ8 8
ymn as
Ġn utzt
ĠR ich
ĠAn zeigen
l Ã¶sen
Ġgel angen
Ġbeob achten
ĠGemein den
Ġverb inden
Ġver Ã¶ffentlich
le gte
unter richt
Ġsp Ã¤t
ĠLeiden schaft
wei ten
fe ktion
Ã¤r ten
che ster
ĠVert eidig
Ġber ichten
ul iert
wer ben
ĠAn w
ĠZ Ã¤
Ġber lin
Ġnoch mals
a i
ĠE ier
ĠI slam
Ġor ien
h ls
Ġste uer
ĠGesch windigkeit
ĠKo st
Ã¤ fte
ĠKl im
Ġbet reffen
ĠS ammlung
Ã¶rder ung
hÃ¤lt nisse
fol ger
ĠGri ff
gr enzen
Ġbet rachtet
el be
Ġpl anen
ick er
Ġr ichtet
ent s
ĠBo ot
ber ater
Ġf ar
ĠNa v
Ġdiver se
Ġbisher igen
ĠSchm id
Ġet abl
Ġ9 8
hÃ¤us e
sch ei
ĠKlo ster
ĠGer ichts
h st
Ġso bald
u el
ĠWe sten
ĠGro ÃŁen
ĠUp date
Ġst ammen
Ġe chten
Ġsch au
ĠM ach
Ġl Ã¤dt
Ġvert rau
ĠMÃ¼n ster
ĠBe ob
Ġnie d
ĠSch merz
Ġ9 6
wÃ¤ sche
ĠzurÃ¼ck ge
ĠDien ste
c c
ĠVerl ust
ĠAn wendungen
ul in
ĠA tem
Ġex klus
ar tet
ĠDen ken
ĠSch lei
Ġ7 7
d el
wer ken
Ġdurch schnitt
I V
ger ichts
gend es
des ign
ĠWill kommen
ĠGesch lecht
co unt
sam e
ĠC al
ut r
ĠTabe llen
Ġdigit ale
Ġeinge stellt
ko pf
ar n
ĠStimm en
ĠAn schlieÃŁend
r ats
Ġschwer en
Ġd o
Ġirgend wo
Ġproblem los
Ġerwei tert
pl atten
ĠG eile
ĠR et
ĠG ibt
ĠKind es
ĠZahl ung
o us
Ġbe stens
Ã¶r en
i ze
ĠArbeit nehmer
ĠA sy
Ġsch we
ĠDort mund
Ġc ool
Ġhochwer tigen
t ra
Ġgel Ã¶
Ġzuk Ã¼nf
Ġs w
ĠDS GVO
ĠVer br
E G
ĠEro tische
Ġlie f
Ġk enne
ur laub
ĠVier tel
ĠOr gan
ĠÂ ©
ĠAn sprech
rÃ¼st ung
ehr en
r unde
Ġor g
ĠE mail
id s
Ġ18 9
ĠErinner ung
ĠF an
ĠKompeten z
u alitÃ¤t
Ġwohn zimmer
ĠSch ie
Ġdrau ÃŁen
Ġver dienen
ĠSÃ¼ den
Ġver geben
Ġh off
ĠGr enz
Ġsch icken
ĠS em
ĠBei spiele
ĠH Ã¤nden
Ġ? "
ĠO ster
umin ium
ĠâĢ ļ
ĠW urz
ĠUrlau bs
ĠPfer de
r Ã¤t
ĠW art
t on
Ġd unkl
ie ur
Ġevent uell
ĠG alerie
ĠOpti m
ĠV al
lei ster
Ġge arbeitet
Ġh Ã¼b
sch ritt
p ers
stimm en
Ġal ter
ĠBe stimmungen
ĠIniti ative
Ġs ens
Ã¼cksichtig t
Ġent spann
be cken
ĠSym bol
Ġan spruchs
ĠTo ol
Ġsp iele
Ġauf gebaut
ĠWil helm
ĠA ktionen
ĠSch ok
Ġem otion
ir ekt
Ã¶r dert
ĠRe alitÃ¤t
au ff
Ġwir ksam
ind lich
ĠHam burger
bo gen
ĠL os
ver gleich
G e
Ġ7 4
ĠApp s
Ã¼t ter
akti eren
Ã¼r zt
Ġmein te
Ġpl us
ĠRein igung
Ġhaupt sÃ¤chlich
ĠK anz
Ġ it
ic o
Ġoffen sichtlich
Ġbein haltet
ov e
ĠAuf lage
Ġgel ernt
k ter
anst alter
ĠL ange
S h
Ġb un
ĠRei hen
Ġfunktion ieren
Ġbe zahlt
ĠWettbe werb
rau ben
Ġc l
ĠLes e
ĠInstall ation
Ġdam al
ĠEin stellung
ĠzusÃ¤tz lichen
Ġhin sichtlich
ĠWohn ungen
e ck
an ische
tem peratur
Ġb uchen
ha gen
ĠNR W
ĠG itar
Ġher z
ĠE cke
ĠM ischung
Ġerfolg reiche
Ã¼ hen
Ġk r
ĠFranz Ã¶s
st unden
ĠL assen
Ġs eid
ĠUn i
ĠRo hr
ĠhÃ¶ch sten
ĠP um
ĠDat um
b rigen
Ġ14 0
ĠSchw Ã¤
ĠB reite
st il
ĠKl ang
Ġbesch lossen
ĠL eicht
ĠA v
ik on
Ġvergleich en
n Ã¶
Ġj apan
Ġn ennt
u hren
gem Ã¤ÃŁ
p ul
kir che
Ġ! )
Ġd pa
A r
ĠAus fÃ¼hrung
ĠUr heber
ĠVo gel
sp unkt
Ġm achten
ĠV an
form ance
ĠStud io
Ġdeut schland
ĠhÃ¶her en
Ġges prochen
Ã¼t te
hÃ¤n gen
Ġehr lich
ĠH ot
ĠmÃ¤n n
ĠVer g
ĠK le
ĠS uchen
ĠF utter
m as
ĠgenÃ¼ gend
hl ungen
Ġe B
Ġk Ã¼nftig
ver schluss
ar y
ĠMit tler
ĠT rÃ¤ger
Ġklass ische
an w
e cht
ten d
Ġsp Ã¤testens
in ken
b ten
ĠKon zer
Ġ7 6
ĠEin stellungen
Ġkennen lernen
ĠLand wirtschaft
ĠIn spir
Ġberech tigt
ĠSon gs
Ġsol ange
arch ite
Ġerfolg reichen
ĠSie ger
ĠZut aten
2 9
ĠF ried
wei ÃŁ
ĠHa ftung
war d
Ġbet rieben
ver kauf
scheid ung
Ġp o
et r
s ack
ĠMark us
ahr ungs
kl ass
ĠAus bildungs
ĠMotor rad
ĠZ auber
ĠK G
ĠK leider
ĠGar antie
re te
Ġhier fÃ¼r
ĠMer kel
ĠR Ã¤ume
Ġgew isse
ĠProfess or
ĠAn n
ĠHaupt stadt
Ġro man
Ġoffiz iell
ĠBe ziehungen
ĠForm at
gemein de
ĠMin er
ĠGegen teil
ent wick
ĠL ohn
ĠAn ruf
ĠMÃ¤n nern
ĠOl ymp
Ã¤ ser
z iel
ĠNeu er
ĠI dent
dig ung
b ilden
ent al
fÃ¼hr ungen
Ġer setzt
ĠFl uss
Ġver an
Ġunter scheiden
st Ã¤
ĠQualitÃ¤t s
Ġent stand
form ular
Ġwes halb
ĠAd vent
Ġste ckt
ĠL ok
co de
los igkeit
behÃ¶r de
Ġb itten
Ġsch laf
ĠEr f
ĠMil itÃ¤r
n itz
Ġan genommen
S T
ĠFÃ¤ lle
ĠS ur
Ġsel ben
Ġre st
ont o
Ġ ele
ĠAp othe
ĠAspe kte
Ġkosten losen
ĠWell ness
Ġlin ken
ĠGlÃ¼ck s
ĠMus kel
ĠBe weis
Ġspann end
grÃ¼nd ung
Ġzu g
ĠSch uh
ĠDis play
ĠBran che
a lle
Ġspiel te
ie ht
Ġre duziert
ĠHÃ¤nd ler
ĠD DR
produ kte
ĠB raun
sta at
Ġspe zif
ĠK atze
ĠZ ivil
Ġs im
ra hmen
ĠSt ru
Ġ199 0
Ġver mittelt
Ġvor zu
ĠS ub
Ã¶r sen
l Ã¶
ĠGrie chen
Ġange kommen
Ġleist ungs
ĠPersÃ¶n lichkeit
Ġden k
ĠVers orgung
Ġsing le
ĠVor jahr
ĠNÃ¼rn berg
Ġo k
isch of
ĠZu stimmung
ĠAb stand
ĠDu sche
ĠHÃ¤us er
ĠÃ¼ber t
Ġst il
Ġb ar
V ers
ke a
ne y
Ġeinz igen
Ġch ines
Ġ5 1
Ġeindeu tig
ell schaften
ausen de
Ġimmer hin
ĠM asse
ĠMa ÃŁe
ĠM om
Ġorden tlich
kÃ¼n fte
Ġent f
Ġm il
ĠGleich zeitig
br an
l et
Ġf uer
m ess
ĠEr schein
ĠInst itu
ĠO sten
n immt
Ġbet rifft
gl as
Ġgel ingt
z iger
ĠgÃ¼nst igen
Ġf ern
ĠL ein
Ġfreund lich
Ġk alt
frei en
Ġab hÃ¤ngig
ĠRessour cen
ĠEurop as
Ġver hindert
ĠInf o
bar es
Ġorganis iert
ĠF icken
ĠK ass
Ġbeteil igt
ast rop
ĠAn sicht
ir es
ĠMusik er
ĠT ab
Ġverbesser t
ĠEin ladung
ron en
zeich nete
b ast
Ġange passt
Ġ8 9
Ġkont akt
ĠF igur
ĠgewÃ¤hr leisten
Ġ18 8
an ter
st Ã¶
Ġver p
ĠR ud
ĠVerÃ¶ffentlich ung
sen den
Ġdau ern
ĠTÃ¼rk ei
ur o
Ã¼n den
gere cht
Ġ11 0
Ì Į
Ġschwar zen
Ġse par
c ed
ĠAu dio
ĠSt o
Ġt Ã¼rk
ĠL ade
ĠJ er
analy se
ul a
Ġv ari
Ġg laub
ĠK andid
k ord
V or
eig ern
Ġgew issen
Ġge fahren
gr enzt
ĠKap it
ĠKir ch
ĠD or
w Ã¼n
bereich e
Ġoft mals
hand lungs
ĠAn sprÃ¼che
ĠðŁ Ļ
Ġbestimm en
ĠFlÃ¼cht linge
ĠmÃ¶chte st
Ġ7 3
le y
tag s
pro blem
Ġk rie
Ġend g
L e
ĠAl uminium
Ã¤u b
Ġge boten
ĠSp enden
ĠMan chmal
ĠK alender
ĠBestand teil
ĠTer mine
ĠEngl and
h orn
Ġbrau ch
Ġ8 6
Ġide ale
ĠS S
ĠI V
ĠPrem ium
Ġgeb lieben
ĠWor ten
Ġspann ende
ĠZeu g
ĠWohn ungs
Ġ eig
ĠPol en
ĠVor gehen
ĠBerat ungs
ĠKon d
em it
ĠBe arbeitung
ĠDem okratie
Ġnotwend igen
l Ã¤
rin zip
K on
g rad
ĠTerr or
Ġa s
ĠBM W
her e
ĠGÃ¤ sten
ibil itÃ¤t
Ġgleich er
ĠSch Ã¶ne
ĠW illen
s dorf
ĠAn na
Ġ.) ,
Ġdie jenigen
ĠVert rieb
ĠFe der
ikan ischen
Ġden kt
sch lieÃŁen
dien ste
ĠSchÃ¶n heit
ĠBeweg ungs
Ġvorber eitet
ym bol
ĠH ir
ĠH essen
f red
Ġbeant worten
Ġein setzen
Ġe h
agen tur
S er
ĠTod es
Ã¤t zt
Ġge heim
f rauen
re cken
ĠVer pflicht
h il
ĠMan ager
Ġst at
ĠSer ien
ĠIr gend
c am
Ġkombin iert
ĠM i
ĠNieder s
stÃ¤t ten
Ġh om
Ġber Ã¼cksichtigt
Ġs il
ĠFil ter
ĠC loud
l ings
ĠBe stell
Ġk Ã¤mpfen
b ro
ĠSe c
ĠJu den
ĠSp ar
ÌĥÂ ¤
Ġbe zÃ¼glich
Ġfest gestellt
ĠFlÃ¤ che
ĠPhil ipp
ĠL im
Ġk Ã¼nstler
ch ern
Ġ7 8
ĠÃ¼berprÃ¼ fen
ĠBe vor
ti ere
ĠTar if
ĠBe sten
4 5
Ġbewe gt
ĠThe orie
ĠKrieg s
Ġer Ã¶ff
all el
hÃ¤n ge
de cke
ro st
sch lagen
ĠEd ition
ĠRes erv
ĠPolit iker
Ġehemal ige
all er
w ein
ĠOr te
Ġso was
Ã¤r t
Ġer m
Ġzw Ã¶lf
Ġ7 9
Ġver wir
Ġst arte
k i
ĠStÃ¤d ten
Ġn erv
Ġoffen e
Ġverschieden er
ĠZwei fel
Ġs l
ĠIn n
ĠEin stieg
Ġhilf reich
gen er
ĠKonkurren z
bild ungen
ul ieren
ĠYog a
Ġhe f
ĠAn hÃ¤nger
at a
ĠÃ¶ k
ĠP last
Ġdrin gend
ĠPriv ate
lÃ¤ss lich
Ġt au
ĠmÃ¼s se
Ġdefin itiv
ur st
um fang
kl er
as cht
Ġm obile
Ġanal ys
ĠWerk zeug
Ġsch ein
W Ã¼rt
ĠgÃ¼nst iger
Ġwei ÃŁen
ĠDach beschichtung
Ġhei ÃŁe
ograph ie
ĠZ in
Ġb au
ĠMehr heit
az z
ĠâĢ¦ .
an er
s wÃ¼rdig
ĠB ast
ĠGe gend
sicher heit
b rit
Ġn ein
ut h
ĠP in
bau ten
Ġv ielsei
ĠGast geber
ĠMo dern
Ġver teilt
re gel
ane ben
ĠGanz e
E M
g g
Ġg reifen
or fer
wissen schaften
ĠGew Ã¤hr
ĠAn gabe
ĠVarian ten
ĠT ank
z eits
ĠVoraus setzung
Ġde kor
ĠAnsprech partner
ĠGefÃ¼ hle
Ġb ay
nehm ung
at ers
ol ine
ĠServic es
Ġbesonder es
Ġht ml
Ġpro du
ik at
Ġunglaub lich
Ġf eier
beg inn
schl Ã¼sse
Ġre chnen
ĠAu str
Ġp ost
ĠMa gen
ĠRechts anwalt
ĠBe wohner
ĠV Ã¶
Ġverl angen
Ġwenig stens
Ġst olz
gesch oss
k um
st Ã¤d
ul d
Ġan sonsten
ĠErk enntnis
iz ierten
ĠN ase
Ġfor dert
ĠEinsch rÃ¤n
g igen
ĠS ab
ĠEin heit
ĠL eich
ot te
Ġte st
ĠM c
ĠGr Ã¼ndung
Ġv i
WÃ¼rt temberg
ĠFlÃ¤ chen
Ġn ord
ĠAc cess
ĠFern seh
ĠUm stÃ¤nden
ĠBl att
Ġehr en
kom pl
ĠAus sch
ĠR ichtig
Ġp art
ĠSol ar
utt on
ĠGetrÃ¤n ke
Ġschne llen
l an
ĠSter ne
scha ff
ĠF antas
tik eln
Ġauf nehmen
ĠBet racht
Ġbesser en
Ġ7 00
ĠEin willigung
Ġerz ielen
Ġ( "
Ġ12 5
Ġdank e
ĠVers icherung
ĠRe aktion
ĠNach frage
ĠFr anken
ĠFot ograf
ĠJ Ã¼rgen
kl ar
ĠReg ionen
Ã¤ sser
pro jekt
Ġver anst
Ġge prÃ¤gt
ĠOut door
ann er
D P
Ġver bl
Ã¼hr ung
B N
ien s
Ġf roh
ĠM eld
Ġs or
Ġletzt lich
Ġero tische
ĠT Ã¤ter
sche ch
ĠAn satz
Ġst rate
m ag
umen ten
Ġschle chte
u ver
ĠkÃ¼ mmern
ier er
k ra
ĠSchul ter
s ichtigen
ĠSo fern
ĠSo bald
Ġt iefer
ĠNicht s
ĠFern sehen
ĠAuf lÃ¶sung
ĠgelÃ¶ scht
Ġn ackt
Ġ9 7
Ġbestehen den
ĠSp iels
k Ã¶rper
ĠHer kunft
un en
ze ll
Ġsorg fÃ¤l
ĠRab att
Ġn ix
Ġver stÃ¤nd
ĠCo de
wer den
ĠBe am
ĠEin trag
we be
Ġansch auen
bo ard
z z
iel te
ĠS ar
Ġaus ser
Ġvide os
ig ungen
ĠNieder l
ĠâĢľ )
se her
W est
Ġprofession elle
ĠDa te
h i
ĠDu ft
ĠSk i
Ġange kÃ¼ndig
ĠGen uss
Ġh Ã¤ngen
we st
ĠPorn os
erk ennung
is ion
Ġsch lagen
ĠursprÃ¼n glich
h aut
Ġt raum
Ġsowie so
ĠS C
Ġs ub
Ġle gte
Ġaus s
ĠSpann ung
Ġw eist
f lex
l as
at iver
Ġunter sch
ĠFr ucht
ĠF u
Ġd ok
gel eitet
ĠA ff
Ġ13 0
and a
ĠH au
ĠBild schirm
u hen
haus es
Ġab geb
ĠN E
ĠE vangel
ĠK ra
ĠErwachsen en
p aar
Ġer worben
ĠAn liegen
Ġqu asi
Ġvor genommen
ver hÃ¤ltnis
h ten
Ġqu alit
ĠAuft ritt
ge st
ĠF rist
ĠKon zentr
eid et
ĠHaus es
ĠSitu ationen
ĠbeschÃ¤f tigen
ĠH r
ĠUrs ache
Ġan f
Ġdar stellen
ĠS orgen
sp olitik
g i
o ter
inu ier
ĠAk ku
verb rauch
e f
ĠF inden
ĠFakt oren
ĠAus flug
lei ÃŁ
Ġg hostwriter
ĠLin ien
Ġprakti sche
ab schluss
mer k
Ġentwick elte
ĠAn walt
ĠBundes regierung
ĠGeh irn
Ġinteress ieren
ampag ne
3 5
leist ungs
ĠM aschine
h u
g yp
ir r
o pf
ĠRe publik
cri ption
ll a
eint rÃ¤ch
Ġz it
Ġin halt
ĠEr fÃ¼llung
ĠDat eien
Ġo per
Ġkont akte
ĠjÃ¼n g
z wei
ĠJ agd
m Ã¤n
ĠM uschi
ĠSchwe den
ĠPart ie
Ġro ten
Ġverb indet
ir ol
Ġerreich bar
ĠAuftrag geber
2 00
ĠHein rich
Ġsp r
Ġtrin ken
ĠNach hal
ĠM ot
Ġkl are
is ierte
le un
e p
Ġ. Â»
w id
ang s
ĠCamp ing
ĠRelig ion
ĠAut omat
ĠBet rag
Ġau st
ĠB enz
ĠK ro
Ġun gewÃ¶hn
Ġwo hnen
ĠHand eln
ĠWelt krieg
eist ern
ĠEntfern ung
aum en
ĠAn sonsten
k ar
Ġr ie
Ġgl Ã¤n
itu ation
inform ationen
Ġd etaill
at tet
test et
ĠF uss
Ġr as
Ġinstall iert
ĠB GB
ĠVor stellungen
ĠM ilf
Ġnorm ale
ond s
Ã¤ llig
ark e
hÃ¶ hung
ĠS us
ĠD IN
ĠH it
ĠFest ival
ĠAus bau
Ġunter nehmen
ahr t
Ġlau tet
ĠInf rastruktur
Ġ `
win kel
m Ã¤r
Ġabwechs lungs
ĠPl Ã¤tze
ĠGe stalt
Ġeinzigar tige
Ġintegr iert
ĠIns besondere
Ġend et
d is
Ġj Ã¼d
stell bar
ĠVor schriften
ĠVerÃ¤nder ung
ĠOrganis ationen
ĠAllgem einen
ĠTour ismus
pap ier
Ġbe ziehen
ĠEr z
k aufen
off er
aus schuss
st rÃ¤ger
ĠAgen tur
ĠF eier
ĠM S
Ġdire kten
prÃ¤ sident
Ġman chen
zeich nungen
ĠEin wohner
ett be
mus e
r ation
ĠergÃ¤n zt
v ider
Ġviel mehr
k op
ĠSp recher
Ã¤ gt
grÃ¼n den
Ġ. âĢĿ
w al
Ã¤m pft
ĠS ich
sk on
Ġver boten
ct or
ĠW Ã¤
ĠE ffe
ĠZur Ã¼ck
fe kt
Ã¤hr ungs
Ġ8 7
Ġm Ã¤ch
ĠAsy l
Ġkein em
ĠHier bei
ĠMar c
d ach
ĠHand werk
Ġjem anden
ichtig ung
p osition
Ġgro ss
pp er
ĠC ent
Ġar ch
ĠðŁĻ Ĥ
Ġd omin
ĠPro stat
an bieter
ĠT enn
Ġsch ien
der s
Ġu p
ĠJ ubilÃ¤um
Ġs ign
Ã¤hl er
Ġansch lieÃŁen
ĠG ame
Ġbesch reibt
ti al
ĠH T
Ġsch licht
im ension
hÃ¶r t
Ġber e
ver arbeitung
ĠfrÃ¼her en
Ġger aten
O C
z one
ĠAus einander
Ġne hme
ĠSu bst
hand elt
ĠT U
ĠStÃ¤r ke
ĠWeiter bildung
ver halten
Ġanges ehen
br ing
u ff
ĠFor scher
ĠDurch schnitt
ie hlt
fahr ten
ĠÃ¼ber legen
ĠmÃ¶ gen
ĠWer den
ĠgewÃ¼n schten
Ġun zÃ¤hl
ĠPro zesse
M it
f euer
Ġm iss
Ġklein ere
ben e
ĠLi zenz
ĠPh ase
ĠTÃ¼r en
ĠE mo
ĠBezir ks
ĠTrum p
geb nis
ho fen
ĠL och
g no
ĠGe halt
Ġzuverl Ã¤ss
ĠP reisen
st ufe
Ġver arbeiten
ĠExt ra
ĠM obile
Ġum s
ĠLo ok
ĠBel ie
ĠD unkel
Ġsp eichern
ĠD ame
Ġgener ell
I R
Ġgew ann
ik en
jÃ¤hr iger
F A
sp reis
S erv
ĠVorder grund
ste te
br ig
Ġch at
ĠL euten
Ġdire kte
produ ktion
zen ten
Ġst ruktur
amen s
Ġa re
grÃ¶ ÃŁ
uch er
Ġle er
Ġt at
Ã¤ch eln
Ġ199 7
wohn ungen
Ġ8 4
ĠfranzÃ¶s ischen
b il
ĠWissenschaft ler
p reise
ick te
je ktiv
Ġschwer e
gen de
ĠIS BN
ol ogen
ĠBes itzer
ĠKrÃ¤ uter
Ġda vor
Ġ" )
ĠWe llen
Ġ9 4
ĠVerfÃ¼ g
ĠO ma
Ġdes ign
ĠDial og
ĠÃ¤lter e
Ġstrate g
ĠP ir
mmer t
system e
Ġsich ere
us en
brit ann
ĠKon sequ
ĠH il
ĠFrei burg
schnit tlich
Ġge liefert
ĠRe volution
ĠAus kunft
ide en
Ġge fertigt
ĠL ap
ar tigen
ĠRisik en
wer fen
ĠAl pen
ĠGra mm
ĠM esser
ĠNutz ungs
Ġfot ograf
Ġerst aun
Ġ ^
ĠAbt eilung
ĠS auer
ĠEr stellung
Ġver kauf
ot herapie
ĠTre ff
ĠSchau spiel
Ġwo durch
Ġsich eren
yp en
g in
Ġeffe ktiv
Ġf liegen
Ġverl angt
Ġkont inuier
ron e
ĠEin t
Ã¤m pf
Ġg olden
ĠSehen swÃ¼rdig
we lle
ĠGe fahren
ĠBer e
Ġh undert
Ġbed arf
ĠSl ot
Ġster ben
Ġhin weg
ĠBe werb
Ġf rage
pl ant
Ã¼ bung
ĠSchwanger schaft
Ġb raun
ar ische
ĠA ro
plan ung
ĠCh or
ĠKÃ¶nig s
ĠEr b
ĠKompon enten
ĠtÃ¤ glichen
ĠSp uren
Ġdurch s
ĠT un
ra y
olog isch
ĠPl ug
ĠSon st
ĠEvent s
end orf
ĠNachw uchs
ĠAuss agen
ĠWider stand
ĠX xx
et tet
Ġkat hol
f ur
ĠgewÃ¤hr leistet
Ġy our
ĠD J
Ġv olle
ĠApp l
Ġunter en
Ġw Ã¤chst
ron ik
ĠM uss
Ġero tik
ĠSch icks
Ġzeich net
le ute
Ġzentr ale
bet rag
ĠG B
ĠF iguren
ĠJe den
ĠgeprÃ¼ ft
f leisch
hr t
ĠverstÃ¤r kt
Ġj ur
gesch ichten
le hen
bau er
ĠB raut
ĠKe y
3 1
ĠAm ateur
Ġrecht zeitig
Ġ18 7
Ġgez ielt
ĠDaten bank
Ġangen e
ehm igung
Ġschn eiden
Ġeinge hen
ĠN ad
Ġun kompl
ĠE S
Ġ... ..
ĠN ackt
ĠBes ser
Ġeinge tragen
ĠTe ppich
rÃ¤ der
ĠIde al
ĠB ach
Ġamerikan ischen
zeu gung
vor sitzen
Ġde aktiv
Ġ; )
ĠBr as
r esse
s recht
ĠL ack
scha fter
ĠEn gel
Ġsp ont
ĠHer stell
Ġgro sse
ĠHalt ung
ĠÃ¼berr ascht
Ġd el
reu e
Ġth at
ĠPer formance
zw ungen
ĠstÃ¤r k
Ġohne hin
ĠBl Ã¼ten
ĠBundes liga
ĠC enter
Ġtradition ellen
ĠFl ucht
ar ischen
Ġerk enn
ĠIn g
Ġerw achsen
or et
Ġmensch lichen
akt or
ungsver fahren
Ð »
it ation
p olit
mitglie der
ĠHilf s
o fen
k us
ĠQu er
ĠPartner suche
ĠAu di
ap s
ĠKomm ission
ĠwÃ¼n sche
ĠB aut
ist in
Ġwei sen
reich er
hÃ¤n dler
Ġmoment an
ĠSch le
ĠSold aten
ĠDurch messer
ĠIn gen
stehen de
ĠH itze
P al
Ġt rat
ĠKÃ¶n nen
Ġaus wÃ¤hlen
Ġrel igi
K E
Ġe he
ĠDes igner
Ã¤m pfer
or ge
be u
rit zen
ĠTh Ã¼r
ĠL iga
ĠSam sung
Ġverurs acht
ĠWebs ites
Ġgegeben en
ĠR enten
ra c
Ġreag ieren
ĠAr z
Ġallgem eine
il er
Ġmass iv
ĠBeschwer den
Ġpassen d
Ġgesch ieht
ĠC y
ĠMen Ã¼
zus ehen
ĠL au
ĠQuad rat
c ore
geb Ã¤ude
ĠM B
ĠBetroffen en
ĠBewer bung
ĠB R
Ġs m
rich ter
Ġn ette
g ige
Ġin telligen
Ġkont aktieren
ĠV W
Ġent scheidet
ĠStat istik
der ungen
I A
ĠT ha
p ot
ĠEntwick lungen
ĠPrÃ¤sent ation
Ġunters ucht
Ġge testet
p um
ĠRe form
re publik
spe zif
Ġbetr achten
Ġfrag te
ul Ã¤r
ĠEx istenz
Ġzwei mal
ĠSp ur
l uft
Ġerk annt
Ġl anger
ĠLie d
Ġbrau che
ĠSch ei
r or
Ġschle chter
Ġdiver sen
Ġd ynam
ĠFe atur
ĠNeu en
U M
Ġch ron
ĠHoch zeits
ĠSp ekt
an spruch
Ġle ck
ĠPort al
ĠPhilosoph ie
qu enz
Ġzu hause
ĠHand lungs
ĠHÃ¶ch st
Ġb reite
ĠP od
ĠEr zÃ¤hl
klÃ¤r t
steuer ung
voll er
st eil
Ġvor n
l Ã¤uf
ĠSe bast
Ġch em
m iss
ĠInnov ation
ĠgroÃŁ zÃ¼
ĠFl Ã¼ss
Ġnach voll
Ġer werben
ahn sinn
Ġ Ã¤lte
kun st
Ġver folgt
bet reu
ĠÃ¼ber wiegend
ĠDi abet
Ġschrift lich
w n
ĠUnter schiede
Ġd rÃ¼ck
ĠProgramm e
ĠMitglie dern
ord nen
ri ll
Ġein stellen
l ers
k ern
ĠUnter lagen
E C
fferen z
Ġgesch ickt
uch tet
f ried
Ġh ieÃŁ
ĠÃ¶ fter
Ġv is
Ġsch lafen
st rom
ĠE ffekt
ĠMatt h
Ġger inger
ĠZ unÃ¤chst
kon om
Ã¤ mm
or fen
rie ch
Ġbevor zu
b rÃ¼
ĠPfer d
ĠSympt ome
c ort
fÃ¼hr te
ĠRe chner
Ġh alte
ĠMe tern
ĠN ahrung
schein lichkeit
f it
reg ion
ge d
ĠSchwier igkeiten
em pf
ĠKl ick
ĠL ippen
wo od
ĠSchl es
lie ssen
Ġfest stellen
zen e
on us
Ġersch ien
ĠN ackte
g y
ĠProblem en
kon zept
Ġr ichten
drÃ¼ck t
Ġbe endet
Ġwundersch Ã¶n
Ġsp iegel
ĠSch a
verl auf
ĠFinanz ierung
under te
p la
Ġf uhr
s zeit
ĠFin ale
ĠGr unde
ĠJust iz
ĠDie sen
ure llen
utz ut
Ġ199 6
st ab
h y
ĠMedikamen te
Ġober en
utzut age
sen dung
Ġbewer ten
c i
ĠG Ã¶tt
ĠPro jekten
ĠC ommunity
ĠBew usstsein
Ġbekomm e
ĠKinder garten
ĠM aus
Ġgetr ennt
our en
ĠF unk
Ã¤ÃŁ t
ĠO f
c om
Ġgew innt
Ġzu gÃ¤nglich
z Ã¼nd
ĠKre bs
ĠChrist oph
mÃ¶ bel
Ġm at
Ġwissenschaft lichen
ĠPol y
ĠSex kontakte
l im
ĠGesprÃ¤ che
Ġkurz em
Ġt eils
verl ust
Ġab ges
bed Ã¼rf
Ġh um
t u
Ġtats Ã¤ch
ĠStru kturen
ĠE N
sch iff
ĠEr l
Ġd ick
Ġf rom
ho se
Ġso g
il ian
Ġsch ie
alt ung
ĠSpiel automaten
ok oll
fÃ¶r m
Ġirgendw el
ĠModer ne
ĠCh amp
Ġerk ennt
ĠLehr e
ĠBran denburg
ĠA M
ĠDigit alisierung
gesetz es
ein satz
st isch
ĠRe zens
ĠJose f
gen t
Ġsch aut
ĠInvest ition
ka sten
Ġb Ã¼r
Ġsch einen
Ã¶s ser
ĠGesetz es
g ing
m uster
ĠAuf stieg
ĠSt abilitÃ¤t
ser ie
ĠSti ft
ĠGegen wart
Ġkosten frei
ber ichte
sted t
Ġzu stÃ¤ndig
ĠTabl et
ĠEl ement
st eine
ĠW alter
Ġ stell
Ġf ix
Ġw Ã¤r
ĠN S
ĠK ul
Ġst Ã¼r
Ġp ri
stÃ¤r ke
Ġm u
prÃ¤ sent
ĠKart off
st itu
Ġgel assen
ĠG Ã¼n
ĠB utter
kÃ¶ mm
n am
ff nungs
Ġposit iven
Ġangeb lich
Ġf ragt
ĠTour isten
ĠGre en
ĠInnen stadt
ĠAt om
Ġgenau e
Ġperfe kten
na pp
Ġnorm alerweise
ĠErwart ungen
ĠEinkauf s
ĠFÃ¼hr er
ĠIdent itÃ¤t
Ã¼l ern
Ġ8 3
Ġa c
ach ter
ĠT au
Ġbeeinfl ussen
Ġhistor ische
Ġlie ÃŁen
ĠWÃ¼r de
ĠOr ten
ĠUnter halt
ĠGro up
Ġwer fen
ĠGeb Ã¼hren
ra ÃŁe
Ġempf iehlt
ien ce
n g
Ġk Ã¼nst
et o
Ġkon sequ
Ġlo cker
ĠSp azier
pp s
ĠBaum wolle
i alen
Ġex pl
ĠRett ungs
st ande
ĠâĢĿ .
Ġfor dern
ĠM Ã¶ch
Ã¤um t
ĠMan che
Ġverwende ten
Ġan melden
ĠSte ck
Ġeig nen
ic t
ĠLe g
ĠV illa
p ool
k al
rin ge
ĠSchwar ze
Ġglau bt
ĠWerk statt
ĠVor lage
Ġnach folgen
ĠÃ¤hn liche
b orn
ĠMon d
ĠBesch luss
ste hung
ĠM ahl
ivers itÃ¤t
Ġwar tet
ĠL en
Ġaus sieht
ĠArbeitspl atz
ĠSpr achen
ĠbestÃ¤ tigen
ĠÃ¤lter en
le der
vis ion
Ġgesch m
k w
ĠAf D
ĠV in
Ġtoll es
n es
ĠSt ation
D at
Ġent tÃ¤u
Ġele gan
ag ue
ĠZ y
ĠWill i
ĠM ieter
Ġzu folge
Ġwei ÃŁe
Ġ. /
ĠOr ien
m ass
Ġer zeugt
p Ã¤ck
ri p
ĠKommun ikations
Ã¼ te
britann ien
Ġdisku tiert
ĠUrs achen
ĠPat ient
ĠSchok ol
ĠKonfl ikt
w ahr
Ġausge hen
ĠN ic
ĠExper im
Ġn en
gew inn
f utter
g au
id a
Ġk W
amer a
ret ung
ĠSitz ung
ĠHel fer
ĠR auch
ĠAnt on
ĠSt ufe
ĠFrei en
ad ies
ĠSebast ian
ĠSystem s
ut ung
ip edia
Ġdauer haft
rei he
ĠD einen
Ġgesch ehen
ĠGriechen land
ĠL G
U T
ĠFa vor
ĠAb schnitt
od es
ĠR Ã¼
ĠBe kl
re en
ĠE M
ĠEnt spannung
ĠlÃ¶ schen
ag o
Ġherunter laden
Ġbe ziehungs
ĠT ax
ĠSehenswÃ¼rdig keiten
Ġabend s
ĠZ en
ĠAlt stadt
ĠAus gleich
ĠG R
ĠOber flÃ¤chen
Ġprakti schen
ĠT iefe
ĠAnder s
ein richtungen
reich es
ĠVer anstalter
s et
t her
Ġsonst ige
kl ang
at in
Ġbef est
g ibt
Ġerheb lich
Ġp fl
ĠJ azz
ra ktion
ĠGrÃ¼n der
Ġoffiz iellen
ĠTechnolog ien
Ġhin ge
Ã¼ cher
Ġ che
ĠZentr al
wor fen
ant eil
Ġnach zu
m es
Ġbei ge
E in
ĠLie der
ĠEt was
Ġeiner seits
ĠM ix
Ġgr Ã¼nd
ĠKn ie
ĠAl p
Ġf Ã¼n
ĠBas el
ĠCl ass
Ġh armon
Ġgro ssen
ĠergÃ¤n zen
Ġ18 6
ĠNieders achsen
anz eige
Ġo ut
fe hl
ĠB A
k m
besch reibung
v ort
Ġbe h
ĠG ames
ĠEreig nisse
ĠT um
ced es
kti ver
is a
ĠR uck
ĠErkrank ungen
ĠEx empl
al tete
s werte
ĠðŁĺ ī
ĠAb sol
Ġbe herr
Ġniedr iger
vers ion
ĠUn abhÃ¤ng
Ġtra ur
ĠTro cken
Ġc omp
ĠDro gen
ĠSt ory
ĠA kte
ĠK Ã¼nst
ĠGew inne
Ġn Ã¶r
ĠW erner
org ungs
t eils
ĠSo ft
hÃ¶r er
Ġerf asst
Ġst et
gleich en
ge laden
ĠSp ir
B ahn
ĠMÃ¼ ll
lÃ¤nd ischen
Ġf und
utz er
Ġ199 5
ĠAngeb oten
ĠmÃ¼s sten
ĠK iel
ĠhÃ¤uf iger
ĠS yr
ĠRe c
sen z
Ġst re
hÃ¶ rige
ĠV orm
Ġ7 2
war en
ĠKonz ern
du ktion
ĠA N
Ġgaran tieren
ĠHr sg
l Ã¤nge
in ten
ĠÃ¼b lichen
ĠFrÃ¼hl ing
leit ungen
i ffe
ĠA ttra
Ġber uh
er ische
Ã¼cksichtig ung
ĠSch Ã¶
Ġ? !
tif iziert
ĠSupp ort
ĠhÃ¶ch st
Ġlok alen
ĠEurop e
ĠUntersuch ungen
ĠMo unt
ĠB lei
f Ã¶rderung
Ã¼ h
ĠT rage
IN G
n ummern
Ġre duzieren
ĠB Ã¼nd
Ġbeit ragen
b Ã¤
ĠF Ã¼nf
gesch nitten
m at
vers icher
ĠT u
ĠHeil igen
ĠSt au
Ġ199 4
ĠWo hnen
and t
schl Ã¼ssel
ro l
ĠH em
Ġ q
n amen
Ã¶ h
ĠIn tens
ĠTex til
ĠB rau
sp eicher
H E
ha f
Ġfe sten
al ition
Ġlieb sten
ĠBe zeichnung
etz e
hol fen
ĠJa va
Ġprofession ell
Ġw h
j et
Ġb reiten
ĠOn lines
Ġf antast
ĠSte uern
Ġvor an
ĠVor feld
Ġdre hen
archite ktur
ĠMatth ias
ĠFe ed
r ung
ĠJed och
ĠPay Pal
dr Ã¼cken
ĠVer wand
fen ster
ĠWirklich keit
Ġbet reiben
Ġgew ohnt
Ġdok umen
ĠMat hem
ĠZ wie
Ġ9 00
geb iete
bran che
sp aren
ĠStat us
ho tel
Ġg riech
famil ien
ĠFe uchtigkeit
pp chen
ĠDe fin
ĠD einer
Ġb ad
Ġlang weil
ĠKontakt anzeigen
ĠH i
ĠT G
Ġmorgen s
yt hm
ĠM ord
Ġgest artet
ĠO hren
ĠEntwick ler
Ġwirtschaft lichen
Ġweit gehend
Ġ% .
Ġver lin
Ġunter b
Ġ17 0
Ġz unehmen
ĠPro p
P O
teil te
ĠstÃ¤r ken
C he
Ġum welt
Ġbe zieht
Ã¤u le
Ġt Ã¶
zuf Ã¼gen
schlag wortet
ĠKor re
ĠKrank heiten
k as
ot ter
T ube
k Ã¼r
Ġbeziehungs weise
us ion
S o
wor k
ĠB am
ĠK rÃ¤fte
Ã¤ cht
ĠSchmid t
fÃ¼ llen
ĠBer Ã¼cksichtigung
ĠA tt
z end
ild et
w es
wer tet
ĠA achen
Ġvorhanden en
ĠN u
Ġbele gt
out ube
ĠL aufen
ĠprÃ¤ z
v as
ĠTabe lle
gar n
Ġbeein drucken
Ġum so
ĠEin bau
or se
ĠTrink wasser
Ġs ach
Ġbe ur
Ġ: :
ĠK aufen
ĠLog o
geb lich
Ġ Ã¤
ĠSta ffel
ĠProf ession
Ġt raf
ri a
v i
Ġfol gte
Ġm ore
ir l
ĠDies el
sam keit
ĠF azit
Ġun verb
ĠN at
ber setzung
b ein
Ġer setzen
ĠM inder
ĠVer eine
ĠDar auf
ĠA D
ende te
qu elle
ĠS G
Ġp op
Ġbesch reiben
Ġstatt f
ĠF A
ĠStÃ¼ck e
Ġempf angen
ĠPl atten
Ġausges prochen
ĠNot wend
ĠlÃ¤nger e
Ġdurch fÃ¼hren
ĠO h
S G
ĠSt urm
Ġnachhal tig
metho den
Ġzuverl Ã¤ssig
gem Ã¤
Ġehren amt
ĠProduktion s
ĠDrit tel
Ġleich ten
Ġwichtig ste
Ġun mÃ¶glich
ĠVerl etzung
Ġr etten
Ġauspro bieren
Ã¼n de
ĠB art
ĠE R
ĠVeranstalt ungs
Ġfe ste
ĠSch Ã¼tzen
ĠKlass iker
ĠEr ne
ĠTenn is
ter e
Ġtechn isch
k la
ĠF akten
ĠD ingen
Ã¤tig keiten
ĠWider spruch
3 6
Ġbas iert
ĠSalz burg
cri pt
ĠOtt o
ĠMer cedes
ĠRhein land
gesprÃ¤ ch
ĠW C
rieden heit
aut omat
den s
Ġan fangen
or b
ĠIn dien
r as
Ġinnov ative
Ġbeliebte sten
ĠZeit schrift
stag ram
Ġfr ischen
ĠW Ã¤hlen
ĠBundes land
ĠSchau spieler
Ġste lle
p at
ob el
auf gaben
ĠStre cken
Ã¶ch er
sph ase
hÃ¤us ern
w Ã¶rter
ĠDok umente
Ġ6 2
ĠSeiten sprung
ĠBer ater
ĠÃ¶ff net
ĠNord rhein
ĠAnf Ã¤nger
he ater
ĠGew inner
ĠAn erkennung
ind liche
ĠArz nei
druck s
ĠBr Ã¼cke
Ġjen er
alis ierte
ver ordnung
recht lichen
ĠKno w
Ġna hmen
ĠP iz
Ġleben s
Ġk lin
Ġer zeugen
Ġschl Ã¤gt
ĠSo weit
ir ts
ĠR au
zahl ungen
rei en
Ġschein bar
ĠBuch sta
ĠSÃ¼ ÃŁ
ĠfÃ¼hr enden
Ġver folgen
M an
rank en
ĠHeid el
ĠF liesen
Ġbeg eistern
Ġall zu
Ġdurch ge
ĠLog istik
r Ã¼cken
ĠAutob ahn
Ġvor liegen
Ġverl iert
Ġnach t
Ġvor sichtig
lo gen
form at
ĠZ Ã¼
lie ss
ĠS omm
ut in
ĠJahrzehn ten
Ġk enn
Ã¶ ss
ĠVit amin
ĠKarls ruhe
it ur
Ġausge st
d ie
Ġst ill
ĠChrist us
b ele
b aut
ĠV f
ĠN oten
i i
Ġre chte
ĠW Ã¶rter
Ġh am
ĠFÃ¼ ÃŁe
Ġverb reitet
gesch windigkeit
il s
ĠAb wehr
Ġverein bart
flÃ¼ ge
ĠVer f
sta aten
ĠBet on
Ġn am
ĠKn ochen
her steller
ĠM ak
ĠS aar
ĠD ritten
ĠSch ild
ĠU V
ĠAd min
ron omie
Ġges unde
ĠgrÃ¼ nen
ber eiten
gn Ã¼gen
Ġein heit
Ġev tl
d ige
Ġgeb rau
l ig
be handlung
ĠAn wendungs
ĠC omm
art s
ho fer
ativ es
Ġl it
fur ter
k rÃ¤f
et tel
Ġ] .
d acht
ĠT eig
ĠE th
ĠGer Ã¤ten
f eln
ĠIn telligen
k inder
ĠHand t
ĠgÃ¼nst ige
Ã¼ ht
ĠMotiv ation
Ġb il
de st
rÃ¤ sident
ĠWorkshop s
aus bildung
ĠOpti k
Ġgef Ã¶rdert
pr ession
m ungs
Ġvers uchte
ĠÃ¼ brig
ist ent
te d
ter te
ĠAn wesen
z el
uss y
N r
m achung
ĠHo se
ĠErfahr ungs
ll te
Ġtelefon isch
ĠGr an
Ġwe b
Ġber Ã¼ck
Ġlie bt
ĠAn bie
ĠHom osexuell
rÃ¤n ken
ĠKo ordin
port al
a sten
ĠD Ã¶r
Ġpartner suche
ĠBi bel
gesetz ten
Ġa ss
ĠM auer
Ġro te
Ġwahr en
ĠM ama
ĠAn nahme
reib ungen
ĠEin mal
ĠHin sicht
ber s
no w
a he
zie ll
ĠMittler weile
Ġan sprechen
ĠFr anc
ĠMen gen
te am
ĠAllgem eine
Ġvers orgt
ir d
4 8
Ġwundersch Ã¶nen
b reite
ĠRegel ung
Ġein ver
Ġbesonder er
ĠP au
Ġmen schen
ĠReg isse
or a
ĠKÃ¼hl schrank
usch el
ĠRe cher
Ġberuf lichen
ĠHo hen
Ġna h
tre ff
g nung
ist et
zu stand
ĠC lau
Ġbet ont
ĠVor gaben
st ant
Ġlaufen den
ĠB Ã¤ume
ti scher
w unsch
zeich neten
na h
Ġsch lieÃŁt
Ġn ackte
Ã¶ff entlichen
ĠRei ÃŁ
schn eiden
ĠA hnung
k olle
Ġo ption
ĠErwei terung
ĠM P
mitglie d
ĠKon struktion
Ġsol ch
ktiv itÃ¤t
ĠFÃ¤h igkeit
C D
ĠV Ã¶lker
em ann
ĠChe ck
on te
ĠB an
Ġverein bar
Ġanges ichts
Ġan geschlossen
ber uf
ingt on
ĠGroÃŁ britannien
ĠFor derungen
ĠD ing
il a
bien te
I ON
ĠZÃ¤ hne
ĠBele uchtung
ĠT ore
ĠFl ach
ĠT eu
ĠgefÃ¤hr lich
g u
ĠNachhal tigkeit
sch eine
ran ten
mann schaft
ĠDokument ation
wei len
gen den
wei ler
ĠM achen
Ġlang fristig
sch wer
Ġ Ã
ĠW ag
Ã¼nd igen
Ġf in
g Ã¤
Ġbe zogen
ĠSk y
ĠRegistr ierung
ĠPaar e
Ġsp Ã¼ren
e c
ĠH ung
ĠD A
Ġrei sen
lo cken
Ġausge fÃ¼hrt
ungsk osten
ĠLap top
3 3
d ates
be wegung
it sch
ĠWahr scheinlichkeit
ĠUnter haltung
k k
an leitung
ĠAuf nahmen
Ġlie fer
ĠAnge legen
Ã¼t ze
voll es
is ierten
ĠP fe
ĠSl ots
Ġp ubl
ĠD ampf
ĠR E
ĠRat haus
ĠB rit
ei s
pfl anzen
ĠBot schaft
Ġinner en
ĠB och
ĠReg ierungs
Ġerwei tern
Ġhinter lassen
muse um
ĠMan gel
ph an
Ġ, ...
Ġanges prochen
ĠTri cks
Ġsp Ã¼r
r und
ĠRie sen
Ġbe arbeiten
ĠEr halt
ĠBer ichte
ĠRe zepte
ĠKon ferenz
k rÃ¤
ĠOper ation
ĠR as
Ġgeb unden
ein heit
m acher
Ã¶ ger
be stand
Ġ?? ?
ĠVor her
eid ung
ĠSt reifen
Ġange legt
Ġfr ische
ĠYou Tube
organis ation
Ġf ile
ĠD ynam
ikan ische
ĠVer ordnung
ĠK enntnisse
Ġerfolg te
Ġentsp annt
Ġs c
ka mmer
ĠKreativ itÃ¤t
ĠJ ak
ĠKon text
ĠIm press
ĠForm ul
ind lichen
hei ra
ĠSp eisen
ĠS endung
ĠNachbar n
ĠEben falls
Ġbere chnet
ĠEin es
ĠBis her
ĠAcht ung
ĠCo lle
ĠSing leb
ĠPsych ologie
ĠSo fort
ĠDesign s
ĠWettbe werbs
ĠPerspe ktive
ĠEigent Ã¼mer
be auftrag
b aus
Ġste cken
k au
verstÃ¤nd nis
Sp iel
Ġspezi alisiert
ĠNeu bau
ath ie
ĠâĨ ĳ
Ġst eigern
ĠL ind
Ġange fangen
ĠHin blick
ĠLiebl ing
ĠGe werk
ord s
ĠStud ierenden
Ġwundersch Ã¶ne
ĠPro vin
f inanz
ĠBegl eiter
Ġabge geben
k Ã¤
o ires
bet reiber
Ġm g
ĠangekÃ¼ndig t
or al
ĠEr mitt
ut her
ste chn
Ġumfassen de
ĠKant on
ĠVor haben
Ġr ufen
kont akt
ad o
Ġher kÃ¶mm
ĠNav ig
Ġgef eiert
Ġver ur
icher heit
Ġer mittelt
gem acht
Ġinvest ieren
ĠEr Ã¶ffnung
ĠBo ots
ĠG Ã¶t
Ġb uch
Ġander erseits
ĠGal ax
ĠLab or
er ung
Ġgemein t
d ar
Ġjeweil ige
deut schen
ĠA frika
ĠKu gel
Ã¤ nen
och e
ĠLe ucht
Ġzu gelassen
ĠHer mann
Ġi lle
ĠA P
Ġmin imal
ĠKla vier
T ER
Ġtran spor
Ġflex ibel
Ġwahr e
Ġho hem
le ch
ck ten
Ġver schl
ĠM Ã¤d
kle ber
Ġkonk rete
ro s
ĠHard ware
b is
Ġinstall ieren
Ġein richten
Ġpersonenbezogen er
bÃ¼r o
Ġg Ã¤ng
ĠVersand kosten
ĠSor ge
Ġeurop Ã¤ische
ĠVerkauf s
Ġ18 5
ĠberÃ¼ck sichtigen
Ġsch Ã¤tzen
ĠHier zu
Ġeinzigar tigen
bl au
ro man
ĠBetrieb ssystem
Ġgesund heit
ĠFar bt
ĠM A
ĠEnt wurf
Ġg Ã¼l
ĠZ o
3 9
ĠLein wand
up s
ist ischer
ĠFranzÃ¶s isch
ĠS ne
Ġn ationalen
Ġtran s
ĠD ol
az itÃ¤t
pp ing
w ende
ĠDrit ter
ier bar
Ġges ammelt
ffnungs zeiten
beu tel
ing u
Ġbestehen de
ĠTelefon nummer
ĠPro be
ĠSelbst verstÃ¤ndlich
ĠT ieren
Ġfe hler
z Ã¼ndung
ĠRes pekt
Ġi kea
c es
Ġl auf
ĠFrei e
ĠWÃ¼n schen
Ġf it
Ġkorre kt
ĠBe handlungs
ĠIn halten
Ġverschieden sten
ĠKl einen
ĠMeer es
bo le
Ġk al
ĠCS U
Ġdeutsch sprach
ĠE G
Ã¤nd ige
Ġkon stru
io de
ĠBer ge
ĠSch Ã¼lern
ĠChr isten
Ġfal sche
f ir
ĠEmpf ang
c ar
ĠKr ise
ĠkÃ¼r zlich
gn or
Ġaus gesch
ĠMain z
ĠDeut scher
S ti
ĠGr and
Ġprofession ellen
ĠM em
Ã¼nst ig
ist an
Ġer fordert
Ġex per
Ġk op
u ht
ĠL aser
ti tel
ĠDe cken
wir kt
Ġo ff
Ġbewer tet
l ein
Ã¼n kt
Ġstimm en
per rt
Ġm ieten
ĠSmartph ones
sch icht
ĠGe hÃ¤use
Ġsch merz
ĠAutom obil
fin ale
Ġeinge fÃ¼hrt
Ġw in
ĠAnw ender
ĠTo il
ĠEurop Ã¤ische
ĠMann schaften
reg ungen
fer ien
Ġb loÃŁ
Ġc an
Ġgepl anten
m t
urop a
Ġfinanz ielle
ĠErinner ungen
Ġv an
ĠStu hl
ĠSch eiben
ĠKur se
ult urellen
ss el
ĠD os
ĠT rag
Ġunver zÃ¼glich
ĠKo hlen
Ġsch mal
ul ette
kra ine
is ser
Ġr asch
ĠTrend s
Ġreag iert
ĠAugen blick
Ġv ierten
ger s
ĠQu art
ĠW ann
Ġzu stÃ¤ndigen
sch Ã¶
imm ern
Ã¼t tel
Ã¤ng nis
Ġseiten s
ast ur
un dern
h Ã¤lter
ĠEmpfe hlungen
u ste
ÌĥÂ ¶
ĠT it
ers atz
ĠA C
Ġverl Ã¤nger
ĠMe x
us sten
Ġausgew Ã¤hlt
ĠBezir k
Ġs age
Ġerz ielt
ti en
ĠLe on
ĠTour en
ĠTick ets
ĠAug sburg
Ġdem okrat
ĠSchles wig
Ð º
ĠBeteil igung
ĠJob s
ĠWand el
ĠBr on
bring ung
iz ont
ĠgewÃ¼n schte
ĠAm erikan
ĠBegl eitung
ob b
Ġ+ +
Ġlie st
ĠR uhr
ĠG ymnas
ĠDes wegen
ĠT ot
grÃ¼n de
m Ã¤ch
Ã¼ hle
f rie
men ge
ĠQu al
woch e
mÃ¶glich keit
ĠJ ens
ĠW ord
n i
fe hler
kl assen
ĠK und
Ġattra ktiv
ĠSign al
ĠeB ay
Ġst Ã¤d
ĠBud get
ĠAc tion
Ġzentr alen
gef unden
Ġaktiv e
Ġren omm
ra k
ĠGeheim nis
ĠNach folger
bach er
le hnt
ĠBl Ã¤tter
ĠSu mme
Ġ tier
ĠHand lung
un sten
ĠfÃ¶r dert
ur teilung
ĠBundes republik
Ġaktiv en
ĠA pfel
ĠSa una
ĠGesch Ã¤fte
ĠZ iff
ĠSch al
Ã¤dig ung
ĠRegion al
Un ter
ain er
Ġser i
B A
ĠspÃ¤ter en
Ġhal be
Ġschlaf zimmer
ĠJahres zeit
meld ungen
wer bung
ĠHaushalt s
ĠOb jekte
ĠKrank enk
ĠF ritz
ĠTre ppen
ĠSol che
anz ig
Ġsch Ã¼tzt
ĠK rim
Ġ Ã¤ndert
ĠSo wohl
ĠBibl iothek
ĠKÃ¼ndig ung
ĠZ weit
ĠJe ans
liefer ung
ĠG T
b w
Ġorganis ieren
fol io
ier s
ĠH ack
ste ten
Ġaut hen
b Ã¶
ĠRed aktion
Ġbe fÃ¼r
ĠVorstand s
ĠMÃ¼n chner
tic s
ĠFreund schaft
ph ase
Ġste he
ĠRich ard
ĠR al
p rechen
D A
pro zess
Ã¤l en
ĠO li
West falen
ierte m
Ġvor ab
fÃ¤ ll
ĠV ir
ĠIn stagram
Ġj ugend
Ġan passen
ent licher
Ġdahin ter
ĠVoll zeit
ĠAmer ika
f eier
ĠNamen s
person en
berrasch ung
ĠHa mmer
ĠTran spar
Ġl ern
Ġm l
Ġgen ie
ĠAutor in
Ġgen annte
ĠSch atz
jahr es
ĠTest s
ĠFrei will
schie ben
ĠAb sch
ĠSchn eider
othe ken
ĠRechn ungs
ĠgroÃŁ em
ĠIs land
ar l
Ġeinz eln
ĠI M
ĠT rÃ¤
Ġpro gramm
Ġletzt es
teil ungen
Ġ199 2
Ġdre ht
gen au
ĠL etz
ĠKo alition
Ġun angen
ĠEx pl
f uÃŁ
ĠD IE
ĠB ischof
ĠC ur
C O
ĠIn zwischen
ĠPl Ã¤ne
ĠF ell
Ġ199 3
ech tigkeit
l Ã¤ndern
Ġk a
Ġlang frist
ĠBeg eister
gr enze
um e
Ġs uch
p le
am b
te sten
Ġgek enn
Ġarb eits
ĠRegel ungen
Ġbe dienen
ĠOnlines hop
Ġdar stellt
ĠAustr alien
Ġzerst Ã¶rt
ĠErfolg s
re ckt
Ġl asse
3 2
ĠNatur schutz
fon ds
ber nahme
ĠMehr wert
ĠGrund sÃ¤tzlich
d icht
et tern
ĠFrank furter
Ġsonst igen
Ġgesch nitten
Ġabsol ute
zie her
Ġbesch rÃ¤nkt
Ġkonk reten
ĠC at
ĠAus gaben
kret Ã¤r
ĠInstitu tionen
Ġ/ /
if est
Ġ> >
Ġbe weg
ĠF eiert
ĠF DP
Ġzusammen ge
ite d
Ġdr Ã¼cken
w achsen
ĠfÃ¼ llen
ĠjÃ¼n ger
ant rag
Ġwissenschaft liche
Ġzusammen gestellt
ĠB om
ĠBatter ie
ein richtung
ĠKÃ¤ se
) )
ĠArme e
fÃ¼ llt
Ġer richtet
ĠErk enntnisse
ĠKa mmer
Ġrein igen
ĠPlast ik
Ġsol ches
abl en
Ġgute m
ĠSchu ppen
Ġsing les
Ġum gehen
ĠB B
ĠzurÃ¼ck zu
wo gen
ler in
z o
ix el
Ġhal ben
ĠF onds
Ġopti sch
ĠSpiel zeug
ĠMÃ¤n gel
ha ar
Ġver Ã¶ffentlichen
ĠMod ul
tember au
us h
Ġbet rieb
an ien
ĠAk ademie
Ġumfang reiche
Ã¶ sterreich
am i
Ġse ch
ĠS in
Ġsw inger
Ã¼t ten
stre cke
ĠBeteil igten
Ġ198 0
ĠWei s
Ġun nÃ¶
Ġd icke
ĠVorsitzen de
Ġfestge legt
o ÃŁen
Ġger ingen
ĠM Ã¶n
ĠT herap
ĠA si
ĠAus sehen
ank ing
b ri
ĠInstrum ent
ĠMÃ¼ he
ĠB einen
Ġ eleg
glich er
Ġdurchschnitt liche
Ġerreich te
b rauch
ĠP rie
ĠPartner schaft
zeit ung
Ġan fang
Ġbemer ken
ĠSter nen
ĠGer Ã¼
c ast
Ġzur echt
Ġinner e
M L
ĠGesetz e
laub nis
geb Ã¼hr
ĠM ission
ĠHalb zeit
Ġro b
D E
ĠO S
Ġa si
ĠN ahrungs
ord nungs
ho ff
Ġan gesch
Ġp ort
ĠPe ters
ĠTeil nehmern
Ġkon zip
auf bau
Ġan statt
a ur
Ġs amt
Ġdur ften
ĠJ Ã¶r
ĠS ant
land schaft
ĠAm biente
ĠCH F
ĠHei zung
m esse
met ik
o zi
schaff ung
zie lle
Ġn amens
ĠM un
ĠO P
amer ika
betreu ung
Ġst Ã¶
Ġfinanz iellen
Ġschme ckt
fl Ã¼ss
Ġl Ã¤ÃŁt
ĠDein em
ĠKÃ¶r pers
dat um
ĠC op
ĠDipl om
D e
ĠAn regungen
ĠG olden
Serv ice
zei tige
Ã¤m pfe
ĠZit at
ĠH ast
Ġb ett
ĠErkrank ung
3 4
fre unde
Ġk ar
sto ÃŁen
ak a
Ġklein eren
ĠW ehr
Ġge werb
Ġheu tige
Ġschle chten
ie der
ĠMann heim
ĠÃ¶sterreich ischen
ĠVers ionen
ĠTag s
Ġgesetz liche
Ġgrund legen
Ġ6 1
schl uÃŁ
k ind
sprÃ¼ chen
ĠW oll
sb aden
ĠG uten
ĠP hÃ¤n
Ġl ux
ĠPan or
Ġpf legen
ĠPosition en
g ess
st ritten
hÃ¤n gt
ĠHÃ¶he punkt
Ġm ech
ĠR Ã¤um
g it
ĠâĢ º
ĠGegen stand
ĠH Ã¤
h ab
Ġi mm
ĠBo gen
ĠFlug zeug
m g
aus stattung
ĠK offer
ĠDiagno se
ĠMiner al
ĠK rimin
zus agen
ĠP ots
Ġkl asse
Ġdamal igen
Ġd icht
ĠEmpf Ã¤nger
ĠO ste
Ġbe grenzt
kehr en
n utzung
Ġangegeben en
ĠB rie
ĠVor schlag
Ġkonzentr ieren
spl atz
ĠL iv
ĠX X
ĠVer w
ol i
Ġz iel
ter min
ĠChem ie
Ġkonk ret
ĠBe ach
Ġqualit ativ
ĠSch ein
ro hr
ungs vor
ĠAkt uelle
ĠDiabet es
te x
ĠFÃ¼hr ungsk
Ġerforder lichen
ĠN ation
b anken
Ġr eine
ĠSteuer ung
pp el
Ġwirtschaft liche
ĠOff ice
ĠPro je
ĠWar te
ĠIn haber
be ll
ĠB ass
br and
ĠEr folge
war tet
ĠJournal isten
ĠMobil itÃ¤t
Ġbeob achtet
ĠBelast ung
Ġwes entlichen
ĠD F
Ġauf einander
ĠStadt teil
Ġs elt
ĠStaats anwalt
ĠHei ÃŁe
Ġmobil en
ĠberÃ¼hm ten
ĠK as
wer ker
ĠR eiter
Ġb ot
Ġzeich nen
ĠAn fragen
ĠT SV
ĠErd be
Ġ194 5
ĠPrÃ¤ sidenten
ĠFa x
ĠH alte
ĠR T
Ġw ild
Ġd etail
Ġge ste
ĠBÃ¼ hnen
Ġdefin iert
ĠS CH
ehr te
Ì §
Ġk Ã¼nf
ĠgemÃ¼t lich
Ã¶n t
ĠF assung
ĠÃ¼ber geben
b io
Ġwor auf
ent sprechend
ĠForm ular
geord neten
ik o
ĠerlÃ¤u tert
Ġdies jÃ¤hrigen
Ġpro duzieren
ĠEner gien
bahn hof
Ġwar men
ĠWeiter entwicklung
l assung
Ġwert volle
ĠHo st
Ġum zu
F orm
ĠD Ã¼
Ġauf gestellt
ĠCon tent
ĠT oten
ĠVerd acht
ĠKl icken
ĠBern d
Ġange ht
ĠPfe ffer
ICH T
Ġk ir
Ġp ur
G er
och t
el a
aff ung
ĠOli ver
Ġeleg ant
Ġ198 9
ĠTo pf
Ġum geben
ein igt
Ġbet reut
ĠMittel alter
Ġpolit isch
ĠÃ¼b lich
Ġber ichtete
ĠF lo
und et
form ation
ĠGener ationen
W E
Ġsch ar
Ġle gend
id ar
pl emen
ĠF ak
ĠEur e
ĠM ei
kon ferenz
ir ur
ĠLÃ¶ schung
f els
urch t
k ette
ĠGer ichte
ĠSt aub
ĠAuf sichts
ĠG Ã¼nstige
Ġhervorragen de
ĠR eit
Ġper man
ĠK ok
Pro gramm
zu cker
vide os
es h
Ġmil itÃ¤r
Ġhe utzutage
ĠAut omaten
ĠR unden
ĠRo y
f reude
ĠAn leger
ĠArchite kten
ha fter
ĠRes ult
ĠJ on
Ġries igen
ĠP ast
ĠE v
ĠGro ÃŁer
ĠWol ken
m utter
ĠRo se
ĠUhr en
ĠExt rem
ul Ã¤ren
Ġmoder ner
ĠBe cken
ĠKind heit
m il
Ġjahr el
ĠSt offe
ri sten
Ġe ffizien
ĠK assen
Ġsch arf
ff izi
ĠâĤ¬ .
ĠTerr assen
j o
ĠFern seher
Ġniedr ig
Ġs yn
Ġbelieb ten
ĠRe port
Ġbe zeichnen
00 0
ay s
ĠsorgfÃ¤l tig
ĠS ha
ibl iothek
Ġ17 5
Ġan meldung
Ã¤ le
ĠD M
Ġab ger
ĠVerm ieter
ĠHe x
ĠFerien wohnung
ĠBege gnung
ĠAus blick
ĠUm zug
spf licht
ĠSte phan
Ġg alt
Ġgegebenen falls
Ġzeig ten
ĠStandard s
ĠFlex ibilitÃ¤t
Ġbes ei
spro chen
sk a
schein end
stra hlung
Ġh aut
Ġvers uche
Ġerk unden
ĠB ist
b em
Ġd oppelt
ĠC all
ĠC ons
ĠL ine
Ġf ried
ĠVorsitzen der
ĠBesuch ern
Ġl ernt
ĠSch ub
ĠNerv en
Ġinteress anten
Ġfinanz iell
k ommun
ĠA T
ake te
v enz
leb nisse
hil fen
Ġries ige
ĠH ub
ĠWeiter en
i or
ar ma
alte ten
u en
Ã¤nd igen
ĠDom in
ĠGroÃŁ teil
Ġor iginal
Ġangeb racht
p Ã¤dagog
ĠGir ls
Ġbe ster
z ert
ffizi ent
Ġ eu
p assung
Ġt rag
Ġsch aff
ĠSchicks al
Ġhoff entlich
ĠIns eln
Ġvert raut
Ġf eiert
ĠH P
Ġdisku tieren
anz t
ĠN ar
ĠSe g
ĠMÃ¤r chen
Ġab s
Ġjung er
Ġerleich tern
ĠDis ziplin
ĠBeweg ungen
ĠN Ã¤hr
ĠsÃ¼ ÃŁ
ĠWissen s
Ġsp ekt
ĠBe grÃ¼ndung
ĠEigent um
m s
ĠI H
lÃ¶s ungen
ĠTre ffer
u ÃŁer
Ġsch ade
Ġgegensei tig
and o
ĠvielfÃ¤l tigen
ĠD Ã¤n
Ġ10 5
ein heiten
ktion s
ĠtÃ¤ gliche
Ġentscheiden d
Ġver spricht
ĠRÃ¼ck kehr
Ñ ĥ
b ig
ĠU kraine
ĠTem po
ĠGi pfel
ĠMag azin
b ische
ĠS U
ymp ath
z ungen
Ġgew al
ĠVerb indungen
ĠGrÃ¼ ÃŁe
ĠVis ion
ĠAn kunft
ĠPort ug
R eg
Ġruss ischen
ĠAn g
ĠSt or
ĠVerein barung
Ġe ur
bereich en
ĠS y
Ġd ownload
ĠStre et
ĠIS O
ĠAbend essen
ĠTr ennung
Ġ euer
Ġlust ig
akter ien
w itz
Ġ199 1
Ġspann enden
Ġfal schen
ĠBras ilien
ver antwort
ĠL ob
me er
Ġ36 0
ĠT ube
ĠK oll
Ġk rei
n ische
c enter
sch Ã¤den
4 6
Ġbeant wortet
ĠHe y
iel d
ĠMathem atik
ĠL as
Ġtradition elle
gen Ã¶ss
gel aufen
ĠbegrÃ¼ ÃŁen
wei g
ĠVor gÃ¤nger
du le
k n
ĠStu dent
ĠSpiel othek
Ġg reift
ĠDir e
ĠD ritt
3 7
IN E
ĠEreig nis
Ġelektron ischen
3 8
ĠSchl acht
Ã¤m pfung
ĠZ elt
em enten
Ġgepf legt
ne ter
ĠT hre
k re
ĠnÃ¤ch stes
H L
ĠMe chan
Ġschwer er
Ã¼ ben
um p
Ġoffiz ielle
schnit te
ĠD R
fÃ¤h ige
ab teilung
Ġt a
Ã¤dig t
Ġst ation
ĠDe cke
Ġr at
ĠMittel n
lin der
ĠK lage
ĠB V
Ġl at
Ġb aut
Ġeinver standen
Ġgesellschaft lichen
Ġunver gess
Ġneg ativ
ĠGer hard
Ġaufge fÃ¼hrt
ĠMom ente
Ġbehaup ten
w eichen
ĠVerb rauch
ĠEnd lich
Ġsil ber
Ġum gehend
ĠDe ko
ĠSp ark
ĠWin kel
Ġunter scheidet
weis ungen
ĠVerl etzungen
iet ung
ĠT ob
Ġbe c
fahr zeug
ĠTechnik en
ĠEmpfe hlung
Ġaus sch
ges ellschaften
ĠGen ehmigung
Ã¤ ud
ĠZuf all
l ist
ĠAuf ruf
Ġab nehmen
ĠProf i
ge halt
ĠGesch enke
ment s
ĠÃ¼berprÃ¼ ft
ol and
ĠKass el
ĠEle g
ĠMa y
s berg
ĠMensch heit
Ġt reiben
Ġarbei tete
ĠverstÃ¤nd lich
Ġeinz us
d om
ĠZ ehn
bild et
ĠWeiter hin
Ġver sp
Ã¼ck t
ĠFot ografie
auber n
ĠmÃ¤n ner
gehen de
Ġbein ahe
Ġp re
ĠBeschÃ¤f tigung
s Ã¤tzen
o be
au ten
be kommen
vier tel
Ġaktiv iert
Ã¤nger ung
sch ne
Ġin dustrie
ĠP ick
ĠT omaten
ĠJ ames
gÃ¤n gen
Ġver h
ĠCar l
z iele
Ġreich lich
ĠNieder lage
wer ber
ĠG ard
Ġregistr iert
arbeite ten
ĠHa llen
ĠHon ig
schei be
Ġl iter
ĠAr men
ĠWahr nehmung
ĠLei b
ĠKÃ¶l ner
st art
ĠausfÃ¼hr lich
w etter
Ġgesetz lich
lei den
ĠSchreib tisch
ĠZeu gen
ĠLad y
Ġherr scht
Ġerst klass
Ġen er
ĠJa c
Ġtyp ischen
ĠFl asche
ĠWie sbaden
Ġa p
ĠIn se
auf wand
Ġumfassen den
k leider
beit rag
ach im
Ã¼t ung
H z
ĠO k
il osoph
komp eten
ĠFeed back
z gl
rei bst
ĠBe stimmung
ĠK f
Ġerkenn bar
inst rum
ger Ã¤ten
Ġbekomm st
ĠGer Ã¤u
ĠT schech
lie be
ĠRicht linien
E x
ĠEnt stehung
Ġunter halten
kom fort
Ġvor Ã¼ber
meld et
ux e
ĠSchul den
Ġ17 9
b an
ie tet
ĠAus fÃ¼hrungen
Ġver rÃ¼ck
der te
ĠgefÃ¼ llt
Ġdurch schnittlich
stra te
wohn ern
ĠKont roll
Ġd ien
Ġj etz
Ġab gesehen
Ġe uren
ett o
ĠM ul
Ġmehr mals
ĠLo c
ge legen
em ark
wor te
ĠP L
ĠFor st
ĠNacht eile
ĠO fen
ĠFab rik
el emente
ĠK ennen
Ġgegen wÃ¤r
ĠKolle ktion
ĠSpiel ern
ĠKan al
Ġger inge
Ã¤r zt
Ġd igital
ĠK ommen
ĠI ran
i for
ÃŁ te
Ġte en
ĠGes ang
ĠLauf zeit
Ġf eine
ĠFerien haus
Ġa tt
ĠPerspe ktiven
ĠLo u
ĠRo ute
ĠBar bar
ĠGro ss
ĠAbend s
ĠSpr ung
n ischen
ĠTrau er
bl Ã¤tter
ĠDer zeit
Ã¼r tel
ĠZ ie
bet eil
liess lich
ver treten
ĠArg ument
ĠFrÃ¼ chte
Ġre d
her z
s ache
ĠGe pÃ¤ck
atur en
ĠW Ã¼
Ã¼st et
Ġgesch Ã¤ft
ĠAr tikeln
ĠSp ons
ĠPlan eten
ĠInvest itionen
Ġkontroll iert
rÃ¤n ke
Ġseit dem
4 9
Ġlei se
sch uh
Ġsch eiter
ĠJahr gang
Ġbe arbeitet
ĠAr n
Ġd aten
ĠG E
l isten
re den
ĠLu c
ĠGes ichts
ĠUm frage
ĠPen is
mit tler
Ì Ĩ
ti ven
Ġer fahr
ĠT Ã¤tigkeiten
ĠSk la
fol gung
ĠKratz baum
ĠgewÃ¼n scht
geb Ã¼hren
ĠP y
behÃ¶r den
Ġwe bs
Ġmit hilfe
ĠGrafik en
ĠSch rank
ĠV ar
ĠSt rei
ĠOptim ierung
ĠvielfÃ¤l tige
ent in
r isik
Ġk ochen
Ġabge stimmt
ĠKompl ett
ĠLes ben
g ast
ber gen
Ġtra fen
en er
Ġin cl
s ucht
ĠForm el
gere chte
Ġge fordert
ĠRegisse ur
Ġwunder bare
an kt
fot os
p unkten
H ol
ik te
Ġmedizin ische
Ġverk nÃ¼
ĠPap st
ĠBoch um
l asse
ĠVor be
L eist
rist all
ĠBef rag
ĠQu ar
Ġver ring
tifiz ierung
wÃ¼r fe
Ġeinzigar tig
Ġnachhal tige
Ġph p
ĠDie t
ĠNorm al
Ġerle digt
ĠSp ass
ĠC ast
Ġw Ã¶ch
Ġgibt s
ĠD I
ie ber
Ġqu er
ĠOl iven
Ġdem nach
ĠNach weis
Ġ8 2
ĠAp art
Ġ^ ^
ĠP ul
a ct
ĠLie ben
Te am
hn te
Ġan stren
ĠSen der
s um
Ġwas chen
ĠBl ue
am ik
Ġoptimal en
ĠGerman y
ver treter
Ġbe stand
Ġfl Ã¼ss
ĠS un
Ġst ieg
ĠFor derung
k leid
Ġv ol
ĠGegen stÃ¤nde
ĠFr isch
ĠTrans fer
Ġgesch lagen
Ġver teilen
ir ten
ĠBil anz
lÃ¤nd ische
an dert
ĠPass wort
Ġes s
Ġspekt ak
ĠGut es
ĠAuseinander setzung
Ġregion alen
ap ter
ĠHin zu
ĠWei le
ĠiP ad
ĠH as
Ġerlau ben
ĠTick et
ĠRÃ¼ck seite
ch tet
Ġb ra
ĠDruck er
ĠGeb Ã¼hr
Ġe chter
j acke
ĠInspir ation
ĠUn garn
Ġl eiten
pro f
Ġab geben
Ġdunkl en
et ik
ut s
Ġne utr
ĠAus ge
ĠIn c
st i
Ġbe weisen
ĠVer fassungs
ĠDie ter
Ġ9 2
ĠRe chen
ĠSuch maschinen
ĠGew Ã¼r
Ġkon f
ĠCo ver
re gung
upp ert
ĠC le
Ġge holfen
ĠR asen
ĠAltern ativen
ust r
Ġsp er
ĠT ru
P f
ate d
ĠSelbst be
n ame
Ġliebe voll
Ġk lappt
ĠCo uch
ĠZu erst
ĠO pp
ĠfÃ¼ hlte
ĠLe vel
Ġ.) :
Ġsh ort
Ġr unden
ĠI l
Ġumfang reichen
A l
ge stellten
Ġzum al
ĠGeb rauchs
ĠInternet seiten
ĠVerpack ung
ĠBegeister ung
Ġgeb ucht
ĠBenutz ung
ĠGl anz
zieh bar
ehr ung
abet h
k es
Ġ% ,
au ert
Ġbl og
Ġges ichert
Ġmaximal e
qu ellen
4 3
ba hnen
Ġzu t
si ver
a a
ĠÃ¼berraschen d
le hnen
Ġsch reibe
Ġoptim ieren
ĠgehÃ¶r te
ĠQu e
r asse
k rie
Ġanerk annt
for um
Ġk unst
verband es
Ġb it
Ġel f
Ġb achelor
ĠMus ic
Ġhei sst
ogra fen
ĠErgÃ¤n zung
ĠHe ft
Ġd ram
gesch ritten
ĠB utton
herap eu
ĠVor bild
ĠKat astrop
v it
ĠDiskuss ionen
b it
ĠH ass
ĠHein z
hn er
Ġ3 50
ĠEr hÃ¶hung
ĠSyr ien
Ġm erk
Ġitalien ischen
# #
ĠVerhalten s
hei zung
ĠSim on
Ġf A
Ġh y
ĠStrate gien
Ġge g
ĠRe kord
ĠS low
ĠJ og
ipp e
Ġgew achsen
ĠAl bert
ĠSt d
ĠBet ten
ĠSan ierung
ic es
Ġkurz fristig
A b
Ġbew Ã¤hr
ĠAltern ativ
ĠImm un
Ġ20 20
k anz
k enntnisse
Ġb ade
ĠPrin t
ck len
Ġbed anken
ĠLiefer anten
a ster
Ġengl ischen
k am
ĠH orn
Ġdank bar
sp rÃ¼fung
sol venz
Ġmensch liche
Ġsch Ã¤d
Ġunterschied licher
ĠSch uss
ĠBedien ung
ĠW att
ĠMit teilung
it as
Ġsan ft
w anne
wander ung
Ġerleich tert
Ġeigen tlichen
ĠLe ague
Ġein ander
ĠMax im
ber tragung
Ġ12 8
in kt
Ġge laden
Ġr Ã¶m
ĠHeidel berg
aus gabe
ĠSo fa
hn acht
Ġwoll t
ĠM ur
ĠHoch schul
ĠEx p
Ġver Ã¤nder
verein s
och ten
ĠRei s
Ġein setz
Ġa temberau
Ġexist iert
4 7
ĠK Ã¤lte
; ;
Ġverlei hen
bl ock
imm en
ĠSa al
Ġi gnor
Ġbeeinfl usst
Ġson n
in sel
Ġle uchten
ĠK ub
---- ----
Ã¤cht nis
ĠI C
ĠMill ion
F il
ĠM all
ĠW Ã¤l
gen ossen
Ġbes etzt
Ġgelten d
Ġb unt
S S
Ġwider rufen
fol gend
Ġmedizin ischen
ĠP as
ĠVerfÃ¼g barkeit
Ġlang jÃ¤hrige
ĠK lin
mm el
ĠRe ad
Ġgel Ã¶st
ĠK ing
ĠSpekt rum
Ġ( âĢ¦
Ġ' ,
ĠZer tif
Ġnotwend ige
ir ge
ĠZ igar
ik i
Ġunter liegen
ĠT oll
ĠGebur ts
ĠKl etter
jen ige
Ġklar en
ĠImmer hin
ĠZ ell
ĠUn s
Ġdarauf hin
ĠTem pel
me chan
Ã¤t tern
Ġben ach
Ġc ont
Ġwas ch
Ġg old
Ġausgew Ã¤hlten
Ġdeaktiv iert
ad resse
ĠRechts anw
Ġr ief
ĠL ight
Ġbec ause
Ġ11 5
ol en
Ã¼ bt
Ġar t
ĠKandid aten
dis ziplin
war ten
ĠB ody
f arb
unk le
auf nahmen
bes itzer
Ġletzten dlich
G E
ol oge
ĠVer stÃ¤r
Ġteil te
ĠSchrift steller
Ġkor rig
Ġzw ang
ĠWik ipedia
ĠW ur
ĠF un
ĠT onnen
fe ste
og ie
sert ation
Ã¶ tet
ĠM ale
Ã¼n der
fÃ¼ ll
sen der
Ġso lle
Ñ Į
Ġexist ieren
Vers ion
ĠWelt meister
ĠVert rau
recht lich
Ġm essen
sch eiben
ĠBrÃ¼ ste
Ġf erner
Ġfr Ã¶h
heira tet
ĠHel den
Ġun ber
ĠRÃ¤ umen
Ġaus gesetzt
ag ert
brigen s
Un iversitÃ¤t
ĠSpiel tag
Ġger ufen
ĠKÃ¼ ste
ĠOl d
Ġ17 8
Ġ* **
Ġander n
ĠJak ob
ĠAus Ã¼bung
ĠT uch
izi sten
enn er
gefÃ¼ gt
ste ck
ĠSch e
ager ung
ĠDeck el
b al
ĠFl aschen
ĠAn ges
ĠSp Ã¤ter
br em
ĠUl rich
ĠGef Ã¤hr
ĠMount ain
ĠHum or
ĠBab ys
Ġg eilen
ĠBuch es
eich e
ĠK issen
verl etzung
ĠB ull
n Ã¤chst
ĠL angen
Ġh ilfe
Ġspont an
Ġges unden
deut schland
Ġrecht lichen
is burg
Ġver halten
Ġmer kt
ber eitet
z burg
wie s
il i
ĠE ffizienz
ĠFrÃ¼ her
end em
Ġ7 1
ĠBe fest
4 4
Ġun end
ĠAuft akt
ĠL Ã¤cheln
grenz ung
ĠhÃ¶r te
Ġren ov
ĠWei b
ĠRat geber
ĠMag net
hem en
Ġkre ative
m ung
ĠDi am
Ġt iefen
ĠNe hmen
Ġ13 5
ĠgrÃ¼ ne
bl og
Ġneu gier
sch we
ĠGast ronomie
ĠA spekt
Ġvor liegenden
Ġb lock
el and
ĠP assen
ĠPart nern
ĠSch ach
aust ausch
ĠH ut
kt op
zent ren
ber leben
Ġ ~
arbeit ungs
Ġgem essen
mÃ¤ÃŁ ige
Ġex akt
eigen t
in iti
ĠIntern ationale
ĠL okal
ĠBeruf ung
ĠHel mut
ĠwÃ¼n scht
ash ion
Ġverz ichtet
7 5
Ġiden tifiz
Ġdes cription
l eiten
Ġver eint
z elt
ĠH eiÃŁ
ĠN ight
bew usstsein
Ġchar akter
Ġunkompl iziert
Ġve gan
ĠDirekt or
Ġein drucks
Ġgel angt
low job
ĠVer mittlung
ĠGe stern
wechs lung
ungs be
C h
Ã¤ss igkeit
geord nete
Ġzu zu
r el
Ġunterschiedlich sten
ĠNa ja
ĠB ienen
all y
ĠOr igin
ĠGra b
eite te
ĠKonzentr ation
Ã¤l tigen
Ġ197 0
k rit
ĠDom ain
Ġs au
ĠPoten z
sch ritte
ri pt
eid igen
st unde
ĠEr sten
aus stellung
ĠDar lehen
Ġbill ig
ĠC reme
Ġ% )
ĠEin fl
ran s
ĠAb stimmung
Ġent nehmen
aus wahl
ĠNational park
Ġendg Ã¼ltig
ial is
ĠInter pret
ĠSchokol ade
ast et
gel Ã¤nde
Ġattra ktive
f as
ĠKat alog
Ġelektron ische
ĠTher m
Ġk an
alt h
ĠBuch ung
ĠC E
Ġhinter her
ĠSch all
ĠAuf klÃ¤rung
p rakti
Ġgest iegen
Ġh el
ĠHighlight s
Ġst arb
ĠA kten
stud ium
ĠJ Ã¼n
Ġwo lle
Ġan halten
alis ierten
er te
ĠVor schlÃ¤ge
ĠBibl i
lie ger
Ġauf t
ĠSzen en
Ġauf weisen
Ġbehaup tet
ies sen
ĠS MS
Ġamerikan ische
M A
st reifen
Ġlok ale
famil ie
Ġfrem den
Ġwieder holt
Ġber Ã¼hrt
ĠP V
ĠZ erst
an y
ĠM ent
Ġstet ig
Ġpersonenbezogen e
mit ten
ĠBe griffe
pp y
mann s
ĠTra ck
z essen
Ġsp rich
ĠAuf bew
Ġb lieben
rat zen
Ġar g
ha llen
ĠElekt ronik
br Ã¼cke
Ġein gel
ĠJÃ¶r g
n iveau
ĠNe ur
Ġbrauch st
Ã¤n glich
Ġkompl etten
ĠZin sen
kr atz
ĠBewer ber
Ġzu fÃ¤llig
ĠJ Ã¤ger
fol ie
Ġh arten
ĠHand buch
ur i
Ġtradition ell
ĠS i
e y
ĠÂ» .
Ġgeeig nete
ĠK etten
scha den
em a
ĠMal er
ĠTats Ã¤chlich
ĠNe um
ie b
Ġpar allel
S eite
n ab
ĠWurz eln
ver mÃ¶gen
ĠPrÃ¼f ungs
p ause
Ġeigen tliche
b Ã¶rse
ĠJul ia
rÃ¼ m
Ġan onym
Ġlangweil ig
unn el
Ġk ulin
er er
ut schen
Ġpro bieren
Ã¤u schen
ĠNov oline
Ġkombin ieren
ĠBÃ¼ chern
ĠEing abe
Ġen ge
verb indung
Ġt our
F unktion
ĠfranzÃ¶s ische
ĠGemein der
ĠOrd ner
ĠChar me
mÃ¼ hle
ĠK aum
ĠDar um
Ġakzepti eren
ĠSt ore
Ġirgendwel che
aul t
ĠfrÃ¼ he
ĠR itter
ang aben
an ch
Ġbrit ischen
Ġverschw unden
Ġan ger
ĠKons um
ind ungs
Ġauf w
rin t
Ġganz heit
ĠAus wertung
ĠAn im
Ġp osition
ĠE L
ĠE hem
Ã¤ hnen
r iss
Ġverste he
in gend
ĠWie sen
Ġtran spar
ĠSie d
ĠTechn ische
Ġbe eintrÃ¤ch
ĠVerein igten
ch at
Ġges orgt
b und
c ing
ĠJack e
G es
k et
ĠNot fall
ĠSal at
ĠPfarr er
ĠEin haltung
de ll
I F
ĠP rei
ĠDe v
vert eidig
ich ern
e e
ĠKomp lex
her m
Ġaufge hoben
ĠCook ie
ĠMit be
g ab
iele feld
6 5
ĠR am
Ġzahl t
mode lle
Ġs ympath
gl anz
ĠZiel gruppe
Ġsorg te
ĠKa is
Ñ ı
ĠEisen bahn
d lichen
ĠVert riebs
Ġfar ben
ĠWh ite
I K
Ġverlei ht
Ġs onder
ĠPfl anze
Ġ stellten
ĠReg ie
sp itze
Ġgen ial
iz ierung
ĠFÃ¼hr ungs
Ã¤t te
ĠZ ir
Ġstehen den
ag ern
ĠIntern ationalen
ĠPro mo
ic an
Ġecht es
ĠÃ¼ber lassen
D es
s ive
ĠF R
ĠursprÃ¼n glichen
ĠGew issen
Ã¤t sel
Ġabsch lieÃŁen
Ġexter nen
Ġum setzen
wechs elt
ĠVerpflicht ung
Ġeinge gangen
Ġzu stande
st ik
ĠT ut
dig er
ĠM u
Ġerfahren en
qu ote
Ġauf geb
Ġuns icher
le chter
ĠTranspar enz
st ufen
ak u
veranstalt ung
Ã¼nkt lich
ate ll
Ġbegeg nen
ĠDefin ition
Ġintens ive
ĠvielfÃ¤l tig
Ġvor geschrieben
zie llen
ĠBest Ã¤tigung
ĠU R
ĠGeb Ã¤u
Ġentspann en
ĠS ig
ĠInvest oren
Ġn Ã¼tz
as y
ĠSch icht
ien e
ĠL ay
ĠI D
ĠGesch irr
geb ieten
Ġange wiesen
Ġgekenn zeichnet
Ġvorbe halten
ĠL ande
Ġe w
ĠAb schied
Ġ198 8
ĠG rÃ¤
Ġw ind
ĠHe ad
ĠPok er
as on
sp uren
ĠEr ziehung
funktion en
Ġzu kunft
a ft
ĠK ochen
s icherung
U p
lau ch
ĠGen ieÃŁen
Ġnach ts
ĠZ ellen
ĠM isch
Ġauf wend
ĠPrie ster
ĠPro test
ĠSport ler
ĠVers orgungs
ĠOrien tierung
ĠSt Ã¶
ĠGalax y
tag on
int age
w jet
ĠGesch w
ĠN ationen
cklen burg
Ġk Ã¼ndig
Ġbele gen
Ġun besch
ĠU fer
Ġvor kommen
Ġer mitteln
4 1
Ġangeboten en
ĠZwei ten
Ġz we
Ġge zwungen
ĠÃ¶ st
id o
Ġstarte te
ĠBra unsch
se ller
Ġzu greifen
Ġrest lichen
co in
Ġexklus iv
Ġkl Ã¤ren
ĠLa une
veranstalt ungen
ĠkrÃ¤f tig
ĠW Ã¤nde
ĠGe ht
Ġruss ische
Ber eich
eto oth
ĠSt eiger
Ġw itz
ĠSpe ed
ĠF inn
ĠÃ¶ konom
Ġbei der
ĠKompeten zen
ĠV el
Ġgelten den
Ġf ind
Ġg aben
ĠKno pf
end el
ĠSp a
Ġham burg
Ġgew Ã¤hrt
ĠBet riebe
Ġvor der
Ã¶ff el
fle kti
ĠregelmÃ¤ÃŁ ige
Ã¤ ure
ĠHor st
Ġk raft
ĠregelmÃ¤ÃŁ igen
ĠlÃ¤nger en
schnit ts
rum pf
ĠKredit karte
Ġi OS
Ġmod ische
Ġsa hen
Ġgl as
ing ern
P D
ĠKo hl
hard t
k ost
Ġverschw inden
Ġer leb
ĠRicht linie
ĠSon y
Ġstatt dessen
ĠdÃ¼r ften
Ġges perrt
g ungen
ĠfÃ¼ hle
ĠBeam ten
on om
Ġl eitet
ĠDenk mal
ĠGÃ¼ ter
ĠIn solvenz
ĠAnge hÃ¶rigen
ĠWir bel
Ġk ommer
ĠProvin z
wir ksam
k asse
ĠFlor ian
Ġbemer kt
ds m
ĠE mm
Ġs ymbol
ĠBo hr
ĠAndre a
ĠKon zepte
ĠhÃ¤ufig sten
Ġgebe ten
Ġzuk Ã¼nftig
ĠSach ver
tig ungen
Ġtrain ieren
ĠImmobil ie
re al
Ġein t
Ġvoll stÃ¤ndige
ĠSti ll
ĠBrÃ¼ der
ĠKat hol
ĠPl atte
Hol stein
ĠFeatur es
Ġan nehmen
ĠTur m
r er
ĠKo hle
ĠK ampagne
it ch
r atze
ĠAc count
ĠRu br
sche f
ĠW eine
9 9
ĠP ant
ch ron
us se
ĠTele kom
ĠMod el
ĠS W
ĠBe ck
ĠWar enk
ĠAG B
ĠNa gel
ĠBenz in
Ġinvest iert
gew al
ĠFak ult
k abel
ĠB auer
ĠC up
ter en
ĠRe h
ĠCh in
pl Ã¤tzen
Ã¼t t
ĠS Ã¶
eiger t
ĠAlltag s
ĠE ll
Ġein wand
ĠUN D
ĠB d
ĠSt ufen
Ġheraus ragen
ĠF oren
Ġ( *
ĠK urt
Sh irt
Ġz Ã¼
ĠD N
ĠMuse ums
arr iere
ĠS eil
ĠEben en
ĠBuchsta ben
c ts
ĠBe zahlung
ĠKommun en
Ġver sen
ĠenttÃ¤u scht
ĠLie ge
la de
Ġ tem
zuf inden
ĠF ro
ĠIm age
Ġarb eit
ĠMeld ung
ĠN ah
ĠKontakt daten
ĠM Ã¼tter
Ġf einen
kÃ¼ ste
Ġauf bauen
g han
umm e
Ġbe z
Ġanfang s
Ġm ulti
ĠVol umen
om an
san ierung
Ġgeeig neten
Ġverl or
ĠGl Ã¤ub
bes uch
Ġber eitet
Ġge bildet
d irekt
Ġbe hÃ¤lt
ĠHe ck
ĠDeb atte
Ġx xx
Ġschw ach
ĠOst see
gew and
ĠNutz ern
ĠLi fe
Ġjem als
glie d
ĠN ick
ĠDa von
berw achung
ĠLaut sprecher
m ont
ab rik
Ġbachelor arbeit
ĠJ ud
ĠKan ada
Ġb ast
zei tigen
ĠNotwend igkeit
ĠÃ¼ber mittelt
verb ot
c er
ĠM ang
ĠTyp en
ĠRein igungs
ĠMon itor
Ġsicher zustellen
ye ster
ĠSti ck
ĠStÃ¤r ken
Ġmer ken
ĠKonsequ enzen
Ġs ur
Ġe vangel
ĠUm bau
Ġunter halb
St ud
ĠM w
ĠVerbr eitung
ĠA K
Ġausger ichtet
Ġi slam
tisch es
it ute
Ã¤ be
leg ungen
spr achen
W elt
ĠE C
ĠBehÃ¶r de
D I
Ġun ent
aut y
Ġbem Ã¼ht
Ġste uern
klÃ¤r ungen
ĠHo he
Ñ ĭ
re chn
Ġgleicher maÃŁen
ĠNeben wirkungen
Ġer ober
d ner
spro zesse
K reis
Ġen ger
ĠStad ion
inter est
ĠAnaly tics
Ġange meldet
ch ar
ĠmÃ¼s st
ĠEt wa
ĠSym bole
Ġver raten
Ġeinz ig
Ġbestehen d
Ġw ien
y wood
f ord
Ã¤n gern
al em
Ġun gew
Ġ(âĢ¦ )
iz it
ĠDam als
ĠBehinder ung
Ġ= "
n Ã¼tz
ĠMein ungen
Ġsch reck
ĠWiderruf s
ĠKinder zimmer
Ġbe grÃ¼ndet
Ġc omm
ĠD icke
st Ã¼r
Ġl Ã¶st
ĠS AP
Ġ( =
ĠT ast
ĠP ull
ĠSpeicher ung
ot a
hem ale
fahr zeuge
Ġwichtig es
ĠEs cort
ĠFunktion s
ĠSch riften
W e
ut ten
ĠÃ¼ ben
Ġnachfolgen den
l ar
ic en
ĠAs ien
ĠMÃ¤d els
Ġgepl ante
per ten
ver n
akt oren
ĠM E
Ġbun ten
ĠM essen
z iert
sent wicklung
ĠSem ester
Ġwest lichen
Ġres ul
fle chte
Ġexper im
Ġschl immer
irur gie
An geb
4 2
ĠL etzt
ĠSt ate
Ġstell vertreten
ĠDarm stadt
c or
ĠKam in
gÃ¤ ste
Ġk ulturellen
ĠProf is
Ġt rug
ĠG a
ĠLe ber
ĠStud ierende
freund lich
ĠGrund schule
ĠEnt decken
ber gang
s eln
ĠB ol
Ġtyp ische
ein igung
Ġt re
Ġho hes
sprech ung
p ut
Mail s
ĠBere chnung
Ġbesch leun
Ġbe zahl
Ġkosten g
ĠE T
ĠEm p
mb and
ent scheidung
Â §
ĠBesch eid
schlÃ¤ gen
Ġaufge fallen
ĠAn bau
ĠMet rop
ĠEigent ums
ĠMon ster
ĠSt eine
ĠDo ktor
hoch schule
ĠSp eise
n ommen
ĠFle cken
acht ungen
ĠWett kampf
ĠInteressen ten
ier st
ge gangen
Ġabge legt
Ġfreiwill ig
ĠÃ¤hn lichen
ĠB akterien
ĠHung er
re geln
u a
Ġr Ã¤um
ĠWar m
Ġganz es
ann y
Ġange t
ĠJe an
verkehr s
Ġkonzentr iert
Ġf f
ĠGef Ã¤ngnis
g asse
ĠÃ¤r zt
f ein
Ġgel d
Ġa rab
ĠE st
Ã¶s ungen
ĠInner halb
ge legt
Ġs aÃŁ
k reuz
grund lage
Ġfil m
L and
ĠJo achim
schlieÃŁ t
land es
ĠImpress um
Ġd rÃ¤n
d ischen
ĠD B
Ġk alten
ĠMann es
Ġle bend
ĠFlÃ¼ss igkeit
Ġso viel
Ġb Ã¶se
rei de
ab y
ĠGeschÃ¤fts bedingungen
Ġwar me
Ġbe auft
on de
Ġdro ht
ĠErn Ã¤hrungs
z ungs
ĠThÃ¼r ingen
Ġausge fallen
Ġgel b
l Ã¤sst
ĠWe ber
ĠA x
Ġv o
fr ischen
lehr er
ĠSicher ung
Ġber eiten
ĠGut achten
ĠBe stehen
H R
ĠPoten zial
ĠEmo tionen
Ġvert rauen
Ġn ational
Ġde cken
ĠJur y
ĠDem onstr
M ode
Ġerf Ã¤hrt
Ġthe oret
Ã¤tz chen
Ġgl att
ĠRo ulette
Ġan lÃ¤sslich
as sten
ĠDist anz
Ġre alisiert
Ġr uft
ĠTo uch
Ġunter halt
ĠW ob
ĠTran sa
ĠDon au
ĠSchm utz
S cript
Ġher an
inst itut
ĠWas h
ĠL Ã¤rm
ĠAn ne
ĠA U
recht liche
ĠGew ichts
id as
uver Ã¤n
ĠVer schieden
ĠDi Ã¤t
ĠGes ell
Ġarbei te
Ġq m
Ġm Ã¼nd
il en
son st
ĠVen en
ĠNÃ¤ch te
ĠChamp ions
ĠÂ« .
ĠSie ben
de burg
ĠKlein anzeigen
enk ung
Ġall tÃ¤
Ġein laden
ĠGr Ã¼nd
ĠH alter
ĠBewerb ungs
Ġver wei
Ã¤ud es
Ġt ausend
amt es
ĠY o
ĠGrÃ¼ ne
Ġre alisieren
ĠEin nahme
Ġbe enden
ĠMode llen
ĠAccess oires
ĠWerk zeuge
Ġstud ierte
ĠG lie
Ã¼ ter
ĠVer handlungen
ĠAn passung
ĠT eller
ĠSe en
ver se
ĠVert rÃ¤ge
Ġkonsequ ent
ck el
Ġnun mehr
Ġw eichen
ĠW i
ĠL ar
ĠWÃ¼r mer
lo hn
ĠPri or
ĠAus rÃ¼stung
ĠBer gen
arb eits
ĠDekor ation
Ġbe dient
Ġbet reibt
ĠReiÃŁ verschluss
flÃ¼ gel
ĠBlu etooth
Ġgen ossen
ĠTex ten
ĠZen ti
Ġor igin
str asse
ĠGottes dienst
ĠQuart al
ĠInse kten
ath on
Ġzusammen gef
ind el
ĠS ir
ckt ail
is ation
ge kommen
ĠBereit stellung
ĠMitglied schaft
auf e
ĠR A
othe ke
Ġverst orben
Ġ8 1
ĠF ull
D ollar
k Ã¶n
ein gang
Ġkeines wegs
Ġan scheinend
ĠGe ben
lie hen
ĠauÃŁer orden
Ġp at
Ġaktu alisiert
ĠSte m
ĠDienst leister
Ġkap utt
Ġb rÃ¼
ber ge
In st
ĠD ER
em pfe
Ġerle digen
ĠW Ã¤re
om b
ĠErschein ungs
Ġein gebaut
r ise
v arian
och te
ĠTeu fel
M od
ĠGesch ehen
ĠEnt sch
ĠC ann
ĠUnivers ity
gas mus
men gen
Ġregion ale
H S
w ettbe
ĠFort schritt
rÃ¼ck e
sp unkte
ĠSchuppen flechte
Ġin ten
ĠInform atik
il and
ĠGeb raucht
Ġstren g
ant es
ĠWander ung
Ġnied rigen
ĠK ommt
ĠEr leben
w etten
ĠT auch
ĠjÃ¼ng sten
E nt
ĠOr chester
ĠK ids
ĠZahl reiche
ĠGlauben s
ĠBern hard
ĠerÃ¶ff nen
Ġd icken
ĠUnterricht s
ore a
ĠSk and
ĠS amen
ĠGr as
n y
be dien
v es
ar ien
Ġbin nen
ĠKon figur
Ã¤ss igen
sam t
ĠH eu
ĠBau en
ĠÃ¼ber nahm
mel de
uell er
att ung
ĠR ap
ĠbÃ¼r ger
tag es
ĠSt Ã¶rungen
ĠSie he
ry pt
ĠL ow
o ÃŁ
ĠPreis vergleich
sch rau
ĠverfÃ¼g baren
u i
Ġdurch zufÃ¼hren
ĠWor k
ĠEinschrÃ¤n kung
Ġausge legt
ĠP ier
ĠF ord
zentr ale
Ġwahr genommen
oll t
Pro du
Ġk unden
ĠT OP
Ġentscheiden de
ĠEr holung
ĠBÃ¤ cker
ĠRe ferenz
ber prÃ¼fung
Ġerhe ben
N E
ĠS he
k in
ĠBel gien
Ġet liche
produ kt
ifor n
ĠAdr essen
ĠN O
Ġauf gew
A ut
ame ter
Ġwo hin
ĠFel ix
ĠÃ¤u ÃŁ
Ã¤ umen
ĠVerteidig ung
Ġwir ft
Ġverbunden en
ĠBl itz
at o
ogra mm
Ã¤r te
Ġbreit es
ĠBarbar a
6 6
ĠCor por
Ġgel aufen
Ġen gen
ĠLin ux
Ġverurs achen
g Ã¤rten
ĠVor sicht
Ġbet onte
Ġg ast
ĠS og
Ġverste ckt
ĠR od
Ġflex ibl
Ġinnov ativen
Ġkrit isch
ime ter
Ġengag iert
ĠQualif ikation
ĠVer hÃ¤ltnisse
ĠMus keln
ĠGra z
j i
w el
ĠKonzer te
Ġs ag
Ġl ack
F or
ĠV aters
ĠO ffiz
ĠPots dam
Ġinter pret
ĠPol yester
Ġgem eldet
unter lagen
Ã¤ss ige
ĠBro sch
Ġl Ã¤nd
Ġum zusetzen
ĠS M
ĠGeist es
Ġl ese
Ġstattf indet
Ġ9 3
rot t
ĠD Ã¼n
Ġg Ã¼ltig
gere gt
ĠStaatsanwalt schaft
ro ller
Ġso zusagen
Ġsing leb
ĠAll i
Ã¶s ung
ĠGed uld
ĠAbt eil
Ġglob alen
w Ã¤nde
Ġschwei z
Ġs ingen
Ġhaus arbeit
ĠDes ktop
Ġakzepti ert
Ġhier mit
Ġdem nÃ¤chst
ĠTax i
p aket
schl oss
omm ission
Ġmittler en
w ider
ĠErne uer
Ġwer det
ist anz
fach en
ĠgenÃ¼ gt
ĠTro ck
m ord
ĠAn mer
ĠFr is
ĠPrÃ¤ vention
ĠGegen Ã¼ber
ĠKon gress
ĠDat a
ĠVer schlagwortet
Ġte urer
ĠCo unt
ĠDienst leistung
ĠNe bel
Ġteil t
yl on
gien e
ĠP rÃ¼
Ġrelev anten
ĠFlÃ¼ gel
ĠMerk ur
ĠUm stÃ¤nde
ĠInstrum ente
Ã¤ ge
ĠLiefer umfang
fÃ¤h igen
re ht
Ġ10 8
ĠSe gel
ĠWohn raum
reff end
v ie
grÃ¶ ÃŁen
ĠWag ner
Ġverz wei
Ġvon einander
st age
ĠMar io
vide o
ĠReich weite
ur ity
ĠMan fred
ĠL E
Ġbei des
kont o
ĠK ard
ĠE hre
ĠAb wicklung
Ġber uht
ĠSt ars
k os
Ġt iefe
ar io
ĠAb sicht
glie der
kt oren
Ġver schaffen
ĠIn t
ĠnÃ¶ tigen
ĠDÃ¤n emark
ĠRuck sack
Ġent schied
Ġstand ard
ĠAb wechslung
Ġmonat lich
m i
Ġbe dingt
ĠBlog s
e ter
Ġp raxis
ok er
7 7
k uchen
Ġwes entliche
Ã¤rt ner
Ġauf gerufen
ĠB Ã¶rsen
che f
Ġfrei er
Ġfer tigen
ĠErsatz teile
vol umen
ver zeichnis
ĠArbeits markt
I ER
Ġporn os
6 4
bel ast
b rid
Ser ie
Ġhin auf
ĠLux em
Ġent schlossen
ĠKult uren
ĠSch rauben
Ġan fallen
ĠgemÃ¼t lichen
spro blem
Ġzwei ter
deut sche
Ġor gan
ĠSor ten
ĠR ies
Ġpl ant
ĠMittag essen
ĠAn stieg
lei ste
ĠverÃ¶ffentlich te
Ġd oppel
anz er
ĠkÃ¶rper liche
Ġveranst altet
ĠShop s
d ia
ĠBesonder heiten
ĠfÃ¼hr ten
ĠÃ¼ber aus
ĠVor bereit
ĠBG H
Ã¤ her
kÃ¼ che
ĠChr on
ĠAus zeichnung
Ġder art
Ġkontinuier lich
ĠSper ma
ber ein
ĠArznei mittel
Ġaus gebaut
Ġp rim
a frika
Ġt rennen
Ġtoll er
Ġempfehlen swert
Ġl agen
Ġhin zufÃ¼gen
sch ild
ian a
ĠGer echtigkeit
la mm
ĠKlima anlage
ĠN ull
ĠSchw ein
Ġ, ,
ĠB eu
ungs mÃ¶glichkeiten
a ktive
ĠZum indest
Ġheim ischen
ĠNote book
zwe ck
ar ia
ĠVerb rechen
ĠTool s
Ġkontroll ieren
ĠPhys ik
Ġintegr ieren
Ġfe hl
ĠEn sem
Ã¤ ppchen
be finden
o ster
Ġte xt
ĠBay er
A uf
et h
ĠB E
ur ce
ĠP ussy
ĠMo tive
ĠerhÃ¶ hte
ĠBlut druck
ĠEp is
ter ungen
Ġgest orben
ĠLand schafts
ĠMerk male
ĠHo sen
ĠHar ry
b rief
ĠLat ein
gyp ten
ei gung
Ġp lay
Ġdro hen
o den
v ater
ĠD et
Ġst raf
ĠEinzel fall
Ġzentr al
Ġpl an
ĠKos metik
le hre
Ġm eldet
ober flÃ¤che
pol ster
ri x
A d
A U
sen s
ĠE D
ĠW eit
at hl
ĠFern er
last ung
ĠWei ss
Ġumfassen d
F l
ĠPro gno
Ġverlie bt
ĠCro ss
g eist
Ġt ag
ĠPress emit
ir che
Ġberech nen
T EN
ĠEin nahmen
Ġliegen den
sk ont
ĠBrem er
Ġan zusehen
n s
ĠEl is
Ã¶rt lichen
Ġgro b
ĠWob ei
ĠInner en
ĠCy ber
ĠL ampen
Ġsp ir
ĠSchie ds
ĠG elt
i que
ĠL KW
ĠKontakt formular
w ochen
Ġem p
ĠZ eilen
gra ben
Ġausgest atte
co ver
s Ã¤tz
Ġzw ingend
ĠR ass
Ġblau en
Ġschl ug
Ġder selben
Ġ] ,
ĠSch aum
ĠIn dex
Ġ15 5
Ð ´
u alisierung
rat es
ĠGest alten
Ġge bur
ĠAuff assung
b isch
ĠPol izisten
Ġl ass
Ġmar kt
ĠB ond
ĠB ag
Ġmass age
qu id
Ġanzu bieten
ĠSpezial isten
stud io
ig h
Ġp Ã¤dagog
ĠW Ã¤hler
ĠDu isburg
ĠEr hebung
er ne
be zir
o ffen
ĠSe kunde
ĠVÃ¶ gel
Ġf assen
bÃ¼rger meister
it tag
emin ar
ĠE cken
Ġorganis ator
wie gen
Ġsex kontakte
ĠB ald
st in
G esch
ĠSch ade
p end
ber setz
Ġbed ro
ĠRe aktionen
r ichtig
ĠGew Ã¤sser
f aktor
sa al
Ġvers orgen
Ġtraur ig
her ren
ĠC C
Ã¤ ften
Ġher stellen
ĠO L
ungs los
ei he
ĠBes ondere
we llen
s hop
Ġzu ges
ĠÂ ĸ
eil er
ĠRa iner
ĠK reu
ĠK ette
Ġbo ok
= =
O r
ĠV ul
ĠA V
Ġbedeuten d
Ġk ost
Ġerstaun lich
Ġ? )
Ġje gliche
l Ã¤ufer
ĠLe cker
ĠFerien wohnungen
Ġruh iger
ĠSt ationen
ĠKlass ische
Ġkann te
ul Ã¤re
Ġ196 0
Ġverur teilt
ĠgefÃ¼ hlt
Ã¤ chen
P U
ar isch
ĠNie mand
Ġgen ehm
O B
ĠI den
m orgen
Ġro sa
Ġp r
rÃ¼ hren
ĠEr sch
ĠverlÃ¤nger t
Ġin f
ei de
ik es
itu ationen
ĠMein ungs
Ġges onder
Ġkonzip iert
pro be
gel te
ĠU we
k g
Ġexter ne
Ġon e
ĠMe cklenburg
ĠFolgen den
ĠHy per
Ġeurop a
ĠO R
he orie
Ġbundes weit
ĠCoach ing
Ġre par
ĠFried hof
er o
Ġf Ã¤ngt
ĠAusgang spunkt
O G
Ġge folgt
ĠVerfahren s
ĠApp ar
ĠKÃ¼ sten
Ġwie so
br aten
ĠDr achen
ĠSp rÃ¼
Ġd or
ĠJose ph
Ġe ffizient
we en
on ne
ĠAnge la
be ziehung
ĠPro te
Ġget Ã¶tet
ĠFakt or
Ġgere chnet
ĠDel uxe
stud ien
Ġan bie
ĠStra ft
ĠHin dern
Ġgest attet
ĠS urf
ĠC oll
Ġf uhren
ĠGel b
Ġkomp at
ĠAus ser
ausch al
ĠRecher che
ĠEin zahlung
Ġgelegen tlich
ĠIngen ieur
ĠBr uch
ĠB eute
ĠH S
Ġst unden
ĠV irt
br ett
ĠBrÃ¼ ssel
Ġpoten t
ĠF Ã¤hr
ĠMel od
em an
Ġe wig
fer tigung
ar if
Ġtro ck
ĠEinsch Ã¤tzung
ĠMe hl
Ã¼ ster
ĠSpazier gang
k redit
Ġg u
ĠRo ten
ĠSe elen
ĠD aneben
ĠAb fall
ĠA rab
s al
Ġsch enken
ĠFavor iten
ĠIntelligen z
ab or
ĠA llen
ĠL y
ĠberÃ¼hm te
ĠV R
ĠR ande
Ã¶ pfe
ĠMw St
ĠFil men
Ġbewer ben
sk raft
Ġres erv
Ð ²
sch wei
ĠSchul jahr
Ġgew alt
ĠLÃ¶ wen
Ġhinge wiesen
C l
ĠB ielefeld
ĠC ho
Ġmusikal ische
st Ã¶rungen
olog ischer
ĠAb hÃ¤ng
Ġ... "
ĠBu ff
ĠMar ien
an sprÃ¼che
ĠSpan isch
ch ancen
sch Ã¤tzung
Te chn
ĠSch ad
ĠTrÃ¤ nen
ĠEin heiten
un fall
fl Ã¤ch
Ġ, .
ann a
Ġauf bew
7 6
ĠAb itur
ĠPol iz
ĠSch auen
ĠverÃ¶ffentlich ten
ĠAktiv itÃ¤t
ĠT ragen
Ġdem onstr
o ire
Ġentwick elten
ĠPass ag
ĠzukÃ¼nf tige
Ġ14 5
we ckt
ĠP KW
ĠZu verl
Ġ300 0
ĠPhÃ¤n omen
ĠGru ÃŁ
re e
Ġzul Ã¤ssig
ĠWarenk orb
ĠV ie
Ġrezept frei
f ell
ĠAus zahlung
ĠÃ¼ber setzt
ge fahr
Ġwe h
ĠM ater
ĠunzÃ¤hl ige
ĠW E
hem a
pp t
Ã¤r chen
be arbeitung
Ġaktiv ieren
Ġl ande
eigen en
wand el
Ġbeteil igten
Ġver trag
gesp ielt
ĠW andern
Ġdies be
ho use
Ġgere gelt
b Ã¤ume
ĠAnder en
la ster
D aten
metho de
ĠDaten verarbeitung
ĠProf it
ĠBedÃ¼rf nissen
ĠFel der
ĠStatt dessen
ĠGe webe
Ġw a
omm ern
Ġf leiÃŁ
r ischen
Ġ16 5
le hnung
ir gend
ĠAn k
Ġ( !
Ġgesch ichten
ĠWohl befinden
ĠmuÃŁ te
lei hen
ĠK ell
Ġw omit
Ġstark er
ĠKer zen
ĠN az
arm onie
ĠSpe zi
ĠF ashion
ĠN ike
Ġberuf liche
et he
ad bach
br onn
ĠHel m
ĠVer zeichnis
ĠGemein schafts
Ġsp Ã¤ten
Ġt itten
oler anz
ĠGlob al
Ġ' '
Ġerh ielten
ĠG ur
ĠSp Ã¤t
Ġf ir
Ġvorhanden e
id es
arbeite te
ĠSchn Ã¼r
Ġfol gten
g reif
stag s
Ġkomfort abel
stÃ¼ck en
Ġtyp isch
Ġin t
ĠPat rick
ĠAnfang s
Ã¤ ht
Ġregistr ieren
Ġfl ach
Ġmit nehmen
material ien
Ã¤r zte
utz ten
B et
ĠkÃ¼r ze
d in
Ġbie te
Ġkir ch
P A
Ġ9 1
spro du
se y
ĠWel ten
Ġ ue
ĠMos kau
Ġschw anger
grÃ¼n dete
ĠkÃ¼ hl
ĠPro tagon
fÃ¼ gen
ĠDrei er
ĠS L
ĠJes u
Ġf lieÃŁen
ĠT H
Ġfa ir
p oten
ĠS org
Ġs etzten
ĠRegen sburg
sb ruck
Ġ. ;
ĠVi ze
ĠA z
Ġdi pl
ĠWir ksam
Ġbeteil igen
an schluss
Ġp fle
ĠFa ir
ĠApothe ke
end ungen
Ġer teilt
Ġgr and
ĠRahmen bedingungen
Ġger Ã¤um
ĠHo use
ĠJahrzehn te
Ġm ater
p raxis
sa ison
ĠFer tigung
Ġne w
Ġ! Â«
Ġattra ktiven
ĠG PS
ĠHoch schulen
Ã¤chs ischen
ĠI sol
ĠRos a
ĠC R
ve ster
ĠFÃ¼ ÃŁen
Ġd unkle
ĠHeil ung
ĠI G
ĠVers uche
ĠAl arm
antas ie
ĠAntrag s
ĠMig ration
Ġger Ã¤t
ĠMeister schaft
ĠL Ã¶cher
wer tige
ĠBundes wehr
ĠRud olf
b lich
mungs aktiv
Ġinnen architektur
ben de
ĠMar co
ĠMuse en
ĠB lo
ĠPrem iere
Ġunters uchen
ll o
Ġinten siver
Ġkommen de
Ġherr lich
ĠW ach
kur se
Ġkre ativ
ĠprÃ¤z ise
Ġum sonst
Ġbeein druck
ĠbegrÃ¼ ÃŁt
Ð ¼
ĠE g
ĠE qu
ĠT Ã¤
ĠSchwar zen
Ġag gress
Ġg riff
ĠChem nitz
ĠfrÃ¼her e
ĠS na
h art
ĠSuper markt
ĠBege gn
ĠFahr zeugen
ĠE va
p hen
ĠT rÃ¤ume
ĠLe er
iv als
p x
Ġdein es
Ġchines ischen
Ġhol te
Ġ10 9
unter such
hm t
Ġaus gie
Ġb a
Ġ( +
op tim
Pf alz
ĠAus lÃ¤nder
mark e
ĠBetroffen e
p g
ĠKu pfer
Ġl ock
ĠL abel
ĠL ib
ystem e
il y
ĠE u
ĠBr eit
n chen
ĠTeen ager
ĠS D
Ġkultur elle
Ġstaat lichen
ĠSÃ¼d t
Ġverlie hen
ri ffe
ĠE tik
in stall
i ffen
ph one
Ġh arte
un s
no ten
ĠErmitt lungen
B ook
Ġ ordnungs
ĠBe at
Ġeigen em
sch es
Ġwirtschaft lich
ĠN ud
ol or
ĠI B
Ġeingesch rÃ¤nkt
ĠGe orge
Ġ16 8
Ġm inder
ĠP ension
ĠBar cel
ĠR end
Ġ4 50
ĠBraunsch weig
ĠP ed
Ġge holt
Ġent s
ĠM eilen
ĠWes entlichen
men s
p il
Ġk Ã¶st
ĠArbeits zeit
ĠGe hen
ĠZuf riedenheit
ĠVer gnÃ¼gen
Ã¼ch tern
Ġvor gegeben
Ġgesch mack
ĠRÃ¤um lichkeiten
Ġunter einander
Ġverein baren
dre hen
Ġe urer
ur es
aÃŁ t
ĠGes p
ĠF as
ĠKanz lei
Ġb reiter
sch reiten
ĠKontakt aufnahme
ĠR on
ĠGed anke
st amm
Ġunter st
Ġneben bei
ĠAb weich
ben den
ĠpersÃ¶n licher
ĠGumm i
Ð ĵ
ĠS oph
ĠT iefen
ĠNacht eil
ĠFein d
Ġneg ativen
ĠMe yer
Ġruh igen
ĠhÃ¶ch stens
Ġbef and
ĠProstat a
br ingt
ĠMat ch
ĠH orm
ĠB S
U m
Ġant worten
ho sen
bo te
ĠKr isen
Ġ23 0
ich en
ythm us
Ġneu em
se kretÃ¤r
Ġausge glichen
ĠLÃ¶s ungs
Ġg Ã¤be
ĠM ake
ĠClass ic
Ġneg ative
ĠB uchen
ĠBeschÃ¤f tigten
Ġzum eist
Ġl achen
Ġtr end
Ġf ick
ĠRal f
Che f
fr ont
Ġd aneben
ĠG Ã¶
ĠFlÃ¼cht lings
Ġlin ke
ĠKont rast
ĠGer uch
ĠCharakter e
ĠWart ung
be gl
ĠFunktion alitÃ¤t
ĠÃ¤hn liches
ĠFo od
bereit schaft
or ia
Ġaufzu bauen
ĠSc ience
Ġrob ust
ise x
ĠFrieden s
Ġvor nehmen
ĠRe flex
Ġt reu
Ã¤nder ungen
ĠWash ington
ĠH ill
system s
ĠBundestag s
Ġangene hme
ĠAufenthalt s
ĠSch er
Ġw andern
ĠF ru
r ent
dr ing
Ġl as
ĠFinanz en
ĠD rag
F T
f uhr
ĠAnbie tern
Ġre flekti
le uchte
ĠVer fassung
Ġge leistet
fer tigen
zÃ¼ gen
ĠJava Script
ĠM id
ĠDu sch
ĠKno bl
ĠFahr en
Ġ22 0
ome tern
b etten
ĠMar ie
gr unde
ĠKer amik
Ġweiter entwick
ul dig
Ġw ach
ĠPf lichten
Ġg rad
sch Ã¼ler
be wertung
Ġille g
Ġrei bungs
f rÃ¼
ĠB ul
stitu tion
ĠGitar re
bo y
sch lei
Ġf un
ĠEr nte
Ġselbst stÃ¤ndig
Ġw ahl
ian o
ĠL eid
ĠW itz
ĠBr Ã¼cken
ĠM eist
Ġvor liegt
minister in
ĠMich el
arb urg
ĠB os
m otor
Ġlau ter
Ġange wendet
gesetz te
ĠL or
ri ffen
Ġbest Ã¤tig
6 8
ĠF S
ĠFl ag
pl o
Ã¤n ze
Ġvers and
ĠRei z
Ġen ergie
akte ur
le uchten
ĠK ri
sp olit
bo ot
ĠÃ¼ber legt
ĠBelie bt
ste cken
ĠAus richtung
ĠF etisch
im ent
ĠG aming
ĠBe auty
ĠZ ucht
ĠAngebot s
ĠNo ti
mÃ¶ gliche
Ġ ï¿½
ĠMr d
ĠPrÃ¤ m
ĠLie gen
abl etten
Ġauf zunehmen
ĠZ DF
ĠZusammen fassung
om a
ĠmÃ¼ de
ĠDa y
Ġdeutschsprach igen
Ġb al
ĠS auber
f aser
ĠWh ats
ĠP ad
Ġintern et
hand els
ĠS ven
ĠL uther
ĠSa f
Ġbrit ische
ed ition
mÃ¤ÃŁ igen
re de
ĠVe get
ĠFort setzung
Ġ tisch
ĠAus stellungen
Ġh ar
ĠFach bereich
Ġzu geschnitten
h Ã¼tte
lin k
ĠSol idar
JÃ¤hr igen
Ġb acken
Ġdort hin
s age
he ft
Ġviel fach
geb urt
erk rank
Ġf ing
Ġzwei er
o on
k issen
ĠB ang
ĠEr fahren
ĠGef angen
Ġdazu ge
ĠVor les
rech ung
ĠL isten
Ġentscheiden den
mb h
rÃ¼ ger
pum pe
ĠW uppert
Ġw em
h Ã¤
ĠL ove
mar ken
ĠVort rÃ¤ge
Ġh ome
ĠRubr ik
ĠB L
arch iv
ĠT enden
ĠEinblick e
Ġkrit isiert
ĠFranz isk
ĠSt rau
ĠSt irn
ĠV ict
Ġbetreffen den
ĠKon zeption
Ġgebur t
Ġex klusive
Ġver passt
ĠMaÃŁ nahme
ĠS R
ĠLebens jahr
Ġk auft
Ġspiel ten
Ġ11 8
hn lich
ĠAn lauf
pul se
Ġn ationale
ĠR i
ei fen
ĠGeb ieten
ungs zeit
ĠT R
ĠF aust
Ġschwier iger
V P
ster min
G H
fÃ¼ hlen
ig an
ak s
gent in
ic ation
bl enz
Ġgef angen
Ġschwier igen
c al
o cken
ĠR ichtige
u tern
ĠT irol
ar ium
Ġge gessen
ĠSex treffen
ĠSab ine
ĠVer st
Ġan geben
ĠEin zug
ha ven
Ġkon serv
âĢ ¢
Ġleben sl
so le
ĠA ward
ĠEle ct
ĠPf ad
Ġk ind
ĠGl Ã¤ser
Ġelektr ische
ei f
r us
Ġein her
Ġgo ogle
ĠBal ance
ul pt
all tag
Ã¤uf en
ĠEng ine
ĠW ende
ĠL it
leid et
ĠCl ubs
ĠL ass
un ft
ĠVorsitzen den
so hle
ES T
Ġangemessen e
Ġlang leb
V ide
ĠD C
ĠV ill
Ġbest anden
st uf
Ġha ftet
Ġbevorzu gt
Ġvoraus sichtlich
ĠEr werb
ĠR oland
Ġverw Ã¶hnen
Ġhol t
ĠLe x
Ġerf assen
ĠMag deburg
Ġp ra
glich keit
Ġsie hst
ĠR ente
ĠGlÃ¼cks spiel
ĠTa fel
ĠÃ¼ber s
ĠH R
ĠOs nab
Ġausgew Ã¤hlte
Ġauspro biert
atur e
Ġinter nen
ĠCha os
be stimmungen
Ġzweit es
ĠSch Ã¤
hin ter
ĠI hm
ir bt
Ġstud ieren
Ġeinzel ner
ok uss
d ose
Ġlange m
ĠH unden
op e
Ġ198 7
ĠM iete
ĠzukÃ¼nf tigen
n acht
P ort
our s
ĠAn kÃ¼ndig
Ġge lo
Ġgerade zu
p iel
ed a
ĠEr ster
on i
Ġan n
P C
Ġnachge wiesen
Ġ15 8
Ġeingeb unden
Ġer t
H er
Ġ08 00
Ġak adem
Ġbef reit
ĠEin leitung
P rÃ¤sident
ĠSch ool
ĠnÃ¶ tige
ĠK au
k y
Ġmusikal ischen
ens burg
Ġha ve
ĠMill imeter
Ġfrem d
reich ung
ĠFakult Ã¤t
ĠFlÃ¼ ge
ĠHa hn
ĠDi fferenz
Ġschrift liche
ĠTro pfen
ĠProt okoll
un z
Ġkomplex e
ĠH Ã¤ufig
Ġer for
Ġfamil i
ĠBe urteilung
ĠElis abeth
ĠKond itionen
ser fahrung
pro bieren
wahl en
gehen den
Ġst Ã¶r
sch Ã¶n
ĠDra ht
ĠCo cktail
ild o
ell es
Ġkonf ron
bes itz
ĠAus stellungs
ĠBÃ¼nd nis
Ġb rennen
ĠRÃ¼ck tritt
ĠH atte
7 1
Ġleiden schaft
ik as
Ġb itter
ĠHum an
ĠAb bildung
Ġh or
teil ten
Ġm achst
ĠgÃ¤ng igen
ĠMobil funk
Ġ198 4
ĠSchw eine
ĠTal ent
Ġm oral
Ġvorber eiten
ĠMitglieder versammlung
ĠEr lebnisse
Ã¼ch tig
iz z
aus weis
Ġver bracht
ĠBe denken
ĠBrem s
ein halb
ĠHand hab
Ġchrist lichen
ĠFot ografen
ĠAb b
ĠPlan ungs
Ġ198 6
ĠAmer ican
ĠHand lungen
c ia
Ġbun te
Ã¤nder ung
c reme
ĠVer schw
lie bt
ĠHoll ywood
Ġjen en
ĠHy d
Ġw eiten
ĠFuss ball
ĠKlÃ¤ger in
ot o
ĠSt ro
r ische
ĠOut fit
ĠG au
7 8
Ġweib liche
Ġbew ahren
F F
Ġr einen
wor tete
Ġgef ickt
ĠSemin are
ich e
ĠVerl Ã¤ngerung
ĠVit am
ĠInhalt sst
Ġerf reu
Ġange p
Ġneue ste
Ġdeut liche
ĠpersÃ¶n liches
ĠEffe kte
er kt
ĠGed Ã¤chtnis
ĠkÃ¼ mmert
ĠH irn
man ager
ĠUnivers itÃ¤ten
Ġerz ielte
Ġc le
Ġma ster
geb oren
ungsver hÃ¤ltnis
ĠInvest ment
Ġgenau en
Ġs hop
ĠTa sten
om o
Ġvoll stÃ¤ndigen
bet riebe
bl eiben
Ġgesch enkt
wer fer
ĠÐ ¿
Ġbet riebs
Ġumge kehrt
ĠE w
itÃ¤t s
ĠOpp osition
ĠFra ktion
ĠjÃ¼d ischen
ĠMass iv
Ġh Ã¼
ĠPrÃ¤ senz
eln d
ir gt
ĠO K
ĠSe hn
Ġhochwer tig
Ġberuh igen
Ġco uch
sk y
m Ã¤h
ĠSteiger ung
ĠfrÃ¼h zeitig
Ġbef reien
Ġst ol
ĠBe stellungen
Ġzusammengef asst
f abrik
Ġleben dig
ĠmaÃŁ geblich
ĠHerr schaft
pro jekte
k och
Ġein ladung
Ġbekannte sten
ĠAb gabe
or ca
ĠHa ken
Ġro bu
ĠEhe frau
Ġgr at
ad et
un ion
Ġ Ã¤st
Ġk lingen
ĠUR L
Ġ. ]
A V
ĠAd d
Ġab gerufen
Ġbeur teilen
Ã¤l de
Ġbes uchte
ĠInn sbruck
ĠF els
ĠSch am
ĠLebens dauer
ĠKnobl auch
Ġauf gel
ĠF asch
ĠC ra
ĠP osit
bl r
arb on
Ġf rank
ĠZwe cken
f elt
ĠgroÃŁ artige
K K
Ġsport lichen
ĠSt yle
stru kturen
ĠRe chten
ĠVermÃ¶gen s
zen te
ĠS we
ĠUhr zeit
ĠFa c
re chten
Ġl anden
Ġerfahren e
ĠM ie
ĠV ER
ĠR auchen
ĠBarcel ona
ĠLand haus
ĠEn tert
ĠWahl en
ĠZahn arzt
ĠBand s
a e
ĠD ick
ĠO p
ĠdÃ¼n n
ĠFir e
Ġaut o
Ġausge wogen
Ġabge lehnt
ĠRo stock
Ġaus gelÃ¶st
pu ls
F ahr
ĠH agen
ĠEcht geld
Ġsicher er
ĠUn be
ot ing
Ġver dien
ĠKorre ktur
Ġm ut
ĠM einer
Ġvor erst
Ġl u
Ġgesellschaft liche
ĠVi agra
ro w
B ER
sch reibung
ro hung
Ġt ru
spro jekt
ĠSne aker
ĠSt Ã¼r
Ġs en
ĠZahl ungen
ĠH Ã¼tte
Ġhef tig
ĠNor wegen
Ġzw ingen
Ġbe grenz
ste st
Ġun i
ein s
ĠMet al
ĠKauf preis
ĠHard core
Ġmit unter
Ġb inden
ĠK ie
Ġg raf
ĠW ut
Ġem pfe
ĠClau dia
og an
ĠFl irt
ti st
ĠWer ken
6 1
ri o
ĠDar in
ĠSauer stoff
f assen
Ġg ames
Ġaus gel
h elfen
rei ÃŁen
Ġrecht liche
ĠS atell
Ġ[ *
ĠR ent
Ġbo den
Ġbede ckt
kl icken
ust om
under ten
ipp er
ĠDir k
Ġp e
ĠRo te
ĠMex iko
ĠKap azitÃ¤t
hÃ¶r igkeit
er isch
ĠPlattform en
pl er
ĠTre ppe
Inst itut
ĠPh arma
ĠweiÃŁ t
ĠK ron
krÃ¤ ften
we sten
Ġent worfen
ĠSt y
Ġle hr
ĠPrin zess
orien tierte
ĠâĢľ :
ĠEntscheid ungs
ĠAn ordnung
ĠS GB
kre bs
ĠF liegen
ĠK im
il dert
ĠMed ium
ad el
kl am
ĠW im
ĠBe frei
t licher
Ġum stritten
ug h
Ġd anken
ĠFÃ¼ lle
ĠPort folio
bl icken
Ġbek amen
ĠS O
Ġschw anz
ĠL enk
a hnen
Ġ198 5
ĠTe ster
ĠAt lan
st ars
B S
a al
is co
Ġfinanz iert
ĠT S
Ġzu grunde
Ġsp art
Ġfol gendes
ĠW id
Ġr isk
ir s
ĠN ort
ĠReihen folge
Ġschl ank
Ġanbie tet
ĠEx port
ommer ce
Ġbisher ige
ĠEin klang
ĠWachst ums
ĠN ieren
ĠNetz werke
Ġst reichen
ĠDies mal
ĠM ust
sk osten
ĠLebens qualitÃ¤t
ĠB Ã¤r
ĠSpe cial
ĠÂ§ Â§
Ġc ir
Ġ Ã¶rtlichen
ĠBachelor arbeit
ĠB ug
Ġi ll
ĠKlim asch
f ters
ĠGÃ¶tt ingen
ĠUp dates
ide e
haupt stadt
Ġda te
al k
Ġneugier ig
ĠBay erischen
Pl attform
g ott
ĠBe ll
ĠInnov ationen
ĠBrun nen
men schen
Ġmon tiert
ĠHerz og
Ġ11 9
rei z
ĠKlass ik
d orfer
ff nung
ĠKer l
ĠRen ov
produ kten
ĠMÃ¼ hl
Ġ Ñģ
ĠY outube
p ost
ĠD L
ĠHandhab ung
ain ment
Ġn etten
ĠVer teilung
Ġspir it
ĠPartner vermittlung
ĠArbeitspl Ã¤tze
Ã¤ch ern
Ġre cher
tig keiten
ĠHyp ert
bedien ung
ĠÃ¼ber d
ĠBit coin
sch alten
ichter stattung
Ġauf regen
mittel ten
r unden
ĠLand tag
Ġ14 9
ser ver
ap el
ĠWel pen
ĠF U
Ġzeit genÃ¶ss
ĠKar ne
Ġe p
ĠBlog ger
ĠRoy al
6 9
ĠPap a
k amp
ĠSeit dem
Ġge klÃ¤rt
g old
ĠK Ã¼n
Ġbr achten
Ġge handelt
qu is
ĠEin s
Ġkathol ischen
ĠFilm s
K T
Ġmittel alter
ĠAb stieg
Ġl eid
Ġer arbeitet
Ġ24 0
Ã¶t chen
F i
ry l
Ġvers etzt
Ġsch reib
Ġs eite
mÃ¤r kte
ĠK na
Ġn r
ĠH ang
ĠBest seller
Ġfolgen der
Ġbefest igt
ĠÃ¤lte sten
ĠKal orien
Ġge leitet
fa ce
Ġ19 50
ĠVi br
Ġver legt
ĠVerein igung
ĠTob ias
Ġle bte
be zug
eim ar
ĠFel sen
ĠSp itz
zu bilden
Ã¶d ie
Ġkre ativen
Ġanalys iert
Ġd ruck
a aten
Ġtrain iert
Ġkontakt anzeigen
ĠNavig ation
ĠWeiter gabe
ĠIn fektion
ĠJ h
Ġintegr ierte
Ġs enken
ck ig
Ġintegr ierten
ĠBar s
is men
ĠDaten Ã¼ber
Ġle cken
om Ã¶glich
au bert
ĠMar x
Ġein geben
ĠRum Ã¤n
ĠPlay er
Ġitalien ische
we ll
ĠR ub
haus halt
ĠFl ash
ĠDe al
initi ative
man gel
ĠK asse
sen de
Ġalt es
ĠD og
kont rolle
ĠEr ziehungs
ĠSar ah
ĠGir l
d ische
Ġwunder baren
ĠG ol
Ġautomat ische
ĠBr ett
werk statt
ĠR eicht
p eln
Ġunbek annt
val u
T ra
ĠUr sprung
D ER
ĠKolle g
Ġu k
ĠEing riff
ĠF ische
ĠVersicher ungen
w all
ĠPiz za
ff nen
ĠWirksam keit
7 9
ĠGut scheine
ĠSat tel
Ġ12 9
ĠT ruppen
Ġ licht
Ġsport liche
ĠKomp osition
ne u
wÃ¼r dige
ĠAmts gericht
Ã¼t tern
ĠInteress ierte
riv e
ias is
ĠK ick
wÃ¼n sche
Ġerf reut
Ġintens iven
P lay
ĠR Ã¤tsel
ĠSch iffe
ĠKat har
ĠB j
Ã¤ch ter
Ġschme cken
Ġ- --
Ġis rael
Ġ ort
Ġzwischen durch
ĠMarkt platz
ser klÃ¤rung
Ġso for
Ġre volution
ĠStand orten
Ġerz Ã¤hlte
Ġst adt
ĠT en
Ġin mitten
ĠDon ald
ĠEigen schaft
ĠRezens ion
ĠVor sorge
Ġgar n
ĠE k
ampag nen
ell a
ĠFl u
st anz
Ġengl ische
ist a
ele ase
m ach
ĠEinschrÃ¤n kungen
red ite
J ahr
Ġverl Ã¤uft
Ġt rau
ĠG na
ĠSch ritten
ĠF inde
al itÃ¤ten
ĠB Ã¶rse
achte te
ĠMot oren
ĠGebÃ¤u den
eil t
Ġbr ut
ĠP H
ĠEind rÃ¼cke
m eier
ĠK it
ĠBill ig
Ġs ho
richt ungs
at sch
st au
ĠP oppen
ĠSw iss
te lle
Ġbek annter
Ġun Ã¼ber
ir ls
ĠEin em
ĠGem Ã¼t
Ġdokumen tiert
Ġweiter gegeben
Ġf ett
ĠRecht sprechung
reut h
ĠPir aten
ĠD iv
ru h
ĠG Ã¤rten
Ġerne uer
Ġexklus iven
ĠAdr ess
S E
ĠÐ ²
ĠgrÃ¼nd lich
Ġange f
ei tig
ĠZ ins
Ġerhoben en
Ġerw Ã¤hnen
Ġgener ika
Ġsch loss
Ã¤ hle
Ġlang jÃ¤hrigen
ĠFest platte
be st
Ġengag ieren
Ġ15 00
Ġenthalten en
et ische
Ġverwand elt
zep ten
Ġ) )
ic tion
ĠS Ã¤tze
7 2
ĠAgen t
so fa
ĠS n
Ġfor um
Ġland wirtschaft
Ġbeein druckt
ĠRelig ions
ul ierung
ĠB ob
ĠMo z
ĠSchwei ÃŁ
ĠSho pping
Ġverl aufen
ĠG rupp
ĠNe ck
Ġres pe
beteil igung
ĠKartoff eln
Ġg Ã¤n
ĠZ wer
Ġb ack
Ġsch lie
ir oler
ĠHier fÃ¼r
ĠMa j
ĠB I
ĠCo up
ĠP Ã¤dagog
kompeten z
Ġverwende te
Ġaltern ative
be wertungen
bek leidung
ĠA ar
k ab
Ġan kommt
ĠO x
ĠW ahnsinn
kul atur
Ġfrem de
ĠSch alter
t temberg
ĠD aumen
ĠRund funk
ĠFl ur
ĠIn fl
Ġvor geschlagen
ĠAuftrag s
Ġanalys ieren
Ġerheb liche
land s
Ġzw anzig
ĠLebens lauf
ĠTreff punkt
ĠHei de
m obil
k amera
abl auf
la sten
ĠRichtig keit
ĠEnt spann
no te
rei fe
at ischer
ĠPorno filme
l Ã¤ufig
ĠMÃ¤r kte
freund liche
ers dorf
itz ung
ĠS H
Ġver sprochen
Ġzur zeit
ÃŁer ung
ĠPrin z
lÃ¶ ser
Ã¼tz ten
ĠsÃ¼ ÃŁe
ĠAn stren
Ġ15 9
Ġbeant ragen
ĠViel mehr
b inden
iv es
ĠHer bert
ĠherkÃ¶mm lichen
Ġi sol
ari fe
p acken
Ġbew Ã¤ltigen
us ik
Ġsport lich
Ġb rechen
ĠSp Ã¼l
ĠS now
ĠWÃ¼r zburg
ĠBes uchen
Ġstaat liche
Ġwohn t
ĠAns ichten
bar ungen
eig ten
Ġmitge teilt
Ġvertrau ens
Ġw ich
ĠPal ette
prÃ¤ sen
Ġdass elbe
ĠL ong
Ġw Ã¤hlt
bezogen e
Ġzuge ordnet
Ġw inter
ĠPol ster
ĠUn bek
Ġher bei
ĠP ic
Ġst Ã¶rt
ir a
ĠZul assung
ser satz
Ġidentifiz ieren
Ġvielsei tig
ĠWer kt
Ġvern Ã¼nf
sei tig
Ġg Ã¶n
ska mmer
Ġbesser es
ĠStÃ¤r kung
Ã¼t zlich
ĠC ru
Ġmodern es
ĠKunden service
ĠZeit schriften
schied et
ĠB W
ĠEinz igar
ĠGen ossen
Ġver grÃ¶ÃŁ
ĠAus sen
r ger
ĠS Ã¤m
Ġbe denken
Ġeingesch altet
ĠPortug al
ĠW it
ĠE last
Ġel ast
Ġz eige
ute te
Ġweib lichen
den kt
St raÃŁe
Ġbet ragen
tre tern
Ġged reht
kon struktion
Ġabsol uten
Ġhervorragen den
Ġd ritt
med ien
grÃ¼n der
ver hÃ¤ltnisse
ĠAn schrift
se xt
ĠAn reise
Ġ13 8
ĠT eich
ab ile
ac y
ĠStra fe
g ru
ĠTabl etten
Ġau gen
Ã¶ gern
ĠChr is
t age
ĠStellung nahme
id akti
ĠReich s
ern d
Ġj ens
m asse
ĠAd am
ĠJ enn
n ot
ĠPro ben
ĠUnabhÃ¤ng igkeit
Ġp reise
ĠAl fred
Ġn utze
ord nungen
ĠK en
ĠEingang s
ĠX L
um pf
Ġver passen
ĠEr fassung
stre cken
ĠAro ma
ĠS yl
Ġ( ...
ĠM astur
ĠSog ar
Ġk olle
Ġb lo
r is
zul ernen
Ġan legen
Ġ7 50
or in
ĠG ei
Ġlo hnen
s Ã¤ule
Ġge lingen
ĠL ungen
b ibliothek
ĠL inden
Ġver sprechen
m ein
Ġein ges
ĠV I
ĠGrund satz
Ġfamil ien
ĠR y
Ġbe achtet
ĠSport s
ĠP ixel
b raun
ĠN acken
ĠSwinger club
ĠGar age
ĠB F
Ġvor ange
ĠInstitut s
r ungen
ĠPromo tion
Ġernst haft
Ġhin weisen
Ã¶hn t
ĠVer stand
ĠSti lle
ĠDe f
Ġa v
Ġl eidet
Ġfor derte
Ġmittel stÃ¤nd
ĠVor gang
Ġm uschi
ĠPublik ationen
ĠÃ¼ber leben
ĠKamer as
ĠEl f
ĠOsnab rÃ¼ck
her stellung
Ã¼h ungen
el ing
ĠPo ster
ĠnÃ¤ch st
ĠHeraus geber
Ì Ĭ
b or
rÃ¤ u
att oo
Ġpro m
ĠÃ¼berw inden
ĠTo de
sie d
p ommern
ĠWÃ¤ sche
minister iums
sem it
Ġk Ã¤
Ġbr and
ĠCons ult
ĠWar n
Ġvirt uellen
6 7
ĠSh irt
so ftware
Ġinspir ieren
Ġbein halten
ĠSamm el
ĠKlimasch utz
ĠS A
Ġl ine
ĠtatsÃ¤ch lichen
ĠSta ates
h istor
aktiv itÃ¤ten
ĠErgebnis sen
ĠAkt ie
olog ien
Ġsex uelle
ĠSch rÃ¶
Ġan k
Ġserv iert
ekt ar
Ġso mmer
ĠauÃŁergewÃ¶hn liche
at ing
re che
l itz
ĠD sch
el tern
ĠSt rick
Ġange hen
Ġaus gerechnet
programm e
ie ger
ÃŁ ig
ĠBack ofen
M ark
Ġo p
ĠDem o
Ġzeit lich
ĠFol ie
ĠP rim
Ġvereinbar ten
r achten
k art
ĠC ard
ĠWeb cam
Ġinternation aler
Ġvi agra
Ġkon vention
ĠK Ã¤r
Ġverab schiedet
ĠRe p
ĠProjekt s
Ġver nach
c ard
ĠInterview s
f aden
ĠSa ft
ol ta
Ġoptim iert
ver teilung
sterreich s
b rot
Ã¶ ser
Ã¶ op
Ġkompeten t
au ger
ĠGlau be
ĠZenti meter
mess ungen
ĠT olle
ĠLu kas
Ġserv ice
ĠH d
ĠPanor ama
Ġenorm e
ĠEx press
ĠUnter kÃ¼nfte
qu alif
ĠEnt weder
Ġgeschlossen en
ĠZ unge
Ġirgend was
Ġfe ster
Ġher zustellen
ĠG lei
mit te
z icht
ĠEurop Ã¤
ĠKÃ¶n igin
verb Ã¤nde
ĠSel ten
ĠGymnas ium
ĠGeb iete
Ġzu kommen
O K
ĠG Ã¼l
ĠM alt
Ġr et
ĠSol o
ĠK lapp
ĠMar i
Ġed el
on ach
ĠSch Ã¤d
ĠArm ut
em men
d ichte
str and
Ġvor wiegend
ĠBegl eit
ĠKf z
ĠMal erei
Ġdem entsprechend
Ġausge wiesen
ĠGi ft
ĠPhys i
esch Ã¶n
ĠTha iland
Ġan wenden
Ġange wand
ber zeugung
ĠSchw ule
spiel t
ĠPor sche
ĠFre undes
ĠL etzte
em and
ber legungen
ti se
es heim
ĠO ver
ĠA cker
dy ll
Ġunter gebracht
ĠKrank heits
Ġzug unsten
ĠW eich
sen d
h yd
rin k
or etisch
ĠBatter ien
r end
ĠFlÃ¼cht ling
Ġgesp eicher
ĠLin ke
Ġin folge
ĠE ch
Ġheil igen
ĠG ust
Ġpro duz
Ġger ichtet
Ġ++ +
Des ign
Ġrecher ch
Ġ16 9
mil ch
l och
ĠM oll
bl ei
ĠAn hang
Ġan treten
ĠIntens iv
sor iasis
eist ungen
T R
an ie
ĠAR D
ĠWahr scheinlich
ĠZuverl Ã¤ssigkeit
vor gang
et it
kor b
ĠVer wir
ĠSp rech
unter gang
ĠVert rages
Ġ ten
ĠLand gericht
or es
o wer
re form
ĠglÃ¤n zen
Ġt reibt
Ġm ilf
Ġblau e
lei h
ĠLand tags
Ġver glichen
hm ann
fÃ¼hr ende
Ġ(! )
l ampe
ĠkÃ¶rper lichen
pro fil
ĠK y
ĠMe ga
Ġleck ere
Ġ ulti
Ġst u
Ġweiter em
ĠO t
Ġan schau
ĠMÃ¶ch ten
B o
ĠsÃ¼d lich
spekt rum
Ġver heiratet
ĠF ingern
Ġbesch Ã¤digt
Ã¤n zer
Ġzu stÃ¤ndige
ĠGesch ichts
Ġj pg
Ġfa cebook
sch on
yp e
ĠPf anne
ow ski
ĠBes atz
Ġgleich nam
Ġin dex
ĠPoten tial
m u
Ġgeb rochen
ĠSch ull
ĠÃ¼ber ein
ĠL achen
ĠMehr ere
s agen
iden z
kti k
Ġtechn ischer
ĠfÃ¼n ften
ĠEinzel nen
ĠK iefer
m Ã¤ssig
ĠBekl agten
ĠgroÃŁ artig
ĠC ott
Ġpfl anz
Ġb rem
ĠPu ls
U L
os kop
ĠKok os
Ġins zen
st iegen
Ġf Ã¤llig
w achs
Ġgr Ã¶s
B undes
Ġirgend ein
Ġv ierte
ĠTrans formation
Ġbrau chte
risik o
an i
c le
Ġer frischen
ĠP ausen
ĠSens or
ipp s
Ġunverb indlich
ĠHon or
enn ungs
ĠC ab
Ġzer tifiz
eg as
ĠFuÃŁ gÃ¤nger
ĠSt all
ĠHT ML
ĠkÃ¼ che
h und
Ġti pps
Ġ13 9
b ra
ĠWasch maschine
Ġbade zimmer
ĠKal k
Ġwelt weiten
Ġkomplex en
ĠVerpflicht ungen
Ġgew iss
ĠSt Ã¤
et ho
ĠV intage
Ġunmittel barer
ant s
Ġ enden
Ġkr atz
Ġvers ichert
Ġleck eren
ff in
Ġmittler e
Ġpri ma
ĠGeb Ã¤udes
ĠTast atur
ĠSch rau
ĠM ol
Ġauf ger
men sch
kl ein
ĠLang zeit
ĠAn sÃ¤tze
Ã¼b ungen
ĠS ack
Ġfreund lichen
ĠW eimar
Ġman geln
or ial
Ġn annte
ĠF alten
ĠL ag
ĠMon te
be griff
H aus
ĠD orn
Ġgef reut
ĠKon f
ĠT Ã¼b
sch alter
ĠAus nahmen
sch ir
Ġgemein nÃ¼tz
ĠAb m
ĠhÃ¶ re
An halt
Ġleist et
Ġeurop Ã¤
ĠBek annten
ĠNeu gier
ĠD G
ket ball
Ġeinzus etzen
ĠT ap
So ftware
w oll
M I
ĠSec urity
Ġge lieb
T C
ĠWe ster
ĠS ession
Ġabsolv iert
ĠLieb haber
ĠSie gen
on ien
ĠOr gasmus
bas is
Ġendg Ã¼l
ĠO N
ge zogen
ĠVern etzung
in al
ĠAkte ure
med ia
ĠLÃ¶ sch
ĠZeit ungen
Ġz ivil
Ġkommun izieren
ĠP for
Ġre duz
ĠA gr
ĠGleich gewicht
Ġg Ã¶tt
ĠKom pro
ĠgewÃ¶hn lich
ĠSystem en
B B
Ħ ¢
ĠBesonder es
b elt
ĠPrÃ¼f ungen
0 1
kom bin
or ger
inten do
Ġeinz iges
ĠH ert
Ġpartner vermittlung
ol o
Ġbe hinder
ha in
Ġanges agt
us el
r zt
ĠK rei
ro ss
Ġuns icht
Ġkonfron tiert
ĠK alt
ĠHerstell ern
Ġangene hmen
ĠHand werker
ĠB la
Ġein f
ĠRob oter
O W
Ġhom osexuell
ĠT unnel
ĠAus flÃ¼ge
ĠModer ator
v ia
Ġ ï
zu halten
Dat ei
Ġge lebt
ĠTag ung
ĠD AS
Ġar sch
zei le
ĠUr sprÃ¼n
ĠF uchs
Ġbr ach
vor sorge
ĠMan uel
ĠFr ische
ĠAnges ichts
reg ister
ĠTa geb
ĠBri lle
ĠRot h
ĠS K
ĠSchn Ã¤ppchen
ĠLeistungs fÃ¤higkeit
ĠK em
Ã¤ mmer
Ġn Ã¼tzlich
dig keit
ĠKennen lernen
st ark
cke y
ab wicklung
Ġbe an
ĠZ oo
ĠOst ern
Ġun klar
ĠPrÃ¤ z
ĠF aden
ohn ung
ĠPh asen
Ġge kl
Ġverl Ã¤ss
Ġbast eln
verl etzungen
1 00
ens ionen
Ġgenie ÃŁt
ĠN ICHT
ĠT i
Ġg ucken
Ġreich hal
ĠAbhÃ¤ng igkeit
ĠE if
ĠNe g
V G
re ens
ĠSt reich
ĠGo ethe
Ġa fr
ing st
AN D
ĠLie ber
Ġerwei ter
ĠAn lÃ¤
Ġher ab
mal en
ĠSt ark
Ã¶t z
Ġinteress ierte
a ste
ĠRet ro
ĠBetracht ung
ĠGe geben
ĠG ig
ĠAnder erseits
Ġde v
ter ne
ĠHaus frauen
Ġman cher
ĠOr ange
Ġaust auschen
Ġex zellen
Ġver schen
ĠQuadrat meter
Ġso oo
ĠWo llen
er ing
re gend
ĠWer de
ĠPro vider
ĠF ix
ĠAus schuss
ĠmÃ¤ch tig
ĠAb fahrt
ĠG allen
u ge
st al
bau ung
ĠKonfl ikte
amer ikanischen
ant ra
ĠAnt rieb
ĠZÃ¼ ge
ĠL ampe
Ã¤u er
Ġgew isser
ĠStr assen
Ġerfolgreich er
ge webe
ĠHypert onie
eigen schaften
k Ã¶r
Ġhinzu gefÃ¼gt
ĠDF B
ĠH Ã¼r
H and
ĠPil ot
ĠEin steiger
Ġbestimm ter
ĠFÃ¼r sten
Ġorien tiert
ĠT ausende
z em
G ruppe
Ġein ig
ĠBereit schaft
at ien
ges und
ĠSE O
un i
ĠSch lieÃŁ
tig ungs
den klich
Ġverbl eiben
ĠZw ang
ĠB y
ĠKn ei
ĠG Ã¼rtel
gew orfen
Ġorien tieren
ĠZeit alter
ĠStem pel
ĠgemÃ¼t liche
ĠPubl ikation
Ġbegeg net
an isch
e ffizienz
ĠBÃ¼r gern
sp rÃ¤
Ġwei hnacht
ĠMig r
Ġk la
ĠR Ã¼st
Ġhochwer tiger
ĠerhÃ¶ hten
problem e
ĠTh or
kap ital
Ã¤r kt
Ġrei fen
ĠK orn
ĠC e
Ġmotiv iert
Ġab seits
stra fe
Ġweich e
st iefel
Ġwie s
Ġin ne
Ġm Ã¼n
gra de
a ison
ĠB lowjob
ĠOr gel
ĠBundes kanz
zwe cken
gem achte
Ġfehlen de
ĠWie so
i ation
Ġam bul
6 3
ĠPl at
ĠSp l
ĠPar allel
Ġcl ub
ĠThem atik
6 2
Ġwid men
wend bar
Ġsch ick
Ġr aten
ĠgÃ¼l tigen
ĠThre ad
bl ut
ĠSor te
rau l
stra hl
Ġkeines falls
Ġgr Ã¶sser
ĠB bw
ĠSchwar zw
auf lage
ok raten
um b
Ġ endete
ĠH amm
ĠWuppert al
Ġt v
ĠEhem ann
ĠD eleg
Ġdauer te
ĠHÃ¤us ern
Ġauf geben
in f
ĠG eister
Ġse ht
ĠAb kommen
ĠS qu
ĠMall orca
ĠFrem den
ĠKart on
ĠbenÃ¶ tigten
Ġsp anischen
il deten
Ġulti m
ĠNachbar schaft
Ġsign if
Ġ196 8
ĠIm pulse
ĠZeich nungen
Ġ hr
ĠP i
k leidung
Ġd rucken
Ġhin unter
Ġverm ehrt
st ad
ĠH Ã¤n
s burger
ĠFinanz amt
ĠCom ic
ĠR olf
Ġeinz uf
ĠBo ck
ĠB eil
Ġp Ã¼nktlich
Ġs inken
m anden
ĠNational so
tige m
ĠC L
ack er
ĠSp rit
ĠEr furt
ĠIn stand
Ġi d
ow eit
ot herap
Ġfreund liche
vis or
Ġse el
ĠRezens ionen
ĠE IN
Ġerst reckt
opp t
ĠM etz
Ġein kaufen
ust ik
dr Ã¤ngt
ĠHand ball
pr es
ĠFin al
Ġer zeug
ĠBeliebt heit
ĠschÃ¶n ste
c amp
Ġun ein
be ding
zahl ungs
Ġall mÃ¤h
gesch enk
ĠUnivers al
ĠKont ra
belast ung
n Ã¤
ĠWurz el
Ġ, "
ist rat
Ġn ich
ĠRe zeption
W G
Ġ14 8
ĠSorg falt
ĠMittel meer
krank ungen
Ġre gen
te lefon
ĠP kw
Ġf ung
ĠT C
Ġer arbeiten
ĠLi quid
ss atz
Ġabsol uter
ĠSchwimm en
ĠCas h
ĠVerb ot
ĠP ink
ĠW ick
Ġgew orfen
atis iert
ĠO pel
ikan er
ĠLin z
ĠPar adies
Ġdi fferenz
w Ã¤l
Ã¤n ner
ll ten
Ġgeist igen
Ġwie viel
Ġkon stant
vor schriften
Ġph ilosoph
ĠP rag
c u
utz te
wei ger
ĠWa ffe
Ġunangen ehm
bern achtung
Ġder artige
ĠOl denburg
inform ation
Ġfil me
ĠBer ech
Ã¤hr en
Ġs uchte
ĠP ig
Ġerwachsen e
ĠnÃ¶r dlich
T A
Ġerw ischt
ĠHan se
Ġko oper
ĠVertrau ens
ĠNeu stadt
au x
Ġverantwort ungs
Ġbedro ht
ĠÃ¼ber sichtlich
Ġjens eits
ox id
je ktive
ĠgrÃ¶ÃŁ ter
Ġeinfach es
sie ger
Ġmit teilen
ĠEin sÃ¤tze
ĠStr ich
k linik
z ucht
ĠNik ol
ĠGel enk
Ġfeier te
ĠMenschen rechte
Ġwieder holen
Ġinter ne
ra ht
ĠFÃ¼hrungsk rÃ¤fte
ĠR S
zu behÃ¶r
ĠB reiten
Ġherr schen
7 3
Ġober halb
ĠN intendo
tau scht
v ille
stand ards
Ġfot oc
ĠLa w
meister schaft
Ġinteress anter
hle ten
ĠKlinik en
ĠAus zubilden
ĠBe haupt
Ġaus k
st het
Ġm otor
achst um
ĠSt olz
ĠN est
ĠTest ament
ĠgefÃ¤hr det
Ġkennen zulernen
b ot
gel enk
zul ande
ĠSp ende
Ġb richt
Ġausge geben
s land
Ġpart y
Ġnach folgend
ĠMitglie ds
ĠTot al
Ġgew Ã¤hlten
ĠLuxem burg
Ġn irgend
ĠVer gessen
Ġle ute
Ġbef asst
Ġwohn ung
ĠWie se
alen te
ĠAm ster
br un
ĠWe lle
urn ier
Ġverp ackt
Ġetabl iert
Ġdrei mal
.... ....
Ġflex ible
ss icherheit
ĠAf ghan
w affen
Ġfotoc ommunity
Ġbenach bar
Ġnachhal tigen
aus fall
ĠKapit Ã¤n
Ġstud iert
ĠFot ze
ver d
stimm te
ĠSchul tern
gel ernt
ĠUm stand
Ġje glicher
r elev
t asche
ina v
Ġ12 00
ĠP ak
N etz
M o
ĠâĢ İ
ĠunabhÃ¤ng ige
w ann
ĠBr ig
Ġtranspar ent
ĠTri ck
Ġland es
rit ing
ĠgÃ¤n zlich
ĠEt a
Ver hÃ¤ltnis
ĠSchei be
ĠB lech
ĠNeu igkeiten
Ġber ufen
B E
ĠMitarbeiter innen
al ia
ĠSus anne
opp elte
Ġteil zunehmen
Ġgolden e
ĠFantas ie
att le
r ieren
ĠStand orte
h s
Ġeinwand frei
s iv
schul d
or gan
ub le
ĠInner e
ĠMit einander
Ġerreich ten
Ġ198 3
Ġh ellen
unk eln
7 4
ĠH ug
Ġsp ringen
Ġmit bringen
ĠNE U
ĠKÃ¶nig reich
Ġmat hem
pl Ã¤ne
ĠAuft reten
umm el
ĠSen at
lei hung
ĠSchul z
b ang
ĠTr ier
ĠausfÃ¼hr liche
g ler
ĠAnge hÃ¶rige
ĠV olle
ĠBl asen
ĠPressemit teilung
ĠReg al
ĠBo ard
m ischen
gÃ¤n gig
ĠPer fekt
ĠHer zlich
Ġgesch Ã¤tzt
ĠjÃ¼nger en
ĠVerbesser ungen
Ġf liesen
ĠRo ad
ĠAuto fahrer
Ġgest altete
ĠSil vester
Ġk alte
s uchen
ĠSo cken
f ug
bio tik
ĠAbm agerung
ĠRecht sst
ĠChar l
Ġgew id
e ben
Ġst irbt
ĠProt ein
Ġgemeinsam es
ĠLeit ungs
Ġad min
Ġver ank
ĠKÃ¼nst lern
ĠL Ã¤ufer
lie der
ĠStoff wechsel
d h
ur y
ĠVer pf
Ġverm ieden
ĠSonnen schein
mod us
Ġvergleich bar
ĠZusammen setzung
Ġer kl
yr ight
ĠLe uchten
jÃ¤hr ig
geb irge
ĠKap u
ĠIm pf
ĠH A
Ġz ogen
ĠAuft rÃ¤ge
ĠV iren
ĠBeitrag s
Ġw ahnsinn
O D
ĠMedik ament
ĠDeb Ã¼t
Ġ198 2
Ġherr lichen
Ġbe her
ĠL ichter
l Ã¤uft
Ġvergleich sweise
ab schnitt
ĠKais ers
ĠFÃ¼hrer schein
ra glich
ĠBeschwerde fÃ¼hrer
ĠHaus halte
ĠSp rechen
ĠAr ena
ĠMinister prÃ¤sident
ied elt
Ġaufge geben
ĠVor sprung
on na
one y
ĠN AT
ĠHaus arbeit
D ie
Ġbe geben
hor st
ov olta
Ġvert eidigen
ĠMed a
Ġaus fallen
end igung
Ġben annt
Ġw omÃ¶glich
spl attform
be am
ĠEr stellen
ĠSk ulpt
ĠEn ter
Ġzu geben
im ieren
P G
sch ale
ĠRÃ¶ mer
itz el
ĠKredit karten
Ġw onach
Ġfa iren
Ġre alen
ĠBes ichtigung
h ot
nach mittag
ĠE ber
Ġp unkt
Ġe bay
auft ritt
ĠCont ainer
ĠMedikamen ten
ĠK anten
s werten
Ġverw alten
ĠK i
Ġue ber
op le
Ġad d
Ġnach weis
r iel
Ġher ange
ĠMad rid
ĠProdu zenten
ĠR utsch
Ġeinmal ige
Ġwieder hol
ay a
ĠRe view
ĠV amp
ĠD imension
Ġein schlÃ¤
ĠSt Ã¶r
ĠZ a
ĠPod cast
ĠUl tra
st ift
ĠO ze
ĠUl m
Ã¼ me
ĠK M
Ġgesch eiter
ĠPfl anz
orien tiert
hel fer
Ġger icht
Ġt ags
ig sten
Ġnie manden
Ġentsprechen der
ĠL isa
schm uck
in haber
ĠMig ranten
be eren
qu ar
ĠC la
ĠG S
Ġnach weisen
Ġelektr ischen
ĠB ike
dat eien
Ġarch ite
ĠBes etzung
wettbe werb
me tern
splan ung
Ġm i
Ġdr Ã¼ber
Ġrund um
ĠDienst leistungs
ĠDunkel heit
Ã¤l er
Ġv s
ke pti
x e
ĠFr ise
ĠfÃ¼ hl
ĠSe chs
ĠFreiwill igen
ĠAust ria
ĠSchaden sersatz
ĠW etten
ĠSpann ungs
Ġlust ige
Ġ* *
Ġschrift lichen
Ġkl im
utt o
ĠStich wort
ĠSchÃ¤ fer
ĠFre quenz
Ġbel astet
if iziert
ĠD ess
ĠDynam ik
ĠH imm
z onen
Ġgelegen en
ĠKraft stoff
ĠX box
wÃ¼r digen
ĠJeden falls
Ġplatz iert
B l
ĠFantas y
au gen
Ġgew ohn
ĠKÃ¼r ze
ĠFir m
kul ation
Ġbeant ragt
ĠSa hne
ĠNicht raucher
Ġr an
ĠLeip ziger
Ġdenk bar
kl ima
ĠF I
sp ark
C o
ĠCh ines
Ġent gehen
ĠP aten
ĠAb geordneten
Ġvorher igen
Ġ197 8
Ġinspir iert
ĠBer t
ĠT ime
ĠNetz werken
Ġmehr erer
ĠKon serv
ĠÃ¶sterreich ische
ĠHaupt bahnhof
ĠReg ister
ĠGo od
zentrum s
sp erson
part ei
Ġgeb acken
ab sichtig
F C
ĠAnaly sen
sp ur
mon at
Ġversch oben
ĠEnt scheiden
an al
Ġempfe hle
Ġverl ang
p rÃ¼f
ĠKrankenk assen
Ġsl ots
ĠB auf
ph y
Ġjahr e
ĠUn isex
Ġveran lassen
ĠIr land
ĠBar geld
ĠHit ler
ĠÃ ĺ
ĠT ritt
Ġgesch ul
Ġbill iger
ĠCorpor ate
Ġwo fÃ¼r
ĠHor izont
ĠFest stellung
Ġmet all
ĠEr g
ĠVoll stÃ¤ndigkeit
ĠBett wÃ¤sche
ĠAn blick
ĠP utz
as ing
sÃ¤ ure
ĠF ut
ĠLa sten
Ġver schlossen
ĠK ita
ha be
ĠgrÃ¼n dete
fer enzen
Ġk os
ĠStr asse
ĠArg umente
ĠSch lauch
p rinzip
ĠGitar ren
Ġst ress
Ġjapan ischen
Ġwar f
Ġschaff te
ĠfÃ¼hr ende
Ġbekannt lich
ĠPet ra
ĠSchwer punkte
ĠPubl ic
Ġdurch setzen
b chen
Ġausgeb ildet
k alender
âĢ¢ âĢ¢
ĠPark plÃ¤tze
ĠLÃ¼ beck
Ġr unde
per te
ĠStiefel etten
iter atur
ĠPrivat sphÃ¤re
st urz
ari at
ten nis
ĠH ER
ĠHalt barkeit
ĠPri me
Ġmit zu
Ġf o
Ġbege hr
Ġauf recht
geb unden
ĠAuf satz
ĠDar aus
Ġbe wiesen
wick elt
Unter nehmen
ĠBÃ¼rger innen
ĠNorm alerweise
pro ben
Ġgek lappt
Ġdefin ieren
Ġdre hte
ĠBo sch
Ġform uliert
Ġkompeten te
ĠkW h
Ġerl angen
steiger ung
ĠB eleg
ĠGesetz geber
Ġj ust
ĠG anzen
ĠH E
bl ing
Ġr ass
P ress
Ġinform ation
heim ischen
ĠSan kt
tau cht
ĠP reu
ĠAd apter
f indung
ĠzuverlÃ¤ss ige
cy cl
fÃ¼hr ungs
ĠLo unge
ĠUnter grund
Ġwenig sten
mar sch
ĠMar cel
ĠBedÃ¼rf nis
Ġst Ã¶ren
Ġges amt
Ġerg ab
Ġsch ief
vers and
Ġwir kte
ĠSÃ¤m tliche
ĠÃ¼ber flÃ¼ss
c ont
Ġre ad
Ġ] [
iver se
ĠMit tels
ĠItalien isch
ĠLandes regierung
ĠCamp us
ĠPar ameter
ĠRÃ¤ der
Ġ500 0
ĠVorm ittag
ĠAus gangs
ill on
ĠBÃ¤ umen
ĠBe quem
ĠÃ¼ber mitteln
Ġun heim
ĠSÃ¼d afrika
Ġbe ding
O n
ĠKo blenz
et was
Ġd oc
ĠMittel feld
ĠÃ¤uÃŁer en
Ġselt sam
Ġgeburt stag
ĠBade wanne
ĠDe fen
ĠLay out
g rÃ¼
ĠF reu
wer ter
ĠZul etzt
in ent
op s
p sych
Ġp en
d liche
Ġverb reiten
ĠZusammen hÃ¤nge
ĠP soriasis
ben teuer
ĠH eld
Ġent schul
es p
Ġab stra
ob s
ĠGe hÃ¶r
d isk
ĠSch irm
y en
ĠV iew
ĠIm plemen
ĠM ore
Ġge hoben
ĠRechtsanw Ã¤lte
ĠBeg rÃ¼
Ã¶r tlich
Ġ! .
ĠLebens mitteln
ĠWei ÃŁen
Ġw ochen
feuer wehr
gemÃ¤ ÃŁe
vor stand
Ġschl ag
mass age
Ġb onus
amm ern
ĠD ark
ĠAngelegen heit
it o
ĠM ist
ĠZu schau
Ġger man
ru p
ĠSch wert
ess eln
ĠSpr uch
Ġwid met
ander s
Ġt ri
ĠErd geschoss
az ieren
ĠMag ie
Ġkat zen
Ġsol ide
ĠEr laubnis
ĠKa sten
Ġd amen
ach ing
mag azin
us alem
Ġha ar
Ġbele uchtet
Ġi dyll
Ġbel asten
Ġschwar zer
ischer weise
vert retung
ĠOrd nungs
ĠTra iler
c reen
ĠMod us
ĠK rau
Ġselbst Ã¤ndig
ĠHerstell ers
ĠVerl uste
Ġstra hlen
k raut
Ġbes orgt
B ran
ĠAk adem
beit rÃ¤ge
ĠUmwelt schutz
Ġ193 3
ĠAlli anz
b rau
ne cht
Ġausge stellt
be hinder
P art
ĠB un
ĠAngelegen heiten
ĠFahr ten
s id
Ġumfang reiches
Ġman uell
el z
Ġwachsen den
ĠTre k
Ġk ass
ĠT reiber
A c
os a
Ġer hol
ĠFir st
ĠProjekt es
ĠLe diglich
ĠZu bereitung
N e
ĠSp eich
ĠR ast
ĠPrakti kum
Ġgeht s
Ġeigen s
ĠJahr est
ag ung
Ġc re
ĠPat ent
ĠSchaden s
Ġspezif ischen
Ġ197 9
ĠKant ons
w an
ĠSatz ung
bas ierte
ĠDar unter
ĠRo uten
ĠMo dule
ĠP ra
Ġsl ot
ĠZw angs
t al
ĠTh is
ĠBrie fe
Ġ19 20
Ġgriech ischen
ĠPa der
Ġbl icken
Ġvoll em
Ġex o
bele uchtung
iv a
w ing
ĠP ie
ĠFl yer
Ġkrit ische
ĠInterpret ation
ĠResult at
person al
asch a
ĠAnkÃ¼ndig ung
ausen den
ĠGesprÃ¤ chen
ĠGrÃ¼nd ungs
Ġbet reffend
ran sport
Ã¼ sch
Ġausge zeichnete
Ġ? Â«
ĠLetz ter
ĠÃ¤lte ste
Ġh elle
ĠPan ik
ĠKranken versicherung
Ġjapan ische
Ġverm uten
ĠV II
Ġd on
ch or
viel falt
ĠAr mband
ĠWilli am
Ġbest icht
sch Ã¼t
EL L
Ġi f
ĠK rone
ĠFarbt on
ĠLand rat
Ġverl Ã¤sst
ĠzurÃ¼ck zufÃ¼hren
er es
ĠP osten
ĠSuch er
ar me
ĠC orn
Ġge teilt
a is
Ġl okal
io se
Ġsa f
Ġchines ische
ĠGemeinder at
Ġk redit
Ġs att
ungs recht
ĠÂ Ħ
r mel
fÃ¼hr enden
part y
ĠErschein ung
ĠEhren amt
al in
st ationen
ĠSchauspiel erin
ĠZerst Ã¶rung
fir ma
ĠEnt sprechend
Ġd istanz
ĠNiederl ande
P R
ĠS ele
ĠPrinzess in
ĠAn griffe
nehm ers
ĠGe denk
f i
Ġange griffen
ĠAb ma
wes end
ĠL einen
z ieren
ĠdrÃ¼ck t
ĠLand schaften
Ġlux uri
Ġsuch st
ie de
Ġr u
Ġin iti
Ġn ull
ĠKro atien
M arkt
ĠPl Ã¤tzen
Ġm ail
ian ce
ĠSch immel
F e
ĠH ess
Ġreich te
ĠGes ichter
schie ÃŁen
Ġeur em
il dete
ut scht
st eig
ĠLin ken
ĠArtikel s
ĠKrie ges
ĠAmerikan er
ĠM es
ĠhÃ¶ch ster
Ġt ur
ĠVerschieden e
ĠL id
Ġs al
gar ter
Ġbereit gestellt
ĠmÃ¼ h
ĠT asse
Ġbel ohnt
Ġt anzen
ĠArbeits losen
angeb oten
spiel zeug
F ans
gor it
Ġrelev ant
Ġer lernen
ĠP est
Ġanzu passen
ĠWal zen
ĠNor bert
wahr scheinlich
Ġab out
Ġbeherr schen
Ġbeauft ragt
Ġsex uellen
Ġbes uchten
om et
ĠAn schaffung
Ġruh ige
ĠN asen
ĠSie mens
Ġl Ã¤ng
c ent
zi mmern
Ġeinmal ig
ĠAus dauer
fe kte
ĠtÃ¶ ten
ĠM au
AN N
ĠgrÃ¶ÃŁten teils
ĠKil ometern
ĠDe te
ĠIm per
lie s
ĠSchwe stern
ĠNad el
Ġda zwischen
seh bar
Ġverd ammt
ĠGeschw ister
Ġkrie gen
chte te
Ġgeheim nis
ein stellungen
ĠHerzen s
gesch n
ĠGeb et
Ġdu mm
ĠRett ung
ĠGlÃ¼ck wunsch
ĠKommun al
Ġwissenschaft lich
ĠKathar ina
se ud
ĠLou is
Ġerf reuen
fÃ¼ gt
de d
ĠGewinn spiel
oren z
Ġfe hlte
Ġt auchen
ĠG M
pol izei
Ġnachvoll ziehen
ungsk raft
Ġsozial er
ĠSpr ing
ĠWirk ungs
ĠSol ange
Ġgesch w
ĠSozi ale
ĠA y
ĠC it
ĠBe cker
m or
ast ik
ĠKrimin al
ĠKop ie
ĠCh ic
OR T
Ġelegan te
ĠBron ze
Ã¤us e
ĠG reg
hol d
ĠBox en
ĠGewÃ¤hr leistung
Ġperman ent
ĠKat al
ĠAuf kleber
ĠSolidar itÃ¤t
ĠBegegn ungen
om s
la w
ĠSil ikon
ĠBek annte
ĠHell igkeit
fach e
ĠYo ung
pl attform
ĠGesell schafter
Ġpolit ischer
l or
ĠEin lad
ĠEi weiÃŁ
Ġschul d
ĠFund ament
ĠSpiel zeit
Ġ09 00
ri an
ĠBand breite
ver m
Ġwebs ite
ĠKopf hÃ¶rer
ĠFort bildung
u ls
ĠInteress ant
ĠBelast ungen
AR T
Ġverb aut
ĠVari zen
Ġo l
eidig t
war ds
ĠN ass
ĠW Ã¤nden
Ã¤r er
d ringen
Ġp la
Ġbes prechen
vert rÃ¤ge
ĠO pern
ĠEcht zeit
ĠI rak
ĠBesonder heit
Ġverste cken
ĠZ iels
ĠAb gaben
ĠPro m
Ġsp ar
ĠFrÃ¼hl ings
Ġbes prochen
ĠPor tion
ĠEr be
ĠBe handlungen
? ?
hand eln
ĠDank eschÃ¶n
klÃ¤r en
ĠAb sprache
ĠHallo ween
ĠPal Ã¤st
ĠCon ne
Ġver kehr
Ġeinger eicht
Ñģ ÑĤ
ĠG am
ĠGes ellschaften
ĠEnt deckung
B ox
Ġries ig
Ġzer tifiziert
ĠSpezial itÃ¤ten
Ġst oppen
kratz baum
Ġz eu
Ġam p
ĠEr haltung
Ġpro biert
vor haben
Ġeinz ur
telle kt
ol in
ĠSel ber
tem ent
ar tiger
et ischen
ĠBe achtung
ck et
Ġt w
ĠChrist i
y ball
Ġh ind
ĠBekl agte
ĠSto ÃŁ
F Z
ĠmÃ¤nn lichen
ĠungewÃ¶hn lich
ap ier
tur m
Ġkon figur
g rau
Ġ(... )
qu enzen
Ġver rÃ¤t
os se
uss ion
ĠKons umenten
ĠBr ut
Ã¶ pf
ĠP rax
ĠDok umenten
st on
Ġbei spiel
Ġbeg angen
ĠExempl ar
G rund
ĠTier schutz
gerichts hof
ĠPass form
ĠtatsÃ¤ch liche
ahl en
ĠZ ier
ĠVer einen
ĠOber bÃ¼rgermeister
ĠAn sprÃ¼chen
ov a
ĠG eil
ĠDi kt
ĠunzÃ¤hl igen
ĠD ichter
s hafen
Ġgewid met
ĠB w
Ġfahr e
ĠkÃ¼ hlen
ĠP ho
wie se
Ã¤ tigen
Ġein nehmen
uch ter
ĠVer schluss
ĠunabhÃ¤ng igen
mo tiv
Ġ( )
Ġ197 2
ĠBÃ¼r os
ĠDat es
ĠSch af
ĠHilfs mittel
ungs system
ant wortet
at zen
ĠÃ¶ fters
ĠUl t
ĠWahl kampf
ĠFass aden
ĠRÃ¼ck sicht
Ġsoll tet
Ġpro min
Ġrenomm ierten
ĠVerz Ã¶ger
ĠIm plant
ĠSeni or
ĠKon stru
Ġ197 5
ĠHo sp
ĠA W
ĠE volution
berech tigten
ok ument
ĠEnsem ble
Ġvorge legt
Ġbew undern
Ġz zgl
ĠG m
t yp
ĠDS L
Ġz B
Ġweiterem pfehlen
ĠEl ite
Ġve get
ĠC N
ĠM ike
ĠZiff er
ĠPr es
ie ben
at i
ĠGr em
Ġhier zulande
Ġer fordern
0 8
ĠAb bau
t z
Ġkl ang
ĠallmÃ¤h lich
jÃ¤hr iges
Ġn em
Ġkom isch
ĠAus maÃŁ
rÃ¤um t
stell ern
ĠIrgend wie
Ġun glÃ¼ck
aller y
Ġunter m
ĠMiss brauch
Ġb ig
ĠExper te
ĠZusammen spiel
iat rie
ĠVol ker
F S
ĠSch ichten
stra hlen
ĠÐ ¸
ĠJul ian
Ġf angen
ĠCl ient
ĠSpe zif
Ã¼ber w
leben s
Ġna ja
ĠHy giene
ĠH ektar
ĠâĢ¦ âĢľ
ĠLe gende
Ġfestge halten
P N
ĠverrÃ¼ck t
ĠSa arb
swert es
Ġwahr nehmen
E l
Ġer schaffen
Ġk Ã¤mpf
ĠBeit rÃ¤gen
ĠSonnen untergang
Ġerf unden
ap h
fer tig
ach se
ĠFrei spiele
Ġverwand eln
Ġausge tauscht
ĠAmster dam
ĠHir sch
ag a
ĠEurope an
Ġst abile
ĠF aszin
ĠIns zen
Ġko ordin
ĠauÃŁergewÃ¶hn lich
Ġdi agno
ĠC art
ĠAn zeichen
ĠTeil zeit
Ġp ein
Ġp oppen
Ġn u
ĠAn schlag
ĠgewÃ¤hr en
sti ftung
Ġm ont
ber gabe
ĠBas ketball
Ġer bringen
um er
mess ung
verk usen
ĠSch ock
k enn
Ġoffen er
Ġ198 1
ĠT E
Ġcir ca
op tionen
ĠÃ¤st het
Ġb sp
ĠVf L
ĠR eichen
ĠGab riel
frei er
rÃ¤n kte
Ġf ickt
ĠG ern
Ġuner wÃ¼n
ĠSyn th
ĠBur gen
k ochen
ĠU K
ĠK rypt
ĠSchwier igkeit
ĠBem Ã¼hungen
ĠToil ette
ĠAro men
c s
t chen
ĠAus schluss
hÃ¼ lle
ĠRT L
ag on
ĠEben holz
el y
Ġst ri
ĠR elease
lo h
L i
K arte
ĠToil etten
Ġbegann en
ĠHand ys
ĠMiet wagen
ĠHar ald
Ġzu bereitet
ĠtÃ¼rk ischen
ĠFolgen de
ĠBau stelle
ĠR elev
S te
bil dern
Ã¶ ten
ine lle
os h
ĠH ild
ĠK rem
ĠBe endigung
Ġs am
m ond
Ġwert voll
Ġli mit
ein kommen
Ġant wortete
ze lle
m ern
Ġh euer
Ã¤uf ers
Ġ... )
Ġbet reten
Ġho tel
Ġlegend Ã¤ren
ĠAnge kl
el f
ĠjÃ¤hr lichen
Ġhilf s
Ġsch ickt
Ġjetz igen
jahr e
Ġ< /
ste uern
Ġmet ho
Ġs et
Ġgrundlegen de
ĠBe fehl
ĠKol um
V A
e ut
j ugend
ĠBesch l
m assen
isch te
ĠGu ide
ĠFÃ¼ ll
Ġh ielten
Ġh as
y k
un ch
ĠL IN
ĠGÃ¼n ter
be halten
ÃŁ end
amm elten
â Ħ¢
ĠRicht ungen
ĠL ot
ĠLi ber
ĠSchw ach
ĠStutt garter
st el
stra ÃŁen
i od
ĠH undert
Ġfort geschritten
ar o
ĠVer gabe
ĠD ur
ĠK reise
Ġverb orgen
ĠPer len
ĠBen ed
ĠT am
Ã¼ber greifen
ĠD Ã¼r
ĠA fr
kon stru
kr ise
ĠVerd au
ĠSp in
ĠSaar land
eu en
Ġo ts
affen heit
Ġverm eint
ĠG ay
optim ierung
Ġt herapeu
gel esen
ĠZ immern
om etr
ĠDach sanierung
Ġleben den
or p
gend a
Ġbl u
amm lungen
Ġan ziehen
Ġn ass
Ġh Ã¤r
ĠP okal
ĠO m
ĠK E
Ġin tu
ĠVor lagen
g ei
sch reiber
ĠFla ir
ĠEr sta
Ġanzu wenden
b ation
Ġbeschrieben en
ĠAus schnitt
ĠKno ten
Ġinteress ierten
ĠB ann
Ġabsolv ieren
er l
ĠR inge
p ackt
Ġf all
H o
Ġdies elbe
bl ig
ĠMed itation
Ġnr w
ĠCamping platz
ĠprÃ¤sen tierte
ĠbestÃ¤tig te
ĠHe b
ĠExper tise
er kennen
Ġan kommen
ĠtÃ¤ tigen
Ã¼t zte
ip ment
ĠOliven Ã¶l
Ġge fÃ¼hl
ĠR ay
ĠTages ordnung
ĠElekt rom
Ġaufge fordert
Ġver senden
Ġget rock
ĠG Ã¤n
ĠB od
Ġkompat ibel
Ġal kohol
Ġlangfrist ige
ĠAusser dem
ĠG L
ĠK ast
rÃ¤ te
Ġdetaill ierte
Ġt rage
Ã¶s se
ĠAb bildungen
Ã¤mm ung
Ġre prÃ¤sen
Ġt rop
in chen
Ġwechs elt
Ġab nehm
stÃ¤d ter
ĠSchw ung
Ġrecht lich
ĠPar ad
V ert
ĠG aumen
kt Ã¼re
Ġunver zicht
Ġheraus gegeben
Ġse c
ei tigung
ĠCh ip
Ġmark iert
ĠHar z
ĠGard inen
ĠP ion
Ġreligi Ã¶sen
Sti ftung
Ġm ischen
ĠH ip
Ġsicher gestellt
ĠB Ã¶se
oc us
ĠNorm en
Ġok ay
ĠR aub
Ġrei z
geben d
Ġlat ein
ĠTisch tennis
ir chen
vorsitzen de
zus ammen
ĠHer unter
Ġbeeindruck end
ĠB ucht
Ġab t
w il
Ġfaszin iert
Ġp ark
vel op
ĠUrheber recht
ĠLog ik
Ġf rac
on anz
ĠJ ena
ĠM ath
Ġo ffer
ĠCop yright
ĠFest ivals
rÃ¤ g
ĠF H
ĠEn kel
ĠUntersuch ungs
br Ã¼ck
ĠJer usalem
Ġverbunden e
ente st
ĠVer handlung
ĠKrit iker
Ã¼ hlen
i j
ĠR ene
Ġwo zu
kon zern
ĠGener ell
st ige
lo ok
viel fÃ¤l
Ã¼nd et
Ġheraus zufinden
Ġbl asen
ĠSÃ¤nger in
Ġvers icher
Ġw endet
ĠBl Ã¶
ĠIrgend wann
Ġet h
ĠF eu
ĠSchwÃ¤ chen
ber weisung
Ġl Ã¤st
ol stadt
Ġunbek annte
op tik
Ġwider sprechen
Ġanspruchs volle
Ġbesch eiden
EN T
Ġk ol
Ġiden tisch
w asch
Ġw agen
ĠHÃ¼ gel
ym ph
ĠQu ell
Ġb aum
ĠSch ale
ĠIniti ativen
Ġn omin
ĠAk kus
men te
s umme
ur se
K ommission
ĠLoc ation
ĠSie b
kommun ikation
bew usst
ĠGet reide
de kor
uÃŁ t
Ġeigen stÃ¤ndig
ĠH obb
g ische
strate gie
Ġwert vollen
ĠRumÃ¤n ien
pul ver
ĠDem nach
ĠK lagen
ist isches
wirtschaft s
K A
ĠUmsatz steuer
Ġsor tiert
Ġsch aden
ĠAc ryl
Ġk lapp
Ġwirk ungs
form ationen
ĠEr ich
ĠPhot ovolta
Ġver deut
sch atz
ĠEss ay
un es
Ġglob ale
Ġf urcht
ĠR asse
Ġ07 00
Ġger einigt
berrasch ungen
ĠAfghan istan
Ġy outube
auf gabe
gen tur
ate x
ĠIn tel
Ġl Ã¤ch
H A
ĠRes ort
ĠNr w
res erv
ĠVerlag s
Ġein genommen
ĠK eim
ĠRechn ungen
ĠGet riebe
u ppe
ĠM T
ĠZ eile
w elten
ĠW atch
oo le
ĠBundes amt
ĠIngen ie
ĠBÃ¼ gel
verein igung
ĠGÃ¼n ther
Ġmit machen
al ischen
ĠB inde
ifest yle
ĠWei ber
ĠKl Ã¤r
ĠKleid ungs
schnit ten
Ġentf alten
ĠH enn
ĠFach wissen
ĠspÃ¤ter e
ĠJournal ist
ĠStellen wert
be weg
Ġb aden
Ġger ettet
Ġberech tigten
ĠZukunft s
Ġwo her
ĠSan itÃ¤r
ĠT an
ĠÃ¼ber sehen
rat h
Techn ologie
eist ung
ĠSch affen
ĠBen j
ĠsÃ¼ ÃŁen
ĠSt ab
P M
as k
ĠHer d
zut reten
st u
ĠgrÃ¼n den
ĠUn glÃ¼ck
Ġ' .
ĠSa int
sor gung
ution s
Ġemotion al
ĠGed icht
ĠD im
Ġeinsetz bar
Ġer r
Ġumfang reich
f iguren
kon zert
ĠB usch
ĠEr zieher
de uten
r ett
G O
g itter
ĠSchwimm bad
ser n
f acht
Ġ197 7
ĠVor satz
Ġa ch
Ġc ur
ĠE ls
ro se
ĠSch ilder
ĠLi ft
fe cht
ĠspÃ¼r bar
ĠZentr ale
ĠTabl ets
ĠR eu
Ġkennen gelernt
Ġt it
ĠDis sertation
ĠCol or
gef allen
ĠÃ¼ pp
ĠZ aun
ĠMor itz
ĠSe h
Ġc ar
grÃ¼n deten
arn ing
Ġman ip
Ġn imm
ĠSt ol
ĠL am
ohn heiten
ĠA lo
ĠhÃ¼b sche
Ġle be
ĠBer ichterstattung
ĠTrin ken
ĠInst itute
rÃ¤ gern
inder ung
Ġunend lich
Ã¤ gen
Ã¶ pft
ation aler
» ¿
ĠBaum woll
ĠV iet
ĠEnergie effizienz
Ġkomm st
ĠBl ond
ĠR itu
Ġweit aus
St G
Ġb rÃ¤
ĠverknÃ¼ pft
Ġb ro
ĠÃ¼bersch ritten
zus p
ĠDie bst
Ġst Ã¤ndige
Ġnacht rÃ¤glich
ĠkÃ¼nstler ischen
en ster
ĠPrem ier
ĠTÃ¼b ingen
uss ia
Ġaus lÃ¤ndischen
ĠFl at
ĠH g
Ġbevor zug
Ġsch aute
ĠW Ã¤hrung
ĠMax imal
Ġam azon
h ungen
Pro jekt
Ġauf kommen
teil er
ĠSper r
io us
ĠEss zimmer
Ġun vor
hal s
ĠRes e
ĠRh ythmus
Ġunbek annten
Ã¤t ten
ir o
Ġent zÃ¼nd
ĠJuni or
Ġso uverÃ¤n
el ine
Ġan grenzen
Ġkrit ischen
ĠNaz is
Ġv al
agen t
ĠApart ment
j ack
a unt
den z
ingu cker
ĠRass ismus
zept anz
ĠAr gentin
d imension
Ġkostenlos es
ĠmÃ¤nn liche
ĠAn ten
ĠF F
ĠEl ementen
ĠVolks wagen
Ġtranspor tieren
ĠPsych otherapie
ri z
ĠW urst
ĠM aul
og gt
ĠSant a
Ġverf asst
Ġam b
Ġpassen des
h auer
ĠBlu es
Ġs ite
stell ers
Ġge achtet
liefer ten
Ġauss age
Ġtau cht
ĠVerg Ã¼tung
l Ã¼
Ġbew Ã¤hrt
Ġschon mal
ĠBro ker
d eln
ĠauÃŁergewÃ¶hn lichen
Ã¤u ÃŁ
Ġeinge halten
ĠBl Ã¼te
ĠH abt
prÃ¤ sidenten
ĠSchm etter
ĠHem d
Ġaus lÃ¶sen
ĠSubst anz
wissenschaft ler
ĠTats achen
Ġz auber
Ġh ob
Ġb rill
ĠZuschau ern
ĠMÃ¼n zen
ĠSch Ã¼ssel
ĠS hemale
S pe
k andid
Ġverbesser te
Ġso fa
Ġbeg lei
od a
k amer
rein iger
Ġ... ...
ven ten
ah ll
ĠAusland s
ĠAn pass
ĠB indung
ĠSo wjet
ĠL etzten
u ckt
ĠSchwar zer
Ġf okuss
ond a
ĠEr richtung
halt s
b ischen
Ġver schieben
ĠInnen raum
ĠW Ã¶l
a ffe
ĠGelt ung
Ġal ters
ĠSehn sucht
ĠUm stellung
Ġbet reuen
ĠBÃ¶ den
ĠTrage komfort
Ġinhalt lich
ĠL em
ĠMitglied staaten
Ġs itz
Ġland et
Leist ungs
ĠI sa
UN D
Ġ197 4
ĠSpons oren
ch tem
Ġc oole
S port
ategor ien
br unn
0 7
fahr ts
w achstum
ĠAn hand
ul ator
ĠGen auso
Ã¤u ber
rech ner
ES S
h ub
ĠMess ung
ĠA alen
ĠSter e
Ġp al
zu legen
ĠEint rÃ¤ge
ĠFlÃ¼cht lingen
ro pfen
ĠStra hlen
ĠDigit ale
o ckt
ha i
Ġdien te
Ġhe ben
ti me
ĠB ik
ĠA re
ĠNahrungs mittel
Ġener ge
ĠKinder tages
Ã¼ pfen
ben s
ĠR aten
Ġausge wertet
spf lich
ĠDr ess
Ġgelungen e
ĠI ron
Ġ10 1
ĠUS D
ĠGÃ¶t ter
ĠBeob achtung
Ġfinanz ieren
ĠKon rad
Ver lag
Ġhum an
ir urg
hol ungs
ĠT aten
ĠMag az
ĠFass ade
ĠW olle
ĠWar entest
Ġkommen tiert
Ġgef asst
s ituation
ĠPul ver
iss ar
ĠkÃ¼rze ster
Ġaut or
ĠNe use
Ġeinz iger
Ġsch ritt
ĠIH K
duz ierung
ĠPersÃ¶n lichkeiten
ĠAnge stellten
ĠKreuz fahrt
ĠMar s
it us
ĠF Ã¤cher
Ġbede ut
z ettel
por ter
ĠAuf l
rech nen
verb indungen
Ġdauer hafte
f ans
zum achen
icht ungen
Mod us
der e
rate gie
Ġbesei tigen
Ġaus fÃ¼hren
Ġgeist ige
ĠMinister ium
Ġein tragen
ĠVers ammlung
liegen de
ĠS ul
los es
al ische
familien haus
iz ierter
dienst leister
l em
mm etr
ĠMeld ungen
iz er
ĠwÃ¶ch entlich
ĠgÃ¼nstig sten
ĠS ak
Ġher ein
st etten
Ã¶ ll
ĠD U
Ġweiter zu
Ġbsp w
Ġdurchschnitt lichen
p Ã¤
ĠLe verkusen
Ġ& #
S et
ĠGed ichte
ĠZu vor
j unkt
Ġgeb Ã¼r
ĠE du
pr ise
ĠStra ÃŁ
Ġver tik
ĠMountain b
Ġp a
ĠK B
ĠW eite
Ġge form
Ġklein ste
ĠPV C
bl umen
Ġe G
schen kel
Ġhochwertige m
Ġgen iessen
ĠBed rohung
iss ionen
ĠÐ ½
ĠAn halt
Ġstrateg ische
te au
ad or
Ġkurz frist
ĠFol ien
t tert
Ġw ussten
ian er
Ġd Ã¤n
Ġfehlen den
Ġerwei terte
aler ien
Ġge fl
spezif ische
ĠB H
ĠHerz lichen
Ġge wechselt
ĠErscheinungs bild
Ġtranspor tiert
Ġab gew
ste h
un gel
ĠFinanz ierungs
Ġiden tifiziert
Ġstehen de
Ġverm utet
ĠVir us
ĠA tel
et ch
Ġeinge st
ĠMan tel
ant rieb
ĠT oleranz
ĠWÃ¼r fel
Ġg re
Ġge stellten
ss on
ĠZu gangs
ĠT ok
Ġle g
ent um
ĠN ummern
ak ers
Ġf Ã¼ndig
ĠEntert ainment
ĠZwie bel
direkt or
Ġneu sten
Ġd Ã¼ster
ĠU e
Ġ ende
Ġschau e
ĠK um
ĠSt ri
Ġkompl iziert
Z E
ĠSchieds richter
Ġresul tieren
stand ort
ĠKin os
ĠSubst anzen
ĠTri p
Vor pommern
Ġun auf
Ġv ar
ĠH ingucker
Ġver hÃ¤lt
t Ã¼r
M ed
Ġmel de
Ġb ru
gar antie
S CH
park s
ĠHand werks
ĠAuf stellung
cycl ing
Ġbe wirkt
ĠH auch
Ġaus zut
Ġqualif izierte
Ġeinz ul
ard o
ĠOb jektiv
reg al
Ġgest oÃŁen
Ġg rauen
sch altung
ĠGÃ¼ te
obil ien
Ġr Ã¼cken
Ġgest Ã¤rkt
sext rem
Ġh arm
ĠStra hl
Ġklass isch
Ġlin k
ĠN etzt
Ġ197 6
ungsver mÃ¶gen
ĠAb rechnung
ank ungen
u gt
Ġw etter
ĠGen re
ĠVerb und
Ġstra p
ĠSign atur
ĠK Ã¶st
ĠHa ppy
Ġand auern
b ier
ĠTrau ben
Ġle gal
Ġstark es
Ġzerst Ã¶ren
Ġvirt uelle
ĠsÃ¼d lichen
fel dern
rag ten
rakti ver
sam er
Ġschw immen
ĠGem Ã¤lde
ĠBul gar
Ġg if
ĠW ich
anz ug
Ġeffe ktive
ĠPassen d
F raktion
ĠL aub
Ġjemand em
Ã¤hr ungen
gel ung
ĠR un
R o
Ġir re
on enten
Ġver wiesen
Ġvari ieren
ĠSchnitt stelle
ĠBe ding
bet rieben
an sicht
ĠTab ak
ried igen
h us
ĠTo y
ĠU s
ĠE Z
ĠC A
ĠChrist ine
ĠWer ten
Ġleicht es
Ġk Ã¤mpft
ĠR io
ĠHÃ¶ lle
ĠâĢľ ).
ĠMail s
sor ien
ar ot
ĠZertif ikat
fe ktionen
Ġbay erischen
Ġda heim
kon omie
g uss
zial isten
ĠursprÃ¼n gliche
j agd
Ġz art
ĠSchul ung
bÃ¼ hne
Ġh eilen
ĠV egas
Ġun gen
ĠNÃ¤ gel
ĠHinter grÃ¼nde
ĠAll g
Ġo ur
b rochen
chen gl
ĠWiderruf srecht
ĠKatastrop he
Ġb lin
Ġgest Ã¶rt
ĠRe alisierung
unter nehmer
h ut
ĠHaft ungs
ĠAngel es
ĠThe ologie
ĠKe vin
m Ã¼n
Ġchrist liche
ĠBo u
icen ummern
Ser ver
vor schlag
ĠKÃ¼nstler in
brÃ¼ che
ĠWider spruchs
ĠHaust Ã¼r
and et
ĠF eiern
einer ziehen
ĠWolf sburg
ng ste
d own
k lichen
Ġ Ã¤us
ĠBor ussia
Ġin st
Ġrie sen
vers icht
ĠFr an
d l
b at
lie ge
ie ts
ĠUm kehr
Ġhand elte
Ġder er
hÃ¶ fe
D ienst
Ġdeut lichen
Ġver arbeiteten
ĠEr werbs
spart ei
Ġan zunehmen
ĠT sch
bÃ¶ den
verk auft
ĠzurÃ¼ck greifen
ut sche
Ġverschw indet
Ġp or
ĠC ir
ik ate
vert rauen
geschn eider
Ġt ube
Ġlaufen de
inter ess
f ro
Ġspiegel t
ĠLe op
ĠkÃ¼nstler ische
Ġpro p
usch eln
Ġm un
ĠZ one
hop Ã¤d
Ġregel n
ĠSÃ¼dt irol
Ġbestimmt es
fl asche
ĠPrinzip ien
ge gner
ĠKost Ã¼m
an forderungen
Ġo st
ymn astik
Ġindividuell es
or i
organis ationen
ĠBes p
Ġphys ikal
Ġna ht
de ko
h undert
Ġfe ucht
P o
ĠRein hard
St and
ĠA ur
ĠChar les
ĠA sp
ĠB ase
Ġfl Ã¼
una hme
setz te
ĠMand anten
ĠAn kauf
Ġber uhen
ĠFahr bahn
ag n
ĠKa der
ĠG Ã¶r
ĠG all
ehr ten
Sp iele
Ġer baut
T est
K lasse
ĠMit hilfe
hof ft
Ġkosten pflich
Ġt auschen
in tens
ĠAuf lagen
ĠprÃ¤ ch
Ġgolden en
ĠstÃ¤d tischen
ape te
Ġinter disziplin
ĠP ur
ĠLe o
Ġteil genommen
mÃ¤r kten
ĠE X
Ġbeige tragen
dienst es
Ġfar be
Ġbek Ã¤mpfen
ĠFer ne
ĠZ will
ĠPR O
Form at
ĠhÃ¼b sch
ĠprÃ¤ sent
ha mmer
ĠGerÃ¤u sch
Ġent lassen
it Ã¤ren
Ġgewerb lichen
r ier
Ġ> <
Ġunter liegt
ĠBenj amin
Ġaus geben
ĠArchite kt
ĠPrÃ¤ par
g Ã¼ter
o fern
ĠEr klÃ¤rungen
ĠZeug nis
ĠBei spielsweise
ĠWord Press
pr esse
riter ium
ĠW ed
Q L
rasch all
ĠFr on
ĠnÃ¼tz liche
sp oten
ĠNiederl anden
ĠPader born
ĠParlament s
ĠH eiden
Ġauf hÃ¶ren
ĠL eu
ti mer
schutz es
C ommerce
ĠF L
Ġr Ã¼ber
Ġnachvoll ziehbar
sp itzen
Ġaktu alisieren
ĠfleiÃŁ ig
Ġausge prÃ¤
ĠAsi atische
ss icherung
i ologie
ĠlÃ¤nd lichen
we bs
ĠGÃ¼l tigkeit
im er
Ġse xt
pf ern
ĠIll ustr
iter ran
Ġins oweit
schein ungen
ĠF rost
sl eitung
Ã¼ss eln
l ime
Ġw ilden
Ġunein gesch
emit tel
st einen
le uten
ĠAb lehnung
l Ã¤ssig
Ġzit iert
Ġst ein
Ġangesch aut
de utet
gesch Ã¤fte
Ġ": "
zug reifen
ĠMas ke
ĠBem erk
ĠBoden see
zeit lich
ĠFort schritte
Ġaktuell er
ge ts
Ġnorm aler
Ġweite m
Ġst yl
ble ch
ffe kte
ĠFach krÃ¤fte
ĠEnt tÃ¤u
Ġt hr
ĠG G
ĠEle f
ĠWest ern
ĠEint racht
ĠDu o
ĠSe gen
ĠB aus
ĠWirk stoff
Ġgest rich
Ġschm utz
empfe hlung
ĠInhaltsst offe
M ar
m auer
ĠEr le
Ġber Ã¤t
ĠVerband s
Ġgest anden
ĠUnivers um
r essen
ĠSch los
Ġam ateur
ĠAus fall
ĠReh abil
ĠC M
Ġf liegt
ĠB ie
ĠVen til
ak ademie
ĠWander ungen
Ġerheb lichen
aus gaben
od or
Ġausge tragen
Man agement
im um
Ġange ordnet
ĠSach verstÃ¤nd
Ġde ko
Ġar m
eiter n
ĠVorbereit ungen
ĠKal iforn
Ġberuf lich
Ġim por
ĠH its
ll i
Ġwei s
ĠSÃ¶ hne
Ġ197 3
ĠAb stÃ¤nden
hin ein
ĠBur ger
Ġalles amt
Ġbit tet
Ġbe weist
Ġre chnet
Ġwe cken
g alerie
ĠEt agen
h h
ĠBet a
in ie
k etten
ĠBedien ungs
gesch mack
tif unktion
k ologie
ement s
ĠE uer
rans fer
ĠSte cker
Ġk ehrt
ĠAgr ar
ĠLu zern
Ġdiagno st
D is
Ġdaten schutz
hr op
ĠBer Ã¼hrung
mer kt
z ins
Ġag ieren
ĠerlÃ¤u tern
rei fer
ĠProgramm s
ĠRo ut
Ġausge liefert
b Ã¤nder
ĠK el
ĠUr ban
on ial
ĠInstitu tion
Ġbe kl
Ġemotion ale
vorsitzen der
ĠIm puls
Ġb ran
b liche
ĠDreh buch
Ġsch lau
ĠSpezial ist
5 5
Ġgesch ah
ĠW arten
ro gen
ĠC r
ĠSe kund
L og
Ġk Ã¼ndigen
ell o
ĠBegrÃ¼ ÃŁ
de fin
ĠC hl
Ġbes ichtigen
fer en
ĠKapit alismus
Ġaltern ativen
ĠC our
ĠSand ra
ĠD in
Ġem ail
ĠAd obe
ĠVerb indungs
Ġer wiesen
Ġ21 0
ĠWel ches
ĠTier arzt
Ġab gelaufen
Ġrad ik
ĠBl um
St ation
ĠArch Ã¤
ĠDach reinigung
ĠAb wasser
Ì Ħ
Ġlauf end
Ġauf weist
ĠSt urz
ĠAx el
Ġander wei
ĠBe fe
CH T
Ġw uchs
hol m
ĠkÃ¼r zer
ĠbenÃ¶ tigte
Ġge zahlt
Ġverring ert
wo llen
Ġp ack
bau te
Ġhe bt
ĠAb onn
Ġbl ickt
un ts
ĠSpiel platz
ĠD own
ĠEin bruch
Ġbem Ã¼hen
ĠAkt ualitÃ¤t
ĠAnti biotik
ĠUm so
Ġan wesend
ĠS is
ĠâĤ¬ ,
Ġfest legen
ĠAnt rÃ¤ge
ĠMus ical
emm t
ov ic
ĠPort rÃ¤t
ĠgehÃ¶r ten
es er
Ġmass iven
ĠO ri
Ġ196 9
Ġdire kter
ĠVer sprechen
etail s
ĠO ben
ĠVan ille
Ġbelieb ig
ĠGesprÃ¤ chs
rang ig
ĠPrakti k
ĠUn der
ĠH Ã¤tte
ĠT Ã¶ch
Ġbed roh
Ġthe oretisch
Ġvers uchten
ĠKrankenk asse
ĠKur ze
sp ringen
auf enthalt
Ġstud ium
Ġw ilde
lich ter
kan al
ot oren
Ġlau ten
ĠCann ab
Ġre prÃ¤sent
Ġqualif iziert
mal t
Ġan leitung
sta ats
ĠPull over
Ġgest alteten
Ġgesund heits
Ġ10 4
aut o
ĠAus zug
ĠMel de
ĠP anzer
ĠAm ate
ĠVers uchen
ĠColle ge
ĠEr zeug
ĠEleg anz
g ischen
h ans
ak on
ĠBet rach
Ġ? ,
fre quenz
Ġherunter geladen
ĠAn melde
Ġm isst
Ġ196 7
Ġre gener
ĠHeiz ungs
ĠW itt
kÃ¼ hlen
or er
Ġhum or
ĠKa i
Ġf lieÃŁt
ĠSch la
Ġerforder liche
Ġb arriere
ĠK ies
Ġ!!! !
ĠL obby
ĠC ustom
last et
ĠH Ã¼tten
Ġvernach lÃ¤ss
Ġsich ert
r zten
Ã¤ch tigen
ĠSo uth
j Ã¤ger
met all
Ġspezif ische
ĠIn dust
a o
Ġk u
Ġstatt gefunden
zen en
de cker
ĠnÃ¤ch ster
ĠerÃ¶ff nete
ĠKil ogramm
eier mark
ĠA genda
Ġjur istische
Ġgez ielte
ĠT ram
er ten
w i
sk arten
ĠDis co
Ġm ochte
Ġdor tigen
ĠRe vision
z ure
Ġc am
ĠSozial es
it ies
ĠKreis lauf
bri lle
ĠKlar heit
Ġan stelle
ĠVer h
Ġschie ben
Ġhei raten
k orea
ĠB lin
ĠCo sta
ĠTschech ien
ĠE sp
ĠGesch ick
ĠÃ¤uÃŁ ern
ĠMaÃŁ stab
H D
at iker
chengl adbach
ĠC ommun
f ield
vers uch
Ġausge gangen
Ġintelligen te
Ġf Ã¤h
Ġvert ritt
ungs bereich
ĠW ww
ĠKartoff el
ett s
Ġf ielen
ĠE ver
ĠAp ost
ob jekt
Ġide alen
Ġt raten
Ġver weisen
ĠEs stisch
Ġmass ive
I B
ĠS itze
Ġbl Ã¼hen
ĠAnt riebs
Ġfot os
Ġins ofern
Ġg igan
regel ung
ĠEr mittlung
ĠS agen
ĠVolk es
ĠAuff or
ĠSingleb orse
alb um
ĠH Ã¤rte
ĠWei zen
Ġvorher ige
Ġdamal ige
ĠH undes
ĠOn kel
ĠT akt
ier endes
ĠSch Ã¤r
ĠVerl angen
ĠRe den
Ã¶s es
om bo
ĠBundes lÃ¤ndern
ĠB anner
Ġeinge geben
Ġbelieb ter
pl us
ĠStatistik en
gere chten
Ġkn all
be ziehungen
bay ern
ĠMÃ¤n n
ĠKil o
Ġerhe bt
ĠRese arch
Ġerinner e
ĠAl m
ĠNeu kunden
Ġengag ierte
ĠHa aren
hn ten
por te
ĠKom bi
ĠS itzen
ti le
ĠKomp akt
ĠUn ited
ĠSch aut
ĠKauf mann
Ġfotograf ieren
for scher
ĠK W
il ie
ie gt
gel der
ĠZu hÃ¶rer
ĠVer folgung
in uten
ĠCl ips
Ã¶ te
ĠSch um
Ñ ĩ
mÃ¤ÃŁ igkeit
st ig
ĠA chten
Ġbe wirken
ĠNikol aus
Ġtrocken en
ed ig
ĠProtagon isten
ĠFo ot
gri ll
ĠAlex and
ĠKur ven
ter rasse
ett a
Ġge kon
Ġeffizien te
Ġklar er
b iet
acht eil
Ġnach denken
ĠBl as
Ġan rufen
ĠWort es
m os
sch Ã¼tzen
ĠSport wetten
ĠAd ler
Ġtem por
Ġmaster arbeit
ĠkÃ¼nf tigen
m Ã¤dchen
techn ologie
Ġselten er
Ġb at
ĠWÃ¼ ste
tier ter
ger ichte
ĠVert retung
ĠZiel en
Ġschwei zer
jahr en
Ġ: .
or chester
ĠAk zeptanz
dr essen
zens ion
schaft lichen
ĠSp ren
spf lege
Ġar men
ron om
Ġst Ã¤ndigen
Ġerfahr ungen
ĠT rÃ¼
Ġein bringen
Ġfrei lich
ĠEr trag
Ġle git
Ġjahrel ang
ĠWÃ¤l der
ĠPil z
ĠD OC
ĠUn g
ĠT M
beauftrag ten
ĠMit arbeit
ĠDiagno stik
ĠHÃ¼ lle
Ġw Ã¼ten
Ġschwier ige
ĠAut hen
ĠTr ik
ĠW itter
he d
p orn
ste uert
ĠGesch Ã¤ften
Ġp acken
Ġfa ire
Ġw Ã¤rm
ĠB at
du str
P reis
ord neten
ĠSchwarzw ald
erkrank ungen
ĠgewÃ¶hn t
ĠErf indung
ĠJ ord
sch laf
Ġb us
ĠFor ex
Ġpro jekt
Ġsinn volle
haft es
i ber
ĠGetrÃ¤n k
ĠB innen
Ġ19 30
ĠG ieÃŁen
Ġbet rug
f ers
ĠK ot
Ġge treten
ĠF ul
Ġver weist
ĠW ater
Ġpro test
ĠM yt
Ġschlimm sten
im iert
Ġber Ã¼hren
ĠR ak
ar is
z Ã¤
ĠLeich tigkeit
Ġsch alten
ĠCan on
ĠVer tretern
Ġsauber e
ĠWei ÃŁe
AS S
Ã¤ ll
Ã¶ ck
Ġexpl izit
ĠS essel
Ð½ Ð¸
abl es
ĠPf le
ĠZ im
Ġseit her
ĠHÃ¶ hle
ĠAn sehen
ĠVor wurf
t our
ĠAufbew ahrung
Ġzwang sl
ĠR uh
o e
scha fft
Ã¶r tern
Ġge prÃ¤
ĠSt Ã¶rung
se ktor
Ġho fft
Sch ule
fÃ¤ll ige
Ġherz lichen
ĠT reue
z eilen
amm eln
ass age
ĠBet rieben
ĠBam berg
ĠZwie beln
lich te
ĠS IE
bezir k
for sch
Ġsepar at
ĠMat ratze
ĠHoll and
A A
Ġge wartet
el ekt
ĠGesellschaft s
ĠBefrei ung
ĠAus steller
ĠVerstÃ¤r kung
ĠWohn sitz
ĠEx cel
ĠT hal
Ġfest zustellen
ĠPhot os
ĠBe eintrÃ¤ch
ĠC er
Ġunter richtet
Ã¶ der
ĠTenden z
Ġ11 2
ĠFil iale
ĠSch affung
Ġqu e
I X
ĠBevÃ¶lker ungs
bl er
ĠStr Ã¶m
Ġbevorzu gen
ber e
schlÃ¼ssel ung
ĠGel tend
ĠSand alen
ĠkÃ¶rper lich
Ġte ure
ĠVerk nÃ¼
ĠFranz osen
Ġzeit weise
Ã¤ qu
wÃ¤r t
ha ken
ĠT in
ind lichkeit
ĠÃ¶ff nete
Ġp ers
gef angen
ĠExempl are
ĠCre w
ĠGr at
ĠRe be
ent wurf
ĠMa kler
ĠbeeintrÃ¤ch tigt
ti pp
Ġm A
Ã¤dig ungen
ehr er
ĠLager ung
ĠZu gleich
ĠEinzel handel
ĠHeim spiel
ĠSchiff s
Ġbef assen
ĠBestand teile
ĠGewerk schaft
ĠL t
ĠVerf asser
Ġle eren
ov o
Ġdeut licher
Ġaufge fÃ¼hrten
ĠMar gar
Ġst oÃŁen
Ġur heber
ĠBrun o
ag anda
rech ter
T our
Ġab onn
ge stellte
ĠPay pal
Ġges undes
Ġgleichnam igen
ĠJack pot
ĠSe ch
Ġsel e
ĠWhats App
isten ten
ĠverstÃ¤r ken
mel zen
ĠKopf schmerzen
Ġeingel oggt
Ġausge de
ĠBe fÃ¼r
ĠSym p
ĠRab atte
Ġfr uch
ĠBus se
icht ungs
Ġbef riedigen
ĠEich e
ĠâĢ ĭ
ĠBl ind
Ġm ill
Ġle b
ĠSamm lungen
ĠAn weisungen
ct o
ĠSte ffen
ber gangs
---- --
ĠCE O
k enntnis
Ġmo dell
Ġges ell
ĠSt abil
ĠKl einer
Ġan ony
ĠProgno se
Ġgel andet
am eister
Ã¤r bt
Ġhal bes
fahr ungen
ĠOrgan e
ĠWei den
ĠBro wn
Ġsteigen den
ĠzurÃ¼ck halten
Ġak ust
Ġ" ).
ĠSe arch
ĠUm kreis
ĠMor al
geb ungen
ĠH armonie
finanz ierung
Ġheraus finden
Ġmin i
t rÃ¤ger
ĠKÃ¶ pfe
ĠstÃ¶ ÃŁt
way s
h uren
ĠText ur
ĠAu d
sa ft
Ġ ult
ĠR ind
ĠHar n
ĠUn ge
ĠC os
Ġm att
ĠReisen de
Ã¼l en
ĠPersÃ¶n liche
ĠKenn zeichen
Ġd uf
ĠO d
Ġge drÃ¼ckt
ĠBlick e
ĠHart z
ĠausfÃ¼hr lichen
ĠDis ney
Ġver legen
kir ch
ĠVer ab
ĠAb gesehen
ĠNe un
ĠRe staur
ĠEin richten
ĠT oren
Ġwo von
ff ic
ĠSel f
ges ucht
brun nen
ĠHe alth
Ġp ay
ĠSelbst hilfe
amb ots
on line
Ġbed acht
prakti ker
ĠRelev anz
un fÃ¤higkeit
spezif ischen
ĠGeltend machung
Ġder zeitigen
umm eln
ĠVerÃ¶ffentlich ungen
ĠLi mit
herr schaft
ĠPlug ins
Ġerw Ã¼n
istr ation
ĠTum blr
ĠUn recht
Ġ36 5
ĠKÃ¼ndig ungs
ĠAt hen
wÃ¤r me
Ġschar fe
ĠSign ale
ĠLa ura
Ġd rast
ĠunnÃ¶ tig
Ġversen det
ĠAuÃŁen bereich
Ġverlin kten
Ġunber Ã¼hrt
L Ã¶sungen
ha ftet
Ġer eig
ber at
sch ub
ti pps
Ġo pen
ĠW urf
Ġzwe ck
zÃ¼nd ungen
h ielt
stehen d
ight s
st ange
ĠPl Ã¶tzlich
ĠEnergie wende
ĠRoh stoffe
ber trag
ĠKoordin ation
ĠVer wenden
ĠHeil ige
Ġwieder her
ĠNeuer ungen
Ġwahl weise
Ġtrock nen
Ġh l
ĠDisk rimin
Ġso urce
ĠElekt ron
ĠEin wohnern
et ti
St ar
ĠInform ieren
pf te
ĠSomm ers
ĠWeis heit
ĠGesundheits wesen
st arke
ĠDurch gang
ĠCha llen
ĠTh ese
Ġwachsen de
ĠV ene
Ġbesch wer
Ġbeeindrucken de
Ġehemal iger
ĠD age
ĠO mas
Ġt u
Ġverb raucht
ĠD Ã¤m
ĠNort h
bÃ¼r os
pfl anz
ĠCo ol
Ġaltern ativ
Ġne bst
s ieg
pf leger
Ġ193 8
s heim
ĠNeuse eland
ĠTit an
Ġs yr
ĠMater ie
ĠdÃ¼n ne
ĠerwÃ¤hn ten
Ġempf unden
Ġor ange
ĠServic en
ĠPin sel
fl os
ĠÃ¼bert rieben
ĠM C
v Ã¶
art h
ĠL Ã¼cken
spf lichten
ĠP E
skont rolle
ĠBr Ã¶tchen
Ġaus genommen
Ġdigit aler
Ġhind urch
Ġzerst Ã¶r
ĠProt ot
ĠKap elle
Ġson nen
ru ption
ĠIn so
Ã¤tz ungen
ĠRÃ¼ck stand
ĠMus lime
ĠSpe ziell
Ġausreichen de
Ġt ausende
P rÃ¤
Ġge druckt
ĠHy brid
ĠSch lafen
ĠRe v
Ġherr liche
ĠSt opp
g ard
Ġte uren
Ġdiesbe zÃ¼glich
ĠVerm utlich
Ġpsych ische
is her
ĠW ille
ĠEr ic
ĠAnmer kung
Ġg rin
ĠF B
Ġangenehm er
Ġro llen
frei es
ĠFÃ¼r st
hÃ¼ ter
Ġhistor isch
ĠBenutz ern
app ar
c up
Ã¼r fen
ĠGen ie
ĠKleider schrank
Ġgetr enn
Ġab weich
schÃ¶ pfung
ĠÃ¶ff entlicher
ĠKan Ã¤le
Ġverwir klichen
ĠH Ã¤uf
bs auger
ce pt
a ins
ĠH us
ĠStud iums
Ġ3 20
az itÃ¤ten
ĠK ater
ĠDis c
Ġgespeicher ten
Ġveran l
ĠKonsequ enz
ĠBere chn
ĠK aka
ĠMa is
Ġunangen e
box en
ÑĢ Ð°
ĠP ers
v ens
ĠBundes ministerium
ang abe
ĠPh antasie
k reise
w ich
mel der
ĠSp ambots
ĠLe be
Ġbe dien
gl Ã¤ub
Ġbes orgen
ĠN ylon
Ġf ru
ĠSp am
ĠErl Ã¤u
ĠSu ppe
ĠRoll stuhl
ĠSex filme
ĠWar s
ron g
Ġauf gelÃ¶st
ĠLa ien
ĠPlan et
ĠMahl zeiten
Ġent sch
Z immer
ĠH asen
zu bringen
ĠVen edig
ĠPil oten
hin weise
ĠNord see
Ġ eil
el ung
ĠZy linder
ei r
ĠWen ig
ĠFrei heiten
antwort ung
gesch ehen
Ã¶r n
ro und
Ġges endet
ĠFrage stellungen
Ġbas ieren
ĠGebrauchs spuren
Ġgrund sÃ¤tz
ĠEl be
qu es
fer tigte
Ġverd anken
Ġaus nahm
ĠB Ã¤ren
Ġde ckt
ĠKar in
Ġt schech
Ġm ak
Ġanerk annten
ĠM ieten
au scht
hoch druck
Ġbas ierend
ner s
ĠVern unft
schul den
sp rÃ¤sident
ĠKarne val
e bene
Sh irts
ĠDu ell
eite ten
Ġtrocken e
dat ing
Ð ·
b ischof
Ġplatz ieren
e per
ĠMaster arbeit
Ġein fallen
ck ige
rei tete
Ġal arm
ĠR oss
Ġrechts wid
Ġkinder zimmer
c ol
ĠBar riere
ĠUlt raschall
aut or
T P
yt es
N ach
haf tigkeit
Ġanstren gend
Ġc as
a ir
Ġentde ckte
ĠT es
Ġabge holt
Ġkosten loser
Ġm ind
ĠA le
ĠDra ma
ĠMass agen
an fang
ra it
ĠBauern hof
zus prechen
Ġ19 00
O X
hol ogie
ab satz
d rom
ĠKu pp
fot o
pro vis
o or
ĠR C
ĠHex en
zuf riedenheit
Ġf emin
Ġun ab
ĠBen ach
tent wicklung
aktiv en
ĠPar tien
ĠFinn land
uf akt
sk ultur
besch eid
ĠJ as
t ausende
Ġan zuf
ĠK ru
Ġbe zeichnete
ĠKlima wandel
ĠErl angen
ĠMon ika
ab kommen
sl eiter
ĠBuff et
ĠF rÃ¤
ĠCas ual
stre ck
T M
st ill
sh ip
ĠSteuer berater
ob i
Ġzwangsl Ã¤ufig
wer f
ĠInso fern
ĠP interest
J ugend
ĠP ech
Ġzu viel
Ã¼ber sicht
Ġp rinzip
ĠÃ¼ber zeug
Ġh ot
ĠEpis ode
Ġd ringen
ĠT ische
ĠBe auftrag
Ġqualif izierten
ĠEth ik
ĠEin richtungs
Ġa benteuer
ĠEinzel heiten
ĠWest falen
ĠP utin
ĠAuf wendungen
ĠOrganis mus
it enk
ĠL ifestyle
mit h
x id
ber mittlung
amp ie
n uss
Ġ ul
Ġaufgel istet
Ġben utzer
ĠT ante
ĠGra ph
ĠPf ar
stÃ¤ be
kti sch
chte ten
ĠSamm ler
ĠB ER
ĠM M
ĠSc reens
ĠAl u
rÃ¤n kung
Ġweiter geleitet
Ġ197 1
ĠTra ding
Ġkorre kte
Ġh ard
ĠSpr inger
sp ritzen
ĠSp ace
ĠVari ationen
ha hn
ĠRe prÃ¤sent
Ġgesch icht
ĠAnwesen heit
er be
ĠWir t
ĠkÃ¼nst liche
ss ituation
rad io
Ġdies jÃ¤hrige
W ert
St adt
r ession
Ġer sichtlich
Ġverm ein
gesprÃ¤ che
Ġbeg Ã¼nst
ĠGar n
ĠT ruppe
Ġverpflich ten
Ġprofit iert
Ã¤ch te
Ġsch utz
ĠSchw ing
s arbeit
Ġmit genommen
ĠI kea
ze d
stÃ¶ ÃŁe
Ġzahl reicher
ĠT Ã¶ne
ĠK napp
ĠV at
ĠHoff mann
Ġl Ã¼cken
Ġgleich mÃ¤ÃŁig
cl ubs
ĠSt Ã¼hle
ĠMar ine
ĠL AN
ĠD ance
Ġpop ulÃ¤r
ausch ale
f ett
ĠkÃ¼ndig te
ĠF ind
Ġkomp akt
ĠFreund innen
Ã¼berw achung
ĠL Ã¼cke
ĠS etzen
Ġein treten
ro cken
ĠIr rt
ĠSch ienen
ĠAb nahme
ĠBesch affenheit
br Ã¼cken
ĠKonfigur ation
ĠGl Ã¼h
ĠWur de
Ġauf bau
H e
ĠGut haben
ste ckt
schrau ber
ko hle
ft ungs
ĠInter aktion
eigen e
ĠF Ã¤r
Ġaller lei
ĠFern bedienung
vit ra
Ġbesei tigt
versicher ungen
Ġ400 0
verein barung
Ġm uster
ĠNieder Ã¶sterreich
Ġfr ucht
Ġoption al
ĠBrosch Ã¼re
unst ig
Ġun sch
S A
ĠA F
ĠT iger
ak el
ĠSu ite
ĠQu ick
ne st
Ġst art
Ġhochwer tiges
press ionen
on st
Ġg ame
ĠVorgehen sweise
ĠG Ã¤rtner
Ġo ver
ĠR n
Ġaufgew achsen
f Ã¤nger
ĠVerteidig ungs
Ġver fassungs
Ġge druck
ĠSchrÃ¶ der
Ġerk annte
Ġversch ickt
Ġwar nt
ĠEin kaufen
B enz
ĠLeben sst
Ġexperim en
ĠRad fahrer
ĠBetreu er
and al
ĠkÃ¼ chen
Ġelegan ten
Ġed len
ĠPor zell
ĠT il
ĠZigar etten
Ġe uro
Ġ) ?
iell er
ĠfÃ¼ gt
ĠAktuell es
ĠLes bische
Ġdipl om
Ġaus lÃ¤ndische
ĠRelig ionen
ĠPark ett
Ġte x
Ġerm u
Ġhinter en
Ġverk Ã¼r
ĠFe ste
Ġmonat lichen
ĠMa de
sch ichten
an gel
kor de
st Ã¤tigkeit
ĠLa v
Ġs kepti
instrum ente
Ġs etze
kÃ¶ pf
ĠHu bert
ĠgefÃ¤hr liche
stÃ¤ndig er
I O
ĠSa fe
ĠEx pert
be hÃ¤lter
Ġau str
ĠrÃ¼ck t
ĠN am
Ġk ul
Ġb u
Ġwahnsinn ig
Ġsch la
ĠN etto
Ġzu einander
ĠKonkurren ten
ĠZusammen stellung
Ġb ut
leich t
Ġvor zunehmen
Ġind ire
p ad
Ġverring ern
ĠGesch lechter
Ġre c
ĠAn bindung
Ġs inkt
ĠH uren
Ġlo cken
Mark eting
ĠM IT
ĠBek leidung
ĠAb zug
ĠRu der
k ass
gro und
Ġgem ischt
il dern
f isch
ĠE b
Ġben utze
ĠLehr erin
frie digung
ĠMar athon
ĠKompon isten
el ement
ĠAn tik
j u
ĠDarauf hin
ĠKl ett
hau ser
ĠRo st
ĠMan ip
ĠKon stanz
ĠY or
ĠÃ¼b licherweise
ier bare
Ġl ud
ĠEin sicht
el den
ĠMikro fon
an hÃ¤nger
rei hen
on omie
Ġfl irten
ven tionen
ĠK ran
Ġrei che
stell bare
ĠSt an
Ġsch en
ĠBundes rat
ĠAn ime
Ġbe absichtig
Ġg ay
ĠRo uter
bÃ¼ chern
âĢ¦ âĢ¦
ĠSens oren
l ust
schl Ã¼ssen
p orno
Ġvoraus gesetzt
ber ichten
rÃ¤n kungen
Ġaus zul
Ġstra hl
a fil
0 6
Ġgra de
Ġnutz bar
t y
fot ografie
h urt
ĠAutor s
fÃ¤ lligen
ĠFo und
ĠGeschÃ¤fts fÃ¼hrung
k ino
wal de
ĠLe ktÃ¼re
Ġlie ge
ĠProp he
Ġschnell es
Ġf uÃŁ
ĠF ette
ĠTradition en
ĠS eid
ĠRe pl
ĠWen iger
na he
op ol
ĠPat ch
Ġwei se
aus gleich
Ġdies el
Ġf euer
ĠBeruf e
sk arte
Ġbequem e
ĠMann er
Ġb aby
ar ier
wirt scha
k auft
b re
ĠW W
vÃ¶lker ung
ĠV ag
ĠSti pend
Ġirgend einer
Ġpsych ischen
ĠÃ¼ bel
schie bung
ĠTechnik er
Ġarg umen
berein stimmung
Ġm ess
ĠV od
Ġdarf st
Ġget rieben
ĠDage gen
ĠAn ker
markt ung
ka ppe
ĠPark s
ĠW alt
ĠBa ur
ĠVerz icht
olog y
ĠAir port
Ġgra v
Ġpro fil
s bach
ĠWein gut
ĠK uschel
ĠHerunter laden
sthet ik
gewinn ung
Ġbeherr scht
ĠMar y
Ġgem Ã¤ss
ur teil
Ġmus lim
ath an
do sen
ĠWert pap
ĠrÃ¶m ischen
ĠVorjahr es
ĠImmun system
lieb haber
ĠVerz wei
Ġwar te
ste am
ĠBundes ver
ĠSkla ven
Ġzentr aler
orien tierten
ĠSch ar
sicht liche
ĠGegeben heiten
ĠRoh stoff
um ph
sport ler
Ġun voll
ĠExpl os
ĠWir kungen
an bul
Ã¤lt in
ĠBond age
Ġwes entlicher
Ġsch ieÃŁen
ĠVerm ietung
ĠHaupt sache
Q ualitÃ¤t
ĠZ ent
ĠJ ones
ĠStr Ã¤nde
S e
Ġl uft
Ġvor teil
ĠTra vel
Ġb ibl
ĠVer gewal
lie d
ĠBestand s
ĠKomplex itÃ¤t
Ġunter nehmer
ĠGl et
liessen d
Ġzukunft s
ĠV alle
ĠT ausch
ik ator
ĠJahrh underte
Ġzu sehen
Ġbem erk
y o
Ġcouch tisch
Ġschmal en
ĠSÃ¤ ure
Ġti me
Ġmaximal en
Ġvorgesehen en
ĠZwei te
ĠkÃ¶nnte st
Ġpriv ater
Ġgel istet
ĠSchw ul
Ġehem als
wei ht
Ġkorrig ieren
ĠAuf sicht
ĠW urm
ĠBast el
ĠW itten
Ġsch Ã¤r
ĠeB ook
d rÃ¼
Ġer bracht
Ġw ort
ĠanschlieÃŁen den
ĠEich en
Ġgestrich en
z ahn
ĠOr angen
Ġprim Ã¤r
ĠSch recken
stra hlt
ĠGeb ot
Ġschlecht es
Ġgem erkt
ĠSon dern
rit zt
i dent
Ġfl Ã¤chen
al m
Ġge gner
ĠZeit ungs
ĠStud ios
Ġle d
u c
ĠBeruf serfahrung
Ã¶nt gen
Ġbemer kte
bro wser
ĠKl icks
Ġmusikal isch
Ġbenachbar ten
ĠK rist
ĠSch loÃŁ
Ġkomfort able
Ġkompeten ten
Ġ11 1
ĠHen ry
ĠBened ikt
c raft
hei de
Ġsorg ten
Ġselten en
ch i
ĠQue en
itt le
ĠRent ner
ĠEleg ant
Ġt ages
Ġirgend etwas
Ġ Ã¤nder
ĠLe v
ĠL A
ĠgefÃ¤hr lichen
S terne
ĠInnov ations
ĠLei h
ĠEr t
junkt ur
ĠK eil
pack ung
ĠKÃ¶n nte
Ġbele gte
br icht
ĠÃ¼bersch reiten
ĠKul isse
ĠRei sel
ĠzÃ¼ gig
ok e
klus iv
ĠSp ritzen
Ġw ik
ul ierte
Ġerinner te
statt ungs
ron ic
kt on
ĠG abel
ĠAuf preis
b old
ĠDe pression
ĠBefrag ten
ĠIntens itÃ¤t
kÃ¼n ften
Ġauf fallen
Ġnied rige
ĠAd v
ĠGra fen
ern te
P artner
Ġn etz
gemein schaften
Ġz immer
ĠBrand schutz
ĠÃ¼ber qu
ck igen
ssystem e
Ġf ro
ĠHÃ¼ hner
dem okrat
T O
Ġdar zustellen
Ġes cort
ĠG O
omp uter
ĠAttra ktionen
Ġge liebt
Ġber Ã¼hr
ĠWissen schaften
Ġun regel
ĠBlut hochdruck
E m
ĠVor lieben
dr ess
ĠVerkauf e
ĠOb ama
Ġbew aff
Ġfrei gegeben
ĠFuÃŁ boden
scheid ungen
ĠKaliforn ien
ĠAd olf
untersuch ung
Ġlande te
ge stell
ĠL ichten
ĠV Ã¤ter
berech tigung
p ra
Ġerg onom
varian ten
lau bt
ĠKle be
ĠSicher lich
ĠSch ott
sor ten
ĠKon sol
m ischung
Ġmei ste
ĠGestalt ungs
ĠGeheim nisse
r ike
ĠDoppel zimmer
ĠEhe paar
Ġober e
ĠMark et
Ġreg ulÃ¤ren
Ð¾Ð ²
Ġh igh
Ġein gesetzten
S how
ĠPrior itÃ¤t
ator ium
Ġlern te
Ã¼ss elt
ion e
bl Ã¤ttern
ens ystem
Ġwechs elte
Ġkathol ische
ĠW unden
ge hÃ¤use
Ġab genommen
gegen stÃ¤nde
ug ang
con om
ĠTe ch
ĠJ Ã¤hr
ĠM Ã¶rder
s ammlung
Ġauss uchen
ĠStar ter
Ġaussage krÃ¤f
ĠT ja
Ġsamm elt
ĠÃ¤r ger
ĠstÃ¤rk sten
Ġmed ia
ĠH ay
Ġsel be
Ġt Ã¶d
plan er
Ġp our
Ġli ber
orien tierung
wert ungs
Ġne ur
ĠK ristall
ĠJubilÃ¤um s
ĠBeding ung
ĠTest bericht
ĠS ite
ĠCl ip
Ġan aly
H O
Ġd eu
kÃ¶n ig
ĠBet rug
ĠSpark asse
ĠS her
E n
ĠRÃ¼ck blick
ĠW end
ĠGem Ã¤ÃŁ
Ġsu pp
ĠLeiter in
ĠStadt rat
ĠBe bauung
ĠReg ierungen
res pon
ĠVf B
lÃ¤uf igen
pal ette
Ġh Ã¤us
ĠWer ks
ĠMÃ¼ hle
ĠC are
beweg ungen
Ġange zogen
s ommer
p reisen
Ġc ialis
D i
ĠUrlau ber
Ġin wie
ĠjÃ¼d ische
Ġrelev ante
Ġauft auchen
ĠLu pe
Ġind irekt
Ġspr achen
Ġabwechslungs reiche
st eigt
ĠG h
ĠAn m
lÃ¤ss igkeit
ĠTier heim
Te chnik
Ġ6 50
ĠFavor it
h unde
ant on
verteidig er
Ġvorzu bereiten
Ġind es
Ġwirk liche
ĠauÃŁerorden tlich
ĠHol ger
ĠE P
pÃ¤dagog ik
ord et
sk alender
Ġab lehnen
Ġlang es
Ġeiniger maÃŁen
Ġatt raktiver
Ġerst aunt
Ġbedeuten de
ĠErst mals
Ġer lassen
ownlo aden
Ġbl ind
ĠC redit
ĠEr den
ĠUnter schrift
ĠPublik ums
ĠH Ã¼nd
Ġausgestatte te
in halte
op ro
k ol
Ġko pf
g ames
in fo
z ige
ĠVerwand ten
ĠâĢ¦ )
Ġb lack
ess o
Ġre staur
Ġgesundheit lichen
rÃ¼m pfe
e der
ĠReicht um
ber schrift
Ġherausragen de
K V
ĠIden tif
los ung
wissenschaft lichen
ĠApothe ken
Ġan gel
ĠHand arbeit
Ġunterb rochen
ĠerhÃ¤lt st
ĠB isch
Ġein zustellen
Ġent z
vor aus
Ġt akti
Ġst a
ĠOL G
ĠberÃ¼hm t
ĠTages licht
Ġstabil en
Ġgew aschen
ĠGeschmack s
Ġauf halten
pert oire
Ġeffe ktiver
Ġent nommen
n ick
ĠSatell iten
ĠR ats
ĠDe ad
ĠT Ã¤nzer
Play er
ĠFein de
ĠK ragen
at her
l aut
ĠFla mmen
ĠVerpf legung
ĠStadt werke
ĠHimm els
rÃ¤ uch
Ġer richten
Ġblei be
utz end
ĠwÃ¼rde st
Ġan regen
Ġmeist ern
ĠBe steller
Ġaus Ã¼ben
ĠAb messungen
ym pt
ĠDurch schnitts
gesch enke
Ġlie fen
aÃŁ nahmen
ĠF ieber
ĠEnter prise
Ġerne uert
Ġsch icke
Ġvor zeitig
Ġm b
Ġvermein tlich
ĠNet work
Ġunmittel baren
ĠLebens raum
w urz
Ġb dsm
vert rÃ¤glich
op ft
Ġra ffin
Ġein bauen
A dressen
ĠStand punkt
Ġs ingt
Ġgebrau chen
Ġgetr unken
M ann
ĠA o
ĠKolle ge
ĠL ars
ĠFle ck
ĠDem okrat
ĠAd el
In ter
ĠUn sicherheit
vers uche
f al
sk rise
ist ern
fe hlt
ĠTele f
Ġunver Ã¤ndert
ct ory
Ġabgeb rochen
Ã¤uÃŁ ert
st atten
ĠSo hle
Ġvorliegen de
m ir
ĠB acken
strich en
ĠSh ar
ĠJon as
ĠvorÃ¼ber gehend
sk op
Ġst illen
Ġf ac
ĠD opp
ver sprechen
vor lagen
z heim
ruf e
Ġ", "
ĠSpir itu
ĠExperim ent
ĠHeil bronn
Ġfrank furt
er lebnis
zi ale
Ġ16 00
ĠAb o
ĠB uche
ĠF rag
krank en
Ġm astur
ĠLe e
C ode
gel b
ĠjÃ¤hr liche
ĠZer tifizierung
ĠÃ¼ber arbeitet
Ġcomm a
ĠAn forderung
Ġschar fen
ĠAusflug s
ĠLÃ¼ ne
ĠE B
ĠVerb Ã¤nde
Ġaufge teilt
ĠL ip
Ġ! ).
ĠBe eren
Ġj ahren
pum pen
komm ission
an gere
ĠjÃ¼ng ste
Ġzu lassen
ĠNAT O
ĠNÃ¤ here
ĠBis lang
Ġ! ?
ĠT T
ĠNutz ers
it Ã¤re
fe sten
ĠkÃ¼nf tige
ĠSaarb rÃ¼cken
ĠR in
ĠFac etten
ie se
op tion
ĠKl ienten
Ġver lieÃŁ
Ġaus machen
Ġl asst
ĠMo le
wechs eln
Ġabs ur
Ġtags Ã¼ber
ĠSal on
fl aschen
ĠCh i
arch ie
ĠMit ten
Ġenorm en
Ġunbe w
ĠChr om
Ġk e
Ġfest halten
zeit raum
Ġ28 0
stand ard
Ġkop ieren
ĠMe g
qu en
Ã¶l zer
Ġbeg ut
Ġn ack
Ġent fÃ¤llt
ĠPf alz
ĠHor ror
Ġerstmal ig
Ġgelegen e
ĠIn fr
Ġange stre
d os
vort eil
ĠM ik
ĠT ausend
ĠFra geb
Ġre ale
ĠVer an
ĠKomm and
ĠEt age
ĠC ater
Ġhal f
um feld
Ã¤ tigt
lieben en
l iteratur
ĠIst anbul
p osit
Ġ5 50
sver kehr
ĠF Ã¶r
prÃ¤ senz
Ġkrank en
stÃ¤nd lich
re chnet
Ġfreu te
ĠP M
Ġelektr isch
ang riff
Ġentstanden en
ĠprÃ¤ gen
ĠL Ã¼gen
schl us
;; ;;
w andern
ĠEnt gelt
will ig
y on
ĠAl gorit
Ġha ften
steil nehmer
Ġa ktiver
rie t
ograph ischen
Ã¼s ste
ĠTechn ischen
aus bau
ĠBaut eile
ĠS ide
Ġgest ohlen
ine llen
Ġschnell st
ĠVer dienst
Ġseiten sprung
Ġo blig
ĠLandes hauptstadt
att an
Ġhoch zeit
Ġvert rieben
W M
ĠMehrwert steuer
Ġhand ge
Ġ12 3
ĠWeiter bildungs
deck el
auf gang
Ġ Ã¤t
ĠFranc isco
ĠRend ite
ĠGesch wÃ¼r
ĠNeu jahr
all em
Ġt anz
ck ern
c odes
Ġd rum
Ġbean spr
Ġge forder
Ġgeste uert
Ġ193 9
ĠV ok
ĠE valu
Ġam Ã¼s
v ig
ĠN ett
Ġt rÃ¤umen
vent s
Ã ¸
Ġrichtig er
Ġh ung
Ġjen es
ĠP on
Ġc lass
her um
ar tiges
ĠB rÃ¤
ĠB ytes
Ġann Ã¤h
ĠAl ben
ĠRes onanz
ĠBetreu ungs
ĠDownload s
Ġhor izont
ĠIn ser
ES CO
inst anz
Ġim pos
Ġaus drucken
Ã¼n dete
bar em
ĠAussch reibung
ĠAus strahlung
Ġbelieb igen
ĠG reif
wie der
ank auf
ĠCannab is
bersetz er
kon zer
ymnas ium
Ġ196 5
rit ter
ĠNieder schlag
Ġsa ison
iff eisen
o pfer
w l
Ġgen utzten
ĠHe bel
Ġ11 6
ĠDo sen
Ġm oll
is m
f ind
k orn
Ġorden tlichen
Ġaus sen
ĠH alten
Ġna hen
ĠHaust ier
Ġausgie big
Ã¼hr ungen
Ġn er
ĠSal es
ho do
ĠVerpack ungs
ĠGewerk schaften
ĠBe stellen
ÃŁ chen
Ġder jenige
Ġverlie f
ĠjÃ¼n gere
Ġsp eichert
k Ã¤mpfe
Ġu ber
ĠDem enz
ph ys
wer tig
Ġbe sta
ĠEner gy
it im
ĠW ichtige
d ay
Ġselbst be
ĠmaÃŁ geschneider
Ġel ement
ĠSp Ã¤testens
ĠH ur
ĠL aus
ĠBefest igung
Ġausges ucht
ĠKosten loser
ĠLauf schuhe
ĠMa ur
ĠJ Ã¤nner
ĠGe fr
ĠGerichts hof
ĠKop ien
ĠFeatur e
ĠLiefer ungen
0 9
Ġ" ;
Ġall jÃ¤hr
ĠN ow
Ġt herm
Ġi T
ĠGrundstÃ¼ck s
Ġgenehm igt
an ia
ent rÃ¤ger
gewand elt
Ġdrin nen
Ġreligi Ã¶se
ĠMaschinen bau
Ġklass ischer
uÃŁ te
p elt
h anden
Ġweiterentwick elt
ĠMigr ations
ip e
ver eine
ĠFertig stellung
Ġbe acht
ĠLok ale
Ġ10 2
Ġmit teilte
ĠF lieger
Ġeindrucks voll
Ġgeste ckt
v iele
ĠMo v
Ġlangsam er
Ġverw Ã¶hnt
ĠkÃ¶n ig
ĠJ A
ĠGna de
ĠK ampagnen
hÃ¤ fen
Ġst eil
ĠAl ice
ct ure
Ġass ozi
ĠGer d
w Ã¶ch
D ruck
ĠK uh
ĠDu mm
ĠlÃ¤nger er
Ġab holen
ĠTag ungs
Ġst amm
ĠMin us
ĠSch ult
Ġzwei fel
Ġm utter
ĠKar ib
ĠDo uble
Ġversch m
Ġausge zeichneten
ĠKomment aren
ser gebnisse
Ġaus bauen
ĠMed i
Ġweg zu
ĠSt Ã¼tz
l ach
la v
stand es
Ġ12 4
Ġper iod
ograph ische
ĠWeihnachts markt
Ã¤ hen
beauftrag te
Ġemp ir
ĠNeck ar
ĠBe we
s zene
ĠR iver
r un
ĠVor wÃ¼rfe
gott es
Ġy e
ĠProdu ktivitÃ¤t
ourn alismus
Ġne ws
hostw riting
ĠJ ess
ĠVitam ine
ĠC F
ĠL et
L A
Ġh d
Ġges ungen
C ard
z es
ĠHoch wasser
Ġprofession eller
ĠGes etzen
achte ten
ator s
wander er
c us
ĠFotograf ien
ĠBau jahr
ĠSt rumpf
ĠNa zi
ĠP unk
ĠgroÃŁzÃ¼ gig
ĠP end
Ġwar tete
Ġgen Ã¼gen
IS CH
r inger
Ġsicher stellen
Ġent fallen
mo der
ĠOper ationen
ĠHer vor
Ġb ank
ĠBi ologie
ĠProgramm ierung
h Ã¤lfte
ĠSte ve
ĠKatzen kratzbaum
Ġgel ben
me hl
ĠT HE
Ġw ein
ĠRe f
ĠEinfach e
ĠWasch becken
ĠAntrag steller
ho u
Ġqu alitÃ¤t
ĠSÃ¤ ulen
ign al
Ġopti sche
ĠAktion s
Ġfir st
ungsk arten
ĠAnti semit
Ġgener ieren
Ġin n
ĠN an
ĠInszen ierung
ĠM R
Ġstren gen
Ġfach arbeit
haft ung
urt eile
Ġauf steigen
Ġerg reifen
Ġdemokrat ischen
Z eit
ĠnÃ¶r dlichen
ĠÃ¼berw achen
ĠDos is
bl es
Ġun zul
Ġ, âĢ¦
Ġfol glich
ĠÃ¼ber zeu
ĠWer b
ĠVertrag spartner
Ġde f
ul den
gra f
Ġgr enz
ĠAuf regung
gesch ickt
Ġo ma
heil kunde
ik ten
ĠLes ung
ĠtÃ¼rk ische
ĠM arburg
sch uhen
a fr
ĠWissenschaft s
Ġsm art
ĠSch wie
ĠB DS
b ag
Ġgebrau chte
Ġm ov
Ġj o
Ġun iverse
ĠN ap
rid ge
Ġt ab
iss ance
ĠLeit faden
be cher
Ġim plemen
uf er
Ġkon sum
ĠFrise ur
S tre
ĠSommer ferien
he um
ĠH ong
Ġn or
ĠDoppel bett
Ġres pekt
ĠBau stellen
ĠEx ec
l ampen
ĠA er
s m
tern acht
ĠSalz burger
p an
ĠAm b
Ġb Ã¶sen
ĠAus legung
Ġfr ischer
Ġrespe kti
Ġge weckt
Ġchem ische
ĠLiefer zeit
ĠAt hleten
N A
ĠDemonstr ation
Ã¤hr st
Ġber eichern
Ġum liegenden
ĠT ang
ĠIn dustr
ĠPok e
ĠOlymp ia
Ġha llo
G A
ĠDar an
ĠÃ¶k ologischen
ĠKatastrop hen
ĠK Ã¤mpfe
ĠIm port
abe lle
ĠstÃ¼r zen
ba i
ĠSp ei
zy kl
meister schaften
ĠBe er
besch Ã¤f
Ġunglaub liche
p ots
eu f
ĠT A
ĠRoll er
ic y
ĠAnbie ters
Ġk reis
Ġnutz te
mark eting
ĠsÃ¤m tlicher
b om
Ġempf inden
ĠMar sch
ĠProgramm en
ĠSte hen
ĠWe ste
ĠKul issen
Ġverl Ã¤ngern
ĠEngine ering
sicht lichen
Ġ. (
ĠL TE
ĠB enn
ro om
Ġperfekt es
freund lichen
ĠFahr rÃ¤der
ĠÃ¼b liche
Ġextrem e
Ġgesch ossen
ĠMÃ¶glich erweise
Ġspr ingt
ĠT aufe
ab ler
Ġein sehen
ĠTran sen
ĠR ussen
zu gang
ĠDÃ¶r fer
ss icher
Ġgrund le
ĠAb nehmen
Ġaus b
ĠT ay
Ġ194 4
Ġversch Ã¤r
ĠWe der
ĠMag ic
z igen
ĠVul kan
Ġpfl anzen
ak i
Ġan y
ĠCont in
ĠB U
ar men
ĠP le
ĠBe hÃ¤lter
Ġs y
ĠZ iegen
ĠWart ungs
ĠPartner in
Ġbe hoben
ĠWohl fÃ¼hl
iss ions
ĠWander er
Ġvier zehn
Ġan wesen
ĠUN ESCO
ĠL ena
ĠT B
ĠAn fahrt
Ġbet rÃ¤
ĠKÃ¼n ste
!! !!
ĠK redite
Ġun gar
Ġd t
Ġanget an
il ber
ĠkrÃ¤f tigen
ĠalltÃ¤ glichen
farb ig
ĠHalte stelle
ein stellung
ĠAbteil ungen
t raining
ĠSie ht
stat us
ĠAtel ier
ĠExt ras
zut eilen
Ġangemessen en
Ã¤chs ische
j an
Ġamb ition
bin sel
ĠKrie ger
sen kirchen
ĠW em
Mode ll
es ien
ĠgrÃ¶ÃŁer er
ĠD ram
sÃ¤ uren
ĠAbs icherung
be ge
l u
ĠK ate
ĠT L
it ive
kap elle
sp ause
ĠRa iffeisen
ĠÃ¤uÃŁer e
ĠSpr ich
ĠstÃ¤r kt
ĠZ Ã¤hl
ĠEm il
Ġverm ute
Ã¼ chter
star ken
ĠBe arbeitungs
r al
ĠVal entin
k reisen
M ag
ĠDres dner
v ard
ĠR ena
ĠgroÃŁ artigen
Ġliegen de
ĠIng olstadt
Ġbeg reifen
th os
ĠG or
Ġgelungen en
ĠArbeits losigkeit
ĠL kw
Ġasi atische
ĠEnt decke
ĠkÃ¼r z
ĠC ore
ĠTeil nehmen
Ġdem selben
ĠBr at
Ġignor iert
ĠB utt
ĠUnter bringung
Ġme ga
ĠPrÃ¤z ision
ĠSpons or
ĠK V
ke y
schaft liche
ĠTr enn
Ġg ang
j ak
ĠAuffor derung
ĠB dsm
Ġland haus
ĠReisen den
Ġman ches
v ar
Ġstaat lich
f Ã¶rder
Ġer b
Ġeinz ut
ĠSt roh
ĠT alente
ĠDes cription
r m
ĠCont roller
ĠUn gleich
Ġs agten
sver zeichnis
Ġst ieÃŁ
ĠAbl Ã¤ufe
Ġwei ÃŁer
ĠEvangel ischen
Ġgrundlegen den
Ġmun chen
Ġs and
h ur
og nit
fir men
Ġp osten
ĠHÃ¶ hlen
Ġsonder lich
Ġbes uch
Ġsepar ate
ĠFal sch
ĠÃ¼ber schau
ĠVer stoÃŁ
ĠK amp
Ġroman tische
ĠEin k
ĠOrt steil
ĠD rop
mittel te
berw ach
ĠP auschal
ad i
Ã¼ndig t
ĠWeihnacht sb
ĠDsch ungel
ĠKandid at
ran gem
Ġzu stimmen
Ġbes p
ĠAuf list
Ġbesch rÃ¤nken
ĠGl eit
Ġfaszin ierende
Ġse e
Ġorganis ierte
L ICH
ĠP akete
ĠAff Ã¤re
Ġg i
Ġinteressant es
ĠNic ole
ĠDe k
b undes
ĠAr min
ĠLÃ¶ w
ĠBek Ã¤mpfung
stell igen
ĠO B
Ġk uschel
ut te
ĠC ialis
ĠFe hlen
ĠDar steller
ĠKaffe em
Ġfort gesetzt
ĠL amm
ĠMÃ¤r kten
gel ten
ĠG ent
ĠKauf entscheidung
ĠAb stra
An bieter
mit arbeiter
ĠBeam te
Ã Ĺ
Ġwirk lichen
ĠhÃ¶her er
vert rages
Ġh ing
Ġrepar ieren
Ġf asst
ĠEngl ish
ĠOs car
ĠArt hr
ĠMag nes
ĠD HL
pf alz
zeu ger
Ġ10 3
sp raxis
ĠR Ã¶ntgen
ĠAn zug
gesch icht
ess elt
ĠBo y
te ller
s achen
ĠD ildo
ĠZÃ¼r cher
Ġex tern
ĠLes ern
ĠKamer aden
entr al
Ġcle ver
Ġa rom
ĠUrsprÃ¼n glich
ill s
ĠTim es
Mit glied
Ġnach her
Ġ] ]
ĠC rem
ĠGen e
ik atoren
iker in
Ġspiel erisch
Grund verordnung
ĠE ig
ĠAk zente
Ġbef indlichen
c ons
ĠAnt eile
ĠS B
ĠAt mungsaktiv
ĠStraf ver
ite ls
eu ert
zi alismus
Ġunter e
eig ht
ĠOlymp ischen
ĠSchÃ¶ pfung
n Ã¤ck
Ġk och
rock ner
ĠGetrÃ¤n ken
ĠStudien gang
Ġgegen einander
Ġbetrieb lichen
ĠTechnolog y
Ġaus fÃ¼llen
ĠnatÃ¼r licher
ĠCount ry
ĠEw igkeit
ĠP ille
Ġbet reu
ĠVerantwort liche
per iode
ĠZ R
Ġnam entlich
o os
ĠE chte
ĠEr leich
Ġvor zustellen
Ġbet onen
Ġzeit gleich
bl Ã¼ten
ell i
kÃ¤ se
ĠSport arten
Ã¤ck chen
roll ing
Ġsp anische
ĠMo os
Ġerwar tete
schaft lich
ĠN A
ĠP age
ĠProblem atik
Ġjen em
ĠBe cher
ve c
Ġsch uf
wir te
Ġindividu eller
geschÃ¤ft s
ĠVertrags schluss
Ġbemerk bar
Ġsp azieren
ĠH aufen
Ġunheim lich
sch rÃ¤nke
Ã¤l tigung
Ġap otheke
ĠLog in
ĠW ow
ĠWieder holung
es a
ĠBo hnen
Ġz un
Ġsp enden
hyd rate
ĠAb bruch
ĠÐ ¾
ĠT s
f ranken
ĠSchul ungen
Ġehrenamt lich
gemÃ¤ ÃŁen
Ġelektron isch
ĠFir ef
ĠBri llen
Ġgesch ichte
ĠPo int
use um
ĠKons istenz
ma ster
brem se
ĠsÃ¤m tlichen
Ã¶ff nungs
wand lung
ĠZit ronen
ĠVi ktor
spart nern
Ġbr as
st urm
system en
Ġab schlieÃŁend
ĠD rum
ĠT arife
ĠFl ut
ĠT ip
Ġdeutsch es
S ieg
Ġz a
ĠC lin
ĠRechts grundlage
Ã¼ hl
Ġeingest uft
ĠÃ¼berw acht
Ġfestge legten
ob te
Ġ196 4
ĠSchÃ¶n es
ĠWahr ung
Ġge grÃ¼ndete
at us
aus flug
K O
ĠPu ppen
ĠE id
gemein den
bo hr
Ġh ie
ĠS endungen
ĠLe asing
ĠAktiv ierung
ĠJugend arbeit
ĠR iv
ĠWohn mobil
ĠImplemen tierung
y ers
rie s
ĠSk ige
ĠmÃ¼ hel
l t
ĠArbeits recht
ei ÃŁen
sch Ã¤tzen
Ġern annt
Ġe st
ĠStraÃŁen bahn
ĠJ ag
ĠHistor ische
Ġswinger club
Ġ" ...
Ġd os
ĠThÃ¼r inger
Ġgew inn
Ġgro sser
ĠDisziplin en
System e
Ġerwei st
ĠAb holung
Ġeinfach ste
ĠT iroler
un er
ĠGe fallen
durch schnitt
Ġbil dete
Ġanspruchs vollen
Ġrobu ste
Ġte am
ĠOr den
ufakt ur
ĠSchl uÃŁ
gesch altet
Ġhand y
ĠS ingen
ĠBa hnen
ĠFer r
ie m
ĠX P
ĠB C
Ġs in
ĠHil fen
Ġvergangen e
ausschuss es
ei ver
Ġpol nischen
Ġabsolut es
ĠHeil praktiker
c ted
Ã¼t teln
ĠViet nam
K S
Ġchem ischen
ĠGra v
ber setzungen
Ġfr isches
ĠMÃ¶ch te
n orm
ĠS F
Ġes stisch
Ġ196 6
ĠZul ass
ĠTa ste
ĠHom Ã¶op
Ġumfassen des
ĠHalb finale
hol og
ĠLad ung
Ġc ons
ĠL Ã¤den
sp osition
ĠGroÃŁ es
ĠSchwÃ¤ che
je ktiven
ĠMa hn
ĠO G
ĠHÃ¶r en
Ġsp Ã¼rt
ĠSchnitt stellen
Ġmed iterran
ĠRuhr gebiet
ĠEin bindung
ess a
ĠBehaupt ung
ĠbefÃ¼r chten
Ġverw altet
merk male
Ġauthen tisch
Ġwissenschaft licher
Ġman ch
ĠBir ken
reg ionen
ĠDien sten
Ġd iv
ĠSitz ungen
IL D
ĠBre ak
ĠZ E
ĠB uÃŁ
M en
ingen ieur
Ġklein sten
ĠXX L
Ġanges iedelt
kon zepte
ĠZeich nung
Ġauf rufen
ĠArn old
no se
ĠLe b
sch i
ĠN ina
Ġle gten
ĠzurÃ¼ck kehren
ĠProf ile
Ġun zur
ĠS ud
Ġr Ã¼hren
mitglie dern
men Ã¼
ĠG od
ĠPum ps
ĠMÃ¶n chengladbach
ĠI R
ĠComp any
ĠBar ock
ph abet
lin er
ĠAus zeit
Ġpreis wert
ĠBas ic
Ġdokumen tieren
Ġerm ordet
O ut
d ichtung
Ġabge deckt
Ġt ue
pla ys
Ġabgeb ildet
verl ag
Ġb or
Ġangegeben e
ien ste
m Ã¼d
Ġverm ag
ĠE llen
Ġein geleitet
rÃ¤ dern
Ġsystem atisch
Ġumzu gehen
ĠSe el
Ġr einer
t or
ĠGrund sÃ¤tze
Ġheim lich
Ġeinmal igen
Ġerfolgreich sten
ĠChrist op
ĠT rieb
ĠGel enke
ĠU G
ho ckey
h ip
fel den
Ġ196 1
ĠKrim i
ĠAss oc
Ġmonat liche
Ġdetaill iert
0 4
ĠPf eil
Ġreal istisch
ĠKor ruption
ĠS AT
ĠUrs ula
hau be
ĠRuss ische
ĠSe ktor
ill y
ĠCont rol
ĠEk zem
U r
Ġd ienst
fahr zeugen
ĠSchal ke
ĠStadt zentrum
ĠSie ge
ĠSchlei m
ĠE go
ĠÃ¤us ser
ĠEinzel ne
ser gÃ¤n
he ll
Ġabsolv ierte
ĠEr reichen
k ischen
Ġess ay
ĠConsult ing
ĠEmo tion
Ġd oppelte
ĠSied lung
Ġm ul
Ġrenomm ierte
x en
ĠPassag iere
ĠmÃ¼n chen
ĠTa i
ik alien
ĠThr iller
ĠPar iser
kreis es
Ġaufge tragen
ĠZ Ã¼nd
irl pool
Ġver folg
l Ã¼cken
ĠP U
ĠInstrum enten
ĠCro w
Ġbe heben
ien ds
ĠWarte zeit
ĠstÃ¶ bern
ĠPal m
Ġmut maÃŁ
grÃ¶ÃŁ te
ĠVer sp
Ġhin reichen
heit lich
ĠKirchen gemeinde
Ġm aterial
ber ry
ĠKat he
ĠRefer enten
ĠBeu tel
il o
Ġrenov iert
ĠC ob
Ġf Ã¶rder
Ġverf ein
ĠL eine
Ġor ig
v ed
Ġli zenz
mit tels
Ġautomat isiert
ĠEnt schul
ĠEreig nissen
ĠUr spr
Ġp unkten
Ġregel recht
Ġrie cht
ER S
g ur
Ġirgend eine
K onto
Ġabzu geben
ĠBe ein
sper re
ĠKor b
ĠV Ã¶l
Ġh ies
ĠPorzell an
lau tern
ĠOste uropa
Ġsp aÃŁ
d etails
Ġvert ie
ro log
M edia
ĠFiref ox
sch rauben
ĠKrie ge
ĠK itz
ize d
ĠSprÃ¼ che
ĠNutzungs bedingungen
m ix
ĠStraÃŁen verkehr
Ġunters agt
ĠBack up
ĠTra il
ĠY e
ĠTelefon sex
il ometer
ĠAn ja
Ġseit lich
ĠR ache
ĠFil ialen
ĠS ag
af one
ĠF alt
ĠInhalt s
ber all
Ġun ivers
ĠArgentin ien
Ġver schlagwortet
ĠAuft ritte
ffiz ienten
ĠEnt deck
Ġ10 6
ĠSauber keit
ĠD rau
ĠAn wohner
ĠExperim ente
Ġk uchen
k no
hle b
Ġle bten
Ġaufge treten
Ġhoch glanz
ĠBÃ¤ der
ĠT anzen
Ġt or
sen sor
ĠSch r
Ġanzu geben
ĠBe achten
geburt stag
ĠC u
all i
l inger
Ġerweiter ten
Ġeinzigar tiges
leb te
f low
Ġerfolgreich es
ĠSee hofer
el ess
ĠG itter
Ġman gel
ĠMarc us
Ġverb indlich
ator in
ĠUn ent
sÃ¤ cke
Ã¼ ge
u tive
ost al
T ool
ĠZ ehen
ĠEin erseits
ĠAus lÃ¶ser
ĠBas il
spe ktive
Ġaufwend ig
ĠI b
ĠV iv
Ġkauf mÃ¤n
ĠUnterhalt ungs
Ġwor ld
k ru
ĠMat ratzen
atter ie
Ġfund ierte
lin ks
Ġorden tliche
ĠVe gan
ĠVerein barungen
Ġwer ben
ĠWh isk
amer ikanische
kl ick
ĠKan inchen
ĠWert schÃ¤tzung
dat ei
ĠE spr
Ġdiesel ben
Ġultim ative
Ã¶r tliche
str eit
ĠVerm eidung
p i
Ġill ustr
kat alog
Ġd om
uÃŁer ungen
in halt
ru hen
ĠL otto
ĠSchalt flÃ¤che
ĠFreu den
ĠHier mit
Ġbe hei
Ġein bezogen
Ġerleb te
ĠSp o
ĠGerÃ¼ chte
ĠOrganis ations
ĠC PU
Ġveranst alten
eig te
roh ungen
ĠKrÃ¤ ften
Ġun ange
ĠPa v
ĠP seud
Ġber ichteten
ĠHild esheim
ĠEinz elt
Ġweiter geben
Ġgarn icht
ĠIn dem
ĠDiplom arbeit
ĠCh irurgie
ĠSÃ¼ ÃŁe
f ra
zei ger
ĠSchlag worte
ĠMaxim ilian
ĠEnt fernen
sproblem e
ĠC ase
Ġvorder en
ĠFahrzeug s
Ġgr enzen
ĠB ut
ĠMit ternacht
ĠHaust iere
Ġliefer bar
Ġevent uelle
br achte
te ch
ah ls
Ġd ach
sst Ã¶rungen
f rem
ĠFab ian
ol as
Ġvert iefen
ruf bar
ĠMei stens
T rainer
Ã¶ pfen
ĠBl use
Ġausger Ã¼stet
ĠGust av
zen zen
ĠGer ichten
ĠG lo
Ġwh ich
ĠSt eiermark
ĠD utzend
ĠDeutsch es
ĠH C
Ġchar man
ge heim
v ok
ĠSex ualitÃ¤t
Ġeffizien ter
t ausend
ĠFaszin ation
ĠSyn chron
Ġsch Ã¤len
ĠR ate
Ġspe kul
Ġerne uten
ĠErzÃ¤hl ungen
f aktoren
Ġmit bekommen
ĠV gl
wÃ¼rdig keit
ĠVersicher er
ĠN on
an ischer
ĠMahl zeit
Ġver einen
ĠPack ung
Ġbe grÃ¼nden
be vÃ¶lkerung
dien sten
Ġpf lege
Ġsex uell
ĠSt reu
Ġbe auftrag
stre am
ĠPlug in
greif end
ren te
Ġstat istischen
ĠL agen
ĠB uck
ĠOr al
ĠJahrh underten
ri um
ĠErkenntnis sen
ĠAspe kten
st et
ĠEinkommen s
og gen
ĠStadt verwaltung
ĠSonntag s
Ġnach lesen
ĠLuft fe
Ġ194 0
fest ival
ĠFÃ¶rder verein
Ġst reich
ĠFre d
K G
ĠHÃ¶r er
Ġkrie gt
Ġt rÃ¼
Ġl t
Ġstarte ten
ĠKanz lerin
Ã¤n ke
ĠMart ina
ĠJ im
ĠC arbon
ĠSto ffen
Ġform en
re ste
schwe ster
ĠiT unes
ĠAn leitungen
le hne
berech tigt
ĠJ am
schne ll
ĠKon ten
ĠD ose
Ġf rist
ĠAnti ke
sst ra
op hleb
Ġ: "
ad es
zwe cke
is ierter
ĠHo hl
ĠG Ã¼nstig
be er
Ġmiss b
schÃ¼t zer
ĠP A
Ġt reff
d ik
k eller
ĠRegen er
Ġp ink
lei te
Ġbege hrt
ĠR inder
Ġanspruchs voll
pf ten
ĠErsta un
Ġtran sparen
ĠDirekt werbung
Ġber g
ĠNud eln
ĠRad fahren
ĠDa im
Ġge polster
aut os
nehm ungen
ĠN uss
ĠPort o
Ġein setzt
ĠPil ze
ĠWert ung
ĠAppl ikationen
Ġoffen es
Ġaus macht
Ġzunehmen de
Ġengl ischer
Ġwelt weite
ĠModern isierung
ĠRom ane
technik en
polit ischen
Ġfotograf iert
Ġ19 18
ĠBest es
ĠOffen bar
ĠBundes verband
ĠApothe ker
al i
ĠSing ap
Ġ26 0
g reg
Ġerzeug ten
Ġmed ien
Ġr uhen
Ġles ben
Ġjung es
Ġv en
Ġed le
B and
ĠVor schau
Ġbe stÃ¼ck
ĠO me
ĠTat ort
Ġden selben
p us
M ER
Ġsch rank
ĠBe weise
b recher
amen te
Ġserv ieren
ĠN enn
stÃ¤n der
an bie
f rag
ĠTageb uch
Ġskepti sch
ophleb itis
wir k
C enter
AL L
ĠRoman tik
ĠBau ten
ĠJ ochen
ard inen
sprodu kt
be griffen
kolle gen
ĠCom ed
st agen
und ung
ĠNe on
k ow
ĠJo e
ĠWohn ort
ieren der
ent zÃ¼ndung
ĠE asy
wind igkeiten
ĠZ iegel
in sen
ĠFar m
an fall
ĠVor gÃ¤nge
Ġheraus ge
ĠEnt sorgung
ĠgÃ¶n nen
er a
nehm lich
ĠBer ichten
ĠMo tiven
ĠEntspann en
Ġh yd
ĠSchl Ã¼sseld
ĠÃ¼ber mittelten
ĠVorder seite
f ix
Ġgelieb ten
ĠGleich es
ĠPl Ã¼sch
R eihe
Ġlang jÃ¤hriger
pfl anzt
ĠLese zeichen
Ġhier her
t ausch
ĠArch ive
Ġb aute
ag in
vis ions
Ġf le
ĠF usion
ĠPro zessen
Ġunver wechsel
cl us
Ġein satz
Ġrei st
wissenschaft liche
Dat eien
Ġï »¿
Ġl acht
fÃ¤h iger
ne e
ĠTÃ¶ch ter
ĠChr ome
ĠFound ation
j ung
Ã¶ bel
ĠPla k
Ġ194 8
ĠT auchen
Ġgekon nt
Ġstrateg ischen
ĠFal ken
ategor ie
Ġsicher es
Ġbed Ã¼rfen
Ġetabl ieren
Ġs auer
Ġst reiten
ĠH underte
um satz
ĠInfr arot
et ag
ĠS eiden
Ġgen iale
Ġ196 3
fer tigten
Ġsens ation
Ġst arr
ĠRÃ¼ck gang
ĠInd iz
ak ei
ĠKÃ¤r nten
rie bes
Ġauszut auschen
ĠMar ion
ĠBibli otheken
Ġge ehrt
ĠEin spar
ĠRÃ¼ck zahlung
ĠBedienungs anleitung
ĠF ocus
Produ kte
Ġcomp uter
se g
ĠZwischen zeit
Ġlog isch
ul ationen
ĠE bay
ungsver trag
ĠHaus frau
ĠU rin
all t
in vest
ĠS ale
Ġgek ocht
ĠBom ben
sei tige
Ġp utzen
ĠÃ¼ber fordert
ĠTe sten
Ġab gebaut
Ġqu ot
ĠDe pot
Ġaus bildung
esch uhe
ĠProjekt management
ĠLand s
ĠZiel gruppen
ĠGewinn linien
ĠMikro welle
Ġauf tritt
ĠW is
ĠSchwei gen
Ġsch enkt
ĠRe ste
ĠEmm a
ĠRe duzierung
ĠReparatur en
ĠWel cher
Ġauszu probieren
w alter
Ġuk rain
Ġaus wirken
ĠzuverlÃ¤ss igen
ĠSt einen
Ġgel be
)) ))
d t
ĠAbsol venten
r assen
Ġfl achen
Ġanzu zeigen
ĠO e
sel be
Ġm ain
ĠAc adem
ĠElektro technik
ĠN L
Ġer holen
te ll
Ġle ge
freund lichkeit
ĠVis a
ĠAuf hebung
Ġober ste
ĠHalb jahr
Ġinnov ativ
Ġba j
ĠM eier
Ġan einander
Ġ194 9
ĠTri o
ĠAb ruf
ĠProgramm ier
ĠTurn schuhe
Ġgescheiter t
ĠZentr alb
I EL
ĠGar der
ĠBir git
IS S
Ġf ik
an schlag
ĠEinfl Ã¼sse
Ġneben einander
Ġvor gehen
ĠP N
Ġbl Ã¶d
Ġregion al
Ġlangfrist igen
ĠPresse konferenz
Ġwitz ig
ar be
ĠDiebst ahl
fo od
ĠSch rott
Ġerz ielten
ĠNa he
ĠBewerb ungen
str Ã¶m
ĠInteress ierten
omb ophlebitis
Ġdeaktiv ieren
ĠSchne lle
Ġm eister
Ġzeit nah
ĠQual itÃ¤ten
ograf ischen
ĠOrt es
sterreich er
ĠE her
ĠK FZ
Ġ... ,
polit ische
Ġl Ã¤cheln
Ġoblig ator
sprach ige
Ġengag ierten
Ġad idas
ĠFl ensburg
ĠSpe kul
ĠzusÃ¤tz licher
ĠAntisemit ismus
Ġgesch aut
be zeichnung
lÃ¤uf ige
fest igkeit
Ġsteigen de
Ġe asy
ĠRe cycling
Ġvor m
ĠCott bus
ĠP ian
ĠMar ok
ĠT ed
ĠZ elle
ĠK un
ĠMag n
ĠRob in
Ġkap ital
T er
ĠG ot
B uch
ĠE ast
Ġaus zur
ĠM O
ĠW A
Ġfreund licher
ĠBel ange
Ġein stimm
Cl ub
k elt
Ġpf legt
ĠEnt zÃ¼ndung
ĠBesch leun
ant a
ĠGeburtstag s
ĠW ith
sch iffe
o ugh
ver fÃ¼
ĠAuseinander setzungen
ĠB orn
ĠGewinn chancen
ĠÐ ´
leiter in
krit ik
ĠK uss
r ika
ĠÐ º
d Ã¼n
ĠSachver halt
hÃ¼ llt
Ġeingeb racht
ĠL Ã¤ngen
ĠWelt krie
ĠDre ck
ĠTha i
st ich
ĠL od
Ġre det
st einer
drÃ¼ck e
Ġn ame
ul ierten
h ern
au ce
Ġge lin
ĠFot zen
ĠDaten banken
stechnik en
ĠgegenwÃ¤r tig
ĠJac ob
Ġ196 2
Ġo h
I m
Ġauf passen
omat ic
ĠJ ura
ĠTeil habe
u bst
ĠAb wesen
Ġum her
ster i
ĠfrÃ¶h lich
n isch
Ġstimm ungs
ĠTelefon nummern
W S
Ġpro gress
ĠKÃ¼r bis
ĠErzÃ¤hl ung
o der
Ġbef ragt
ĠBrig itte
ĠProzess or
ĠK L
ĠPu zz
st opp
ĠE re
Ġab weichen
ĠVer vielfÃ¤l
Ġsch liesslich
wa ffe
Ġangenehm es
ĠAuff Ã¼hrung
ĠVict oria
ĠSt ief
ĠRuhe stand
ĠGe hm
ĠFeiert agen
ĠErk Ã¤lt
wei ser
ĠH armon
ivi den
Ġbei ds
ĠGroÃŁ stadt
ĠPlan en
Ġkan ad
ĠFl irten
Ġevangel ischen
ĠPer man
ĠAus be
ĠL CD
Ġpfle gel
Ġgesch Ã¼tzten
ĠFort geschritten
Ġfot o
ĠWa ppen
ĠBetrach ter
ĠF at
Ġarab ischen
ĠWir ken
Ġ/ >
Ġverkauf e
ĠNetzt eil
Ġeinge treten
Ġinterpret iert
ĠLt d
ĠfÃ¼r chten
sch alen
st rÃ¤n
Ġkop iert
ch sen
Ġl Ã¤cher
ĠZim t
ĠMus lim
ussen dlich
ĠPig ment
Ġb ox
Ġar tikel
Ġbl ick
ĠAtt rib
ĠEr mittler
ĠDem entsprechend
ĠKann st
ĠSchl ange
ĠHer o
ĠS amt
omet rie
ĠY our
sver trag
her ein
ĠWo od
d rin
ca fe
ĠAlp ha
Ġspeziell es
ĠC B
aku um
Ġfest genommen
ĠC lo
ĠT y
ish ing
Ġsignif ik
ĠBer gst
Ġabge zogen
k ante
ĠAben te
ĠVin yl
f ick
ĠMail and
ma kler
Ġrecht fertigen
ĠBehinder ten
Ġdiplom arbeit
ti zip
hÃ¶ fen
Ġganz er
ĠStell vertreter
ibl en
ĠAr c
bo ards
ge ll
ĠSonnen aufgang
Ġs i
l ot
p ension
ĠA chs
w urst
ste cher
bl asen
Ġsyn th
bes ucher
f ia
rechn ungen
ĠPer iode
ĠIngenie ure
inde x
ĠSchwÃ¤ bisch
Ġbew ahrt
Ġkomp akte
Ġverein facht
ĠAb kÃ¼r
ch ange
Ġsp rang
ĠSw itch
ommun ikation
inder t
Ġoffen bart
ĠPil ger
Ð ±
ĠB Ver
ction s
ĠF M
Ġ) "
te ams
sch alt
ĠStre aming
ol ie
ĠT we
Ġauszu Ã¼ben
Ġdis sertation
Ġd icker
Ġl ike
Ġger iet
Ġhistor ischer
es kop
ĠBundes lÃ¤nder
ub a
ĠDiskrimin ierung
et al
ĠCar sten
ĠSti cker
li ffen
ĠTal k
Ġum gewandelt
ste her
ĠSpe ck
Ġuntersch rieben
Ġp interest
ĠNationalso zialismus
ĠbewÃ¤hr te
ĠBel ohnung
Ġcon tent
ĠL ith
Ġbe ziehung
ĠVolle yball
ĠHoch wertige
ĠHoff entlich
ĠBes eitigung
ĠBer ger
ĠR AM
Ġkrei eren
ĠS Ã¤tzen
ĠMach ine
ack el
ĠB attle
ĠAl i
in ett
athl on
ĠKolleg innen
Ġgl eiten
ĠT os
ĠF ox
ĠR B
AR D
AT E
ĠL S
ĠSoph ie
Ġei s
ĠW S
ĠApp etit
h Ã¤u
Ġbedeutend sten
ĠKreu zung
ild ing
ĠDÃ¼sseld orfer
ĠannÃ¤h ernd
Ġw isst
fÃ¤ ÃŁe
[...]
