{
    "<pad>": 0,
    "<s>": 1,
    "</s>": 2,
    "<unk>": 3,
    "<mask>": 4,
    "!": 5,
    "\"": 6,
    "#": 7,
    "$": 8,
    "%": 9,
    "&": 10,
    "'": 11,
    "(": 12,
    ")": 13,
    "*": 14,
    "+": 15,
    ",": 16,
    "-": 17,
    ".": 18,
    "/": 19,
    "0": 20,
    "1": 21,
    "2": 22,
    "3": 23,
    "4": 24,
    "5": 25,
    "6": 26,
    "7": 27,
    "8": 28,
    "9": 29,
    ":": 30,
    ";": 31,
    "<": 32,
    "=": 33,
    ">": 34,
    "?": 35,
    "@": 36,
    "A": 37,
    "B": 38,
    "C": 39,
    "D": 40,
    "E": 41,
    "F": 42,
    "G": 43,
    "H": 44,
    "I": 45,
    "J": 46,
    "K": 47,
    "L": 48,
    "M": 49,
    "N": 50,
    "O": 51,
    "P": 52,
    "Q": 53,
    "R": 54,
    "S": 55,
    "T": 56,
    "U": 57,
    "V": 58,
    "W": 59,
    "X": 60,
    "Y": 61,
    "Z": 62,
    "[": 63,
    "\\": 64,
    "]": 65,
    "^": 66,
    "_": 67,
    "`": 68,
    "a": 69,
    "b": 70,
    "c": 71,
    "d": 72,
    "e": 73,
    "f": 74,
    "g": 75,
    "h": 76,
    "i": 77,
    "j": 78,
    "k": 79,
    "l": 80,
    "m": 81,
    "n": 82,
    "o": 83,
    "p": 84,
    "q": 85,
    "r": 86,
    "s": 87,
    "t": 88,
    "u": 89,
    "v": 90,
    "w": 91,
    "x": 92,
    "y": 93,
    "z": 94,
    "{": 95,
    "|": 96,
    "}": 97,
    "~": 98,
    "¡": 99,
    "¢": 100,
    "£": 101,
    "¤": 102,
    "¥": 103,
    "¦": 104,
    "§": 105,
    "¨": 106,
    "©": 107,
    "ª": 108,
    "«": 109,
    "¬": 110,
    "®": 111,
    "¯": 112,
    "°": 113,
    "±": 114,
    "²": 115,
    "³": 116,
    "´": 117,
    "µ": 118,
    "¶": 119,
    "·": 120,
    "¸": 121,
    "¹": 122,
    "º": 123,
    "»": 124,
    "¼": 125,
    "½": 126,
    "¾": 127,
    "¿": 128,
    "À": 129,
    "Á": 130,
    "Â": 131,
    "Ã": 132,
    "Ä": 133,
    "Å": 134,
    "Æ": 135,
    "Ç": 136,
    "È": 137,
    "É": 138,
    "Ê": 139,
    "Ë": 140,
    "Ì": 141,
    "Í": 142,
    "Î": 143,
    "Ï": 144,
    "Ð": 145,
    "Ñ": 146,
    "Ò": 147,
    "Ó": 148,
    "Ô": 149,
    "Õ": 150,
    "Ö": 151,
    "×": 152,
    "Ø": 153,
    "Ù": 154,
    "Ú": 155,
    "Û": 156,
    "Ü": 157,
    "Ý": 158,
    "Þ": 159,
    "ß": 160,
    "à": 161,
    "á": 162,
    "â": 163,
    "ã": 164,
    "ä": 165,
    "å": 166,
    "æ": 167,
    "ç": 168,
    "è": 169,
    "é": 170,
    "ê": 171,
    "ë": 172,
    "ì": 173,
    "í": 174,
    "î": 175,
    "ï": 176,
    "ð": 177,
    "ñ": 178,
    "ò": 179,
    "ó": 180,
    "ô": 181,
    "õ": 182,
    "ö": 183,
    "÷": 184,
    "ø": 185,
    "ù": 186,
    "ú": 187,
    "û": 188,
    "ü": 189,
    "ý": 190,
    "þ": 191,
    "ÿ": 192,
    "Ā": 193,
    "ā": 194,
    "Ă": 195,
    "ă": 196,
    "Ą": 197,
    "ą": 198,
    "Ć": 199,
    "ć": 200,
    "Ĉ": 201,
    "ĉ": 202,
    "Ċ": 203,
    "ċ": 204,
    "Č": 205,
    "č": 206,
    "Ď": 207,
    "ď": 208,
    "Đ": 209,
    "đ": 210,
    "Ē": 211,
    "ē": 212,
    "Ĕ": 213,
    "ĕ": 214,
    "Ė": 215,
    "ė": 216,
    "Ę": 217,
    "ę": 218,
    "Ě": 219,
    "ě": 220,
    "Ĝ": 221,
    "ĝ": 222,
    "Ğ": 223,
    "ğ": 224,
    "Ġ": 225,
    "ġ": 226,
    "Ģ": 227,
    "ģ": 228,
    "Ĥ": 229,
    "ĥ": 230,
    "Ħ": 231,
    "ħ": 232,
    "Ĩ": 233,
    "ĩ": 234,
    "Ī": 235,
    "ī": 236,
    "Ĭ": 237,
    "ĭ": 238,
    "Į": 239,
    "į": 240,
    "İ": 241,
    "ı": 242,
    "Ĳ": 243,
    "ĳ": 244,
    "Ĵ": 245,
    "ĵ": 246,
    "Ķ": 247,
    "ķ": 248,
    "ĸ": 249,
    "Ĺ": 250,
    "ĺ": 251,
    "Ļ": 252,
    "ļ": 253,
    "Ľ": 254,
    "ľ": 255,
    "Ŀ": 256,
    "ŀ": 257,
    "Ł": 258,
    "ł": 259,
    "Ń": 260,
    "en": 261,
    "er": 262,
    "ch": 263,
    "Ġd": 264,
    "ei": 265,
    "un": 266,
    "ie": 267,
    "Ġ.": 268,
    "st": 269,
    "Ġ,": 270,
    "in": 271,
    "an": 272,
    "Ġs": 273,
    "ein": 274,
    "ich": 275,
    "es": 276,
    "Ġa": 277,
    "ĠS": 278,
    "Ġw": 279,
    "Ġun": 280,
    "Ã¼": 281,
    "on": 282,
    "ge": 283,
    "te": 284,
    "Ġm": 285,
    "Ġund": 286,
    "Ġdie": 287,
    "Ã¤": 288,
    "ĠD": 289,
    "as": 290,
    "ll": 291,
    "Ġv": 292,
    "ung": 293,
    "ĠA": 294,
    "Ġein": 295,
    "it": 296,
    "Ġb": 297,
    "ar": 298,
    "sch": 299,
    "Ġder": 300,
    "or": 301,
    "ĠB": 302,
    "at": 303,
    "Ġn": 304,
    "Ġi": 305,
    "Ġz": 306,
    "hr": 307,
    "Ġau": 308,
    "ten": 309,
    "ur": 310,
    "ĠM": 311,
    "gen": 312,
    "al": 313,
    "em": 314,
    "der": 315,
    "Ġh": 316,
    "ĠE": 317,
    "Ġf": 318,
    "au": 319,
    "Ġin": 320,
    "ĠF": 321,
    "ter": 322,
    "ĠK": 323,
    "ĠW": 324,
    "Ġk": 325,
    "den": 326,
    "ĠG": 327,
    "el": 328,
    "Ã¶": 329,
    "et": 330,
    "ĠP": 331,
    "Ġzu": 332,
    "lich": 333,
    "ir": 334,
    "Ġg": 335,
    "ĠI": 336,
    "ach": 337,
    "ti": 338,
    "ber": 339,
    "ĠH": 340,
    "ĠT": 341,
    "Ã¼r": 342,
    "de": 343,
    "ĠV": 344,
    "Ġdas": 345,
    "eit": 346,
    "Ġge": 347,
    "ck": 348,
    "ĠL": 349,
    "ĠR": 350,
    "Ġden": 351,
    "ier": 352,
    "mm": 353,
    "Ġmit": 354,
    "ro": 355,
    "ben": 356,
    "Ġer": 357,
    "Ġan": 358,
    "is": 359,
    "icht": 360,
    "re": 361,
    "us": 362,
    "Ġ1": 363,
    "Ġvon": 364,
    "Ġist": 365,
    "ra": 366,
    "âĢ": 367,
    "Ġauf": 368,
    "ig": 369,
    "le": 370,
    "ĠN": 371,
    "sen": 372,
    "ste": 373,
    "ut": 374,
    "ĠU": 375,
    "ÃŁ": 376,
    "ĠâĢ": 377,
    "se": 378,
    "Ġver": 379,
    "isch": 380,
    "ĠfÃ¼r": 381,
    "um": 382,
    "Ġo": 383,
    "and": 384,
    "ann": 385,
    "am": 386,
    "Ġl": 387,
    "ol": 388,
    "il": 389,
    "Ġ:": 390,
    "rei": 391,
    "ĠZ": 392,
    "Ġ2": 393,
    "Ġbe": 394,
    "ent": 395,
    "Ġsich": 396,
    "Ġso": 397,
    "ĠDie": 398,
    "Ġnicht": 399,
    "Ġwir": 400,
    "ĠSch": 401,
    "nen": 402,
    "Ġsch": 403,
    "ft": 404,
    "Ġ(": 405,
    "och": 406,
    "Ġim": 407,
    "ion": 408,
    "ĠSt": 409,
    "ser": 410,
    "Ġaus": 411,
    "ĠJ": 412,
    "ls": 413,
    "Ġp": 414,
    "ĠVer": 415,
    "ne": 416,
    "Ġ)": 417,
    "Ġeine": 418,
    "be": 419,
    "ind": 420,
    "Ġdes": 421,
    "Ġauch": 422,
    "Ġes": 423,
    "ĠC": 424,
    "ĠIn": 425,
    "ahr": 426,
    "hl": 427,
    "ff": 428,
    "Ġdem": 429,
    "om": 430,
    "ĠSie": 431,
    "uch": 432,
    "kt": 433,
    "ĠO": 434,
    "ehr": 435,
    "ĠAn": 436,
    "Ġbei": 437,
    "ag": 438,
    "sten": 439,
    "sp": 440,
    "Ġt": 441,
    "Ã¼ber": 442,
    "iel": 443,
    "Ã¤n": 444,
    "ungen": 445,
    "Ġj": 446,
    "ing": 447,
    "eu": 448,
    "Ġwer": 449,
    "Ġwie": 450,
    "eich": 451,
    "Ġich": 452,
    "lle": 453,
    "Ġals": 454,
    "Ġoder": 455,
    "Ġ\"": 456,
    "etz": 457,
    "ĠÃ¼ber": 458,
    "llen": 459,
    "ien": 460,
    "esch": 461,
    "ik": 462,
    "Ġha": 463,
    "hen": 464,
    "ver": 465,
    "hm": 466,
    "ĠEin": 467,
    "wei": 468,
    "Ġwerden": 469,
    "ĠUn": 470,
    "Ġhat": 471,
    "ĠEr": 472,
    "Ã¶n": 473,
    "Ġsind": 474,
    "ern": 475,
    "ĠBe": 476,
    "Ġ-": 477,
    "omm": 478,
    "und": 479,
    "Ġ20": 480,
    "Ġsein": 481,
    "enn": 482,
    "Ġsie": 483,
    "Ġda": 484,
    "ation": 485,
    "os": 486,
    "ot": 487,
    "Ġvor": 488,
    "chen": 489,
    "hn": 490,
    "Ġum": 491,
    "uf": 492,
    "eil": 493,
    "ĠSp": 494,
    "he": 495,
    "tig": 496,
    "Ġnach": 497,
    "ungs": 498,
    "ort": 499,
    "ri": 500,
    "urch": 501,
    "ischen": 502,
    "rau": 503,
    "Ġdass": 504,
    "Ġe": 505,
    "Ġst": 506,
    "Ġihr": 507,
    "ĠGe": 508,
    "ĠRe": 509,
    "Ã¼n": 510,
    "Ġwird": 511,
    "Ġwar": 512,
    "Ã¤t": 513,
    "hal": 514,
    "ul": 515,
    "ger": 516,
    "anz": 517,
    "Ġ/": 518,
    "ĠPro": 519,
    "ad": 520,
    "Ġeinen": 521,
    "ab": 522,
    "aus": 523,
    "gt": 524,
    "pp": 525,
    "end": 526,
    "Ġ3": 527,
    "Ġeiner": 528,
    "ĠDas": 529,
    "la": 530,
    "Ġr": 531,
    "wer": 532,
    "kti": 533,
    "eine": 534,
    "Ġman": 535,
    "Ġzum": 536,
    "Ġkann": 537,
    "tet": 538,
    "all": 539,
    "ang": 540,
    "cht": 541,
    "Ġ;": 542,
    "auf": 543,
    "ht": 544,
    "Ġeinem": 545,
    "Ġnoch": 546,
    "ĠDer": 547,
    "scha": 548,
    "ĠkÃ¶n": 549,
    "Ġam": 550,
    "eiter": 551,
    "Ġzur": 552,
    "Ġab": 553,
    "Ġent": 554,
    "Ã¼ck": 555,
    "00": 556,
    "ĠAr": 557,
    "Ġdurch": 558,
    "ick": 559,
    "pf": 560,
    "zen": 561,
    "bt": 562,
    "Ã¶r": 563,
    "mmer": 564,
    "her": 565,
    "stell": 566,
    "zu": 567,
    "Ġ!": 568,
    "ĠâĢľ": 569,
    "Ġunter": 570,
    "iv": 571,
    "ster": 572,
    "ĠMit": 573,
    "Ġnur": 574,
    "ru": 575,
    "ĠJahr": 576,
    "ĠAus": 577,
    "orm": 578,
    "lichen": 579,
    "ner": 580,
    "rÃ¤": 581,
    "igen": 582,
    "..": 583,
    "Ġaber": 584,
    "Ġje": 585,
    "art": 586,
    "Ġhaben": 587,
    "ĠâĢŀ": 588,
    "iert": 589,
    "Ã¤r": 590,
    "rie": 591,
    "fÃ¼": 592,
    "Ġ?": 593,
    "eiten": 594,
    "Ġsp": 595,
    "che": 596,
    "Ġall": 597,
    "Ġ201": 598,
    "ank": 599,
    "Ġmehr": 600,
    "lie": 601,
    "ische": 602,
    "ÌĪ": 603,
    "gel": 604,
    "uss": 605,
    "ĠIhr": 606,
    "Ġwur": 607,
    "ige": 608,
    "liche": 609,
    "ĠâĢĵ": 610,
    "ieren": 611,
    "geb": 612,
    "hmen": 613,
    "op": 614,
    "Ġbis": 615,
    "Ġunser": 616,
    "schaft": 617,
    "og": 618,
    "lin": 619,
    "ĠEn": 620,
    "ĠkÃ¶nnen": 621,
    "acht": 622,
    "Ġ5": 623,
    "elt": 624,
    "oll": 625,
    "Ġ4": 626,
    "ers": 627,
    "ahl": 628,
    "tel": 629,
    "schen": 630,
    "ess": 631,
    "bar": 632,
    "atz": 633,
    "Ġde": 634,
    "we": 635,
    "bl": 636,
    "aten": 637,
    "Ġander": 638,
    "ĠBer": 639,
    "ommen": 640,
    "keit": 641,
    "dern": 642,
    "Ġdies": 643,
    "assen": 644,
    "arb": 645,
    "ĠDe": 646,
    "ass": 647,
    "Ġre": 648,
    "lei": 649,
    "est": 650,
    "ze": 651,
    "ĠWir": 652,
    "Ġneu": 653,
    "ĠAb": 654,
    "Ġ...": 655,
    "ĠVor": 656,
    "glich": 657,
    "ĠAuf": 658,
    "ist": 659,
    "rÃ¼": 660,
    "mal": 661,
    "tern": 662,
    "Ġwenn": 663,
    "Ġc": 664,
    "heit": 665,
    "Ġuns": 666,
    "ert": 667,
    "ill": 668,
    "schl": 669,
    "ĠEs": 670,
    "Ġ0": 671,
    "ĠIch": 672,
    "etzt": 673,
    "ĠSe": 674,
    "ĠUnter": 675,
    "fen": 676,
    "utz": 677,
    "Ã¤hr": 678,
    "du": 679,
    "ffen": 680,
    "ÃŁen": 681,
    "eigen": 682,
    "ĠGr": 683,
    "Ġber": 684,
    "rit": 685,
    "Ġwo": 686,
    "Ġdann": 687,
    "amm": 688,
    "unden": 689,
    "ĠLe": 690,
    "Ġkl": 691,
    "ges": 692,
    "ĠÂ": 693,
    "ell": 694,
    "ont": 695,
    "ant": 696,
    "Ġ19": 697,
    "Ġweiter": 698,
    "Ġsehr": 699,
    "ild": 700,
    "zi": 701,
    "fe": 702,
    "bst": 703,
    "leich": 704,
    "ken": 705,
    "Ġwurde": 706,
    "Ġbes": 707,
    "Ġwas": 708,
    "ĠSo": 709,
    "Ġgen": 710,
    "Ġges": 711,
    "Ġwieder": 712,
    "ok": 713,
    "ĠZu": 714,
    "fahr": 715,
    "Ġdar": 716,
    "ic": 717,
    "ktion": 718,
    "ĠAu": 719,
    "ed": 720,
    "pl": 721,
    "Ġsoll": 722,
    "ss": 723,
    "nis": 724,
    "wie": 725,
    "age": 726,
    "alt": 727,
    "ĠBei": 728,
    "imm": 729,
    "Ġet": 730,
    "war": 731,
    "ap": 732,
    "Ġschon": 733,
    "form": 734,
    "Ġhier": 735,
    "ob": 736,
    "dem": 737,
    "Ġimmer": 738,
    "ibt": 739,
    "Ġviel": 740,
    "Ġste": 741,
    "kl": 742,
    "gr": 743,
    "ĠHer": 744,
    "Ã¤l": 745,
    "Ġlie": 746,
    "Ġdiese": 747,
    "iz": 748,
    "Ġ6": 749,
    "Ġger": 750,
    "ĠWe": 751,
    "ho": 752,
    "ÃŁe": 753,
    "per": 754,
    "ĠZeit": 755,
    "ast": 756,
    "Ġhin": 757,
    "rag": 758,
    "iele": 759,
    "Ã¶glich": 760,
    "mit": 761,
    "Ġgro": 762,
    "ha": 763,
    "einen": 764,
    "fach": 765,
    "ĠNach": 766,
    "eits": 767,
    "ĠUm": 768,
    "ler": 769,
    "Ġher": 770,
    "ekt": 771,
    "Ġgibt": 772,
    "na": 773,
    "Ġganz": 774,
    "Ġgew": 775,
    "fer": 776,
    "Ã¼t": 777,
    "hnen": 778,
    "ark": 779,
    "Ã¤ch": 780,
    "lo": 781,
    "Ġvom": 782,
    "hne": 783,
    "ak": 784,
    "Ġhabe": 785,
    "Ġsel": 786,
    "Ġse": 787,
    "achen": 788,
    "Ġmir": 789,
    "schie": 790,
    "att": 791,
    "osten": 792,
    "ĠIm": 793,
    "fol": 794,
    "itÃ¤t": 795,
    "gend": 796,
    "ack": 797,
    "eld": 798,
    "bei": 799,
    "ĠMen": 800,
    "eln": 801,
    "Ġalle": 802,
    "ÂŃ": 803,
    "ĠTe": 804,
    "Ġzwei": 805,
    "Ġetw": 806,
    "ĠGesch": 807,
    "inden": 808,
    "dig": 809,
    "im": 810,
    "ĠKl": 811,
    "ĠAl": 812,
    "ĠGes": 813,
    "chn": 814,
    "halten": 815,
    "ĠMa": 816,
    "fl": 817,
    "Ġdieser": 818,
    "onder": 819,
    "ĠBl": 820,
    "Ġmich": 821,
    "ĠEnt": 822,
    "los": 823,
    "fÃ¼hr": 824,
    "pt": 825,
    "Ġdu": 826,
    "Ġ7": 827,
    "ĠOr": 828,
    "ĠUnd": 829,
    "Ġle": 830,
    "inder": 831,
    "Ġ8": 832,
    "zeit": 833,
    "Ġgegen": 834,
    "qu": 835,
    "ragen": 836,
    "tigen": 837,
    "nehmen": 838,
    "ĠArb": 839,
    "rin": 840,
    "ichtig": 841,
    "ĠWas": 842,
    "Ġgem": 843,
    "ale": 844,
    "reis": 845,
    "bur": 846,
    "ohn": 847,
    "Ġgut": 848,
    "ĠDeut": 849,
    "Ġkon": 850,
    "ett": 851,
    "sche": 852,
    "eite": 853,
    "ĠAm": 854,
    "ÃŁer": 855,
    "ud": 856,
    "Ġ9": 857,
    "Ã¼hr": 858,
    "Ġeigen": 859,
    "aut": 860,
    "agen": 861,
    "Ġeinfach": 862,
    "kte": 863,
    "adt": 864,
    "ĠDa": 865,
    "ĠWer": 866,
    "ord": 867,
    "ĠPl": 868,
    "gesch": 869,
    "hem": 870,
    "ammen": 871,
    "Ġmein": 872,
    "Ġkeine": 873,
    "ĠFl": 874,
    "cken": 875,
    "issen": 876,
    "lau": 877,
    "Ġsowie": 878,
    "Ġ10": 879,
    "ĠFr": 880,
    "ationen": 881,
    "Ġeines": 882,
    "ĠSpiel": 883,
    "ate": 884,
    "iger": 885,
    "inn": 886,
    "lung": 887,
    "reich": 888,
    "vor": 889,
    "angen": 890,
    "sam": 891,
    "Ã¼s": 892,
    "ierung": 893,
    "amit": 894,
    "Ġbek": 895,
    "Ġohne": 896,
    "alen": 897,
    "Ã¶ch": 898,
    "Ġ).": 899,
    "eist": 900,
    "Ġ|": 901,
    "Ġmal": 902,
    "ĠKon": 903,
    "od": 904,
    "Ġson": 905,
    "ucht": 906,
    "ĠLeben": 907,
    "ga": 908,
    "Ġpro": 909,
    "Ġgesch": 910,
    "wischen": 911,
    "id": 912,
    "Ġne": 913,
    "itz": 914,
    "stellt": 915,
    "tige": 916,
    "eute": 917,
    "ĠEur": 918,
    "ĠSte": 919,
    "ele": 920,
    "ke": 921,
    "Ġihre": 922,
    "Ġselbst": 923,
    "esen": 924,
    "erson": 925,
    "Ġbet": 926,
    "stÃ¤n": 927,
    "wick": 928,
    "hlen": 929,
    "Ġ200": 930,
    "eim": 931,
    "bs": 932,
    "zie": 933,
    "reu": 934,
    "Ġwen": 935,
    "atur": 936,
    "teil": 937,
    "stand": 938,
    "ding": 939,
    "aum": 940,
    "icher": 941,
    "Ġbeim": 942,
    "ativ": 943,
    "ĠCh": 944,
    "unde": 945,
    "ĠFrau": 946,
    "ĠHand": 947,
    "br": 948,
    "ĠLand": 949,
    "Ġgr": 950,
    "spiel": 951,
    "ade": 952,
    "ĠQ": 953,
    "ĠDaten": 954,
    "ktiv": 955,
    "ĠFÃ¼r": 956,
    "Ġwel": 957,
    "Ã¶ff": 958,
    "ĠMar": 959,
    "hÃ¶r": 960,
    "Ġmuss": 961,
    "Ġhatte": 962,
    "ater": 963,
    "geben": 964,
    "Ġdiesem": 965,
    "ug": 966,
    "Ġetwas": 967,
    "weise": 968,
    "ĠDu": 969,
    "ĠWie": 970,
    "ĠRo": 971,
    "tion": 972,
    "ce": 973,
    "wend": 974,
    "Ã¤u": 975,
    "off": 976,
    "ĠNe": 977,
    "Ġzus": 978,
    "Ġdeut": 979,
    "fall": 980,
    "ĠWenn": 981,
    "me": 982,
    "zeu": 983,
    "arten": 984,
    "ran": 985,
    "Ġange": 986,
    "no": 987,
    "ften": 988,
    "Ġdir": 989,
    "Ġbie": 990,
    "Ġseine": 991,
    "satz": 992,
    "ĠBet": 993,
    "nte": 994,
    "ia": 995,
    "eren": 996,
    "ĠMenschen": 997,
    "Ġins": 998,
    "Ġanderen": 999,
    "Ġ),": 1000,
    "ĠQu": 1001,
    "pro": 1002,
    "ĠGer": 1003,
    "line": 1004,
    "spr": 1005,
    "Ġ00": 1006,
    "halt": 1007,
    "ust": 1008,
    "Ġ&": 1009,
    "for": 1010,
    "Ġ18": 1011,
    "net": 1012,
    "zt": 1013,
    "stem": 1014,
    "ard": 1015,
    "aufen": 1016,
    "Ġ12": 1017,
    "ĠMo": 1018,
    "gung": 1019,
    "ay": 1020,
    "bo": 1021,
    "Ġwe": 1022,
    "Ġob": 1023,
    "Ġgel": 1024,
    "arbeit": 1025,
    "ommt": 1026,
    "Ġdamit": 1027,
    "gl": 1028,
    "ĠLie": 1029,
    "cher": 1030,
    "ĠProdu": 1031,
    "Ġgleich": 1032,
    "bau": 1033,
    "Ġja": 1034,
    "ĠIhre": 1035,
    "omp": 1036,
    "uten": 1037,
    "ierte": 1038,
    "ĠTeil": 1039,
    "ĠHa": 1040,
    "Ġfinden": 1041,
    "ute": 1042,
    "Ġ15": 1043,
    "Ġausge": 1044,
    "Ġneue": 1045,
    "amen": 1046,
    "hand": 1047,
    "stimm": 1048,
    "eicht": 1049,
    "Ġerst": 1050,
    "ĠHo": 1051,
    "ĠTag": 1052,
    "Ġmachen": 1053,
    "ĠRei": 1054,
    "ĠKinder": 1055,
    "ĠBo": 1056,
    "Ġdoch": 1057,
    "ĠAut": 1058,
    "ma": 1059,
    "ĠAll": 1060,
    "stellen": 1061,
    "Ġgeht": 1062,
    "Ġgef": 1063,
    "ĠSex": 1064,
    "burg": 1065,
    "oren": 1066,
    "rechen": 1067,
    "ange": 1068,
    "halb": 1069,
    "kel": 1070,
    "ruck": 1071,
    "ide": 1072,
    "ĠmÃ¼s": 1073,
    "ition": 1074,
    "ĠGrund": 1075,
    "ĠJahren": 1076,
    "ĠâĢ¦": 1077,
    "ichte": 1078,
    "ystem": 1079,
    "vers": 1080,
    "Ã¤lt": 1081,
    "Ġjetzt": 1082,
    "ĠEine": 1083,
    "ĠKo": 1084,
    "ĠBes": 1085,
    "Ã¤d": 1086,
    "ine": 1087,
    "Ġviele": 1088,
    "io": 1089,
    "schieden": 1090,
    "uchen": 1091,
    "dr": 1092,
    "Ġal": 1093,
    "Ġbeg": 1094,
    "ĠAuch": 1095,
    "Ġkein": 1096,
    "schland": 1097,
    "Ġdenn": 1098,
    "ĠAls": 1099,
    "eid": 1100,
    "bes": 1101,
    "men": 1102,
    "Ġalles": 1103,
    "Ġzwischen": 1104,
    "ĠÂ»": 1105,
    "sst": 1106,
    "rank": 1107,
    "inde": 1108,
    "ĠBr": 1109,
    "ĠwÃ¼r": 1110,
    "eiÃŁ": 1111,
    "ĠIhnen": 1112,
    "ue": 1113,
    "Ġwurden": 1114,
    "ĠMan": 1115,
    "dert": 1116,
    "Ã¶s": 1117,
    "atÃ¼r": 1118,
    "zeich": 1119,
    "gang": 1120,
    "Ġnun": 1121,
    "ĠStadt": 1122,
    "zahl": 1123,
    "ren": 1124,
    "Ġsondern": 1125,
    "Ġ'": 1126,
    "Ġlassen": 1127,
    "Ġ11": 1128,
    "rad": 1129,
    "Ġjed": 1130,
    "zent": 1131,
    "ĠDiese": 1132,
    "Ġwaren": 1133,
    "ats": 1134,
    "keiten": 1135,
    "Ġseit": 1136,
    "stellung": 1137,
    "ĠWelt": 1138,
    "ial": 1139,
    "our": 1140,
    "fahren": 1141,
    "ischer": 1142,
    "setz": 1143,
    "Ġbin": 1144,
    "tag": 1145,
    "lage": 1146,
    "Ġschne": 1147,
    "kommen": 1148,
    "tem": 1149,
    "hol": 1150,
    "land": 1151,
    "ichten": 1152,
    "ĠMus": 1153,
    "Ġeben": 1154,
    "mer": 1155,
    "mittel": 1156,
    "wo": 1157,
    "ĠPerson": 1158,
    "rupp": 1159,
    "hin": 1160,
    "Ã¤re": 1161,
    "Ġ%": 1162,
    "ander": 1163,
    "sk": 1164,
    "Ġdabei": 1165,
    "ahn": 1166,
    "gem": 1167,
    "akt": 1168,
    "bild": 1169,
    "Ġsollte": 1170,
    "esse": 1171,
    "xt": 1172,
    "ĠVers": 1173,
    "annt": 1174,
    "ĠDeutschland": 1175,
    "Ġbesonder": 1176,
    "Ġunsere": 1177,
    "ĠInform": 1178,
    "aupt": 1179,
    "Ġbereits": 1180,
    "chs": 1181,
    "Ġeinz": 1182,
    "asse": 1183,
    "fÃ¼r": 1184,
    "ĠFahr": 1185,
    "ĠNeu": 1186,
    "uer": 1187,
    "unter": 1188,
    "ĠMon": 1189,
    "amt": 1190,
    "innen": 1191,
    "ĠUhr": 1192,
    "Ġandere": 1193,
    "ĠAber": 1194,
    "ow": 1195,
    "Ġersten": 1196,
    "anden": 1197,
    "eig": 1198,
    "urz": 1199,
    "Ġaller": 1200,
    "ĠHaus": 1201,
    "ite": 1202,
    "fte": 1203,
    "ĠMin": 1204,
    "Ġdieses": 1205,
    "ĠmÃ¶ch": 1206,
    "ĠSon": 1207,
    "ĠJahre": 1208,
    "ĠPart": 1209,
    "undes": 1210,
    "lieÃŁ": 1211,
    "licher": 1212,
    "ĠGl": 1213,
    "ache": 1214,
    "Ġseiner": 1215,
    "enden": 1216,
    "ĠBild": 1217,
    "richt": 1218,
    "rage": 1219,
    "stehen": 1220,
    "ks": 1221,
    "olog": 1222,
    "unktion": 1223,
    "Ġverl": 1224,
    "gleich": 1225,
    "ĠUnternehmen": 1226,
    "essen": 1227,
    "ald": 1228,
    "Ġletz": 1229,
    "ĠPol": 1230,
    "wir": 1231,
    "Ġbesch": 1232,
    "ĠGew": 1233,
    "Ġar": 1234,
    "Ġnie": 1235,
    "stag": 1236,
    "rot": 1237,
    "igkeit": 1238,
    "gra": 1239,
    "orden": 1240,
    "ĠKont": 1241,
    "blem": 1242,
    "Ġalso": 1243,
    "ĠReg": 1244,
    "ĠmÃ¶glich": 1245,
    "alitÃ¤t": 1246,
    "ium": 1247,
    "Ġwill": 1248,
    "reichen": 1249,
    "Ġkommen": 1250,
    "ĠCo": 1251,
    "lagen": 1252,
    "ĠWoch": 1253,
    "Ġper": 1254,
    "ĠWei": 1255,
    "ĠzurÃ¼ck": 1256,
    "ult": 1257,
    "Ġheute": 1258,
    "ĠHier": 1259,
    "Ġte": 1260,
    "ĠIntern": 1261,
    "amil": 1262,
    "Ã¤hl": 1263,
    "ĠmÃ¼ssen": 1264,
    "min": 1265,
    "hme": 1266,
    "Ġgest": 1267,
    "ĠFre": 1268,
    "Ġzusammen": 1269,
    "indet": 1270,
    "eiden": 1271,
    "Ã¤uf": 1272,
    "berg": 1273,
    "Ġ16": 1274,
    "ĠThem": 1275,
    "ub": 1276,
    "Ġverschieden": 1277,
    "heim": 1278,
    "folg": 1279,
    "Ġkosten": 1280,
    "ĠArbeit": 1281,
    "Ġdrei": 1282,
    "auer": 1283,
    "Ġ30": 1284,
    "so": 1285,
    "Ã¤tz": 1286,
    "unkt": 1287,
    "hÃ¤lt": 1288,
    "Ġunserer": 1289,
    "ive": 1290,
    "atÃ¼rlich": 1291,
    "uÃŁ": 1292,
    "Ġ14": 1293,
    "ĠFe": 1294,
    "Ġweil": 1295,
    "ĠZus": 1296,
    "ĠDies": 1297,
    "zw": 1298,
    "zei": 1299,
    "nung": 1300,
    "sicht": 1301,
    "ĠSchl": 1302,
    "ogen": 1303,
    "ĠStra": 1304,
    "Ġneuen": 1305,
    "tt": 1306,
    "Ġdazu": 1307,
    "trag": 1308,
    "erv": 1309,
    "ere": 1310,
    "ian": 1311,
    "Ġsei": 1312,
    "uche": 1313,
    "ens": 1314,
    "Ġ[": 1315,
    "Ã¤hrend": 1316,
    "ĠRa": 1317,
    "wert": 1318,
    "tschaft": 1319,
    "ierten": 1320,
    "Ġschnell": 1321,
    "ende": 1322,
    "entlich": 1323,
    "Ã¼nst": 1324,
    "ĠDes": 1325,
    "Ġkommt": 1326,
    "klich": 1327,
    "Ġ2018": 1328,
    "Ġ17": 1329,
    "haus": 1330,
    "Ã¶l": 1331,
    "ĠDurch": 1332,
    "alten": 1333,
    "ĠMe": 1334,
    "ritt": 1335,
    "Ġihrer": 1336,
    "ov": 1337,
    "Ġdiesen": 1338,
    "Ġmeine": 1339,
    "ĠSchw": 1340,
    "ĠRecht": 1341,
    "reiben": 1342,
    "ĠWasser": 1343,
    "ĠfÃ¼hr": 1344,
    "ĠEl": 1345,
    "ĠInter": 1346,
    "Ġeinmal": 1347,
    "Ġihn": 1348,
    "gan": 1349,
    "Ã¤ÃŁ": 1350,
    "Ã¤m": 1351,
    "ĠGem": 1352,
    "asch": 1353,
    "ĠGro": 1354,
    "ĠWohn": 1355,
    "Ġbef": 1356,
    "ĠGeb": 1357,
    "nit": 1358,
    "ĠHin": 1359,
    "ĠBau": 1360,
    "klÃ¤r": 1361,
    "ph": 1362,
    "eile": 1363,
    "aden": 1364,
    "ilder": 1365,
    "kten": 1366,
    "ĠUr": 1367,
    "ĠEx": 1368,
    "Ġihren": 1369,
    "ies": 1370,
    "ĠMed": 1371,
    "ĠGen": 1372,
    "Ġho": 1373,
    "Ġvers": 1374,
    "ĠPf": 1375,
    "aar": 1376,
    "ment": 1377,
    "raum": 1378,
    "Ġ13": 1379,
    "hÃ¤n": 1380,
    "ĠKunden": 1381,
    "bel": 1382,
    "ĠSti": 1383,
    "gar": 1384,
    "ĠFot": 1385,
    "Ġsteht": 1386,
    "Ġen": 1387,
    "Ġfol": 1388,
    "âĢľ": 1389,
    "iss": 1390,
    "ost": 1391,
    "Ġhoch": 1392,
    "Ġâ": 1393,
    "ĠFrei": 1394,
    "Ġspiel": 1395,
    "weg": 1396,
    "iell": 1397,
    "ĠOn": 1398,
    "ĠWar": 1399,
    "agt": 1400,
    "ign": 1401,
    "eister": 1402,
    "gie": 1403,
    "tlich": 1404,
    "ail": 1405,
    "chte": 1406,
    "schutz": 1407,
    "ts": 1408,
    "Ã¼nd": 1409,
    "fÃ¤": 1410,
    "wort": 1411,
    "Ġseinen": 1412,
    "Ġjeder": 1413,
    "rum": 1414,
    "ĠEuro": 1415,
    "Ġsicher": 1416,
    "ott": 1417,
    "stÃ¼t": 1418,
    "az": 1419,
    "schein": 1420,
    "Ġjedoch": 1421,
    "Ġsol": 1422,
    "Ġverb": 1423,
    "ĠMann": 1424,
    "gramm": 1425,
    "ĠForm": 1426,
    "sprechen": 1427,
    "ĠFall": 1428,
    "oten": 1429,
    "alis": 1430,
    "ĠBundes": 1431,
    "glie": 1432,
    "dien": 1433,
    "rat": 1434,
    "stalt": 1435,
    "ĠFrauen": 1436,
    "Ġallem": 1437,
    "Ġem": 1438,
    "ron": 1439,
    "ym": 1440,
    "nehm": 1441,
    "ringen": 1442,
    "falls": 1443,
    "rem": 1444,
    "ĠSeite": 1445,
    "ker": 1446,
    "Ġlang": 1447,
    "ĠFor": 1448,
    "ĠFil": 1449,
    "nahme": 1450,
    "Ġeinge": 1451,
    "Ìģ": 1452,
    "fern": 1453,
    "Ġinter": 1454,
    "ĠwÃ¼rde": 1455,
    "yp": 1456,
    "grund": 1457,
    "ĠArt": 1458,
    "Ġrecht": 1459,
    "Ġgeb": 1460,
    "isten": 1461,
    "mus": 1462,
    "Ġblei": 1463,
    "Ġvoll": 1464,
    "ĠBuch": 1465,
    "tre": 1466,
    "Ġdort": 1467,
    "riv": 1468,
    "ĠVerb": 1469,
    "bend": 1470,
    "ĠâĢľ,": 1471,
    "pr": 1472,
    "achten": 1473,
    "ionen": 1474,
    "ule": 1475,
    "amp": 1476,
    "ĠKomm": 1477,
    "rain": 1478,
    "Ġ]": 1479,
    "bung": 1480,
    "legen": 1481,
    "ĠInternet": 1482,
    "ĠFamil": 1483,
    "mann": 1484,
    "Ġwelche": 1485,
    "orgen": 1486,
    "enz": 1487,
    "Ġgar": 1488,
    "nisse": 1489,
    "recht": 1490,
    "Ġon": 1491,
    "Ġsehen": 1492,
    "stÃ¤nd": 1493,
    "Ġihm": 1494,
    "ĠRÃ¼ck": 1495,
    "ingen": 1496,
    "ĠLu": 1497,
    "ĠBerlin": 1498,
    "Ġ100": 1499,
    "fang": 1500,
    "man": 1501,
    "Ġmacht": 1502,
    "Ġfrei": 1503,
    "pti": 1504,
    "Ġbietet": 1505,
    "ĠÂ«": 1506,
    "Ġwirklich": 1507,
    "ĠSchul": 1508,
    "uhe": 1509,
    "under": 1510,
    "Ã¤nger": 1511,
    "ckt": 1512,
    "kehr": 1513,
    "ĠKosten": 1514,
    "orf": 1515,
    "ennt": 1516,
    "gew": 1517,
    "zug": 1518,
    "ffe": 1519,
    "ĠProblem": 1520,
    "ĠWeiter": 1521,
    "orn": 1522,
    "Ġben": 1523,
    "ĠEnde": 1524,
    "Ġallen": 1525,
    "Ġstehen": 1526,
    "cker": 1527,
    "ĠLin": 1528,
    "prÃ¤": 1529,
    "ĠMÃ¶glich": 1530,
    "cke": 1531,
    "Ġbzw": 1532,
    "kun": 1533,
    "zimmer": 1534,
    "Ġbesser": 1535,
    "Ġkonnte": 1536,
    "Ġbr": 1537,
    "ĠInformationen": 1538,
    "ĠBereich": 1539,
    "schied": 1540,
    "Ġnichts": 1541,
    "ĠgehÃ¶r": 1542,
    "gabe": 1543,
    "als": 1544,
    "ĠLebens": 1545,
    "Ã¤ft": 1546,
    "ĠnatÃ¼rlich": 1547,
    "dings": 1548,
    "Ġakt": 1549,
    "enk": 1550,
    "Ġwichtig": 1551,
    "eitung": 1552,
    "ĠJu": 1553,
    "Ġex": 1554,
    "allen": 1555,
    "Ġfest": 1556,
    "ip": 1557,
    "rieben": 1558,
    "Ġ25": 1559,
    "olle": 1560,
    "ys": 1561,
    "rieb": 1562,
    "ĠBesch": 1563,
    "zogen": 1564,
    "Ġmus": 1565,
    "jekt": 1566,
    "ĠKar": 1567,
    "ilfe": 1568,
    "tiert": 1569,
    "ipp": 1570,
    "stens": 1571,
    "werk": 1572,
    "els": 1573,
    "hÃ¶": 1574,
    "ĠUS": 1575,
    "wor": 1576,
    "forder": 1577,
    "itte": 1578,
    "ome": 1579,
    "elle": 1580,
    "tigt": 1581,
    "fort": 1582,
    "uren": 1583,
    "gehen": 1584,
    "ĠSa": 1585,
    "Ġletzten": 1586,
    "ice": 1587,
    "Ġkom": 1588,
    "ehen": 1589,
    "Ġliegt": 1590,
    "weit": 1591,
    "ĠgrÃ¶": 1592,
    "asst": 1593,
    "llt": 1594,
    "wohl": 1595,
    "ĠAngeb": 1596,
    "gri": 1597,
    "ĠStud": 1598,
    "schluss": 1599,
    "Ã¼nf": 1600,
    "ĠPreis": 1601,
    "ider": 1602,
    "if": 1603,
    "ĠStand": 1604,
    "ennen": 1605,
    "Ġsex": 1606,
    "achsen": 1607,
    "umen": 1608,
    "ĠOnline": 1609,
    "ĠOber": 1610,
    "Ġgerne": 1611,
    "ĠdafÃ¼r": 1612,
    "zer": 1613,
    "Ġwohl": 1614,
    "Ġwollen": 1615,
    "sta": 1616,
    "ĠMal": 1617,
    "Ġstatt": 1618,
    "ĠY": 1619,
    "kon": 1620,
    "ĠDar": 1621,
    "Ġgenau": 1622,
    "kunft": 1623,
    "Ġerhalten": 1624,
    "ĠDr": 1625,
    "eider": 1626,
    "Ġbeste": 1627,
    "unst": 1628,
    "von": 1629,
    "gangen": 1630,
    "frei": 1631,
    "schaften": 1632,
    "ĠSu": 1633,
    "iet": 1634,
    "Ġ000": 1635,
    "ĠWebs": 1636,
    "Ġgemein": 1637,
    "ĠnÃ¤ch": 1638,
    "Ã¤nder": 1639,
    "ersÃ¶n": 1640,
    "ĠZusammen": 1641,
    "gaben": 1642,
    "ĠSel": 1643,
    "Ġ50": 1644,
    "ino": 1645,
    "ĠmÃ¶chte": 1646,
    "ĠBÃ¼r": 1647,
    "raft": 1648,
    "Ġch": 1649,
    "ĠArbeits": 1650,
    "Ġgerade": 1651,
    "ans": 1652,
    "ĠSicher": 1653,
    "ĠHoch": 1654,
    "ĠSta": 1655,
    "Ġgeben": 1656,
    "ĠThe": 1657,
    "inanz": 1658,
    "ĠPh": 1659,
    "Ġu": 1660,
    "raf": 1661,
    "ĠFa": 1662,
    "wicklung": 1663,
    "ĠschÃ¶n": 1664,
    "Ã¤ter": 1665,
    "Ġvielen": 1666,
    "ette": 1667,
    "etten": 1668,
    "Ġverw": 1669,
    "Ġof": 1670,
    "Ġeinige": 1671,
    "Ã¤sst": 1672,
    "ĠNutz": 1673,
    "ĠwÃ¤re": 1674,
    "ause": 1675,
    "Ġmo": 1676,
    "ĠOb": 1677,
    "ĠwÃ¤hrend": 1678,
    "Ġ*": 1679,
    "Ġjeden": 1680,
    "ure": 1681,
    "voll": 1682,
    "Ġoft": 1683,
    "inger": 1684,
    "Ġseinem": 1685,
    "zial": 1686,
    "Ġor": 1687,
    "one": 1688,
    "co": 1689,
    "tier": 1690,
    "Ã¶rper": 1691,
    "ĠSport": 1692,
    "Ġwenig": 1693,
    "ingt": 1694,
    "ĠUnser": 1695,
    "Ġir": 1696,
    "Ġdirekt": 1697,
    "einer": 1698,
    "je": 1699,
    "ĠVide": 1700,
    "ĠGemein": 1701,
    "ĠgroÃŁe": 1702,
    "Ġna": 1703,
    "Ġrund": 1704,
    "Ġfe": 1705,
    "ations": 1706,
    "ote": 1707,
    "ĠMusik": 1708,
    "Ġweitere": 1709,
    "ĠhÃ¤t": 1710,
    "Ġget": 1711,
    "lex": 1712,
    "ĠJe": 1713,
    "iere": 1714,
    "Ġdenen": 1715,
    "Ġbestimm": 1716,
    "utzen": 1717,
    "ER": 1718,
    "are": 1719,
    "ĠGegen": 1720,
    "ĠWeg": 1721,
    "Ġhand": 1722,
    "Ġteil": 1723,
    "Ġfr": 1724,
    "Ġkurz": 1725,
    "ĠGeld": 1726,
    "ielleicht": 1727,
    "ĠEurop": 1728,
    "Ĥ¬": 1729,
    "ĠChr": 1730,
    "Ġbeiden": 1731,
    "Ġca": 1732,
    "ĠStr": 1733,
    "ĠKÃ¼": 1734,
    "ĠDien": 1735,
    "olit": 1736,
    "Ġschw": 1737,
    "bie": 1738,
    "stra": 1739,
    "utter": 1740,
    "ĠFach": 1741,
    "itzen": 1742,
    "ĠgroÃŁen": 1743,
    "punkt": 1744,
    "ĠFar": 1745,
    "zeug": 1746,
    "Ġlange": 1747,
    "Ã¼ss": 1748,
    "Ġ\",": 1749,
    "ĠHe": 1750,
    "Ġthe": 1751,
    "Ġgehen": 1752,
    "hle": 1753,
    "Ġbesonders": 1754,
    "icken": 1755,
    "mo": 1756,
    "isk": 1757,
    "Ġoffen": 1758,
    "ĠâĤ¬": 1759,
    "ĠVerl": 1760,
    "Ġgute": 1761,
    "chnik": 1762,
    "pfe": 1763,
    "kauf": 1764,
    "druck": 1765,
    "ruppe": 1766,
    "arbeiter": 1767,
    "tikel": 1768,
    "ĠVon": 1769,
    "Ġetwa": 1770,
    "ellschaft": 1771,
    "Ã¤ss": 1772,
    "ĠLeist": 1773,
    "ĠWochen": 1774,
    "Ġerste": 1775,
    "scheid": 1776,
    "fil": 1777,
    "rotz": 1778,
    "uell": 1779,
    "rift": 1780,
    "gestellt": 1781,
    "aterial": 1782,
    "Ġsogar": 1783,
    "chten": 1784,
    "ĠPlatz": 1785,
    "Ġ199": 1786,
    "Ġbieten": 1787,
    "anken": 1788,
    "obil": 1789,
    "stoff": 1790,
    "ember": 1791,
    "Ġdarauf": 1792,
    "Ġbrau": 1793,
    "igung": 1794,
    "ĠPar": 1795,
    "achte": 1796,
    "ĠgroÃŁ": 1797,
    "Ġverm": 1798,
    "ĠThema": 1799,
    "etter": 1800,
    "opp": 1801,
    "ative": 1802,
    "Ġgemacht": 1803,
    "Ġbel": 1804,
    "ĠIde": 1805,
    "ganis": 1806,
    "Ġeigenen": 1807,
    "Ġbesten": 1808,
    "ĠHÃ¶": 1809,
    "ven": 1810,
    "Ġwissen": 1811,
    "ĠOrt": 1812,
    "ager": 1813,
    "laub": 1814,
    "eigt": 1815,
    "Ġro": 1816,
    "olz": 1817,
    "nten": 1818,
    "Ġ2017": 1819,
    "ĠMitglie": 1820,
    "ĠMehr": 1821,
    "bet": 1822,
    "Ġunseren": 1823,
    "ĠHaupt": 1824,
    "schlieÃŁ": 1825,
    "ĠkÃ¶nnte": 1826,
    "rist": 1827,
    "einander": 1828,
    "urs": 1829,
    "ĠDoch": 1830,
    "aÃŁ": 1831,
    "hop": 1832,
    "ĠMill": 1833,
    "ĠSeiten": 1834,
    "ĠKa": 1835,
    "ĠZahl": 1836,
    "leist": 1837,
    "Ã¼b": 1838,
    "Ġpl": 1839,
    "ĠÃ¶ff": 1840,
    "Ġwei": 1841,
    "ĠauÃŁer": 1842,
    "mÃ¶glich": 1843,
    "stadt": 1844,
    "legt": 1845,
    "ĠNatur": 1846,
    "Ġx": 1847,
    "Ġfast": 1848,
    "fon": 1849,
    "aler": 1850,
    "feld": 1851,
    "ĠX": 1852,
    "sol": 1853,
    "Ġ+": 1854,
    "ĠlÃ¤sst": 1855,
    "rom": 1856,
    "erk": 1857,
    "ww": 1858,
    "ĠDi": 1859,
    "eitet": 1860,
    "uter": 1861,
    "itu": 1862,
    "Ġeuch": 1863,
    "rÃ¤n": 1864,
    "ĠfrÃ¼": 1865,
    "ĠTh": 1866,
    "bereich": 1867,
    "ĠBeispiel": 1868,
    "fÃ¼hrt": 1869,
    "fel": 1870,
    "jÃ¤hr": 1871,
    "auen": 1872,
    "ĠErfahr": 1873,
    "ultur": 1874,
    "Ġonline": 1875,
    "ĠBilder": 1876,
    "licht": 1877,
    "ĠDenn": 1878,
    "ĠZiel": 1879,
    "reise": 1880,
    "Ġfolgen": 1881,
    "ĠJugend": 1882,
    "ĠTer": 1883,
    "ore": 1884,
    "ina": 1885,
    "wahl": 1886,
    "Ġdavon": 1887,
    "ĠGeschÃ¤ft": 1888,
    "Ġwoll": 1889,
    "Ġzahl": 1890,
    "Ġgl": 1891,
    "ĠIhrer": 1892,
    "ĠAnt": 1893,
    "ĠSpr": 1894,
    "ĠKunst": 1895,
    "gegen": 1896,
    "ings": 1897,
    "ĠFrage": 1898,
    "sehen": 1899,
    "mb": 1900,
    "Ġrichtig": 1901,
    "reffen": 1902,
    "ĠFol": 1903,
    "Ġzie": 1904,
    "lossen": 1905,
    "Ġentsprechen": 1906,
    "ilt": 1907,
    "ame": 1908,
    "ĠSelbst": 1909,
    "walt": 1910,
    "ĠweiÃŁ": 1911,
    "gÃ¤n": 1912,
    "Ã¼d": 1913,
    "Ġ.âĢľ": 1914,
    "Ġgemeinsam": 1915,
    "Ġ24": 1916,
    "zieh": 1917,
    "verb": 1918,
    "Ġaufge": 1919,
    "ichtet": 1920,
    "inter": 1921,
    "ĠAd": 1922,
    "ĠMein": 1923,
    "Ġinteress": 1924,
    "Ġpaar": 1925,
    "eisten": 1926,
    "old": 1927,
    "Ġ#": 1928,
    "ĠEigen": 1929,
    "ĠKir": 1930,
    "ĠpersÃ¶n": 1931,
    "Ġjewei": 1932,
    "ĠVerein": 1933,
    "auft": 1934,
    "Ġrei": 1935,
    "heits": 1936,
    "Ġinner": 1937,
    "Ġunserem": 1938,
    "si": 1939,
    "Ġ.)": 1940,
    "weis": 1941,
    "glichen": 1942,
    "mÃ¤ÃŁ": 1943,
    "sel": 1944,
    "ĠProzent": 1945,
    "Ġwww": 1946,
    "Ġdich": 1947,
    "Ġentwick": 1948,
    "Ġmeiner": 1949,
    "Ġfindet": 1950,
    "hof": 1951,
    "Ġspe": 1952,
    "ĠZum": 1953,
    "ĠApp": 1954,
    "ĠEner": 1955,
    "ister": 1956,
    "Ġirgend": 1957,
    "Ġihrem": 1958,
    "ĠFir": 1959,
    "ufen": 1960,
    "ktur": 1961,
    "Ġkleine": 1962,
    "ĠDen": 1963,
    "ĠRegel": 1964,
    "iels": 1965,
    "Ġhinter": 1966,
    "orno": 1967,
    "tieren": 1968,
    "ĠâĢĿ": 1969,
    "ĠMark": 1970,
    "Ġabge": 1971,
    "rauen": 1972,
    "wand": 1973,
    "ĠdaÃŁ": 1974,
    "ix": 1975,
    "leben": 1976,
    "Ġzwar": 1977,
    "ĠTeam": 1978,
    "Ġind": 1979,
    "bildung": 1980,
    "ĠMet": 1981,
    "schnit": 1982,
    "ĠMittel": 1983,
    "tik": 1984,
    "ĠPartner": 1985,
    "ve": 1986,
    "Ġvier": 1987,
    "Ġgab": 1988,
    "nehmer": 1989,
    "Ġhatten": 1990,
    "ĠIhren": 1991,
    "ĠKam": 1992,
    "ĠRahmen": 1993,
    "ah": 1994,
    "nahmen": 1995,
    "ase": 1996,
    "Ġkleinen": 1997,
    "stÃ¼ck": 1998,
    "ĠNicht": 1999,
    "Ġheraus": 2000,
    "Ġerfolg": 2001,
    "ĠSystem": 2002,
    "annten": 2003,
    "ellen": 2004,
    "etzen": 2005,
    "str": 2006,
    "mar": 2007,
    "anstalt": 2008,
    "Ġ21": 2009,
    "Ã¤ten": 2010,
    "Ã¤tig": 2011,
    "ko": 2012,
    "Ġgilt": 2013,
    "Ġallerdings": 2014,
    "sy": 2015,
    "ĠGo": 2016,
    "Ġschwer": 2017,
    "roffen": 2018,
    "iges": 2019,
    "ĠMode": 2020,
    "ommer": 2021,
    "Ã¤tzlich": 2022,
    "Ã¤hlen": 2023,
    "ĠMitarbeiter": 2024,
    "ĠDann": 2025,
    "Ġkaufen": 2026,
    "ĠInst": 2027,
    "ĠQualitÃ¤t": 2028,
    "was": 2029,
    "Ġwahr": 2030,
    "ĠVerfÃ¼": 2031,
    "isches": 2032,
    "ib": 2033,
    "ĠSk": 2034,
    "ĠDir": 2035,
    "antwort": 2036,
    "Ġderen": 2037,
    "ĠverfÃ¼": 2038,
    "ĠDank": 2039,
    "ĠBesuch": 2040,
    "euer": 2041,
    "immt": 2042,
    "ĠFrank": 2043,
    "ivi": 2044,
    "ct": 2045,
    "ĠAlle": 2046,
    "inen": 2047,
    "Ġtun": 2048,
    "ielt": 2049,
    "Ġ2016": 2050,
    "fft": 2051,
    "ĠSer": 2052,
    "ĠMÃ¼n": 2053,
    "Ġkam": 2054,
    "Ġneben": 2055,
    "ĠTest": 2056,
    "ax": 2057,
    "Ġsollten": 2058,
    "ĠspÃ¤ter": 2059,
    "ĠEinsatz": 2060,
    "ĠJun": 2061,
    "agte": 2062,
    "ĠFragen": 2063,
    "platz": 2064,
    "Ġnehmen": 2065,
    "ware": 2066,
    "ĠVol": 2067,
    "ĠArtikel": 2068,
    "ĠAuft": 2069,
    "Ġunterschied": 2070,
    "ubl": 2071,
    "ĠWissen": 2072,
    "Ġunbe": 2073,
    "ĠEU": 2074,
    "ĠGeschichte": 2075,
    "welt": 2076,
    "affen": 2077,
    "St": 2078,
    "Ġdi": 2079,
    "ose": 2080,
    "ĠKom": 2081,
    "ĠFer": 2082,
    "Ġqu": 2083,
    "ĠMÃ¤n": 2084,
    "ausen": 2085,
    "zung": 2086,
    "scht": 2087,
    "Ã¤hlt": 2088,
    "blick": 2089,
    "ĠPrÃ¤": 2090,
    "red": 2091,
    "anten": 2092,
    "genommen": 2093,
    "ĠWo": 2094,
    "Ġ22": 2095,
    "sl": 2096,
    "Ġto": 2097,
    "ĠprÃ¤": 2098,
    "ĠVert": 2099,
    "ĠFest": 2100,
    "ologie": 2101,
    "ĠNie": 2102,
    "Ã¤tze": 2103,
    "ichtige": 2104,
    "annte": 2105,
    "alter": 2106,
    "heiten": 2107,
    "ĠPer": 2108,
    "ĠdÃ¼r": 2109,
    "Ġihnen": 2110,
    "ĠunterstÃ¼t": 2111,
    "Ġbest": 2112,
    "Ġweit": 2113,
    "jahr": 2114,
    "ĠPat": 2115,
    "fÃ¼hrung": 2116,
    "arte": 2117,
    "mals": 2118,
    "Ġbede": 2119,
    "up": 2120,
    "Ã¤hn": 2121,
    "Ã¤us": 2122,
    "ĠDat": 2123,
    "indest": 2124,
    "urt": 2125,
    "ĠDab": 2126,
    "Ã¤ndern": 2127,
    "ĠKat": 2128,
    "uh": 2129,
    "ĠProgramm": 2130,
    "Ġworden": 2131,
    "ober": 2132,
    "rakti": 2133,
    "Ġstark": 2134,
    "ĠBeit": 2135,
    "ividu": 2136,
    "ĠSchwei": 2137,
    "ĠBÃ¼": 2138,
    "arbeitung": 2139,
    "Ġsagen": 2140,
    "ĠLehr": 2141,
    "omat": 2142,
    "ĠDabei": 2143,
    "ball": 2144,
    "Ġeigentlich": 2145,
    "Ġbekommen": 2146,
    "sterreich": 2147,
    "Ã¤um": 2148,
    "ĠNov": 2149,
    "scher": 2150,
    "bach": 2151,
    "ĠEm": 2152,
    "ĠKontakt": 2153,
    "yn": 2154,
    "ond": 2155,
    "Ġ>": 2156,
    "atten": 2157,
    "ĠNeben": 2158,
    "Ġleicht": 2159,
    "ital": 2160,
    "ĠschÃ¶": 2161,
    "ĠProdukt": 2162,
    "ĠMarkt": 2163,
    "ĠProjekt": 2164,
    "lichkeit": 2165,
    "Ġ40": 2166,
    "ets": 2167,
    "ĠFrÃ¼": 2168,
    "ĠBlick": 2169,
    "Ġschl": 2170,
    "Ġweniger": 2171,
    "EN": 2172,
    "ĠFuÃŁ": 2173,
    "liches": 2174,
    "ivers": 2175,
    "ĠKrank": 2176,
    "steller": 2177,
    "vent": 2178,
    "ente": 2179,
    "ĠMÃ¶glichkeit": 2180,
    "immer": 2181,
    "Ġbl": 2182,
    "ĠWor": 2183,
    "Ġgesp": 2184,
    "zept": 2185,
    "ĠerklÃ¤r": 2186,
    "ech": 2187,
    "Ã¶ffentlich": 2188,
    "Ġklein": 2189,
    "Ġversch": 2190,
    "ile": 2191,
    "Ġkostenlos": 2192,
    "Ġbew": 2193,
    "ĠGroÃŁ": 2194,
    "leb": 2195,
    "Ġcm": 2196,
    "atte": 2197,
    "indung": 2198,
    "mÃ¶": 2199,
    "gst": 2200,
    "Ġzeigt": 2201,
    "buch": 2202,
    "Ã¤dchen": 2203,
    "ĠBar": 2204,
    "ichtung": 2205,
    "Ġkeinen": 2206,
    "ĠhÃ¤tte": 2207,
    "Ã¤nd": 2208,
    "zÃ¼": 2209,
    "Ġverk": 2210,
    "ĠFilm": 2211,
    "ĠGott": 2212,
    "ity": 2213,
    "Ġaut": 2214,
    "Ġ=": 2215,
    "ĠAugen": 2216,
    "rigen": 2217,
    "ĠâĢľ.": 2218,
    "lege": 2219,
    "une": 2220,
    "IN": 2221,
    "flÃ¤": 2222,
    "ĠServ": 2223,
    "ĠViel": 2224,
    "fr": 2225,
    "ĠCl": 2226,
    "Ġvielleicht": 2227,
    "Ġfor": 2228,
    "ĠBeruf": 2229,
    "sto": 2230,
    "Ġebenfalls": 2231,
    "durch": 2232,
    "Ġfre": 2233,
    "ĠMinuten": 2234,
    "ĠNacht": 2235,
    "ĠTage": 2236,
    "ĠfÃ¼": 2237,
    "Ġverschiedenen": 2238,
    "ĠEnergie": 2239,
    "ĠErgeb": 2240,
    "ĠDem": 2241,
    "eint": 2242,
    "ĠAuto": 2243,
    "setzung": 2244,
    "Ġeher": 2245,
    "verl": 2246,
    "reiche": 2247,
    "Ġstellen": 2248,
    "hlt": 2249,
    "Ġfreu": 2250,
    "ĠVort": 2251,
    "ĠLi": 2252,
    "gesetzt": 2253,
    "ĠRaum": 2254,
    "Ġopti": 2255,
    "ĠRechts": 2256,
    "ram": 2257,
    "Ġdaher": 2258,
    "Ġaktue": 2259,
    "ational": 2260,
    "laden": 2261,
    "ĠVerfÃ¼gung": 2262,
    "baren": 2263,
    "ĠHerr": 2264,
    "seite": 2265,
    "agement": 2266,
    "ĠTran": 2267,
    "lose": 2268,
    "ĠâĢĻ": 2269,
    "ĠKÃ¶rper": 2270,
    "Ġleben": 2271,
    "Ã¼l": 2272,
    "erst": 2273,
    "abl": 2274,
    "spruch": 2275,
    "Ġkannst": 2276,
    "liegen": 2277,
    "Ġklar": 2278,
    "ĠFunktion": 2279,
    "ĠTele": 2280,
    "ĠChrist": 2281,
    "ĠEinz": 2282,
    "ons": 2283,
    "stÃ¤ndig": 2284,
    "rÃ¤ge": 2285,
    "ĠCas": 2286,
    "ttp": 2287,
    "des": 2288,
    "Ġerz": 2289,
    "ĠHotel": 2290,
    "Ġmeinen": 2291,
    "arm": 2292,
    "Ġ2015": 2293,
    "ĠAngebot": 2294,
    "Ġschreiben": 2295,
    "Ġcom": 2296,
    "ĠKind": 2297,
    "ĠTrain": 2298,
    "reifen": 2299,
    "ruppen": 2300,
    "Ġgek": 2301,
    "ĠSeit": 2302,
    "ance": 2303,
    "Ġel": 2304,
    "bare": 2305,
    "Ã¤chst": 2306,
    "Ġ:/": 2307,
    "ĠProf": 2308,
    "Ġpassen": 2309,
    "org": 2310,
    "dent": 2311,
    "Ã¶rder": 2312,
    "spro": 2313,
    "olf": 2314,
    "utt": 2315,
    "ichtigen": 2316,
    "Ã¤ren": 2317,
    "mbH": 2318,
    "ĠAt": 2319,
    "ĠGrÃ¼n": 2320,
    "ĠPersonen": 2321,
    "Ġ.\"": 2322,
    "Ã¤nde": 2323,
    "Ġsollen": 2324,
    "ĠAbend": 2325,
    "stein": 2326,
    "ption": 2327,
    "ator": 2328,
    "ief": 2329,
    "iker": 2330,
    "reg": 2331,
    "ĠTr": 2332,
    "pfen": 2333,
    "Ġ23": 2334,
    "ters": 2335,
    "Ġwegen": 2336,
    "ches": 2337,
    "ĠMÃ¤r": 2338,
    "scheiden": 2339,
    "Ġend": 2340,
    "ĠWahl": 2341,
    "Ġ://": 2342,
    "ĠDieser": 2343,
    "treten": 2344,
    "ĠFlug": 2345,
    "Ġkont": 2346,
    "ĠPe": 2347,
    "umm": 2348,
    "ĠKomp": 2349,
    "Ġkompl": 2350,
    "--": 2351,
    "ĠSal": 2352,
    "Ġspielen": 2353,
    "ĠBas": 2354,
    "Ġintern": 2355,
    "Ġand": 2356,
    "inner": 2357,
    "arbeiten": 2358,
    "ppen": 2359,
    "Ġhttp": 2360,
    "ĠJahres": 2361,
    "wendung": 2362,
    "ĠWirtschaft": 2363,
    "ĠReise": 2364,
    "ĠSpe": 2365,
    "warz": 2366,
    "Ã¼ler": 2367,
    "Ġging": 2368,
    "zeitig": 2369,
    "ĠStÃ¼ck": 2370,
    "ĠLa": 2371,
    "ession": 2372,
    "geber": 2373,
    "deut": 2374,
    "artner": 2375,
    "ĠStunden": 2376,
    "In": 2377,
    "rÃ¼f": 2378,
    "Ġersch": 2379,
    "Ġsieht": 2380,
    "ĠÂ§": 2381,
    "ĠLandes": 2382,
    "Ġperfe": 2383,
    "ĠNew": 2384,
    "Ġvert": 2385,
    "ĠZwei": 2386,
    "ĠgehÃ¶rt": 2387,
    "ĠSam": 2388,
    "Ġbekannt": 2389,
    "herap": 2390,
    "ĠNetz": 2391,
    "aschen": 2392,
    "ĠGmbH": 2393,
    "ĠLes": 2394,
    "hÃ¤ng": 2395,
    "Ġ\".": 2396,
    "gemein": 2397,
    "kung": 2398,
    "ĠRad": 2399,
    "ĠKap": 2400,
    "Ġangeb": 2401,
    "ĠDesign": 2402,
    "bin": 2403,
    "ĠHam": 2404,
    "tisch": 2405,
    "Ġwerde": 2406,
    "handlung": 2407,
    "ĠGut": 2408,
    "besser": 2409,
    "Ġtrotz": 2410,
    "Ã¤te": 2411,
    "ĠTo": 2412,
    "Ġarb": 2413,
    "ĠMaterial": 2414,
    "ĠFÃ¤": 2415,
    "stru": 2416,
    "Ġbesteht": 2417,
    "ĠWert": 2418,
    "zlich": 2419,
    "ĠJan": 2420,
    "ĠStart": 2421,
    "ĠnÃ¤chsten": 2422,
    "ĠPo": 2423,
    "Ġsagt": 2424,
    "ĠEle": 2425,
    "ĠJul": 2426,
    "wohn": 2427,
    "ĠNamen": 2428,
    "ĠBen": 2429,
    "haupt": 2430,
    "ĠGrÃ¶": 2431,
    "ĠEntwicklung": 2432,
    "Ġsagte": 2433,
    "elfen": 2434,
    "Ġbisher": 2435,
    "ieg": 2436,
    "Ġleider": 2437,
    "utzt": 2438,
    "ĠProdukte": 2439,
    "arf": 2440,
    "ĠGarten": 2441,
    "leid": 2442,
    "ĠKauf": 2443,
    "Ġsofort": 2444,
    "griff": 2445,
    "rieden": 2446,
    "akte": 2447,
    "ĠTa": 2448,
    "iff": 2449,
    "Ġbleibt": 2450,
    "ondere": 2451,
    "abel": 2452,
    "ĠWerk": 2453,
    "ichts": 2454,
    "Ġsonst": 2455,
    "Ġwollte": 2456,
    "laf": 2457,
    "Ġdeutlich": 2458,
    "ernen": 2459,
    "ĠGel": 2460,
    "ikan": 2461,
    "ĠWind": 2462,
    "Ġwunder": 2463,
    "ĠFamilie": 2464,
    "Ġmeisten": 2465,
    "schlag": 2466,
    "itel": 2467,
    "Ġeinzel": 2468,
    "ĠBÃ¼rger": 2469,
    "fin": 2470,
    "hler": 2471,
    "lay": 2472,
    "eten": 2473,
    "ĠPlan": 2474,
    "statt": 2475,
    "Ġ2014": 2476,
    "Ġdarf": 2477,
    "llig": 2478,
    "ĠDienst": 2479,
    "ĠKopf": 2480,
    "ummer": 2481,
    "anc": 2482,
    "Ġ01": 2483,
    "ĠSommer": 2484,
    "ĠJa": 2485,
    "ĠWoche": 2486,
    "ĠLÃ¶s": 2487,
    "CH": 2488,
    "Ġjedem": 2489,
    "wendet": 2490,
    "osition": 2491,
    "ĠAug": 2492,
    "Mail": 2493,
    "ĠGeschÃ¤fts": 2494,
    "ĠAbs": 2495,
    "ika": 2496,
    "Ġdeutschen": 2497,
    "izin": 2498,
    "ise": 2499,
    "Ġreg": 2500,
    "ĠdarÃ¼ber": 2501,
    "Ġindividu": 2502,
    "Ġganze": 2503,
    "undert": 2504,
    "assung": 2505,
    "Ġjem": 2506,
    "ĠHilfe": 2507,
    "ĠIst": 2508,
    "hren": 2509,
    "eignet": 2510,
    "Ġfl": 2511,
    "Ġschle": 2512,
    "ĠHolz": 2513,
    "bert": 2514,
    "ĠIhrem": 2515,
    "anzen": 2516,
    "Ġbitte": 2517,
    "zess": 2518,
    "ĠGed": 2519,
    "ight": 2520,
    "ĠZur": 2521,
    "ĠBad": 2522,
    "ritten": 2523,
    "tember": 2524,
    "weisen": 2525,
    "Ã¤f": 2526,
    "Ġpriv": 2527,
    "ĠBand": 2528,
    "ĠVeranstalt": 2529,
    "ĠSuche": 2530,
    "AN": 2531,
    "Ġinnerhalb": 2532,
    "folgt": 2533,
    "ĠBel": 2534,
    "ĠFreund": 2535,
    "ĠNÃ¤": 2536,
    "Ġmeinem": 2537,
    "sych": 2538,
    "tler": 2539,
    "ĠheiÃŁ": 2540,
    "aren": 2541,
    "ĠFamilien": 2542,
    "ĠmÃ¶chten": 2543,
    "halte": 2544,
    "inge": 2545,
    "besch": 2546,
    "Ã¤chlich": 2547,
    "spe": 2548,
    "ĠhÃ¶": 2549,
    "unkte": 2550,
    "Ġfunktion": 2551,
    "iegel": 2552,
    "Ġstellt": 2553,
    "schule": 2554,
    "sport": 2555,
    "Ġliegen": 2556,
    "Ġkennen": 2557,
    "ĠEltern": 2558,
    "ĠGast": 2559,
    "ĠgrÃ¶ÃŁ": 2560,
    "ĠOkt": 2561,
    "pen": 2562,
    "ĠLuft": 2563,
    "Ġbleiben": 2564,
    "Ġhast": 2565,
    "ĠAnd": 2566,
    "ĠTÃ¼r": 2567,
    "spl": 2568,
    "ikation": 2569,
    "ĠFinanz": 2570,
    "fÃ¤h": 2571,
    "Ġregel": 2572,
    "ĠVideo": 2573,
    "ĠUnivers": 2574,
    "uck": 2575,
    "ffiz": 2576,
    "ĠAnfang": 2577,
    "rax": 2578,
    "stelle": 2579,
    "ante": 2580,
    "ĠWinter": 2581,
    "ĠDamit": 2582,
    "Ã¶hn": 2583,
    "lieÃŁen": 2584,
    "par": 2585,
    "Ġ60": 2586,
    "ĠGesund": 2587,
    "ka": 2588,
    "Ġ..": 2589,
    "Ġerwar": 2590,
    "ĠKÃ¶n": 2591,
    "schul": 2592,
    "stellungen": 2593,
    "ĠLo": 2594,
    "lungs": 2595,
    "ĠErfolg": 2596,
    "tif": 2597,
    "Ġoben": 2598,
    "ĠDieses": 2599,
    "ins": 2600,
    "Ġhab": 2601,
    "nt": 2602,
    "Ġgesam": 2603,
    "Ġnutzen": 2604,
    "unt": 2605,
    "ĠBed": 2606,
    "ĠBeg": 2607,
    "wechs": 2608,
    "ismus": 2609,
    "Ġnot": 2610,
    "ĠbenÃ¶": 2611,
    "usst": 2612,
    "besondere": 2613,
    "Ġzeigen": 2614,
    "haft": 2615,
    "ziehen": 2616,
    "ĠGlÃ¼ck": 2617,
    "Ġerw": 2618,
    "Ġbringen": 2619,
    "Ġhinaus": 2620,
    "Ġide": 2621,
    "Ġdein": 2622,
    "tels": 2623,
    "iter": 2624,
    "ĠZukunft": 2625,
    "Ġjede": 2626,
    "ĠAk": 2627,
    "ĠHinter": 2628,
    "duz": 2629,
    "gesamt": 2630,
    "ĠHÃ¶he": 2631,
    "tragen": 2632,
    "schnitt": 2633,
    "ĠSchÃ¼ler": 2634,
    "ĠHerz": 2635,
    "ktionen": 2636,
    "rieg": 2637,
    "ĠBi": 2638,
    "Ġeigene": 2639,
    "alb": 2640,
    "ĠUnsere": 2641,
    "ĠNieder": 2642,
    "ilf": 2643,
    "ĠJo": 2644,
    "meld": 2645,
    "ĠFern": 2646,
    "ĠPr": 2647,
    "ĠEntscheid": 2648,
    "Ġaktiv": 2649,
    "igt": 2650,
    "ĠÃ¼b": 2651,
    "ĠgegenÃ¼ber": 2652,
    "Ġguten": 2653,
    "Ġnorm": 2654,
    "aly": 2655,
    "Ġkaum": 2656,
    "itÃ¤ten": 2657,
    "ogle": 2658,
    "Ã¼cken": 2659,
    "ĠNur": 2660,
    "ĠÃ¶": 2661,
    "Ã¤ufig": 2662,
    "ĠSing": 2663,
    "Ġ.,": 2664,
    "ĠGÃ¤": 2665,
    "ĠJuni": 2666,
    "les": 2667,
    "ĠDruck": 2668,
    "othe": 2669,
    "Ġsuchen": 2670,
    "ĠTour": 2671,
    "vest": 2672,
    "zeichnet": 2673,
    "ry": 2674,
    "Ġperson": 2675,
    "otor": 2676,
    "Ġverschiedene": 2677,
    "ĠStimm": 2678,
    "gor": 2679,
    "ĠfÃ¼nf": 2680,
    "ison": 2681,
    "tegr": 2682,
    "ĠKultur": 2683,
    "Ġinform": 2684,
    "ĠPriv": 2685,
    "Ġprof": 2686,
    "anach": 2687,
    "Ġ26": 2688,
    "zip": 2689,
    "ĠMÃ¤dchen": 2690,
    "ĠgÃ¼nst": 2691,
    "bezogen": 2692,
    "ĠSchutz": 2693,
    "auber": 2694,
    "ller": 2695,
    "wÃ¼r": 2696,
    "dingungen": 2697,
    "gef": 2698,
    "ĠNa": 2699,
    "ĠMai": 2700,
    "Ġhalten": 2701,
    "Ġ28": 2702,
    "ĠSol": 2703,
    "Ġ2013": 2704,
    "Ġweiteren": 2705,
    "li": 2706,
    "tische": 2707,
    "ĠSep": 2708,
    "ĠVertrag": 2709,
    "ĠNord": 2710,
    "Ġkomp": 2711,
    "Ġabsol": 2712,
    "eien": 2713,
    "fÃ¼hl": 2714,
    "ĠMag": 2715,
    "ĠRes": 2716,
    "ĠPark": 2717,
    "ĠHeim": 2718,
    "Ġhei": 2719,
    "spiels": 2720,
    "Ġsu": 2721,
    "sa": 2722,
    "ĠEd": 2723,
    "ĠKlein": 2724,
    "enzen": 2725,
    "book": 2726,
    "schung": 2727,
    "itter": 2728,
    "ĠLiebe": 2729,
    "Ġlin": 2730,
    "ĠAuswahl": 2731,
    "Ġkonnten": 2732,
    "richten": 2733,
    "ĠHei": 2734,
    "Ġhelfen": 2735,
    "ĠAuÃŁer": 2736,
    "urop": 2737,
    "ĠPolit": 2738,
    "setzen": 2739,
    "Ġbelie": 2740,
    "Ġerk": 2741,
    "Ġempf": 2742,
    "meister": 2743,
    "lungen": 2744,
    "20": 2745,
    "Ġ198": 2746,
    "ĠLicht": 2747,
    "ĠMillionen": 2748,
    "icherung": 2749,
    "unge": 2750,
    "ĠfÃ¼hren": 2751,
    "ĠKommun": 2752,
    "Ã¶t": 2753,
    "ftware": 2754,
    "gal": 2755,
    "ĠBus": 2756,
    "Ġhervor": 2757,
    "ĠOktober": 2758,
    "Ġ27": 2759,
    "ĠLauf": 2760,
    "ruf": 2761,
    "50": 2762,
    "ĠMaÃŁ": 2763,
    "tens": 2764,
    "ots": 2765,
    "wegen": 2766,
    "ĠBoden": 2767,
    "ĠGesellschaft": 2768,
    "zuf": 2769,
    "ĠSicherheit": 2770,
    "pfer": 2771,
    "Ġtechn": 2772,
    "ĠErw": 2773,
    "ĠWebsite": 2774,
    "ĠLiefer": 2775,
    "Ġbevor": 2776,
    "ĠIns": 2777,
    "ksam": 2778,
    "ĠEinzel": 2779,
    "tigkeit": 2780,
    "ock": 2781,
    "ac": 2782,
    "osit": 2783,
    "ativen": 2784,
    "entr": 2785,
    "izei": 2786,
    "ĠFÃ¼hr": 2787,
    "ĠRegion": 2788,
    "ahren": 2789,
    "utet": 2790,
    "dorf": 2791,
    "Ġspezie": 2792,
    "Ġmoder": 2793,
    "Ġerf": 2794,
    "rech": 2795,
    "gesetz": 2796,
    "Ġdessen": 2797,
    "radition": 2798,
    "ari": 2799,
    "th": 2800,
    "ĠBro": 2801,
    "pe": 2802,
    "ĠDach": 2803,
    "tiv": 2804,
    "tete": 2805,
    "ĠFoto": 2806,
    "zus": 2807,
    "ĠGra": 2808,
    "ĠPorno": 2809,
    "ĠMedien": 2810,
    "gte": 2811,
    "ĠInnen": 2812,
    "istor": 2813,
    "di": 2814,
    "dienst": 2815,
    "ath": 2816,
    "ĠTem": 2817,
    "son": 2818,
    "ĠSeptember": 2819,
    "ĠInf": 2820,
    "Ġwelt": 2821,
    "Ġverwendet": 2822,
    "ĠTra": 2823,
    "ĠVergleich": 2824,
    "orgt": 2825,
    "ĠTages": 2826,
    "tert": 2827,
    "ĠNovember": 2828,
    "âĢ¦": 2829,
    "Ġsowohl": 2830,
    "gere": 2831,
    "unsch": 2832,
    "klus": 2833,
    "frage": 2834,
    "entlichen": 2835,
    "raxis": 2836,
    "ain": 2837,
    "ĠAlso": 2838,
    "ĠHaut": 2839,
    "met": 2840,
    "eichen": 2841,
    "ande": 2842,
    "ĠKn": 2843,
    "Ġverst": 2844,
    "ĠChar": 2845,
    "ĠBay": 2846,
    "ĠMÃ¤nner": 2847,
    "Ġpolit": 2848,
    "fest": 2849,
    "ĠGoogle": 2850,
    "mÃ¤ÃŁig": 2851,
    "Ġmehrere": 2852,
    "Ġmag": 2853,
    "ĠSchm": 2854,
    "port": 2855,
    "ĠMich": 2856,
    "ĠJetzt": 2857,
    "Ġsomit": 2858,
    "Ġarbeiten": 2859,
    "ĠMutter": 2860,
    "own": 2861,
    "atis": 2862,
    "Ġumf": 2863,
    "ungsk": 2864,
    "sent": 2865,
    "Ġanders": 2866,
    "rÃ¤gt": 2867,
    "Ġ2012": 2868,
    "ĠfÃ¼hrt": 2869,
    "ĠWeise": 2870,
    "itze": 2871,
    "Ã¶sen": 2872,
    "Ġweg": 2873,
    "ĠerhÃ¤lt": 2874,
    "ĠThemen": 2875,
    "ĠSh": 2876,
    "atung": 2877,
    "ĠBon": 2878,
    "ĠWel": 2879,
    "Ġdaran": 2880,
    "Ġdeine": 2881,
    "ĠtÃ¤": 2882,
    "arbeitet": 2883,
    "etail": 2884,
    "ĠKraft": 2885,
    "ds": 2886,
    "ritte": 2887,
    "ossen": 2888,
    "Ġglau": 2889,
    "Ġext": 2890,
    "Ġzeit": 2891,
    "lesen": 2892,
    "Ġ31": 2893,
    "schuhe": 2894,
    "ĠPap": 2895,
    "ĠlÃ¤nger": 2896,
    "ordnung": 2897,
    "unÃ¤chst": 2898,
    "Ġpass": 2899,
    "ienten": 2900,
    "ĠTelefon": 2901,
    "Ġhe": 2902,
    "Ġsucht": 2903,
    "ograf": 2904,
    "ĠKin": 2905,
    "ĠLage": 2906,
    "spielsweise": 2907,
    "itten": 2908,
    "Ġhandelt": 2909,
    "ausch": 2910,
    "elte": 2911,
    "ĠgrÃ¶ÃŁer": 2912,
    "ublik": 2913,
    "Ġdam": 2914,
    "ĠTier": 2915,
    "unk": 2916,
    "ĠSpieler": 2917,
    "ollen": 2918,
    "riebs": 2919,
    "Ġdeshalb": 2920,
    "Ìĥ": 2921,
    "ommun": 2922,
    "Ġerfahren": 2923,
    "ĠZimmer": 2924,
    "bieter": 2925,
    "Ġmusste": 2926,
    "fahrt": 2927,
    "ĠMont": 2928,
    "ĠText": 2929,
    "Ġstand": 2930,
    "hein": 2931,
    "ull": 2932,
    "Ġunver": 2933,
    "ĠUSA": 2934,
    "ĠEis": 2935,
    "ĠMÃ¤rz": 2936,
    "len": 2937,
    "geschlossen": 2938,
    "Ġalten": 2939,
    "ĠService": 2940,
    "ĠGener": 2941,
    "Ġ80": 2942,
    "ĠLeute": 2943,
    "ums": 2944,
    "ĠApr": 2945,
    "Ã¼ndig": 2946,
    "wehr": 2947,
    "ĠMÃ¼": 2948,
    "Ġrein": 2949,
    "ĠCar": 2950,
    "onnen": 2951,
    "will": 2952,
    "Ġmeist": 2953,
    "Ġentscheiden": 2954,
    "ategor": 2955,
    "Ġbereit": 2956,
    "ĠSÃ¼d": 2957,
    "wirtschaft": 2958,
    "igin": 2959,
    "ĠFeuer": 2960,
    "ĠMÃ¼nchen": 2961,
    "altet": 2962,
    "Ġgegeben": 2963,
    "rich": 2964,
    "ĠheiÃŁt": 2965,
    "Ġsolche": 2966,
    "ĠhÃ¶r": 2967,
    "Ġvorh": 2968,
    "ĠSchne": 2969,
    "eier": 2970,
    "ĠJuli": 2971,
    "ĠTagen": 2972,
    "Ġ29": 2973,
    "enten": 2974,
    "Ġgefunden": 2975,
    "ĠUnterstÃ¼t": 2976,
    "straÃŁe": 2977,
    "ĠWien": 2978,
    "ĠBis": 2979,
    "Ġjedes": 2980,
    "ĠNun": 2981,
    "spiele": 2982,
    "inne": 2983,
    "ĠArch": 2984,
    "Ã¤nge": 2985,
    "ĠSm": 2986,
    "Ġtats": 2987,
    "ĠSitz": 2988,
    "ickt": 2989,
    "Ġkm": 2990,
    "richtung": 2991,
    "ĠWahr": 2992,
    "rauch": 2993,
    "Ġwes": 2994,
    "ĠSteuer": 2995,
    "ĠDon": 2996,
    "Ġbestehen": 2997,
    "ĠEben": 2998,
    "ja": 2999,
    "asen": 3000,
    "ĠDort": 3001,
    "ienen": 3002,
    "ĠGebur": 3003,
    "ĠhÃ¶her": 3004,
    "gliche": 3005,
    "ĠTur": 3006,
    "fÃ¼hrer": 3007,
    "ret": 3008,
    "igit": 3009,
    "eilen": 3010,
    "ehn": 3011,
    "akter": 3012,
    "ĠSpaÃŁ": 3013,
    "Ġzweiten": 3014,
    "ntag": 3015,
    "Ġmm": 3016,
    "ĠHel": 3017,
    "lang": 3018,
    "ĠBeitrag": 3019,
    "ĠVoll": 3020,
    "ĠAc": 3021,
    "reicht": 3022,
    "hilfe": 3023,
    "ĠÃ¤hn": 3024,
    "ppe": 3025,
    "ĠTechn": 3026,
    "ĠWeihn": 3027,
    "isik": 3028,
    "Ã¤llt": 3029,
    "ĠAugust": 3030,
    "fallen": 3031,
    "ĠWein": 3032,
    "gebung": 3033,
    "ochen": 3034,
    "Ġ90": 3035,
    "ĠWider": 3036,
    "ĠComp": 3037,
    "flÃ¤che": 3038,
    "ĠSil": 3039,
    "wissen": 3040,
    "forderungen": 3041,
    "ĠErk": 3042,
    "oph": 3043,
    "markt": 3044,
    "mel": 3045,
    "Ġfreuen": 3046,
    "Ġlesen": 3047,
    "ĠBeim": 3048,
    "ieÃŁen": 3049,
    "Ġganzen": 3050,
    "ĠmÃ¶": 3051,
    "ĠMensch": 3052,
    "eller": 3053,
    "ĠDamen": 3054,
    "Ġbeispielsweise": 3055,
    "ĠAuÃŁerdem": 3056,
    "kreis": 3057,
    "Ġinsbesondere": 3058,
    "Ġprakti": 3059,
    "nete": 3060,
    "lieÃŁlich": 3061,
    "racht": 3062,
    "ĠHause": 3063,
    "ĠFotos": 3064,
    "fÃ¤l": 3065,
    "ĠdÃ¼rfen": 3066,
    "kont": 3067,
    "riter": 3068,
    "igkeiten": 3069,
    "ĠDis": 3070,
    "Ġvorher": 3071,
    "ĠKur": 3072,
    "redit": 3073,
    "stat": 3074,
    "ĠTop": 3075,
    "ragt": 3076,
    "sor": 3077,
    "isse": 3078,
    "Ġerreichen": 3079,
    "ĠDez": 3080,
    "Ġgewesen": 3081,
    "ĠHall": 3082,
    "Ġvergangen": 3083,
    "oment": 3084,
    "system": 3085,
    "mitt": 3086,
    "wasser": 3087,
    "Ġbed": 3088,
    "Ġwelches": 3089,
    "ĠGar": 3090,
    "asche": 3091,
    "bahn": 3092,
    "ĠPost": 3093,
    "ĠErst": 3094,
    "Ġnotwend": 3095,
    "ĠÃ¼berhaupt": 3096,
    "reibt": 3097,
    "Ġebenso": 3098,
    "abil": 3099,
    "Ġjemand": 3100,
    "ĠWeb": 3101,
    "lauf": 3102,
    "uar": 3103,
    "Ġ2011": 3104,
    "zeiten": 3105,
    "Ã¶st": 3106,
    "ĠhÃ¶ch": 3107,
    "werb": 3108,
    "ĠEuropa": 3109,
    "irt": 3110,
    "ĠprÃ¤sen": 3111,
    "alien": 3112,
    "ĠHeil": 3113,
    "Ġaufgrund": 3114,
    "ehm": 3115,
    "ĠÐ": 3116,
    "ĠElekt": 3117,
    "ĠWÃ¤hrend": 3118,
    "ĠPolizei": 3119,
    "Ġy": 3120,
    "ĠLei": 3121,
    "ĠTipp": 3122,
    "iven": 3123,
    "ĠPort": 3124,
    "...": 3125,
    "dust": 3126,
    "ĠVerkehr": 3127,
    "ĠAller": 3128,
    "ĠSchn": 3129,
    "ĠII": 3130,
    "ĠNutzung": 3131,
    "ĠKr": 3132,
    "ĠStre": 3133,
    "ĠGleich": 3134,
    "ilden": 3135,
    "wiesen": 3136,
    "ĠCon": 3137,
    "ĠSchlaf": 3138,
    "pfehlen": 3139,
    "ĠApril": 3140,
    "Ġfinde": 3141,
    "furt": 3142,
    "ĠHamburg": 3143,
    "Ġpersonen": 3144,
    "ĠBitte": 3145,
    "teilt": 3146,
    "ĠOrganis": 3147,
    "ĠRolle": 3148,
    "staur": 3149,
    "wÃ¤r": 3150,
    "Ġvorhanden": 3151,
    "ĠRom": 3152,
    "ĠfrÃ¼her": 3153,
    "schlieÃŁlich": 3154,
    "fre": 3155,
    "leitung": 3156,
    "ĠKomment": 3157,
    "gruppe": 3158,
    "schrift": 3159,
    "Ġkur": 3160,
    "Ġ@": 3161,
    "ĠGesamt": 3162,
    "frist": 3163,
    "ĠGesetz": 3164,
    "ĠWand": 3165,
    "tigung": 3166,
    "ĠProbleme": 3167,
    "ĠErfahrung": 3168,
    "sph": 3169,
    "ĠMil": 3170,
    "Ġinnen": 3171,
    "Ġverz": 3172,
    "An": 3173,
    "geln": 3174,
    "!!": 3175,
    "ĠTre": 3176,
    "ĠSchule": 3177,
    "Ġautomat": 3178,
    "Ġbefindet": 3179,
    "zeugen": 3180,
    "Ġbetroffen": 3181,
    "acken": 3182,
    "Ġdank": 3183,
    "klÃ¤rung": 3184,
    "ĠJahrh": 3185,
    "Ġur": 3186,
    "Ġhochwer": 3187,
    "ĠStelle": 3188,
    "Ġmed": 3189,
    "herapie": 3190,
    "Ã¶ffentlicht": 3191,
    "oc": 3192,
    "ĠGrÃ¶ÃŁe": 3193,
    "Ġjeweils": 3194,
    "folgen": 3195,
    "ĠDazu": 3196,
    "ĠDatenschutz": 3197,
    "ĠDeutschen": 3198,
    "ĠNot": 3199,
    "ĠPflege": 3200,
    "ou": 3201,
    "Ã¤ufer": 3202,
    "igar": 3203,
    "innt": 3204,
    "Ã¼hren": 3205,
    "ĠRichtung": 3206,
    "hÃ¤us": 3207,
    "Ġged": 3208,
    "ĠZwe": 3209,
    "ĠGÃ¤ste": 3210,
    "ĠBlog": 3211,
    "ĠTor": 3212,
    "minister": 3213,
    "Ġerfolgreich": 3214,
    "Ġgeworden": 3215,
    "ĠGruppe": 3216,
    "ĠImm": 3217,
    "ĠBlut": 3218,
    "ĠBaum": 3219,
    "Ġjeweil": 3220,
    "Ġinternation": 3221,
    "verstÃ¤nd": 3222,
    "ĠSor": 3223,
    "Ã¤tzen": 3224,
    "ĠEssen": 3225,
    "Ġanderem": 3226,
    "usch": 3227,
    "indestens": 3228,
    "Ġpersonenbezogen": 3229,
    "Ġentfern": 3230,
    "peratur": 3231,
    "ĠSonntag": 3232,
    "teilung": 3233,
    "Ã¼nstler": 3234,
    "ĠAlt": 3235,
    "Ġ2010": 3236,
    "Ġrau": 3237,
    "wertung": 3238,
    "ĠSc": 3239,
    "plan": 3240,
    "ĠKurz": 3241,
    "test": 3242,
    "ĠSen": 3243,
    "Ġerfolgt": 3244,
    "ĠSan": 3245,
    "kor": 3246,
    "get": 3247,
    "sichtlich": 3248,
    "ĠFrÃ¼h": 3249,
    "ĠViele": 3250,
    "ĠBehandlung": 3251,
    "Ġus": 3252,
    "Ġsetzen": 3253,
    "chnung": 3254,
    "ĠMitglieder": 3255,
    "ĠwÃ¼rden": 3256,
    "spann": 3257,
    "cl": 3258,
    "ĠSitu": 3259,
    "ĠDisk": 3260,
    "dresse": 3261,
    "ĠWort": 3262,
    "uster": 3263,
    "oss": 3264,
    "angeb": 3265,
    "Ġeinigen": 3266,
    "ĠhÃ¤ufig": 3267,
    "nov": 3268,
    "behÃ¶r": 3269,
    "ĠBesonder": 3270,
    "ĠEro": 3271,
    "Ġerne": 3272,
    "ĠErgebnis": 3273,
    "reten": 3274,
    "ĠWald": 3275,
    "Ġentwickelt": 3276,
    "ĠOl": 3277,
    "ĠIdeen": 3278,
    "hÃ¤ltnis": 3279,
    "ĠWett": 3280,
    "ĠFarbe": 3281,
    "Ġ09": 3282,
    "tiger": 3283,
    "ĠGesprÃ¤": 3284,
    "Ġis": 3285,
    "ĠTechnik": 3286,
    "ziehung": 3287,
    "Ã¤uft": 3288,
    "ĠAG": 3289,
    "ssen": 3290,
    "ĠerhÃ¶": 3291,
    "ĠMÃ¶glichkeiten": 3292,
    "Ġposit": 3293,
    "hang": 3294,
    "ftung": 3295,
    "ĠSonnen": 3296,
    "ĠRat": 3297,
    "Ġdeutsche": 3298,
    "zeigt": 3299,
    "jekte": 3300,
    "amer": 3301,
    "ĠTitel": 3302,
    "Ġrel": 3303,
    "wegs": 3304,
    "ĠSpiele": 3305,
    "wagen": 3306,
    "Ġaktuellen": 3307,
    "ĠMotor": 3308,
    "Ġ.:": 3309,
    "Ġat": 3310,
    "sb": 3311,
    "ĠSP": 3312,
    "ĠKolle": 3313,
    "ĠBerg": 3314,
    "ĠExper": 3315,
    "aschinen": 3316,
    "iziert": 3317,
    "Ġerforder": 3318,
    "ĠBur": 3319,
    "Ġgrund": 3320,
    "uchten": 3321,
    "ĠGanz": 3322,
    "dingt": 3323,
    "Ġetc": 3324,
    "ĠTri": 3325,
    "uchte": 3326,
    "Ġwarum": 3327,
    "ĠAuftrag": 3328,
    "Ġallein": 3329,
    "ĠVerantwort": 3330,
    "Ġgesehen": 3331,
    "Ġleich": 3332,
    "ĠOder": 3333,
    "iew": 3334,
    "kennen": 3335,
    "Ġ197": 3336,
    "Ġbedeutet": 3337,
    "Ġselber": 3338,
    "Ġbringt": 3339,
    "Ã¤ndert": 3340,
    "hung": 3341,
    "ktive": 3342,
    "ĠJanuar": 3343,
    "Ġ500": 3344,
    "ĠHerren": 3345,
    "ĠKreis": 3346,
    "stieg": 3347,
    "ĠBru": 3348,
    "ĠTro": 3349,
    "ĠWieder": 3350,
    "stellte": 3351,
    "Ġanges": 3352,
    "anger": 3353,
    "ĠSoftware": 3354,
    "meldung": 3355,
    "ĠBank": 3356,
    "Ġmittler": 3357,
    "80": 3358,
    "Ġsuper": 3359,
    "ĠNÃ¤he": 3360,
    "ĠGri": 3361,
    "imal": 3362,
    "ĠSym": 3363,
    "ĠwÃ¼n": 3364,
    "ĠPass": 3365,
    "Ã¤ude": 3366,
    "reib": 3367,
    "drÃ¼ck": 3368,
    "eitag": 3369,
    "ĠNr": 3370,
    "lingen": 3371,
    "Ġklass": 3372,
    "abhÃ¤ng": 3373,
    "Ġ70": 3374,
    "schw": 3375,
    "ĠBahn": 3376,
    "iga": 3377,
    "zentr": 3378,
    "steht": 3379,
    "Ġentde": 3380,
    "ĠHeute": 3381,
    "ĠzunÃ¤chst": 3382,
    "dustrie": 3383,
    "ĠSoll": 3384,
    "Ġ35": 3385,
    "ĠGemeinde": 3386,
    "ĠVerarbeitung": 3387,
    "ĠAnge": 3388,
    "ĠStraÃŁe": 3389,
    "hinder": 3390,
    "reiten": 3391,
    "Ġfand": 3392,
    "volle": 3393,
    "Ġmindestens": 3394,
    "ĠâĢ¢": 3395,
    "cebook": 3396,
    "ament": 3397,
    "ĠInd": 3398,
    "ĠDezember": 3399,
    "Ġlos": 3400,
    "ĠkÃ¼": 3401,
    "barkeit": 3402,
    "ammlung": 3403,
    "ĠCasino": 3404,
    "Ġelekt": 3405,
    "oo": 3406,
    "Ġbelieb": 3407,
    "ĠSamstag": 3408,
    "Ġkna": 3409,
    "ĠModell": 3410,
    "ĠInhalt": 3411,
    "ĠFarben": 3412,
    "Ġalte": 3413,
    "lassen": 3414,
    "schau": 3415,
    "zte": 3416,
    "bru": 3417,
    "uhr": 3418,
    "ĠAutor": 3419,
    "Ġtreffen": 3420,
    "chmal": 3421,
    "mitteln": 3422,
    "ĠFlÃ¼": 3423,
    "ĠSuper": 3424,
    "ĠEing": 3425,
    "Ġalt": 3426,
    "ĠWÃ¼r": 3427,
    "ĠschÃ¶ne": 3428,
    "ĠFÃ¶rder": 3429,
    "fter": 3430,
    "Ġbem": 3431,
    "grÃ¼nd": 3432,
    "ogra": 3433,
    "Ġfer": 3434,
    "ĠAkt": 3435,
    "alte": 3436,
    "Ġhohen": 3437,
    "ane": 3438,
    "Ġgelten": 3439,
    "Ġzw": 3440,
    "ĠEnd": 3441,
    "gien": 3442,
    "Ġbraucht": 3443,
    "ions": 3444,
    "ES": 3445,
    "weile": 3446,
    "ĠMer": 3447,
    "ĠPrin": 3448,
    "ĠUmwelt": 3449,
    "ĠUnterstÃ¼tzung": 3450,
    "ĠPfl": 3451,
    "ungsver": 3452,
    "last": 3453,
    "Ġverbesser": 3454,
    "ĠFerien": 3455,
    "Ġhohe": 3456,
    "ĠRein": 3457,
    "Ġneues": 3458,
    "Ġgeeignet": 3459,
    "ĠGeburt": 3460,
    "rÃ¼fung": 3461,
    "Ġanzu": 3462,
    "ĠKÃ¶l": 3463,
    "Ġinsgesamt": 3464,
    "preis": 3465,
    "ĠFort": 3466,
    "Ġgenug": 3467,
    "ĠEngl": 3468,
    "haltung": 3469,
    "ĠgehÃ¶ren": 3470,
    "Ġ45": 3471,
    "Ã¤mlich": 3472,
    "ĠBest": 3473,
    "kungen": 3474,
    "rÃ¼ck": 3475,
    "ĠSchwe": 3476,
    "sichtig": 3477,
    "eiger": 3478,
    "grÃ¼n": 3479,
    "ument": 3480,
    "Ġbeide": 3481,
    "Ġth": 3482,
    "ĠStrom": 3483,
    "rach": 3484,
    "mack": 3485,
    "Ġak": 3486,
    "mlich": 3487,
    "ĠKindern": 3488,
    "Ġempfehlen": 3489,
    "Ġ08": 3490,
    "kosten": 3491,
    "eicher": 3492,
    "ĠMeine": 3493,
    "ĠvÃ¶": 3494,
    "ĠErn": 3495,
    "reibung": 3496,
    "ĠMÃ¶": 3497,
    "aul": 3498,
    "folge": 3499,
    "stimmung": 3500,
    "istr": 3501,
    "bank": 3502,
    "Ã¼tzen": 3503,
    "Ġoptimal": 3504,
    "Ġfort": 3505,
    "Ã¤lter": 3506,
    "riften": 3507,
    "Ġ36": 3508,
    "gern": 3509,
    "Ġlernen": 3510,
    "zig": 3511,
    "Ġverwenden": 3512,
    "ĠSchweiz": 3513,
    "Ġmin": 3514,
    "emin": 3515,
    "losen": 3516,
    "hausen": 3517,
    "Ġendlich": 3518,
    "arr": 3519,
    "Ġeurop": 3520,
    "ĠIt": 3521,
    "prÃ¼": 3522,
    "ĠInteresse": 3523,
    "ĠSozial": 3524,
    "ĠSmart": 3525,
    "Ġgesetz": 3526,
    "ichter": 3527,
    "ĠEt": 3528,
    "ĠTod": 3529,
    "10": 3530,
    "reisen": 3531,
    "see": 3532,
    "Ġeinzelnen": 3533,
    "ĠLog": 3534,
    "standen": 3535,
    "ĠKil": 3536,
    "ĠTex": 3537,
    "ĠStaats": 3538,
    "ĠKor": 3539,
    "Ġarbei": 3540,
    "Ġ07": 3541,
    "Ġnimmt": 3542,
    "ĠStein": 3543,
    "ĠerfÃ¼": 3544,
    "ĠtatsÃ¤chlich": 3545,
    "ĠKategor": 3546,
    "Ġdadurch": 3547,
    "staurant": 3548,
    "ĠStraÃŁen": 3549,
    "ĠDetail": 3550,
    "ĠHeraus": 3551,
    "ling": 3552,
    "Ġvorbei": 3553,
    "ĠWohnung": 3554,
    "Ġph": 3555,
    "ire": 3556,
    "iti": 3557,
    "ĠWetter": 3558,
    "Ġverein": 3559,
    "Ġzudem": 3560,
    "steuer": 3561,
    "Ġgesagt": 3562,
    "Ġjunge": 3563,
    "ĠVerkauf": 3564,
    "Ġfal": 3565,
    "Ġselten": 3566,
    "Ġenthalten": 3567,
    "reude": 3568,
    "bracht": 3569,
    "ĠCD": 3570,
    "ĠLeistung": 3571,
    "ĠDinge": 3572,
    "ĠMitglied": 3573,
    "ĠFen": 3574,
    "ĠUniversitÃ¤t": 3575,
    "ĠnÃ¤mlich": 3576,
    "Ã¤ischen": 3577,
    "ĠnÃ¤": 3578,
    "ierungs": 3579,
    "kur": 3580,
    "Ġentfernt": 3581,
    "ĠAlter": 3582,
    "ĠRegen": 3583,
    "ĠJahrhundert": 3584,
    "ĠSchritt": 3585,
    "Ver": 3586,
    "ĠAktiv": 3587,
    "rÃ¤ger": 3588,
    "Ġnahe": 3589,
    "neten": 3590,
    "ube": 3591,
    "Ġ....": 3592,
    "Ã¶lker": 3593,
    "zwischen": 3594,
    "Ġfa": 3595,
    "Ġvergangenen": 3596,
    "hel": 3597,
    "Pro": 3598,
    "Ã¼rf": 3599,
    "ĠErfahrungen": 3600,
    "worten": 3601,
    "itzt": 3602,
    "ĠBran": 3603,
    "Ġlaufen": 3604,
    "ĠPolitik": 3605,
    "prochen": 3606,
    "chter": 3607,
    "ĠSchÃ¶n": 3608,
    "Ġscheint": 3609,
    "ĠPraxis": 3610,
    "por": 3611,
    "ĠKÃ¼che": 3612,
    "ried": 3613,
    "ĠSaison": 3614,
    "Ġbekommt": 3615,
    "staltung": 3616,
    "Ġbist": 3617,
    "schlÃ¤": 3618,
    "ĠAnder": 3619,
    "ĠVerbindung": 3620,
    "vert": 3621,
    "Ġmax": 3622,
    "Ġsogen": 3623,
    "ĠKirche": 3624,
    "ĠBetrieb": 3625,
    "ĠstÃ¤r": 3626,
    "Ġzehn": 3627,
    "ĠWill": 3628,
    "arch": 3629,
    "ĠPhil": 3630,
    "daten": 3631,
    "ĠSicht": 3632,
    "geld": 3633,
    "ĠStudien": 3634,
    "produ": 3635,
    "wesen": 3636,
    "ĠPatienten": 3637,
    "tliche": 3638,
    "Ġkomplett": 3639,
    "vol": 3640,
    "nach": 3641,
    "ownlo": 3642,
    "ĠKre": 3643,
    "Ġspann": 3644,
    "Ġ2009": 3645,
    "pel": 3646,
    "ool": 3647,
    "ĠRot": 3648,
    "schlieÃŁend": 3649,
    "gessen": 3650,
    "burger": 3651,
    "ĠChe": 3652,
    "ĠGlas": 3653,
    "ĠOst": 3654,
    "fa": 3655,
    "ĠPrivat": 3656,
    "ĠProduktion": 3657,
    "Ġliebe": 3658,
    "bruar": 3659,
    "ĠTeilnehmer": 3660,
    "rifft": 3661,
    "Ã¼gen": 3662,
    "ĠRisik": 3663,
    "reiber": 3664,
    "Ġsozi": 3665,
    "ĠGewinn": 3666,
    "how": 3667,
    "Ġdamals": 3668,
    "pflich": 3669,
    "ĠTisch": 3670,
    "ĠBall": 3671,
    "Ġverbunden": 3672,
    "aschine": 3673,
    "ĠEntscheidung": 3674,
    "Ġbeein": 3675,
    "Sch": 3676,
    "Ġtoll": 3677,
    "ĠBasis": 3678,
    "ĠStandard": 3679,
    "auch": 3680,
    "ĠFebruar": 3681,
    "oper": 3682,
    "ĠStu": 3683,
    "Ġfahren": 3684,
    "ĠHome": 3685,
    "ĠSee": 3686,
    "ĠBedeut": 3687,
    "Ġindem": 3688,
    "zahlen": 3689,
    "bringen": 3690,
    "Ġehem": 3691,
    "ĠHig": 3692,
    "ene": 3693,
    "Ġzul": 3694,
    "ĠFacebook": 3695,
    "Ã¤hrt": 3696,
    "Ġbald": 3697,
    "lÃ¶s": 3698,
    "ĠInhalte": 3699,
    "ĠHallo": 3700,
    "ĠzusÃ¤tzlich": 3701,
    "ĠFolge": 3702,
    "ĠBal": 3703,
    "ĠMitte": 3704,
    "gn": 3705,
    "ĠSchuhe": 3706,
    "ĠBesucher": 3707,
    "ĠVoraus": 3708,
    "zeuge": 3709,
    "ĠIdee": 3710,
    "ED": 3711,
    "ĠerklÃ¤rt": 3712,
    "ĠhÃ¤lt": 3713,
    "ĠFreitag": 3714,
    "ĠKÃ¶nig": 3715,
    "Ġsetzt": 3716,
    "IT": 3717,
    "ith": 3718,
    "rop": 3719,
    "Ġerreicht": 3720,
    "roll": 3721,
    "Ġfolgenden": 3722,
    "offe": 3723,
    "ĠAuÃŁen": 3724,
    "Ġlaut": 3725,
    "ĠSchwer": 3726,
    "such": 3727,
    "ĠAusbildung": 3728,
    "llung": 3729,
    "ĠStellen": 3730,
    "med": 3731,
    "AR": 3732,
    "Ġauszu": 3733,
    "Ġstar": 3734,
    "Ġ196": 3735,
    "Ġdanach": 3736,
    "Ġmen": 3737,
    "ĠDeutsche": 3738,
    "ĠBab": 3739,
    "Ġdrau": 3740,
    "ĠBek": 3741,
    "ĠvÃ¶llig": 3742,
    "verein": 3743,
    "ĠunterstÃ¼tzen": 3744,
    "ĠMeer": 3745,
    "ĠNatÃ¼rlich": 3746,
    "ĠMenge": 3747,
    "Ã¼sse": 3748,
    "Ġaktuell": 3749,
    "ĠWissenschaft": 3750,
    "ĠAufgaben": 3751,
    "tur": 3752,
    "Ġfinanz": 3753,
    "wegung": 3754,
    "serv": 3755,
    "Ġbestimmt": 3756,
    "ackt": 3757,
    "sident": 3758,
    "ĠTerr": 3759,
    "ffer": 3760,
    "Ġtragen": 3761,
    "cks": 3762,
    "ĠRund": 3763,
    "ĠKranken": 3764,
    "ĠFranz": 3765,
    "Ġern": 3766,
    "Ġwider": 3767,
    "gten": 3768,
    "Ġmon": 3769,
    "Ã¼ssel": 3770,
    "gefÃ¼hrt": 3771,
    "ĠEntwick": 3772,
    "ĠGet": 3773,
    "ĠLiter": 3774,
    "oppel": 3775,
    "by": 3776,
    "esser": 3777,
    "stre": 3778,
    "dete": 3779,
    "do": 3780,
    "ĠermÃ¶glich": 3781,
    "ca": 3782,
    "rolle": 3783,
    "Ã¤ndig": 3784,
    "aktion": 3785,
    "uchs": 3786,
    "attform": 3787,
    "istischen": 3788,
    "Ġunten": 3789,
    "ĠBett": 3790,
    "Ġjeweiligen": 3791,
    "Ġrechts": 3792,
    "ĠWunsch": 3793,
    "ĠunterstÃ¼tzt": 3794,
    "ĠKan": 3795,
    "zeichen": 3796,
    "ĠVersand": 3797,
    "ima": 3798,
    "Ġwert": 3799,
    "ĠRestaurant": 3800,
    "Ġwobei": 3801,
    "kul": 3802,
    "ĠDre": 3803,
    "far": 3804,
    "ement": 3805,
    "hei": 3806,
    "Ġgleichzeitig": 3807,
    "stellten": 3808,
    "erin": 3809,
    "ĠVater": 3810,
    "Ġ06": 3811,
    "ĠMat": 3812,
    "ĠCook": 3813,
    "Ġbele": 3814,
    "alisierung": 3815,
    "ĠDok": 3816,
    "Ġspielt": 3817,
    "ĠVideos": 3818,
    "Ġsechs": 3819,
    "ĠGold": 3820,
    "ĠZudem": 3821,
    "ĠVerk": 3822,
    "over": 3823,
    "ĠDeutsch": 3824,
    "hoben": 3825,
    "ohnt": 3826,
    "ĠSchau": 3827,
    "Ġseines": 3828,
    "Ġkeiner": 3829,
    "ĠÃ¤u": 3830,
    "ĠUnternehmens": 3831,
    "ael": 3832,
    "ĠSchwarz": 3833,
    "anlage": 3834,
    "Ġsorgen": 3835,
    "uelle": 3836,
    "ĠFirma": 3837,
    "eting": 3838,
    "Ġ32": 3839,
    "ĠMonate": 3840,
    "Ġzumindest": 3841,
    "scheinlich": 3842,
    "Ġwohn": 3843,
    "unehmen": 3844,
    "ierter": 3845,
    "ness": 3846,
    "ĠWeitere": 3847,
    "reuz": 3848,
    "Ġangeboten": 3849,
    "ĠKrieg": 3850,
    "ĠWest": 3851,
    "itt": 3852,
    "Ġtrotzdem": 3853,
    "fluss": 3854,
    "Ġgestellt": 3855,
    "spar": 3856,
    "chnet": 3857,
    "fert": 3858,
    "Ġ05": 3859,
    "Ġ2008": 3860,
    "Ġfrauen": 3861,
    "Ġziemlich": 3862,
    "ille": 3863,
    "ĠSatz": 3864,
    "jÃ¤hrige": 3865,
    "lass": 3866,
    "Ġhil": 3867,
    "gebiet": 3868,
    "ĠAlles": 3869,
    "ĠSl": 3870,
    "ĠBedeutung": 3871,
    "kom": 3872,
    "bÃ¼r": 3873,
    "zul": 3874,
    "Ġletzte": 3875,
    "ĠSw": 3876,
    "arian": 3877,
    "ĠSand": 3878,
    "sse": 3879,
    "AT": 3880,
    "ĠMass": 3881,
    "ĠMart": 3882,
    "stÃ¤nde": 3883,
    "bedingungen": 3884,
    "Ġweiterhin": 3885,
    "Ġrichtige": 3886,
    "vis": 3887,
    "ĠBeginn": 3888,
    "zentrum": 3889,
    "rate": 3890,
    "zeigen": 3891,
    "ike": 3892,
    "ĠFirmen": 3893,
    "lad": 3894,
    "ĠDass": 3895,
    "ĠGesundheit": 3896,
    "30": 3897,
    "hre": 3898,
    "reite": 3899,
    "ĠAngebote": 3900,
    "ĠBrem": 3901,
    "ĠLÃ¶sung": 3902,
    "ĠGedanken": 3903,
    "ĠAllerdings": 3904,
    "omaten": 3905,
    "Ġderzeit": 3906,
    "wig": 3907,
    "rÃ¤um": 3908,
    "Ġperfekt": 3909,
    "mÃ¶glichkeiten": 3910,
    "Ġwelcher": 3911,
    "ĠUmgebung": 3912,
    "ï¿": 3913,
    "Ġintegr": 3914,
    "quem": 3915,
    "Ġheu": 3916,
    "ĠzusÃ¤tz": 3917,
    "ĠFÃ¼": 3918,
    "ĠâĨ": 3919,
    "tischen": 3920,
    "ĠKamer": 3921,
    "Ġgern": 3922,
    "grÃ¶": 3923,
    "stall": 3924,
    "ĠMonat": 3925,
    "teilen": 3926,
    "ĠbeschÃ¤f": 3927,
    "ï¿½": 3928,
    "Ġ04": 3929,
    "ĠÂ·": 3930,
    "ĠGruppen": 3931,
    "ĠVerfahren": 3932,
    "sitzen": 3933,
    "ĠInvest": 3934,
    "yl": 3935,
    "Ġjederzeit": 3936,
    "Ġ02": 3937,
    "Ġeng": 3938,
    "ON": 3939,
    "ĠPreise": 3940,
    "ias": 3941,
    "det": 3942,
    "ĠIs": 3943,
    "Ġbehand": 3944,
    "ownload": 3945,
    "ĠFuÃŁball": 3946,
    "alif": 3947,
    "ĠDom": 3948,
    "afft": 3949,
    "rÃ¤fte": 3950,
    "ars": 3951,
    "ĠRel": 3952,
    "ĠJob": 3953,
    "Ġvergleich": 3954,
    "ðŁ": 3955,
    "Ġecht": 3956,
    "ĠschlieÃŁlich": 3957,
    "atik": 3958,
    "ĠUrlaub": 3959,
    "AS": 3960,
    "Ġfreund": 3961,
    "ĠAnaly": 3962,
    "bew": 3963,
    "urf": 3964,
    "ĠAnbieter": 3965,
    "ĠKe": 3966,
    "ĠMetho": 3967,
    "use": 3968,
    "ĠHersteller": 3969,
    "ĠTV": 3970,
    "ĠPunkt": 3971,
    "ĠÃ¼bern": 3972,
    "zustellen": 3973,
    "ĠPersonal": 3974,
    "kunden": 3975,
    "deck": 3976,
    "ĠDo": 3977,
    "diglich": 3978,
    "ĠMeinung": 3979,
    "Ġlo": 3980,
    "ĠBern": 3981,
    "Ġsinn": 3982,
    "leistungen": 3983,
    "ĠâĢĺ": 3984,
    "woch": 3985,
    "lieb": 3986,
    "ĠWolf": 3987,
    "hard": 3988,
    "denten": 3989,
    "Ġ):": 3990,
    "host": 3991,
    "Ġhistor": 3992,
    "raut": 3993,
    "Ã¼tzt": 3994,
    "Ġober": 3995,
    "ĠSter": 3996,
    "ĠErd": 3997,
    "recher": 3998,
    "aust": 3999,
    "itut": 4000,
    "ĠMod": 4001,
    "ĠReich": 4002,
    "ĠermÃ¶glicht": 4003,
    "ĠVerwalt": 4004,
    "Ġerkennen": 4005,
    "ission": 4006,
    "ĠWeihnacht": 4007,
    "ĠDrei": 4008,
    "aff": 4009,
    "ĠIr": 4010,
    "ĠVerm": 4011,
    "zeugt": 4012,
    "ieten": 4013,
    "ĠverfÃ¼g": 4014,
    "Ġtran": 4015,
    "ĠAlltag": 4016,
    "Ġgenommen": 4017,
    "Ġherr": 4018,
    "ĠKaffe": 4019,
    "Ġorganis": 4020,
    "sver": 4021,
    "ĠFahrzeug": 4022,
    "EL": 4023,
    "sprÃ¼": 4024,
    "Ġ03": 4025,
    "nern": 4026,
    "hann": 4027,
    "ĠFehler": 4028,
    "ĠSinn": 4029,
    "park": 4030,
    "okrat": 4031,
    "ĠgroÃŁer": 4032,
    "Ġgeschrieben": 4033,
    "ĠBeratung": 4034,
    "ĠNutzer": 4035,
    "ĠPal": 4036,
    "ĠZustand": 4037,
    "Ġ194": 4038,
    "view": 4039,
    "ĠPeter": 4040,
    "ampf": 4041,
    "ĠStÃ¤d": 4042,
    "ĠSache": 4043,
    "ese": 4044,
    "Ġfunktioniert": 4045,
    "ĠSituation": 4046,
    "yr": 4047,
    "ĠReihe": 4048,
    "ĠNational": 4049,
    "aktiv": 4050,
    "ĠRhein": 4051,
    "ĠLink": 4052,
    "ĠMichael": 4053,
    "Ġbeginnt": 4054,
    "ĠkÃ¶nnten": 4055,
    "ĠIndustrie": 4056,
    "bern": 4057,
    "eisen": 4058,
    "GB": 4059,
    "istik": 4060,
    "ĠDich": 4061,
    "ĠLust": 4062,
    "gericht": 4063,
    "Ġgeh": 4064,
    "Ġgepl": 4065,
    "ution": 4066,
    "ĠZwischen": 4067,
    "Ġtot": 4068,
    "Ġanderes": 4069,
    "Ġerle": 4070,
    "ĠTyp": 4071,
    "leisch": 4072,
    "ĠAp": 4073,
    "ĠVolks": 4074,
    "ĠKÃ¶ln": 4075,
    "lock": 4076,
    "nder": 4077,
    "ĠHar": 4078,
    "zahlung": 4079,
    "denken": 4080,
    "Ġerwei": 4081,
    "ĠUl": 4082,
    "Ġ300": 4083,
    "jÃ¤hrigen": 4084,
    "etzung": 4085,
    "illen": 4086,
    "ox": 4087,
    "Ġzweite": 4088,
    "ake": 4089,
    "ates": 4090,
    "Ġstets": 4091,
    "Ġschaffen": 4092,
    "Ġprofession": 4093,
    "ĠZusammenarbeit": 4094,
    "ĠAngaben": 4095,
    "schriften": 4096,
    "ĠFenster": 4097,
    "apan": 4098,
    "Ġseien": 4099,
    "ĠMeter": 4100,
    "Ġruh": 4101,
    "Ġehemal": 4102,
    "ĠSprache": 4103,
    "Ġverstehen": 4104,
    "Ġehr": 4105,
    "ĠComputer": 4106,
    "pa": 4107,
    "Ġengl": 4108,
    "ĠschÃ¶nen": 4109,
    "Ġschwarz": 4110,
    "ĠDeshalb": 4111,
    "ĠKu": 4112,
    "immel": 4113,
    "ĠImmobil": 4114,
    "ÃŁt": 4115,
    "Ġzahlreiche": 4116,
    "bÃ¼": 4117,
    "programm": 4118,
    "ĠKampf": 4119,
    "ĠAndre": 4120,
    "wind": 4121,
    "uft": 4122,
    "sein": 4123,
    "out": 4124,
    "ĠSehr": 4125,
    "ĠGefÃ¼hl": 4126,
    "ĠGebÃ¤ude": 4127,
    "ĠSinne": 4128,
    "achst": 4129,
    "ĠðŁ": 4130,
    "IS": 4131,
    "fragen": 4132,
    "ĠSchon": 4133,
    "istische": 4134,
    "ĠAltern": 4135,
    "geschichte": 4136,
    "Ġlangsam": 4137,
    "spricht": 4138,
    "Ã¶ne": 4139,
    "Ġextrem": 4140,
    "Ġerl": 4141,
    "richtungen": 4142,
    "ĠÃ¼brigen": 4143,
    "ĠBÃ¼cher": 4144,
    "gebaut": 4145,
    "ĠFin": 4146,
    "ama": 4147,
    "ĠZahn": 4148,
    "sÃ¤tzlich": 4149,
    "ĠMax": 4150,
    "ĠFrankfurt": 4151,
    "ĠAngst": 4152,
    "ĠStrand": 4153,
    "Ġhol": 4154,
    "ĠMonaten": 4155,
    "Ġzer": 4156,
    "bed": 4157,
    "Ġbeant": 4158,
    "anzeigen": 4159,
    "ĠBetriebs": 4160,
    "ĠWarum": 4161,
    "itzer": 4162,
    "Ã¤ngt": 4163,
    "Ġgleichen": 4164,
    "leidung": 4165,
    "ular": 4166,
    "Ġunbedingt": 4167,
    "Ġtro": 4168,
    "lieben": 4169,
    "Ġweltweit": 4170,
    "Ã¶rt": 4171,
    "ĠMuse": 4172,
    "anne": 4173,
    "ĠPsych": 4174,
    "stattung": 4175,
    "Ġknapp": 4176,
    "ĠTrotz": 4177,
    "enntnis": 4178,
    "ĠGrÃ¼": 4179,
    "ĠFreunde": 4180,
    "ĠSicherheits": 4181,
    "Ġrichtigen": 4182,
    "eidig": 4183,
    "ĠLang": 4184,
    "eichert": 4185,
    "verband": 4186,
    "fle": 4187,
    "ĠIS": 4188,
    "Ġres": 4189,
    "Ġerhe": 4190,
    "technik": 4191,
    "DF": 4192,
    "merzen": 4193,
    "frieden": 4194,
    "Ġerg": 4195,
    "werte": 4196,
    "Ġwichtige": 4197,
    "igur": 4198,
    "ĠWander": 4199,
    "loss": 4200,
    "ĠFreude": 4201,
    "ĠBenutz": 4202,
    "ĠMeister": 4203,
    "Ġneuer": 4204,
    "ĠWebseite": 4205,
    "ennung": 4206,
    "ĠLÃ¶": 4207,
    "kir": 4208,
    "Ġdigit": 4209,
    "ĠOrd": 4210,
    "gegeben": 4211,
    "ĠPosition": 4212,
    "Ġschwier": 4213,
    "Ġverd": 4214,
    "ows": 4215,
    "Ã¤den": 4216,
    "ĠNachdem": 4217,
    "iginal": 4218,
    "ĠMoment": 4219,
    "omas": 4220,
    "Ġ[âĢ¦": 4221,
    "Ġangen": 4222,
    "ometer": 4223,
    "garten": 4224,
    "mand": 4225,
    "spir": 4226,
    "tiges": 4227,
    "Ġsorgt": 4228,
    "band": 4229,
    "ĠAbschluss": 4230,
    "iver": 4231,
    "Ġgesamten": 4232,
    "ime": 4233,
    "Ġansch": 4234,
    "Ã¼tz": 4235,
    "Ġunseres": 4236,
    "int": 4237,
    "ĠPorn": 4238,
    "ĠTon": 4239,
    "elten": 4240,
    "ĠPunkte": 4241,
    "azon": 4242,
    "Ġmass": 4243,
    "ĠInteressen": 4244,
    "ĠPaar": 4245,
    "karte": 4246,
    "leistung": 4247,
    "Â«": 4248,
    "ĠAnspruch": 4249,
    "Ġdurchaus": 4250,
    "Ġform": 4251,
    "OR": 4252,
    "Ġentstehen": 4253,
    "Ġhilft": 4254,
    "Ġtolle": 4255,
    "Ġerforderlich": 4256,
    "maÃŁ": 4257,
    "ender": 4258,
    "Ġeinzu": 4259,
    "Ġ[âĢ¦]": 4260,
    "ux": 4261,
    "nungs": 4262,
    "gesehen": 4263,
    "ĠVielleicht": 4264,
    "ĠpersÃ¶nlichen": 4265,
    "ĠlÃ¤uft": 4266,
    "ĠKarten": 4267,
    "ĠBerufs": 4268,
    "Ã¤ssig": 4269,
    "ĠLeistungen": 4270,
    "ĠEuch": 4271,
    "ĠKredit": 4272,
    "merksam": 4273,
    "ames": 4274,
    "ĠSalz": 4275,
    "ĠVerwendung": 4276,
    "OS": 4277,
    "sie": 4278,
    "ĠJohann": 4279,
    "Ġsprechen": 4280,
    "ierungen": 4281,
    "ĠVersicher": 4282,
    "Ġjungen": 4283,
    "Ġteilweise": 4284,
    "zir": 4285,
    "ĠKonz": 4286,
    "ĠRuhe": 4287,
    "Ġumfassen": 4288,
    "zin": 4289,
    "Ġlau": 4290,
    "ĠSonder": 4291,
    "auso": 4292,
    "holz": 4293,
    "gewÃ¶hn": 4294,
    "Ġad": 4295,
    "alisiert": 4296,
    "ĠBayern": 4297,
    "ĠnatÃ¼r": 4298,
    "Ġzentr": 4299,
    "Ġihres": 4300,
    "iten": 4301,
    "zehn": 4302,
    "ĠShop": 4303,
    "va": 4304,
    "hafen": 4305,
    "Ġpar": 4306,
    "ĠName": 4307,
    "Ð¾": 4308,
    "ĠFolgen": 4309,
    "ĠgrÃ¶ÃŁten": 4310,
    "ĠTermin": 4311,
    "ĠAnzahl": 4312,
    "lebnis": 4313,
    "irm": 4314,
    "ancen": 4315,
    "ktor": 4316,
    "ochter": 4317,
    "zep": 4318,
    "ierenden": 4319,
    "Ġzuvor": 4320,
    "Ã¤hrung": 4321,
    "Ġmanchmal": 4322,
    "rÃ¤f": 4323,
    "Ġpasst": 4324,
    "Ġaktuelle": 4325,
    "ĠGef": 4326,
    "Ġbesondere": 4327,
    "bauen": 4328,
    "ĠErwachsen": 4329,
    "ĠAufgabe": 4330,
    "lack": 4331,
    "raun": 4332,
    "ĠTipps": 4333,
    "mittlung": 4334,
    "ĠEind": 4335,
    "ĠVis": 4336,
    "ĠausschlieÃŁlich": 4337,
    "ĠMorgen": 4338,
    "ĠSach": 4339,
    "ĠnÃ¤chste": 4340,
    "ĠHann": 4341,
    "ĠErgebnisse": 4342,
    "ĠArbeiten": 4343,
    "ruktur": 4344,
    "ĠLeider": 4345,
    "Ġeinzigar": 4346,
    "Ġdeutsch": 4347,
    "wser": 4348,
    "ttra": 4349,
    "mÃ¶glichen": 4350,
    "zÃ¼glich": 4351,
    "hau": 4352,
    "ĠgenieÃŁen": 4353,
    "haben": 4354,
    "ĠBade": 4355,
    "gehend": 4356,
    "ĠVersion": 4357,
    "Ġobwohl": 4358,
    "Ġbrauchen": 4359,
    "Ġ34": 4360,
    "aun": 4361,
    "ĠfÃ¤llt": 4362,
    "ĠEUR": 4363,
    "ĠFarb": 4364,
    "ĠhÃ¤tten": 4365,
    "Ġ2007": 4366,
    "Ġgenutzt": 4367,
    "ĠGerÃ¤t": 4368,
    "vel": 4369,
    "Ġgaran": 4370,
    "ĠSohn": 4371,
    "ĠItalien": 4372,
    "eils": 4373,
    "ĠAntwort": 4374,
    "Ġdarin": 4375,
    "Ġdefin": 4376,
    "Ġzufrieden": 4377,
    "ĠkÃ¶nnt": 4378,
    "Ġpersonenbezogenen": 4379,
    "ĠVier": 4380,
    "Ã¤tigkeit": 4381,
    "Ġgekommen": 4382,
    "orgung": 4383,
    "Ã¶ffnet": 4384,
    "Ġlediglich": 4385,
    "ĠOut": 4386,
    "kÃ¼": 4387,
    "ĠTemperatur": 4388,
    "ĠProzess": 4389,
    "zif": 4390,
    "Ġ99": 4391,
    "van": 4392,
    "Ġlieber": 4393,
    "ĠKer": 4394,
    "ĠverÃ¶ffentlicht": 4395,
    "ĠDiskuss": 4396,
    "Ġziehen": 4397,
    "Ġunterwegs": 4398,
    "Ġgere": 4399,
    "ĠCa": 4400,
    "ĠHund": 4401,
    "ĠAnwendung": 4402,
    "Ġschlecht": 4403,
    "Ġlinks": 4404,
    "ĠKÃ¼nstler": 4405,
    "ĠÃ¤uÃŁer": 4406,
    "Ġanderer": 4407,
    "ĠmÃ¶glichst": 4408,
    "gner": 4409,
    "ĠWaren": 4410,
    "ĠZeitpunkt": 4411,
    "rief": 4412,
    "ĠKurs": 4413,
    "Ġsolchen": 4414,
    "Ġhal": 4415,
    "ĠIT": 4416,
    "anst": 4417,
    "ĠmuÃŁ": 4418,
    "Ġ33": 4419,
    "ĠPC": 4420,
    "ĠHerbst": 4421,
    "ĠBack": 4422,
    "ĠnÃ¶": 4423,
    "ernt": 4424,
    "Ġgebracht": 4425,
    "Ġgesamte": 4426,
    "schrank": 4427,
    "ĠGraf": 4428,
    "ĠOption": 4429,
    "pft": 4430,
    "ĠAktion": 4431,
    "ĠKal": 4432,
    "Ã¤nden": 4433,
    "ĠDS": 4434,
    "ĠMacht": 4435,
    "ĠGottes": 4436,
    "ash": 4437,
    "ĠMannschaft": 4438,
    "Ġentgegen": 4439,
    "Ġsah": 4440,
    "ĠWirtschafts": 4441,
    "Ġmittlerweile": 4442,
    "ĠVeranstaltung": 4443,
    "Ġgewinnen": 4444,
    "finden": 4445,
    "ĠRuss": 4446,
    "yt": 4447,
    "Ġraus": 4448,
    "setzt": 4449,
    "weder": 4450,
    "ierende": 4451,
    "kraft": 4452,
    "ĠSÃ¼": 4453,
    "ĠKlasse": 4454,
    "ĠDein": 4455,
    "entrum": 4456,
    "gart": 4457,
    "ĠStutt": 4458,
    "Ã¤ume": 4459,
    "Ġabzu": 4460,
    "press": 4461,
    "wohner": 4462,
    "Ġusw": 4463,
    "linge": 4464,
    "Ġdre": 4465,
    "Ġdennoch": 4466,
    "raucher": 4467,
    "ode": 4468,
    "zÃ¤hl": 4469,
    "ĠÃ¤lter": 4470,
    "ĠGesicht": 4471,
    "vÃ¶lker": 4472,
    "ĠUp": 4473,
    "Ġerh": 4474,
    "ĠenthÃ¤lt": 4475,
    "ĠRegierung": 4476,
    "Ġverloren": 4477,
    "ĠArzt": 4478,
    "orien": 4479,
    "Ġversucht": 4480,
    "ĠOhne": 4481,
    "Ġsoweit": 4482,
    "nungen": 4483,
    "ĠHintergrund": 4484,
    "Ġtradition": 4485,
    "ĠMain": 4486,
    "gelt": 4487,
    "ĠAust": 4488,
    "bol": 4489,
    "ĠverfÃ¼gt": 4490,
    "ĠauÃŁerdem": 4491,
    "ĠTraum": 4492,
    "Ġwirtschaft": 4493,
    "vollen": 4494,
    "raucht": 4495,
    "Ġnachdem": 4496,
    "ĠJeder": 4497,
    "flug": 4498,
    "linik": 4499,
    "19": 4500,
    "Ġeinger": 4501,
    "Ġunterschiedlichen": 4502,
    "ĠKostenlos": 4503,
    "ĠÃ¼": 4504,
    "Ġschwar": 4505,
    "ĠtÃ¤glich": 4506,
    "Ã¶se": 4507,
    "unternehmen": 4508,
    "rim": 4509,
    "ĠThomas": 4510,
    "ĠKombin": 4511,
    "ient": 4512,
    "etzte": 4513,
    "ĠAlb": 4514,
    "gs": 4515,
    "12": 4516,
    "ĠMontag": 4517,
    "ĠForum": 4518,
    "Ġoffiz": 4519,
    "low": 4520,
    "Ġerlau": 4521,
    "ĠKno": 4522,
    "ĠregelmÃ¤ÃŁig": 4523,
    "Ġdarum": 4524,
    "baum": 4525,
    "ĠBrÃ¼": 4526,
    "endet": 4527,
    "stoffe": 4528,
    "Ġbequem": 4529,
    "ĠStunde": 4530,
    "Ġmachte": 4531,
    "ĠKommunikation": 4532,
    "ĠÃ¶ffentlichen": 4533,
    "Ġporno": 4534,
    "ĠBezug": 4535,
    "Ġdat": 4536,
    "Ġsod": 4537,
    "ĠLager": 4538,
    "klusive": 4539,
    "sei": 4540,
    "anen": 4541,
    "ĠVo": 4542,
    "ĠGeschmack": 4543,
    "roh": 4544,
    "Ġbisschen": 4545,
    "ĠAnti": 4546,
    "yer": 4547,
    "Ġausreichen": 4548,
    "ĠIhres": 4549,
    "Ġentsprechend": 4550,
    "Ã¤ger": 4551,
    "Ġkleiner": 4552,
    "ĠZusammenhang": 4553,
    "tionen": 4554,
    "ĠSchaden": 4555,
    "Ġwechs": 4556,
    "ĠVi": 4557,
    "Ġverantwort": 4558,
    "ĠLeistungs": 4559,
    "ĠgewÃ¤hr": 4560,
    "Ġkor": 4561,
    "ufe": 4562,
    "ĠSchrift": 4563,
    "ĠKann": 4564,
    "ĠSuch": 4565,
    "Ġdrin": 4566,
    "hostw": 4567,
    "Ġtyp": 4568,
    "Ġsing": 4569,
    "entliche": 4570,
    "Ġeingesetzt": 4571,
    "raten": 4572,
    "Ġautomatisch": 4573,
    "ĠSmartph": 4574,
    "versicherung": 4575,
    "icke": 4576,
    "ink": 4577,
    "ĠHunde": 4578,
    "Ġero": 4579,
    "schuss": 4580,
    "Ġreich": 4581,
    "igten": 4582,
    "adem": 4583,
    "ikal": 4584,
    "erikan": 4585,
    "ĠpersÃ¶nlich": 4586,
    "ĠPfer": 4587,
    "Ġdau": 4588,
    "ĠSachen": 4589,
    "Ġhinzu": 4590,
    "ĠAss": 4591,
    "Ġversuchen": 4592,
    "Ġerwartet": 4593,
    "ĠHol": 4594,
    "ĠPublik": 4595,
    "mittelt": 4596,
    "ĠnÃ¤her": 4597,
    "Ġdisk": 4598,
    "ĠSchnit": 4599,
    "ĠStaat": 4600,
    "ĠZeiten": 4601,
    "verkehr": 4602,
    "gruppen": 4603,
    "Ġuner": 4604,
    "ĠHerzen": 4605,
    "ĠwÃ¤hlen": 4606,
    "freund": 4607,
    "sphÃ¤re": 4608,
    "hlung": 4609,
    "olitik": 4610,
    "stern": 4611,
    "Innen": 4612,
    "Ġhttps": 4613,
    "ĠDaher": 4614,
    "ĠStat": 4615,
    "Ġentwickeln": 4616,
    "ĠHeimat": 4617,
    "ĠPa": 4618,
    "Ġwenige": 4619,
    "zeichnung": 4620,
    "spieler": 4621,
    "24": 4622,
    "rt": 4623,
    "ĠNorm": 4624,
    "Ġhalt": 4625,
    "ĠRed": 4626,
    "Ġzuge": 4627,
    "Ġpreis": 4628,
    "Ġhaus": 4629,
    "ĠEng": 4630,
    "ĠMaÃŁnahmen": 4631,
    "Ġerleben": 4632,
    "ĠÃ¼berr": 4633,
    "acher": 4634,
    "ulti": 4635,
    "ĠNeue": 4636,
    "ĠOpti": 4637,
    "res": 4638,
    "gut": 4639,
    "ĠKrit": 4640,
    "ĠLaut": 4641,
    "ĠSchlag": 4642,
    "Ġmorgen": 4643,
    "ĠEinen": 4644,
    "swert": 4645,
    "ĠFeld": 4646,
    "ĠImmer": 4647,
    "Ã¤lte": 4648,
    "ĠHÃ¼": 4649,
    "ĠAnforderungen": 4650,
    "Ġdenke": 4651,
    "Ġbegann": 4652,
    "Ġerster": 4653,
    "nummer": 4654,
    "AL": 4655,
    "ĠDoppel": 4656,
    "Ġgelegen": 4657,
    "ĠWochenende": 4658,
    "Ġegal": 4659,
    "Ġerneut": 4660,
    "ana": 4661,
    "ferenz": 4662,
    "ĠChance": 4663,
    "ĠAbl": 4664,
    "ĠFel": 4665,
    "reut": 4666,
    "Ġabsolut": 4667,
    "ĠNoch": 4668,
    "ĠCookies": 4669,
    "Ġkrit": 4670,
    "ĠMir": 4671,
    "Ġallgem": 4672,
    "cial": 4673,
    "enter": 4674,
    "eg": 4675,
    "Ġwundersch": 4676,
    "verstÃ¤ndlich": 4677,
    "Ġbein": 4678,
    "fÃ¼hren": 4679,
    "ĠUntersuch": 4680,
    "Ġ!!!": 4681,
    "ĠBeste": 4682,
    "ĠgemÃ¤ÃŁ": 4683,
    "Ġbefinden": 4684,
    "Ġkomm": 4685,
    "Ġgenannt": 4686,
    "ĠAntrag": 4687,
    "ĠBil": 4688,
    "ĠHalb": 4689,
    "ĠMel": 4690,
    "hafte": 4691,
    "deten": 4692,
    "ĠHy": 4693,
    "ĠEvent": 4694,
    "jen": 4695,
    "Ã¤ngen": 4696,
    "tritt": 4697,
    "Ġkamen": 4698,
    "Ġbestellen": 4699,
    "iete": 4700,
    "othek": 4701,
    "bruch": 4702,
    "ĠMedizin": 4703,
    "irn": 4704,
    "Ġwenigen": 4705,
    "Ġbestimmten": 4706,
    "tierte": 4707,
    "bek": 4708,
    "isiert": 4709,
    "ĠiP": 4710,
    "ĠCom": 4711,
    "urm": 4712,
    "Ġzeig": 4713,
    "wechsel": 4714,
    "onen": 4715,
    "tigten": 4716,
    "mode": 4717,
    "ĠEmpf": 4718,
    "endes": 4719,
    "ĠFreizeit": 4720,
    "sprÃ¼n": 4721,
    "sex": 4722,
    "ĠArchite": 4723,
    "suche": 4724,
    "Ġbild": 4725,
    "Ã¤dig": 4726,
    "lapp": 4727,
    "ĠSeine": 4728,
    "ĠBrand": 4729,
    "ielle": 4730,
    "Ġvergessen": 4731,
    "ĠDeine": 4732,
    "Ġtief": 4733,
    "Ġ38": 4734,
    "iefer": 4735,
    "ĠRÃ¼cken": 4736,
    "ĠMail": 4737,
    "grÃ¼ndet": 4738,
    "ĠDonner": 4739,
    "ĠSzen": 4740,
    "ĠKirchen": 4741,
    "ĠunabhÃ¤ng": 4742,
    "ourn": 4743,
    "Ġgener": 4744,
    "setzungen": 4745,
    "atter": 4746,
    "ĠfrÃ¼h": 4747,
    "akti": 4748,
    "ĠVerlag": 4749,
    "ĠâĢĶ": 4750,
    "ĠTurn": 4751,
    "ĠKatzen": 4752,
    "ĠglÃ¼ck": 4753,
    "Ġwissenschaft": 4754,
    "Ġ2000": 4755,
    "unkten": 4756,
    "ĠAbt": 4757,
    "ĠGeist": 4758,
    "fÃ¤higkeit": 4759,
    "Ġbewer": 4760,
    "Ġnotwendig": 4761,
    "werke": 4762,
    "mÃ¶gen": 4763,
    "viel": 4764,
    "falt": 4765,
    "Ġfertig": 4766,
    "ĠRu": 4767,
    "til": 4768,
    "duziert": 4769,
    "ĠLeder": 4770,
    "Ġbesonderen": 4771,
    "ĠGu": 4772,
    "fordert": 4773,
    "ĠMess": 4774,
    "ĠVerhalten": 4775,
    "ĠErsatz": 4776,
    "ĠBestand": 4777,
    "bieren": 4778,
    ").": 4779,
    "ĠBesonders": 4780,
    "gangs": 4781,
    "ĠAmazon": 4782,
    "ĠMobil": 4783,
    "Ġfolgende": 4784,
    "11": 4785,
    "Ġberuf": 4786,
    "ĠWÃ¤r": 4787,
    "ĠPflanzen": 4788,
    "Ġdire": 4789,
    "ĠMarken": 4790,
    "Ġdagegen": 4791,
    "ĠBedÃ¼rf": 4792,
    "ĠAuss": 4793,
    "ĠGele": 4794,
    "ĠTochter": 4795,
    "Ġwichtigsten": 4796,
    "ĠAnschluss": 4797,
    "holt": 4798,
    "ĠjÃ¤hr": 4799,
    "ĠTraining": 4800,
    "cm": 4801,
    "Ġguter": 4802,
    "ĠAir": 4803,
    "itÃ¤r": 4804,
    "ĠGeburtstag": 4805,
    "sprung": 4806,
    "anlagen": 4807,
    "ĠHor": 4808,
    "Ġgez": 4809,
    "unkel": 4810,
    "Ġ2006": 4811,
    "ĠMartin": 4812,
    "ĠWindows": 4813,
    "ĠDarÃ¼ber": 4814,
    "sprache": 4815,
    "sh": 4816,
    "ielen": 4817,
    "ĠVerÃ¤nder": 4818,
    "ĠGesprÃ¤ch": 4819,
    "ku": 4820,
    "ĠFÃ¤llen": 4821,
    "ĠWirkung": 4822,
    "stÃ¤t": 4823,
    "Ġfot": 4824,
    "Ðµ": 4825,
    "ĠInsel": 4826,
    "Ġverlassen": 4827,
    "ĠWÃ¼n": 4828,
    "ĠgefÃ¤hr": 4829,
    "ĠgewÃ¼n": 4830,
    "ĠWal": 4831,
    "flÃ¤chen": 4832,
    "Ġgenauso": 4833,
    "Ġgestalten": 4834,
    "Ġeinzige": 4835,
    "hause": 4836,
    "Ã¤ng": 4837,
    "Ġ37": 4838,
    "Ġacht": 4839,
    "bereitung": 4840,
    "ĠSchweizer": 4841,
    "ĠSonne": 4842,
    "ĠLinks": 4843,
    "schafts": 4844,
    "Ġvoraus": 4845,
    "ĠTat": 4846,
    "haber": 4847,
    "ĠVorstand": 4848,
    "ĠHoff": 4849,
    "Ã¤h": 4850,
    "ba": 4851,
    "Ġsodass": 4852,
    "Ġintens": 4853,
    "iellen": 4854,
    "ĠHÃ¶r": 4855,
    "Ġmel": 4856,
    "ĠOffen": 4857,
    "ĠPu": 4858,
    "ĠListe": 4859,
    "Ġwirkt": 4860,
    "ĠCharakter": 4861,
    "ĠÃ¤ndern": 4862,
    "bieten": 4863,
    "pfel": 4864,
    "eiert": 4865,
    "achtet": 4866,
    "obile": 4867,
    "ograph": 4868,
    "ĠKaffee": 4869,
    "ĠDauer": 4870,
    "eiben": 4871,
    "ĠLeip": 4872,
    "Ġlangen": 4873,
    "ĠAlex": 4874,
    "Ġmehreren": 4875,
    "Ã¼cke": 4876,
    "US": 4877,
    "enthalt": 4878,
    "Ġwarten": 4879,
    "ĠbenÃ¶tigt": 4880,
    "boten": 4881,
    "ĠLive": 4882,
    "tent": 4883,
    "ĠWild": 4884,
    "wald": 4885,
    "ĠEhe": 4886,
    "Ġzuletzt": 4887,
    "Ġweder": 4888,
    "ĠMitt": 4889,
    "aben": 4890,
    "Ġberech": 4891,
    "Ġkonk": 4892,
    "ĠSpan": 4893,
    "Ġdenken": 4894,
    "ĠfÃ¶r": 4895,
    "Ð°": 4896,
    "Â°": 4897,
    "rampf": 4898,
    "sprach": 4899,
    "18": 4900,
    "ĠFlÃ¼cht": 4901,
    "Ġirgendwie": 4902,
    "ĠSein": 4903,
    "Ġ2019": 4904,
    "Ġkostenlose": 4905,
    "----": 4906,
    "ĠFrie": 4907,
    "lligen": 4908,
    "ĠSchluss": 4909,
    "ĠSPD": 4910,
    "Ã¤st": 4911,
    "Ġdeinen": 4912,
    "abe": 4913,
    "Ġlegen": 4914,
    "Ġ150": 4915,
    "ĠbestÃ¤": 4916,
    "iegen": 4917,
    "pflicht": 4918,
    "Ġaufzu": 4919,
    "Ġ<": 4920,
    "Ġ39": 4921,
    "ĠImmobilien": 4922,
    "ĠWohl": 4923,
    "partner": 4924,
    "ĠBu": 4925,
    "ĠDownload": 4926,
    "ĠVarian": 4927,
    "gesellschaft": 4928,
    "ĠSpezial": 4929,
    "Ġ49": 4930,
    "ĠTeile": 4931,
    "Ġsiehe": 4932,
    "ĠServer": 4933,
    "Sp": 4934,
    "ĠHandel": 4935,
    "UN": 4936,
    "Ð¸": 4937,
    "iar": 4938,
    "Ġ75": 4939,
    "barer": 4940,
    "ĠWege": 4941,
    "berger": 4942,
    "Ġland": 4943,
    "ĠBildung": 4944,
    "Ġbegeister": 4945,
    "ĠGerade": 4946,
    "Ġlag": 4947,
    "ĠWeiÃŁ": 4948,
    "lichkeiten": 4949,
    "Ġinzwischen": 4950,
    "ĠdurchgefÃ¼hrt": 4951,
    "ĠFrankreich": 4952,
    "Ġirgendw": 4953,
    "Ġpassiert": 4954,
    "ĠTats": 4955,
    "ĠhÃ¶ren": 4956,
    "Ġerwarten": 4957,
    "ĠAnmeldung": 4958,
    "Ġunge": 4959,
    "ĠWelche": 4960,
    "ĠgÃ¼nstig": 4961,
    "14": 4962,
    "ĠermÃ¶glichen": 4963,
    "ĠJung": 4964,
    "mittag": 4965,
    "ĠWettbe": 4966,
    "ĠSchwar": 4967,
    "ĠTiere": 4968,
    "ĠGlau": 4969,
    "ĠNachbar": 4970,
    "ĠlieÃŁ": 4971,
    "Ġverpflich": 4972,
    "ostet": 4973,
    "seh": 4974,
    "Ġmaximal": 4975,
    "stattet": 4976,
    "Ġvide": 4977,
    "ĠVerkehrs": 4978,
    "Ġ55": 4979,
    "Ġerreich": 4980,
    "mehr": 4981,
    "fassung": 4982,
    "anwalt": 4983,
    "ĠKreuz": 4984,
    "Ġrelativ": 4985,
    "Ã¤lfte": 4986,
    "ps": 4987,
    "Ġmodern": 4988,
    "ĠSerie": 4989,
    "Ġwahrscheinlich": 4990,
    "Ġinformieren": 4991,
    "aket": 4992,
    "Ġverste": 4993,
    "ĠHaar": 4994,
    "ĠSpann": 4995,
    "ĠStil": 4996,
    "uern": 4997,
    "Adresse": 4998,
    "ĠBook": 4999,
    "ĠGerÃ¤te": 5000,
    "ĠBewegung": 5001,
    "ĠNachrichten": 5002,
    "ams": 5003,
    "ĠUrs": 5004,
    "ĠGelegen": 5005,
    "ymp": 5006,
    "Ã¶tzlich": 5007,
    "ĠWh": 5008,
    "Ġsicht": 5009,
    "ĠAusland": 5010,
    "ĠHans": 5011,
    "ĠSieg": 5012,
    "sprech": 5013,
    "stÃ¤nden": 5014,
    "struktur": 5015,
    "ĠStar": 5016,
    "iness": 5017,
    "pack": 5018,
    "ĠStoff": 5019,
    "ĠStuttgart": 5020,
    "Ġumfang": 5021,
    "aser": 5022,
    "zunehmen": 5023,
    "ĠTheater": 5024,
    "tive": 5025,
    "ĠGrad": 5026,
    "Ġherum": 5027,
    "ĠInformation": 5028,
    "isierung": 5029,
    "ĠDonnerstag": 5030,
    "ĠJed": 5031,
    "wa": 5032,
    "ĠKlass": 5033,
    "bald": 5034,
    "Ġgutes": 5035,
    "Ġdiver": 5036,
    "ĠTrend": 5037,
    "Ġgefallen": 5038,
    "Ġwor": 5039,
    "sburg": 5040,
    "enntnisse": 5041,
    "Ġanal": 5042,
    "Ġ195": 5043,
    "ĠBegriff": 5044,
    "ibl": 5045,
    "Ġti": 5046,
    "ĠSchnitt": 5047,
    "wirkungen": 5048,
    "management": 5049,
    "Ġ193": 5050,
    "ĠNo": 5051,
    "Ġblau": 5052,
    "ĠVom": 5053,
    "ĠPlay": 5054,
    "fangen": 5055,
    "ĠTreffen": 5056,
    "angt": 5057,
    "hostwriter": 5058,
    "Ġstud": 5059,
    "Ġbeob": 5060,
    "ĠEinsch": 5061,
    "ĠTradition": 5062,
    "wÃ¼rdig": 5063,
    "Ġausgew": 5064,
    "ĠKunde": 5065,
    "rucken": 5066,
    "ĠstÃ¤ndig": 5067,
    "ĠSemin": 5068,
    "fo": 5069,
    "Ġsa": 5070,
    "teuer": 5071,
    "icro": 5072,
    "Ġinternationalen": 5073,
    "Ã¼hm": 5074,
    "ĠKarte": 5075,
    "Ġbeachten": 5076,
    "Ġfallen": 5077,
    "Ã¼ren": 5078,
    "ĠDetails": 5079,
    "ĠMetall": 5080,
    "ĠBew": 5081,
    "ĠWechs": 5082,
    "ĠExt": 5083,
    "Ġbestimmte": 5084,
    "ĠArm": 5085,
    "ĠZentrum": 5086,
    "ĠGrundlage": 5087,
    "ĠFunktionen": 5088,
    "Ġsieben": 5089,
    "rein": 5090,
    "ĠIP": 5091,
    "Ġgeschlossen": 5092,
    "Ġbeteil": 5093,
    "go": 5094,
    "ĠDanke": 5095,
    "wendungen": 5096,
    "ĠjÃ¼n": 5097,
    "rab": 5098,
    "amin": 5099,
    "vier": 5100,
    "ĠEigent": 5101,
    "Ġfehlen": 5102,
    "herr": 5103,
    "stud": 5104,
    "ĠDorf": 5105,
    "Ã¼sseld": 5106,
    "material": 5107,
    "ĠGesundheits": 5108,
    "ĠSpielen": 5109,
    "ines": 5110,
    "ĠBetreu": 5111,
    "Ġ2005": 5112,
    "Ġfach": 5113,
    "Ġentsprechenden": 5114,
    "ummern": 5115,
    "ĠverfÃ¼gbar": 5116,
    "ĠHotels": 5117,
    "Ġbege": 5118,
    "ĠRoman": 5119,
    "lefon": 5120,
    "play": 5121,
    "ĠDafÃ¼r": 5122,
    "Ġ44": 5123,
    "izi": 5124,
    "ena": 5125,
    "Ġdahin": 5126,
    "Ġmittel": 5127,
    "IE": 5128,
    "ĠLÃ¤ndern": 5129,
    "Ġindividuell": 5130,
    "ĠAnlage": 5131,
    "Ġ42": 5132,
    "ĠErde": 5133,
    "ĠGeschichten": 5134,
    "ĠBevÃ¶lker": 5135,
    "ĠErinner": 5136,
    "ĠVeranstaltungen": 5137,
    "ĠÃ¼berall": 5138,
    "ĠWeihnachts": 5139,
    "achel": 5140,
    "Ġtra": 5141,
    "its": 5142,
    "Ġspricht": 5143,
    "Ġkennt": 5144,
    "ischem": 5145,
    "iser": 5146,
    "Ġgesund": 5147,
    "ĠMarketing": 5148,
    "lernen": 5149,
    "Ġfranz": 5150,
    "legung": 5151,
    "ffizien": 5152,
    "Ġzahlreichen": 5153,
    "Ġ400": 5154,
    "Ġgestern": 5155,
    "Ġpsych": 5156,
    "asino": 5157,
    "ktiven": 5158,
    "Ġtut": 5159,
    "ĠBerliner": 5160,
    "ĠgrÃ¼n": 5161,
    "ĠRie": 5162,
    "ĠVereins": 5163,
    "Ġreicht": 5164,
    "rik": 5165,
    "dlich": 5166,
    "Ġherunter": 5167,
    "ĠvielfÃ¤l": 5168,
    "ĠWeil": 5169,
    "ĠSucht": 5170,
    "ĠExperten": 5171,
    "sÃ¤tze": 5172,
    "spielen": 5173,
    "ĠBeschwer": 5174,
    "Ã¼ch": 5175,
    "ĠCamp": 5176,
    "ĠMittwoch": 5177,
    "ĠForschung": 5178,
    "ĠReisen": 5179,
    "ĠTal": 5180,
    "Ġdr": 5181,
    "ĠPartei": 5182,
    "enze": 5183,
    "tic": 5184,
    "Ġlieben": 5185,
    "ong": 5186,
    "Ġentschieden": 5187,
    "ĠHandy": 5188,
    "ĠBrowser": 5189,
    "inst": 5190,
    "ikro": 5191,
    "ĠMarke": 5192,
    "ĠLeit": 5193,
    "ĠUN": 5194,
    "able": 5195,
    "leitet": 5196,
    "funktion": 5197,
    "Ġbesuchen": 5198,
    "vention": 5199,
    "ĠLinie": 5200,
    "Ġnachhal": 5201,
    "treter": 5202,
    "ĠBÃ¼ro": 5203,
    "Ġgenannten": 5204,
    "ĠVolk": 5205,
    "holen": 5206,
    "Ġung": 5207,
    "mark": 5208,
    "ĠFÃ¼hrung": 5209,
    "Ġentstanden": 5210,
    "Ġspeziell": 5211,
    "Ġentweder": 5212,
    "Ġerinner": 5213,
    "wortet": 5214,
    "ĠSim": 5215,
    "oth": 5216,
    "ĠOriginal": 5217,
    "ĠDirekt": 5218,
    "stÃ¤r": 5219,
    "ĠTrans": 5220,
    "ĠFeuerwehr": 5221,
    "rÃ¤ume": 5222,
    "ĠWohnzimmer": 5223,
    "Ġmensch": 5224,
    "passen": 5225,
    "schn": 5226,
    "Ġsport": 5227,
    "of": 5228,
    "ish": 5229,
    "klasse": 5230,
    "lÃ¶sung": 5231,
    "ĠbetrÃ¤gt": 5232,
    "aub": 5233,
    "ĠFC": 5234,
    "ĠZeichen": 5235,
    "ĠRest": 5236,
    "ĠKlima": 5237,
    "okal": 5238,
    "Ġvern": 5239,
    "ĠHom": 5240,
    "Ġsauber": 5241,
    "ĠPil": 5242,
    "Ġarbeitet": 5243,
    "ĠEinfach": 5244,
    "ĠZweck": 5245,
    "Ġ48": 5246,
    "ĠLeser": 5247,
    "Ġwith": 5248,
    "ĠElektro": 5249,
    "ĠâĨĴ": 5250,
    "Ġbas": 5251,
    "inos": 5252,
    "Ġries": 5253,
    "box": 5254,
    "Ġgespeichert": 5255,
    "wissenschaft": 5256,
    "ĠKilometer": 5257,
    "Ġschn": 5258,
    "Ġbeginnen": 5259,
    "Ġvorge": 5260,
    "Ġgratis": 5261,
    "Ġkommenden": 5262,
    "ĠMor": 5263,
    "iefel": 5264,
    "ĠKern": 5265,
    "Ġunmittel": 5266,
    "ynam": 5267,
    "ĠFlÃ¤": 5268,
    "ĠChem": 5269,
    "ĠFalls": 5270,
    "ory": 5271,
    "ĠFree": 5272,
    "omit": 5273,
    "ĠLÃ¤nder": 5274,
    "scheint": 5275,
    "ĠHalt": 5276,
    "ĠGefahr": 5277,
    "griffen": 5278,
    "schte": 5279,
    "ĠHof": 5280,
    "Ġschneller": 5281,
    "ĠVerd": 5282,
    "Ġausgestattet": 5283,
    "VO": 5284,
    "ÌĢ": 5285,
    "Ġglaube": 5286,
    "Te": 5287,
    "Ġniemand": 5288,
    "ĠLiteratur": 5289,
    "iums": 5290,
    "ĠOper": 5291,
    "ĠPresse": 5292,
    "Ġinstall": 5293,
    "ĠZer": 5294,
    "ĠBereichen": 5295,
    "ĠFÃ¤h": 5296,
    "Ġbo": 5297,
    "Ġsorg": 5298,
    "ĠOrganisation": 5299,
    "ĠTrainer": 5300,
    "ĠergÃ¤n": 5301,
    "liga": 5302,
    "Ġdur": 5303,
    "po": 5304,
    "Ġnieder": 5305,
    "ĠRechte": 5306,
    "ĠLÃ¼": 5307,
    "DR": 5308,
    "ĠBaby": 5309,
    "ĠSprach": 5310,
    "ĠGewalt": 5311,
    "ĠChristian": 5312,
    "Ġgesucht": 5313,
    "Ã¼ndung": 5314,
    "Ġkn": 5315,
    "tifiz": 5316,
    "ĠZit": 5317,
    "ĠgrÃ¶ÃŁte": 5318,
    "ĠPrem": 5319,
    "Ġkleines": 5320,
    "iste": 5321,
    "ĠProjekte": 5322,
    "xx": 5323,
    "ĠBa": 5324,
    "greifen": 5325,
    "fahrer": 5326,
    "Ġkre": 5327,
    "ĠBedingungen": 5328,
    "rid": 5329,
    "Ġpol": 5330,
    "ĠLÃ¶sungen": 5331,
    "Ã¤dag": 5332,
    "ĠJes": 5333,
    "abt": 5334,
    "ĠFahrt": 5335,
    "erseits": 5336,
    "ĠbenÃ¶tigen": 5337,
    "ĠtrÃ¤gt": 5338,
    "zepte": 5339,
    "Ġeingesch": 5340,
    "halle": 5341,
    "ĠkÃ¼r": 5342,
    "ĠAuff": 5343,
    "merz": 5344,
    "ĠPan": 5345,
    "abet": 5346,
    "ĠBonus": 5347,
    "Ġkombin": 5348,
    "gefÃ¤hr": 5349,
    "ĠStÃ¤r": 5350,
    "abend": 5351,
    "dung": 5352,
    "ĠHein": 5353,
    "Ġschrift": 5354,
    "ĠGewicht": 5355,
    "Ġant": 5356,
    "Ã¼nftig": 5357,
    "ĠFein": 5358,
    "ĠPDF": 5359,
    "rÃ¶": 5360,
    "hnung": 5361,
    "ĠForsch": 5362,
    "ĠSingle": 5363,
    "Ġinkl": 5364,
    "ĠErotik": 5365,
    "ĠWil": 5366,
    "qualitÃ¤t": 5367,
    "Ġgeboren": 5368,
    "leider": 5369,
    "chner": 5370,
    "Ġmer": 5371,
    "Ġstra": 5372,
    "ĠManagement": 5373,
    "adern": 5374,
    "Ġheutigen": 5375,
    "ĠDad": 5376,
    "ĠUmgang": 5377,
    "ĠDan": 5378,
    "ĠKooper": 5379,
    "elev": 5380,
    "zahlt": 5381,
    "vin": 5382,
    "Ġerstellen": 5383,
    "lÃ¤ss": 5384,
    "iveau": 5385,
    "ĠCont": 5386,
    "ĠJack": 5387,
    "Ġproblem": 5388,
    "ara": 5389,
    "gress": 5390,
    "publik": 5391,
    "Ġerscheint": 5392,
    "Ġunters": 5393,
    "ĠGeheim": 5394,
    "Ġla": 5395,
    "ĠprÃ¤sentiert": 5396,
    "tierung": 5397,
    "ikt": 5398,
    "bus": 5399,
    "Ã¤ngst": 5400,
    "passt": 5401,
    "ĠZug": 5402,
    "ĠÃ¼brigens": 5403,
    "ica": 5404,
    "Ġunterschiedliche": 5405,
    "15": 5406,
    "ĠPapier": 5407,
    "Ġstimm": 5408,
    "Ġ43": 5409,
    "wart": 5410,
    "volution": 5411,
    "ĠFrem": 5412,
    "Ġbezeichnet": 5413,
    "arzt": 5414,
    "Ġinnov": 5415,
    "punkte": 5416,
    "ction": 5417,
    "ĠgemÃ¼t": 5418,
    "ĠNetzwerk": 5419,
    "omen": 5420,
    "atze": 5421,
    "ĠBegl": 5422,
    "ĠVergangen": 5423,
    "ĠZuf": 5424,
    "ios": 5425,
    "ĠVorteil": 5426,
    "Ġgesetzt": 5427,
    "ĠAs": 5428,
    "Ġ95": 5429,
    "alls": 5430,
    "Ġdauer": 5431,
    "ĠEdel": 5432,
    "pfung": 5433,
    "una": 5434,
    "ĠFit": 5435,
    "ĠFrÃ¼hstÃ¼ck": 5436,
    "ĠWerbung": 5437,
    "Ġmittels": 5438,
    "ĠGrenzen": 5439,
    "ĠGeh": 5440,
    "riebe": 5441,
    "ones": 5442,
    "ĠStrate": 5443,
    "flÃ¼": 5444,
    "linie": 5445,
    "otto": 5446,
    "ĠgroÃŁes": 5447,
    "ĠKonzept": 5448,
    "ĠKategorie": 5449,
    "ĠZugang": 5450,
    "ĠZeu": 5451,
    "Ġalleine": 5452,
    "ĠKombination": 5453,
    "ĠAben": 5454,
    "emente": 5455,
    "ĠBedarf": 5456,
    "Ġbewusst": 5457,
    "Ġbilden": 5458,
    "60": 5459,
    "ĠLux": 5460,
    "ĠMÃ¶bel": 5461,
    "Ġnahm": 5462,
    "pol": 5463,
    "ĠMicro": 5464,
    "TE": 5465,
    "ld": 5466,
    "ĠerzÃ¤hlt": 5467,
    "ĠEinige": 5468,
    "Ġunterschiedlich": 5469,
    "ĠerhÃ¤ltlich": 5470,
    "ĠHinweis": 5471,
    "obby": 5472,
    "mmern": 5473,
    "fass": 5474,
    "ĠGi": 5475,
    "mitglie": 5476,
    "ĠZahlungs": 5477,
    "Ã¼cksichtig": 5478,
    "Ġprofit": 5479,
    "Ġinteressant": 5480,
    "ournal": 5481,
    "ĠRock": 5482,
    "Ġsicherlich": 5483,
    "part": 5484,
    "ĠKrampf": 5485,
    "bereit": 5486,
    "ĠBewer": 5487,
    "ĠInfos": 5488,
    "ĠwÃ¼nschen": 5489,
    "windigkeit": 5490,
    "Ġletzt": 5491,
    "Ġpartner": 5492,
    "alender": 5493,
    "Ġvoller": 5494,
    "bad": 5495,
    "Ã¤rm": 5496,
    "Ġgehalten": 5497,
    "ĠBor": 5498,
    "ĠWechsel": 5499,
    "ĠLiebl": 5500,
    "Ġjahr": 5501,
    "ĠTabe": 5502,
    "ĠLehrer": 5503,
    "ĠPoten": 5504,
    "ĠÃ¤hnlich": 5505,
    "ffentlich": 5506,
    "ĠBeitrÃ¤ge": 5507,
    "ĠfranzÃ¶s": 5508,
    "sser": 5509,
    "wurf": 5510,
    "SV": 5511,
    "ĠNein": 5512,
    "ĠWa": 5513,
    "ĠClub": 5514,
    "Ġme": 5515,
    "40": 5516,
    "ĠHaushalt": 5517,
    "stÃ¤ndige": 5518,
    "ĠKlassen": 5519,
    "Ġverbessern": 5520,
    "rige": 5521,
    "Ġverschw": 5522,
    "Ġsuche": 5523,
    "mosphÃ¤re": 5524,
    "betrieb": 5525,
    "ĠHimmel": 5526,
    "hindern": 5527,
    "wÃ¤": 5528,
    "Ã¼ten": 5529,
    "Ġentsprechende": 5530,
    "ĠGrÃ¼nden": 5531,
    "Ġheim": 5532,
    "film": 5533,
    "ĠWeiterlesen": 5534,
    "verfahren": 5535,
    "ĠausdrÃ¼ck": 5536,
    "dienen": 5537,
    "Ġmussten": 5538,
    "ĠsÃ¤m": 5539,
    "lern": 5540,
    "ĠAufbau": 5541,
    "Ġko": 5542,
    "ĠKol": 5543,
    "angebot": 5544,
    "ssystem": 5545,
    "ĠgrundsÃ¤tzlich": 5546,
    "ĠVorder": 5547,
    "Ġdarunter": 5548,
    "Ġfolgt": 5549,
    "ĠUnterricht": 5550,
    "Ġfein": 5551,
    "Ġreag": 5552,
    "karten": 5553,
    "ĠWin": 5554,
    "messen": 5555,
    "wertungen": 5556,
    "ius": 5557,
    "fÃ¤lle": 5558,
    "rochen": 5559,
    "Ġvorstellen": 5560,
    "ales": 5561,
    "chem": 5562,
    "ĠwÃ¤ren": 5563,
    "mme": 5564,
    "ĠKamera": 5565,
    "Ġtrifft": 5566,
    "ĠVerbraucher": 5567,
    "sonsten": 5568,
    "ĠRÃ¶": 5569,
    "Ġschauen": 5570,
    "Ġangegeben": 5571,
    "ieter": 5572,
    "dient": 5573,
    "ĠMotiv": 5574,
    "ĠFans": 5575,
    "ĠAufenthalt": 5576,
    "Ġgelungen": 5577,
    "osoph": 5578,
    "Ġzeich": 5579,
    "da": 5580,
    "ĠWunder": 5581,
    "alismus": 5582,
    "ĠFahrrad": 5583,
    "onie": 5584,
    "ĠInstitut": 5585,
    "rick": 5586,
    "ĠDienstag": 5587,
    "ĠGeschenk": 5588,
    "ĠRicht": 5589,
    "ĠEinkauf": 5590,
    "Ġschm": 5591,
    "Ġmiteinander": 5592,
    "stÃ¤ndigen": 5593,
    "nitten": 5594,
    "ĠAlters": 5595,
    "ĠVit": 5596,
    "Ã¤mpfen": 5597,
    "cri": 5598,
    "ĠHard": 5599,
    "ĠVerbesser": 5600,
    "Ġdeiner": 5601,
    "uellen": 5602,
    "ĠIntegr": 5603,
    "ologischen": 5604,
    "sequ": 5605,
    "Ġans": 5606,
    "ĠAusstellung": 5607,
    "Ġgebe": 5608,
    "Ġernst": 5609,
    "ĠDro": 5610,
    "ĠDanach": 5611,
    "leiter": 5612,
    "ĠHÃ¤lfte": 5613,
    "ĠGroÃŁe": 5614,
    "ĠvollstÃ¤ndig": 5615,
    "ĠSchlafzimmer": 5616,
    "schlÃ¤ge": 5617,
    "ĠRoll": 5618,
    "ĠEinfluss": 5619,
    "ĠPersÃ¶n": 5620,
    "Ġwirken": 5621,
    "Ġmar": 5622,
    "Ġmodernen": 5623,
    "aat": 5624,
    "ĠUmsetzung": 5625,
    "25": 5626,
    "ĠTabl": 5627,
    "ĠPlattform": 5628,
    "ĠStandort": 5629,
    "Ġbauen": 5630,
    "terung": 5631,
    "Ġlei": 5632,
    "ĠKritik": 5633,
    "ĠHat": 5634,
    "haften": 5635,
    "ĠBier": 5636,
    "Ġfragen": 5637,
    "ips": 5638,
    "ĠCor": 5639,
    "eige": 5640,
    "atische": 5641,
    "Ġzuk": 5642,
    "ĠKeine": 5643,
    "Ġmoderne": 5644,
    "ĠWerbe": 5645,
    "Ġessen": 5646,
    "lecht": 5647,
    "ics": 5648,
    "ĠBestellung": 5649,
    "bilder": 5650,
    "rÃ¤gen": 5651,
    "weil": 5652,
    "ĠursprÃ¼n": 5653,
    "dauer": 5654,
    "ĠBezir": 5655,
    "ologische": 5656,
    "Ġ65": 5657,
    "Ġed": 5658,
    "Ġli": 5659,
    "tierten": 5660,
    "ĠBlack": 5661,
    "JÃ¤hr": 5662,
    "ĠpersÃ¶nliche": 5663,
    "ĠBaden": 5664,
    "Ġzieht": 5665,
    "ichtete": 5666,
    "Ġvertreten": 5667,
    "ffekt": 5668,
    "ĠLÃ¤nge": 5669,
    "ĠMaterialien": 5670,
    "ĠRisiko": 5671,
    "linien": 5672,
    "gerÃ¤t": 5673,
    "drich": 5674,
    "Ġsan": 5675,
    "ĠPS": 5676,
    "Ġjen": 5677,
    "ĠFrieden": 5678,
    "ĠLeipzig": 5679,
    "dat": 5680,
    "AM": 5681,
    "enne": 5682,
    "Ġabgeschlossen": 5683,
    "Ġbedeuten": 5684,
    "ĠplÃ¶tzlich": 5685,
    "ĠGas": 5686,
    "Ġhabt": 5687,
    "ĠÃ¼bernehmen": 5688,
    "ĠBeziehung": 5689,
    "ĠWichtig": 5690,
    "ĠGre": 5691,
    "teile": 5692,
    "Ġdritten": 5693,
    "ĠLeiter": 5694,
    "ĠKoch": 5695,
    "ÑĤ": 5696,
    "ĠKommentar": 5697,
    "auchen": 5698,
    "ĠStudie": 5699,
    "itionen": 5700,
    "ĠFleisch": 5701,
    "ĠerklÃ¤ren": 5702,
    "rug": 5703,
    "Ġ2004": 5704,
    "ĠEindruck": 5705,
    "Ġprivate": 5706,
    "ĠKein": 5707,
    "Ġ;&": 5708,
    "lafen": 5709,
    "Ġelektron": 5710,
    "bett": 5711,
    "win": 5712,
    "Ġgelesen": 5713,
    "alz": 5714,
    "igital": 5715,
    "page": 5716,
    "ĠMaster": 5717,
    "kshop": 5718,
    "ĠRunde": 5719,
    "agno": 5720,
    "âĢĿ": 5721,
    "Ġeingeb": 5722,
    "ĠPor": 5723,
    "Ġneg": 5724,
    "Ġaufgenommen": 5725,
    "16": 5726,
    "Ġerlaubt": 5727,
    "Ġattra": 5728,
    "ĠMaschinen": 5729,
    "Ġpf": 5730,
    "kunde": 5731,
    "ĠMund": 5732,
    "Ġ!âĢľ": 5733,
    "pfl": 5734,
    "ĠTherapie": 5735,
    "ĠIniti": 5736,
    "ĠBusiness": 5737,
    "Ġwann": 5738,
    "Â®": 5739,
    "ĠgefÃ¼": 5740,
    "ĠGrafik": 5741,
    "ĠLED": 5742,
    "Ġberichtet": 5743,
    "ĠgefÃ¼hrt": 5744,
    "Ġgewonnen": 5745,
    "ĠVorsitzen": 5746,
    "ĠDadurch": 5747,
    "ackte": 5748,
    "ĠFlughafen": 5749,
    "lÃ¤nd": 5750,
    "ĠVen": 5751,
    "Ġficken": 5752,
    "enken": 5753,
    "ĠTÃ¤tigkeit": 5754,
    "Ġdrauf": 5755,
    "ĠVergangenheit": 5756,
    "mund": 5757,
    "Ġgezeigt": 5758,
    "Ġco": 5759,
    "ĠBeweg": 5760,
    "achung": 5761,
    "ĠInnov": 5762,
    "ĠSchiff": 5763,
    "Ġwachsen": 5764,
    "ble": 5765,
    "ĠProdukten": 5766,
    "AG": 5767,
    "ĠBox": 5768,
    "ĠFilme": 5769,
    "Ġtotal": 5770,
    "ĠBrief": 5771,
    "zut": 5772,
    "service": 5773,
    "ĠBereits": 5774,
    "unn": 5775,
    "ĠanschlieÃŁend": 5776,
    "Ġbeschrieben": 5777,
    "fan": 5778,
    "istisch": 5779,
    "ĠBehÃ¶r": 5780,
    "rufen": 5781,
    "Ġbekannte": 5782,
    "Ġberaten": 5783,
    "ĠPlanung": 5784,
    "eleg": 5785,
    "Ġeinfache": 5786,
    "ĠTrin": 5787,
    "gas": 5788,
    "Un": 5789,
    "Ġ47": 5790,
    "ye": 5791,
    "ĠPri": 5792,
    "sprÃ¼che": 5793,
    "Ġhochwertige": 5794,
    "ĠGegner": 5795,
    "lag": 5796,
    "eiern": 5797,
    "ĠBewertung": 5798,
    "ĠkÃ¶rper": 5799,
    "Ġerstmals": 5800,
    "ĠBrust": 5801,
    "ĠSign": 5802,
    "Ġangenehm": 5803,
    "ĠDÃ¼sseld": 5804,
    "Ã¼rt": 5805,
    "ÌĥÂ": 5806,
    "Ġnochmal": 5807,
    "ĠTransport": 5808,
    "17": 5809,
    "ĠChina": 5810,
    "ites": 5811,
    "ĠSind": 5812,
    "Ġstellte": 5813,
    "utlich": 5814,
    "ĠHannover": 5815,
    "forderung": 5816,
    "ĠTanz": 5817,
    "Ġwichtiger": 5818,
    "ĠÃ¼berzeugt": 5819,
    "ĠVertrags": 5820,
    "ĠBericht": 5821,
    "ET": 5822,
    "Ġfrau": 5823,
    "ĠBÃ¤": 5824,
    "tigte": 5825,
    "handel": 5826,
    "Ġag": 5827,
    "Ġwelchen": 5828,
    "stimmungen": 5829,
    "ĠBeteil": 5830,
    "sinn": 5831,
    "ĠVorteile": 5832,
    "ĠHerrn": 5833,
    "Ġbeliebte": 5834,
    "Ġeffe": 5835,
    "usste": 5836,
    "Ġdient": 5837,
    "ĠSchu": 5838,
    "ĠDres": 5839,
    "ibel": 5840,
    "ĠParty": 5841,
    "ĠModer": 5842,
    "ĠmÃ¤n": 5843,
    "ĠBevÃ¶lkerung": 5844,
    "Ġflex": 5845,
    "nahm": 5846,
    "ĠFakt": 5847,
    "ĠInterview": 5848,
    "Ġmei": 5849,
    "cess": 5850,
    "Ġfil": 5851,
    "Ġmedizin": 5852,
    "ĠSchlÃ¼ssel": 5853,
    "erner": 5854,
    "sicher": 5855,
    "Ġfindest": 5856,
    "Ġsprach": 5857,
    "ĠInner": 5858,
    "ĠFo": 5859,
    "Ġerheb": 5860,
    "ĠBildungs": 5861,
    "Ġzuerst": 5862,
    "ÌĤ": 5863,
    "Ġlust": 5864,
    "ĠerwÃ¤hn": 5865,
    "gestaltung": 5866,
    "ension": 5867,
    "Ġperfekte": 5868,
    "ĠBio": 5869,
    "ĠRelig": 5870,
    "ĠKompeten": 5871,
    "etzten": 5872,
    "kan": 5873,
    "ĠJapan": 5874,
    "ĠStraf": 5875,
    "ammt": 5876,
    "omin": 5877,
    "ieÃŁ": 5878,
    "ĠLandkreis": 5879,
    "Ġsozialen": 5880,
    "ĠKollegen": 5881,
    "ĠtÃ¤tig": 5882,
    "han": 5883,
    "rechte": 5884,
    "timent": 5885,
    "ĠZÃ¼r": 5886,
    "Ġbegeistert": 5887,
    "Ġgering": 5888,
    "Ġkurze": 5889,
    "leger": 5890,
    "ollar": 5891,
    "ĠDiskussion": 5892,
    "gÃ¤nge": 5893,
    "ĠdÃ¼rfte": 5894,
    "Ġsamm": 5895,
    "hte": 5896,
    "hÃ¤user": 5897,
    "bericht": 5898,
    "ĠPaul": 5899,
    "kr": 5900,
    "Ġtrocken": 5901,
    "ĠMinister": 5902,
    "spf": 5903,
    "ĠStahl": 5904,
    "ĠPrÃ¼f": 5905,
    "zesse": 5906,
    "Ġpassende": 5907,
    "Ġaufs": 5908,
    "Ġno": 5909,
    "ffentlichkeit": 5910,
    "ĠAusgabe": 5911,
    "ĠBef": 5912,
    "ĠLebensmittel": 5913,
    "Ġkat": 5914,
    "Ġsozial": 5915,
    "ĠUnterschied": 5916,
    "ĠZahlen": 5917,
    "Ġwichtigen": 5918,
    "reig": 5919,
    "andid": 5920,
    "antas": 5921,
    "maschine": 5922,
    "ĠMy": 5923,
    "ladung": 5924,
    "ID": 5925,
    "ĠfÃ¼hrte": 5926,
    "ĠfÃ¼hlen": 5927,
    "Ġamerikan": 5928,
    "ĠFra": 5929,
    "hnt": 5930,
    "ĠAllgem": 5931,
    "ĠMilliar": 5932,
    "ĠKostenlose": 5933,
    "frau": 5934,
    "Ġpolitischen": 5935,
    "gelassen": 5936,
    "mail": 5937,
    "ĠModelle": 5938,
    "Ġjung": 5939,
    "ĠSmartphone": 5940,
    "orie": 5941,
    "ĠDokument": 5942,
    "ring": 5943,
    "Ġ120": 5944,
    "Ġinklusive": 5945,
    "ĠKrampfadern": 5946,
    "deu": 5947,
    "Ã¤dagog": 5948,
    "13": 5949,
    "ĠFreundin": 5950,
    "Ġbreit": 5951,
    "ĠTrau": 5952,
    "weite": 5953,
    "Ġ;&#": 5954,
    "Ġeinst": 5955,
    "Ġfalsch": 5956,
    "ĠEigenschaften": 5957,
    "Ġgedacht": 5958,
    "achelor": 5959,
    "ĠAch": 5960,
    "auftrag": 5961,
    "Ġ46": 5962,
    "ĠGelegenheit": 5963,
    "Ġsteigen": 5964,
    "ĠGute": 5965,
    "ĠVerantwortung": 5966,
    "zeige": 5967,
    "ĠUnfall": 5968,
    "achtung": 5969,
    "ĠEreig": 5970,
    "IL": 5971,
    "Ġverhindern": 5972,
    "Ġverkaufen": 5973,
    "ĠRussland": 5974,
    "ĠFreiheit": 5975,
    "ehrt": 5976,
    "rÃ¤nkt": 5977,
    "bungen": 5978,
    "ĠKÃ¼chen": 5979,
    "ĠmÃ¼": 5980,
    "Ġverantwortlich": 5981,
    "ĠInformations": 5982,
    "ĠKant": 5983,
    "kohol": 5984,
    "ĠÃ¼berprÃ¼": 5985,
    "ĠMiet": 5986,
    "Ġverpflichtet": 5987,
    "Ġevent": 5988,
    "ĠSpeicher": 5989,
    "iden": 5990,
    "Ġdaraus": 5991,
    "Ġvorne": 5992,
    "liefer": 5993,
    "ĠEisen": 5994,
    "ĠBud": 5995,
    "Ã¤ck": 5996,
    "uchtung": 5997,
    "bildungs": 5998,
    "ĠMiss": 5999,
    "ĠProt": 6000,
    "ĠMerk": 6001,
    "Re": 6002,
    "ĠGerman": 6003,
    "ĠBeschÃ¤f": 6004,
    "Ã¼se": 6005,
    "ĠPop": 6006,
    "kturen": 6007,
    "ĠKompon": 6008,
    "ĠzusÃ¤tzliche": 6009,
    "Ġzuverl": 6010,
    "Ġentsteht": 6011,
    "ĠEnglisch": 6012,
    "ĠInstrum": 6013,
    "Ġdisku": 6014,
    "ĠOpfer": 6015,
    "ĠSchulen": 6016,
    "Ġgekauft": 6017,
    "UR": 6018,
    "ĠBot": 6019,
    "euten": 6020,
    "ĠsÃ¼d": 6021,
    "ĠDating": 6022,
    "ischt": 6023,
    "Ġfrem": 6024,
    "sweise": 6025,
    "ork": 6026,
    "Ġlieb": 6027,
    "uhl": 6028,
    "riff": 6029,
    "ĠauÃŁerhalb": 6030,
    "fertigt": 6031,
    "gerufen": 6032,
    "date": 6033,
    "ĠDel": 6034,
    "kontakte": 6035,
    "ĠLeiden": 6036,
    "Ġregion": 6037,
    "iefe": 6038,
    "hlight": 6039,
    "sem": 6040,
    "Ġschreibt": 6041,
    "ĠStudium": 6042,
    "ĠausfÃ¼hr": 6043,
    "Ġra": 6044,
    "Ġpositiv": 6045,
    "Ġby": 6046,
    "Ã¤ne": 6047,
    "ĠberÃ¼hm": 6048,
    "Ã¶rter": 6049,
    "Ã¼ssen": 6050,
    "ĠgenÃ¼": 6051,
    "vid": 6052,
    "ĠInternetseite": 6053,
    "ĠTel": 6054,
    "liefert": 6055,
    "telligen": 6056,
    "messer": 6057,
    "ussen": 6058,
    "urer": 6059,
    "MS": 6060,
    "ĠeuropÃ¤ischen": 6061,
    "alerie": 6062,
    "upp": 6063,
    "back": 6064,
    "Ġ.[": 6065,
    "ĠgrÃ¼": 6066,
    "ĠTeilnahme": 6067,
    "Ġstarten": 6068,
    "ole": 6069,
    "ĠKrÃ¤": 6070,
    "ĠNummer": 6071,
    "Ġhoffe": 6072,
    "ĠPay": 6073,
    "istenz": 6074,
    "olden": 6075,
    "eilung": 6076,
    "ĠÃ¼berw": 6077,
    "Ġcasino": 6078,
    "sg": 6079,
    "ĠEp": 6080,
    "eta": 6081,
    "Ġgesellschaft": 6082,
    "platte": 6083,
    "erweise": 6084,
    "ĠGericht": 6085,
    "cen": 6086,
    "Ġgespielt": 6087,
    "ĠSchloss": 6088,
    "ĠKart": 6089,
    "Ġentspricht": 6090,
    "Ã¤hlte": 6091,
    "ĠSchnee": 6092,
    "rang": 6093,
    "ĠZentr": 6094,
    "Ġfehlt": 6095,
    "ĠAnfrage": 6096,
    "omie": 6097,
    "Ġmod": 6098,
    "ĠInteress": 6099,
    "ĠGebiet": 6100,
    "Ġblieb": 6101,
    "ĠBin": 6102,
    "ĠPublikum": 6103,
    "ĠMuster": 6104,
    "Ġwand": 6105,
    "Ġtelefon": 6106,
    "ĠStimme": 6107,
    "slam": 6108,
    "ĠMikro": 6109,
    "ĠAnalyse": 6110,
    "gerÃ¤te": 6111,
    "ĠFriedrich": 6112,
    "atisch": 6113,
    "Ġgleiche": 6114,
    "ĠZubehÃ¶r": 6115,
    "reif": 6116,
    "Ġkurzen": 6117,
    "icks": 6118,
    "za": 6119,
    "ĠPrÃ¼fung": 6120,
    "Ġwollten": 6121,
    "ĠLab": 6122,
    "ĠbeschÃ¤ftigt": 6123,
    "Ġerstellt": 6124,
    "Ġtollen": 6125,
    "ĠTaschen": 6126,
    "Ġlok": 6127,
    "Ġverurs": 6128,
    "ĠPlus": 6129,
    "ival": 6130,
    "ĠMesse": 6131,
    "Ġhinein": 6132,
    "Ġentdecken": 6133,
    "vertrag": 6134,
    "kampf": 6135,
    "ĠKarl": 6136,
    "krieg": 6137,
    "ied": 6138,
    "kÃ¶": 6139,
    "fristig": 6140,
    "geschrieben": 6141,
    "Ġdienen": 6142,
    "rael": 6143,
    "regierung": 6144,
    "ĠschÃ¼tzen": 6145,
    "hÃ¼": 6146,
    "ĠZul": 6147,
    "ĠrÃ¼ck": 6148,
    "Ġdeinem": 6149,
    "Ġfur": 6150,
    "fernen": 6151,
    "ografie": 6152,
    "ĠQuelle": 6153,
    "ierend": 6154,
    "Ġengag": 6155,
    "Ġleisten": 6156,
    "Ġ2003": 6157,
    "ischung": 6158,
    "inform": 6159,
    "ĠFisch": 6160,
    "ĠHal": 6161,
    "Ġausreichend": 6162,
    "ĠAf": 6163,
    "kle": 6164,
    "Ġabsch": 6165,
    "ĠLieferung": 6166,
    "Ġgetragen": 6167,
    "ĠRab": 6168,
    "Â¼": 6169,
    "Ġ:)": 6170,
    "digen": 6171,
    "ĠFalle": 6172,
    "zeichnen": 6173,
    "orben": 6174,
    "ĠÃ¼bertragen": 6175,
    "urg": 6176,
    "reme": 6177,
    "Ġerscheinen": 6178,
    "Ġeinzelne": 6179,
    "ĠAtmosphÃ¤re": 6180,
    "ĠSet": 6181,
    "handlungen": 6182,
    "ampe": 6183,
    "ĠHabe": 6184,
    "Ġachten": 6185,
    "ondon": 6186,
    "ĠLern": 6187,
    "blatt": 6188,
    "Ġorden": 6189,
    "Ġhergestellt": 6190,
    "mÃ¼": 6191,
    "ĠKommentare": 6192,
    "werbe": 6193,
    "ĠCre": 6194,
    "schirm": 6195,
    "digt": 6196,
    "formen": 6197,
    "onn": 6198,
    "ly": 6199,
    "ĠAgen": 6200,
    "ĠHu": 6201,
    "ielten": 6202,
    "ĠFahrer": 6203,
    "ĠDeutschlands": 6204,
    "ĠSilber": 6205,
    "que": 6206,
    "ĠMedik": 6207,
    "Ġlebt": 6208,
    "Ġexist": 6209,
    "ĠWÃ¤rme": 6210,
    "ĠNor": 6211,
    "ura": 6212,
    "ĠErlebnis": 6213,
    "ĠWasch": 6214,
    "ĠzÃ¤hlt": 6215,
    "Ġverwende": 6216,
    "Ġbi": 6217,
    "osex": 6218,
    "Ġzahlen": 6219,
    "Ġextra": 6220,
    "entwicklung": 6221,
    "ĠApple": 6222,
    "ĠAnal": 6223,
    "etisch": 6224,
    "zens": 6225,
    "ahrung": 6226,
    "Ġpraktisch": 6227,
    "ĠgefÃ¤llt": 6228,
    "atoren": 6229,
    "ĠWachst": 6230,
    "ĠBM": 6231,
    "Ġruss": 6232,
    "illa": 6233,
    "mon": 6234,
    "Ġfestge": 6235,
    "schaffen": 6236,
    "itar": 6237,
    "Â²": 6238,
    "ĠForschungs": 6239,
    "ĠsÃ¼": 6240,
    "ĠKonzert": 6241,
    "kÃ¼ndig": 6242,
    "ĠCDU": 6243,
    "ĠTexte": 6244,
    "Ġgrau": 6245,
    "ippen": 6246,
    "ĠTeen": 6247,
    "ĠHum": 6248,
    "tes": 6249,
    "Ġverf": 6250,
    "Ġkommun": 6251,
    "ĠErnÃ¤hrung": 6252,
    "ĠRob": 6253,
    "ĠRechnung": 6254,
    "maÃŁen": 6255,
    "Ġprivaten": 6256,
    "ĠProfil": 6257,
    "ationalen": 6258,
    "Ġvorber": 6259,
    "Ġbetroffenen": 6260,
    "ĠZiele": 6261,
    "ĠGestaltung": 6262,
    "ĠArten": 6263,
    "enkt": 6264,
    "Ġbemer": 6265,
    "ĠChancen": 6266,
    "ĠgewÃ¤hlt": 6267,
    "ĠTar": 6268,
    "Ġregistr": 6269,
    "ĠArbeitgeber": 6270,
    "ĠerfÃ¼llt": 6271,
    "boden": 6272,
    "ĠUrlau": 6273,
    "Ġpassenden": 6274,
    "Ġeiniges": 6275,
    "Ġglauben": 6276,
    "ĠMig": 6277,
    "Ġerstmal": 6278,
    "ml": 6279,
    "ĠRos": 6280,
    "jenigen": 6281,
    "ĠZusch": 6282,
    "ĠInsgesamt": 6283,
    "ĠSpitzen": 6284,
    "ors": 6285,
    "ohlen": 6286,
    "Ġhingegen": 6287,
    "Ġbesitzt": 6288,
    "machen": 6289,
    "plÃ¤tze": 6290,
    "Ġlohnt": 6291,
    "ĠÃ¶ffentlich": 6292,
    "Ġgarantiert": 6293,
    "ĠÃ¼berzeugen": 6294,
    "berblick": 6295,
    "ĠWare": 6296,
    "ckte": 6297,
    "rimin": 6298,
    "Ġinteressiert": 6299,
    "ĠAdresse": 6300,
    "ĠMinute": 6301,
    "lament": 6302,
    "Ġkostet": 6303,
    "ĠHaben": 6304,
    "agra": 6305,
    "Ġkg": 6306,
    "ichert": 6307,
    "Ġsparen": 6308,
    "hoch": 6309,
    "ĠVe": 6310,
    "ĠObwohl": 6311,
    "ĠZeitung": 6312,
    "21": 6313,
    "ĠInstall": 6314,
    "ĠTw": 6315,
    "ymn": 6316,
    "ĠGir": 6317,
    "Ġserv": 6318,
    "riere": 6319,
    "ĠVerz": 6320,
    "ĠGefÃ¼": 6321,
    "Ġzugleich": 6322,
    "ĠServic": 6323,
    "nissen": 6324,
    "ĠGlauben": 6325,
    "Ġbehandelt": 6326,
    "ĠKlinik": 6327,
    "akten": 6328,
    "ĠEinfÃ¼hrung": 6329,
    "Ġindividuelle": 6330,
    "cel": 6331,
    "ĠDienstleistungen": 6332,
    "pert": 6333,
    "ĠZucker": 6334,
    "ĠWorte": 6335,
    "Ġsehe": 6336,
    "rechts": 6337,
    "ĠErkrank": 6338,
    "italien": 6339,
    "rock": 6340,
    "ĠMuseum": 6341,
    "ĠNews": 6342,
    "ĠShow": 6343,
    "Ġwesentlich": 6344,
    "enke": 6345,
    "roid": 6346,
    "ĠGetrÃ¤n": 6347,
    "schreiben": 6348,
    "ĠMilliarden": 6349,
    "ĠDV": 6350,
    "pflege": 6351,
    "ĠPre": 6352,
    "Ġweiss": 6353,
    "eichern": 6354,
    "Ġunglaub": 6355,
    "Ġhilf": 6356,
    "Ġweiterer": 6357,
    "ĠZw": 6358,
    "verwalt": 6359,
    "fot": 6360,
    "Ġfrag": 6361,
    "haup": 6362,
    "sitz": 6363,
    "ĠGal": 6364,
    "ĠMilch": 6365,
    "Ġoptim": 6366,
    "Ġzeigte": 6367,
    "ĠTechnologie": 6368,
    "ĠArbeitspl": 6369,
    "reitet": 6370,
    "Ã¼st": 6371,
    "Ġleichter": 6372,
    "iefen": 6373,
    "Ġ2002": 6374,
    "ĠBlau": 6375,
    "ĠAktivitÃ¤ten": 6376,
    "ual": 6377,
    "ĠPrakti": 6378,
    "Ġgeist": 6379,
    "ĠWird": 6380,
    "derung": 6381,
    "ĠSchreib": 6382,
    "ĠHD": 6383,
    "ĠSÃ¤": 6384,
    "ĠDrit": 6385,
    "ampag": 6386,
    "Ġser": 6387,
    "ĠHilf": 6388,
    "ĠAndreas": 6389,
    "maschinen": 6390,
    "ĠChat": 6391,
    "Ã¤ische": 6392,
    "ĠKons": 6393,
    "Ġstarke": 6394,
    "ĠFett": 6395,
    "ĠVielzahl": 6396,
    "aszin": 6397,
    "Ġporn": 6398,
    "Ġrot": 6399,
    "ĠSingles": 6400,
    "Ġhinten": 6401,
    "Ġausgeb": 6402,
    "ĠRadio": 6403,
    "ĠPet": 6404,
    "ĠJose": 6405,
    "Ġausges": 6406,
    "Ġumfasst": 6407,
    "Ġren": 6408,
    "ĠSamm": 6409,
    "ĠLad": 6410,
    "ĠverfÃ¼gen": 6411,
    "Ġfalls": 6412,
    "zenz": 6413,
    "Ġleist": 6414,
    "ĠLondon": 6415,
    "Ġnennen": 6416,
    "ĠKontakte": 6417,
    "Ġideal": 6418,
    "spekt": 6419,
    "ĠDigit": 6420,
    "schm": 6421,
    "ĠTher": 6422,
    "ĠKontrolle": 6423,
    "duzieren": 6424,
    "Ġentlang": 6425,
    "netz": 6426,
    "ĠbegrÃ¼": 6427,
    "Ġkonzentr": 6428,
    "griffe": 6429,
    "decken": 6430,
    "ĠerfÃ¼llen": 6431,
    "erklÃ¤rung": 6432,
    "ĠzÃ¤hlen": 6433,
    "ĠverstÃ¤r": 6434,
    "Ġbekannten": 6435,
    "filme": 6436,
    "Ġinteressante": 6437,
    "ugend": 6438,
    "Ġschul": 6439,
    "ragend": 6440,
    "Ġsinnvoll": 6441,
    "ĠCO": 6442,
    "vangel": 6443,
    "aute": 6444,
    "Ġ!!": 6445,
    "ĠOff": 6446,
    "ĠSollte": 6447,
    "steiger": 6448,
    "jekten": 6449,
    "Ġherzlich": 6450,
    "orte": 6451,
    "Ġeiniger": 6452,
    "Ġergeben": 6453,
    "ĠEss": 6454,
    "Ã¶nen": 6455,
    "ĠTeams": 6456,
    "sletter": 6457,
    "Ġgemeinsamen": 6458,
    "Ġenorm": 6459,
    "ĠBetroffen": 6460,
    "ĠFinger": 6461,
    "Ġmobil": 6462,
    "grenz": 6463,
    "ĠStaaten": 6464,
    "Ġbeeinfl": 6465,
    "meter": 6466,
    "versammlung": 6467,
    "beratung": 6468,
    "ĠDeb": 6469,
    "Ġinvest": 6470,
    "df": 6471,
    "ĠSpiegel": 6472,
    "rasch": 6473,
    "af": 6474,
    "ĠHÃ¤us": 6475,
    "ĠDeck": 6476,
    "Ġgeile": 6477,
    "Ġ180": 6478,
    "Ġsofern": 6479,
    "denburg": 6480,
    "vo": 6481,
    "wenden": 6482,
    "Be": 6483,
    "ĠSehen": 6484,
    "ĠSV": 6485,
    "Ġtechnischen": 6486,
    "ĠSchnell": 6487,
    "ampen": 6488,
    "zy": 6489,
    "ĠselbstverstÃ¤ndlich": 6490,
    "Ġ\\": 6491,
    "ĠSekunden": 6492,
    "ĠOrts": 6493,
    "ĠSachsen": 6494,
    "Ġbekomm": 6495,
    "ivil": 6496,
    "ĠAuge": 6497,
    "Ġwirst": 6498,
    "gewicht": 6499,
    "ĠWorkshop": 6500,
    "ĠEingang": 6501,
    "ugen": 6502,
    "GVO": 6503,
    "val": 6504,
    "ĠStefan": 6505,
    "22": 6506,
    "erei": 6507,
    "Ġhart": 6508,
    "ĠprÃ¼": 6509,
    "Pl": 6510,
    "alisieren": 6511,
    "Ġ1000": 6512,
    "ĠFormen": 6513,
    "AP": 6514,
    "ĠZeitraum": 6515,
    "ĠJohn": 6516,
    "ĠAbsatz": 6517,
    "heber": 6518,
    "Ġstarken": 6519,
    "ĠDÃ¼sseldorf": 6520,
    "scheidet": 6521,
    "ĠUmsatz": 6522,
    "ĠAnzeige": 6523,
    "ĠFÃ¶rderung": 6524,
    "Ġ54": 6525,
    "pap": 6526,
    "Ġmusst": 6527,
    "ĠDenk": 6528,
    "ĠKop": 6529,
    "Ġfree": 6530,
    "ĠÃ¶sterreich": 6531,
    "tlichen": 6532,
    "ĠCha": 6533,
    "Ġsogenannte": 6534,
    "Ġsogenannten": 6535,
    "ĠJunge": 6536,
    "ĠAmer": 6537,
    "ĠAntworten": 6538,
    "Ñģ": 6539,
    "Ġ600": 6540,
    "ĠLesen": 6541,
    "ĠChef": 6542,
    "iner": 6543,
    "ĠAufgrund": 6544,
    "ĠBenutzer": 6545,
    "Ġangezeigt": 6546,
    "antie": 6547,
    "stes": 6548,
    "ĠSeni": 6549,
    "ĠMittag": 6550,
    "ĠAlten": 6551,
    "yle": 6552,
    "ĠBurg": 6553,
    "Ġverkauft": 6554,
    "Ġbill": 6555,
    "ĠSper": 6556,
    "ĠverÃ¤ndert": 6557,
    "Ġnatur": 6558,
    "Ġvieles": 6559,
    "ĠPrinzip": 6560,
    "ĠHÃ¤nde": 6561,
    "hÃ¶he": 6562,
    "Ġerfolgen": 6563,
    "ĠMand": 6564,
    "ĠAufnahme": 6565,
    "Ġausger": 6566,
    "yd": 6567,
    "stÃ¤ndnis": 6568,
    "ĠKlaus": 6569,
    "ĠKabel": 6570,
    "ĠStamm": 6571,
    "ĠMos": 6572,
    "mine": 6573,
    "Ġfrisch": 6574,
    "Ġgeil": 6575,
    "Ġkinder": 6576,
    "geord": 6577,
    "Ġeindeu": 6578,
    "ĠEngagement": 6579,
    "ziehungs": 6580,
    "ĠPla": 6581,
    "Ġbessere": 6582,
    "ĠFreunden": 6583,
    "ĠHochzeit": 6584,
    "ĠnÃ¶tig": 6585,
    "laufen": 6586,
    "spruchs": 6587,
    "ĠBÃ¶": 6588,
    "ommunity": 6589,
    "ĠAkti": 6590,
    "Ġeure": 6591,
    "dessen": 6592,
    "riterien": 6593,
    "sÃ¤": 6594,
    "Ġei": 6595,
    "Ġschnelle": 6596,
    "Ġklassischen": 6597,
    "ĠGegensatz": 6598,
    "wÃ¤rts": 6599,
    "ĠOrdnung": 6600,
    "hÃ¶ren": 6601,
    "ĠHighlight": 6602,
    "versorgung": 6603,
    "ĠGemeinsam": 6604,
    "Ġfreien": 6605,
    "ĠSE": 6606,
    "**": 6607,
    "ĠKooperation": 6608,
    "LAN": 6609,
    "isst": 6610,
    "Ġweiteres": 6611,
    "Ġwiederum": 6612,
    "ĠSound": 6613,
    "spartner": 6614,
    "Ġbehaup": 6615,
    "ĠMatt": 6616,
    "ĠStruktur": 6617,
    "ĠMethoden": 6618,
    "ola": 6619,
    "aufnahme": 6620,
    "ĠEuropÃ¤ischen": 6621,
    "ĠJugendliche": 6622,
    "Ġzerst": 6623,
    "beg": 6624,
    "Ġmark": 6625,
    "ĠHÃ¤nd": 6626,
    "ĠgegrÃ¼ndet": 6627,
    "ĠWes": 6628,
    "ĠErwachsene": 6629,
    "Ġniedr": 6630,
    "Ġ--": 6631,
    "Ġkontroll": 6632,
    "ICH": 6633,
    "IC": 6634,
    "ĠHomepage": 6635,
    "stahl": 6636,
    "ĠWerte": 6637,
    "ona": 6638,
    "Ġsitzen": 6639,
    "reff": 6640,
    "RE": 6641,
    "ĠkÃ¶nne": 6642,
    "ĠBra": 6643,
    "freie": 6644,
    "Ġeigenes": 6645,
    "ita": 6646,
    "ĠSchwanz": 6647,
    "Ġvorgestellt": 6648,
    "ĠAusdruck": 6649,
    "komp": 6650,
    "ress": 6651,
    "Ġanbieten": 6652,
    "ĠGrie": 6653,
    "Ġhalb": 6654,
    "Ġ53": 6655,
    "Ġ56": 6656,
    "ĠTim": 6657,
    "Ġschwei": 6658,
    "ĠWol": 6659,
    "ĠJahrzehn": 6660,
    "figur": 6661,
    "itor": 6662,
    "Ġkomplex": 6663,
    "ĠBÃ¼hne": 6664,
    "kurren": 6665,
    "ĠVerhÃ¤ltnis": 6666,
    "ĠWÃ¼nsche": 6667,
    "ĠmÃ¼sste": 6668,
    "liegt": 6669,
    "leg": 6670,
    "ĠTick": 6671,
    "stechnik": 6672,
    "Ġwenden": 6673,
    "ĠKlo": 6674,
    "schten": 6675,
    "kurs": 6676,
    "Ġiden": 6677,
    "ĠHart": 6678,
    "ĠDreh": 6679,
    "Ġinformiert": 6680,
    "mmen": 6681,
    "Ġumge": 6682,
    "umente": 6683,
    "werbs": 6684,
    "zÃ¼ge": 6685,
    "Ġehemaligen": 6686,
    "igem": 6687,
    "),": 6688,
    "ĠZusatz": 6689,
    "Ġbewegen": 6690,
    "rig": 6691,
    "Ġpolitische": 6692,
    "person": 6693,
    "Ġzweit": 6694,
    "ĠKÃ¶": 6695,
    "rÃ¤umen": 6696,
    "hÃ¤nger": 6697,
    "ĠEgal": 6698,
    "Ġstabil": 6699,
    "dio": 6700,
    "Ã¶rung": 6701,
    "ĠSyn": 6702,
    "ĠKunststoff": 6703,
    "ĠPrÃ¤sident": 6704,
    "Ġmache": 6705,
    "ĠHandels": 6706,
    "Ġliefern": 6707,
    "Ġma": 6708,
    "artige": 6709,
    "ĠMut": 6710,
    "ĠDresden": 6711,
    "Ġbislang": 6712,
    "ĠGrÃ¼nde": 6713,
    "Ġindividuellen": 6714,
    "ĠKlar": 6715,
    "ergie": 6716,
    "mut": 6717,
    "Ġdachte": 6718,
    "Ã¼ltig": 6719,
    "steigen": 6720,
    "teln": 6721,
    "agd": 6722,
    "Ġweich": 6723,
    "ĠStrecke": 6724,
    "agten": 6725,
    "indungen": 6726,
    "ziehungen": 6727,
    "Ġ59": 6728,
    "Ġvermeiden": 6729,
    "zieht": 6730,
    "spannung": 6731,
    "Ġ64": 6732,
    "text": 6733,
    "ĠiPh": 6734,
    "Ã¤dt": 6735,
    "ĠAlbum": 6736,
    "itiv": 6737,
    "ĠAlternative": 6738,
    "Ġhaupt": 6739,
    "sprechend": 6740,
    "Ġgefragt": 6741,
    "Ġteilen": 6742,
    "Ã¤ufe": 6743,
    "emm": 6744,
    "Ġgeplant": 6745,
    "ĠBunde": 6746,
    "ĠBlock": 6747,
    "Ġverlie": 6748,
    "ĠArme": 6749,
    "ĠBlumen": 6750,
    "Ġ58": 6751,
    "ĠAnlagen": 6752,
    "ĠReife": 6753,
    "ĠBruder": 6754,
    "ĠprÃ¤sentieren": 6755,
    "ĠFle": 6756,
    "ĠSchwimm": 6757,
    "ĠZut": 6758,
    "Ð½": 6759,
    "ĠKla": 6760,
    "ĠGang": 6761,
    "utzung": 6762,
    "leit": 6763,
    "Ã¶rungen": 6764,
    "AC": 6765,
    "gÃ¤nger": 6766,
    "Ġgetr": 6767,
    "ĠUrteil": 6768,
    "gebracht": 6769,
    "Ġmusikal": 6770,
    "ĠAcht": 6771,
    "Ġgesetzlichen": 6772,
    "Ġkompeten": 6773,
    "verk": 6774,
    "ĠParis": 6775,
    "ĠSau": 6776,
    "Ġ190": 6777,
    "ĠJungen": 6778,
    "Ã¶d": 6779,
    "ĠKonto": 6780,
    "ĠDennoch": 6781,
    "kund": 6782,
    "ĠNutzen": 6783,
    "essel": 6784,
    "bedarf": 6785,
    "Ã¶rse": 6786,
    "ĠauÃŁen": 6787,
    "Ġ250": 6788,
    "ĠKategorien": 6789,
    "Ġ57": 6790,
    "Ġ2001": 6791,
    "ĠMotto": 6792,
    "ĠNewsletter": 6793,
    "alerweise": 6794,
    "bte": 6795,
    "ĠFitness": 6796,
    "ruhe": 6797,
    "bersicht": 6798,
    "Ġ85": 6799,
    "ĠPerspe": 6800,
    "ĠBrot": 6801,
    "temberg": 6802,
    "ĠWell": 6803,
    "Ġbrachte": 6804,
    "Ġmeines": 6805,
    "ĠBauch": 6806,
    "ĠTrainings": 6807,
    "schulen": 6808,
    "stimmt": 6809,
    "way": 6810,
    "liegenden": 6811,
    "lÃ¤nder": 6812,
    "innern": 6813,
    "oppen": 6814,
    "gleiten": 6815,
    "krank": 6816,
    "ski": 6817,
    "usstsein": 6818,
    "ĠRezept": 6819,
    "ĠMad": 6820,
    "Ġdating": 6821,
    "Ġwelchem": 6822,
    "ĠStock": 6823,
    "splan": 6824,
    "ĠEinrichtung": 6825,
    "okus": 6826,
    "anke": 6827,
    "ĠJournal": 6828,
    "ĠLud": 6829,
    "ĠAnteil": 6830,
    "ĠRegeln": 6831,
    "ĠBeschreibung": 6832,
    "Ã¤tter": 6833,
    "reuen": 6834,
    "ĠStiftung": 6835,
    "Ġ.Â«": 6836,
    "ĠSozi": 6837,
    "ĠGrundstÃ¼ck": 6838,
    "Ã¼rn": 6839,
    "seits": 6840,
    "nÃ¼": 6841,
    "Ã¶tt": 6842,
    "ĠLandschaft": 6843,
    "ĠSei": 6844,
    "Ġverwand": 6845,
    "ĠAmts": 6846,
    "ĠgrÃ¶ÃŁere": 6847,
    "ĠlÃ¤ngst": 6848,
    "ĠBill": 6849,
    "ĠTÃ¼rk": 6850,
    "Ġweiterlesen": 6851,
    "ĠUnion": 6852,
    "Ã¼m": 6853,
    "Ġverg": 6854,
    "Ġeins": 6855,
    "ĠHigh": 6856,
    "ĠÃ¶ffnen": 6857,
    "ĠRÃ¤": 6858,
    "ÑĢ": 6859,
    "Ġvermutlich": 6860,
    "stellungs": 6861,
    "ĠDE": 6862,
    "ĠVertrauen": 6863,
    "Ġbetroffene": 6864,
    "forschung": 6865,
    "ĠOs": 6866,
    "Ġitalien": 6867,
    "ĠerhÃ¶ht": 6868,
    "....": 6869,
    "Ġtechnische": 6870,
    "asi": 6871,
    "auern": 6872,
    "ĠSchreiben": 6873,
    "ĠGutschein": 6874,
    "Ġelektr": 6875,
    "Ġstaat": 6876,
    "izieren": 6877,
    "ĠAndroid": 6878,
    "ĠZÃ¼rich": 6879,
    "ĠJust": 6880,
    "ĠEmpfe": 6881,
    "rennen": 6882,
    "Ġtreten": 6883,
    "ĠIhn": 6884,
    "ĠAutos": 6885,
    "ĠSeele": 6886,
    "ages": 6887,
    "ĠðŁĺ": 6888,
    "auschen": 6889,
    "kap": 6890,
    "Ġwarm": 6891,
    "famil": 6892,
    "Ġ!\"": 6893,
    "wander": 6894,
    "ĠStudenten": 6895,
    "ĠAbenteuer": 6896,
    "Ġ??": 6897,
    "Ġkrank": 6898,
    "beln": 6899,
    "Ġgetan": 6900,
    "werten": 6901,
    "ĠKenn": 6902,
    "ordin": 6903,
    "Ġtrain": 6904,
    "ĠMaria": 6905,
    "nderungen": 6906,
    "ĠMac": 6907,
    "soft": 6908,
    "ziplin": 6909,
    "zufÃ¼hren": 6910,
    "farben": 6911,
    "ĠRede": 6912,
    "ader": 6913,
    "har": 6914,
    "Ġdauert": 6915,
    "beit": 6916,
    "ĠBeide": 6917,
    "krÃ¤fte": 6918,
    "Ġfahr": 6919,
    "ĠGemÃ¼se": 6920,
    "sted": 6921,
    "ĠStell": 6922,
    "ĠLaden": 6923,
    "ĠVoraussetzungen": 6924,
    "wirken": 6925,
    "ĠBahnhof": 6926,
    "oge": 6927,
    "ĠHan": 6928,
    "Ġthis": 6929,
    "kÃ¼n": 6930,
    "ĠBege": 6931,
    "ĠKÃ¼hl": 6932,
    "Ġleiden": 6933,
    "ĠBele": 6934,
    "ĠHyp": 6935,
    "ĠMedia": 6936,
    "ĠgeschÃ¼tzt": 6937,
    "ĠmÃ¶glichen": 6938,
    "Ġneun": 6939,
    "job": 6940,
    "cy": 6941,
    "uschi": 6942,
    "ateur": 6943,
    "ĠBedien": 6944,
    "ĠLernen": 6945,
    "AD": 6946,
    "spiegel": 6947,
    "KW": 6948,
    "regen": 6949,
    "ĠSomit": 6950,
    "Ġnahezu": 6951,
    "ĠGenau": 6952,
    "zusetzen": 6953,
    "ĠZusÃ¤tzlich": 6954,
    "club": 6955,
    "ĠKonfl": 6956,
    "OL": 6957,
    "angebote": 6958,
    "gig": 6959,
    "gemeinschaft": 6960,
    "helm": 6961,
    "Ġentdeckt": 6962,
    "ĠNet": 6963,
    "IG": 6964,
    "liesen": 6965,
    "ĠUmfang": 6966,
    "ĠSat": 6967,
    "Ġjedenfalls": 6968,
    "Ġcon": 6969,
    "ritz": 6970,
    "Ġgetroffen": 6971,
    "geschÃ¤ft": 6972,
    "ĠBÃ¼rgermeister": 6973,
    "bu": 6974,
    "zepti": 6975,
    "ĠRefer": 6976,
    "ĠST": 6977,
    "Ġlive": 6978,
    "automaten": 6979,
    "Ġschwierig": 6980,
    "Ġbenutzt": 6981,
    "Ġ52": 6982,
    "bas": 6983,
    "wege": 6984,
    "weisung": 6985,
    "ĠWahrheit": 6986,
    "atischen": 6987,
    "oler": 6988,
    "zeichnis": 6989,
    "igner": 6990,
    "kommt": 6991,
    "Ġseiten": 6992,
    "ada": 6993,
    "ĠÂ°": 6994,
    "liste": 6995,
    "Ġwest": 6996,
    "zellen": 6997,
    "ĠReal": 6998,
    "ĠZwecke": 6999,
    "ĠHalle": 7000,
    "ĠJahrhunderts": 7001,
    "Ġwechseln": 7002,
    "wiegend": 7003,
    "ĠRand": 7004,
    "pon": 7005,
    "ĠSortiment": 7006,
    "ĠKompl": 7007,
    "Ġbilder": 7008,
    "sper": 7009,
    "edia": 7010,
    "hindert": 7011,
    "Ġve": 7012,
    "ĠVerwaltungs": 7013,
    "het": 7014,
    "ĠVersuch": 7015,
    "ĠVerband": 7016,
    "Ã¤hlten": 7017,
    "Ġeignet": 7018,
    "Ġhell": 7019,
    "ĠausdrÃ¼cklich": 7020,
    "Ġlegt": 7021,
    "ĠFehl": 7022,
    "Ġallgemeinen": 7023,
    "Ã¤cher": 7024,
    "Ã¼re": 7025,
    "ĠJugendlichen": 7026,
    "macht": 7027,
    "ĠAustausch": 7028,
    "iothek": 7029,
    "ikations": 7030,
    "Ġinternationale": 7031,
    "Ġverlieren": 7032,
    "ĠGolf": 7033,
    "Ġangemessen": 7034,
    "male": 7035,
    "ĠVertreter": 7036,
    "ses": 7037,
    "Ġinspir": 7038,
    "leistet": 7039,
    "annen": 7040,
    "ĠBir": 7041,
    "fÃ¼llung": 7042,
    "ĠKrankheit": 7043,
    "ĠregelmÃ¤ÃŁ": 7044,
    "gesp": 7045,
    "ĠVerÃ¶ffentlich": 7046,
    "ĠMini": 7047,
    "Ġspezielle": 7048,
    "ĠProfess": 7049,
    "Ġ?âĢľ": 7050,
    "ĠUSB": 7051,
    "Ġentfernen": 7052,
    "gro": 7053,
    "merksamkeit": 7054,
    "rand": 7055,
    "ĠunabhÃ¤ngig": 7056,
    "ift": 7057,
    "schlossen": 7058,
    "Ġraum": 7059,
    "Ġbetr": 7060,
    "ĠAutoren": 7061,
    "ĠStiefel": 7062,
    "ationale": 7063,
    "Ġ$": 7064,
    "ĠBibl": 7065,
    "zur": 7066,
    "ĠVerwaltung": 7067,
    "Ġtr": 7068,
    "lieÃŁt": 7069,
    "ĠBremen": 7070,
    "ĠSpitze": 7071,
    "Ġfreue": 7072,
    "ĠBildern": 7073,
    "ĠbestÃ¤tigt": 7074,
    "ĠCH": 7075,
    "ĠSchmerzen": 7076,
    "ĠSens": 7077,
    "star": 7078,
    "ĠHinweise": 7079,
    "ĠGeneration": 7080,
    "ĠhÃ¤ngt": 7081,
    "ĠmaÃŁ": 7082,
    "organis": 7083,
    "chan": 7084,
    "ĠGeschÃ¤ftsfÃ¼hrer": 7085,
    "ĠMindest": 7086,
    "Ġgemeinsame": 7087,
    "iat": 7088,
    "System": 7089,
    "ĠKomfort": 7090,
    "analy": 7091,
    "Ġwasser": 7092,
    "Ġgestaltet": 7093,
    "Ġladen": 7094,
    "ĠHeiz": 7095,
    "ĠMulti": 7096,
    "ĠLeitung": 7097,
    "rÃ¼st": 7098,
    "ĠGeneral": 7099,
    "Â»": 7100,
    "igungs": 7101,
    "ĠNachmittag": 7102,
    "ĠBedÃ¼rfnisse": 7103,
    "iertes": 7104,
    "Ġabend": 7105,
    "ĠlÃ¶": 7106,
    "azin": 7107,
    "ĠUser": 7108,
    "Ġerhoben": 7109,
    "ta": 7110,
    "Ġgehe": 7111,
    "ĠeinschlieÃŁlich": 7112,
    "ĠCam": 7113,
    "ook": 7114,
    "Ġglob": 7115,
    "ĠStad": 7116,
    "Ġgeeig": 7117,
    "Ġmanche": 7118,
    "Ġ0180": 7119,
    "bungs": 7120,
    "ĠOpen": 7121,
    "ppich": 7122,
    "ĠEinrichtungen": 7123,
    "ĠstÃ¤rker": 7124,
    "Ġprofitieren": 7125,
    "frika": 7126,
    "Ġwillst": 7127,
    "Ġmeistens": 7128,
    "andern": 7129,
    "Ġbezahlen": 7130,
    "ĠFlor": 7131,
    "Ber": 7132,
    "ĠAktien": 7133,
    "ĠBadezimmer": 7134,
    "essour": 7135,
    "ĠVersicherungs": 7136,
    "ĠVielen": 7137,
    "ĠSho": 7138,
    "ilien": 7139,
    "ĠÃ¤r": 7140,
    "wohnung": 7141,
    "ĠKÃ¶r": 7142,
    "Ġtrin": 7143,
    "ĠWiderruf": 7144,
    "Ġnormal": 7145,
    "ĠMio": 7146,
    "ĠBauern": 7147,
    "Ġheil": 7148,
    "Ġsetzte": 7149,
    "ĠStÃ¤dte": 7150,
    "ibil": 7151,
    "uert": 7152,
    "ĠWeihnachten": 7153,
    "ĠKrankenhaus": 7154,
    "ĠPR": 7155,
    "orten": 7156,
    "70": 7157,
    "Ġerinnert": 7158,
    "ĠSchwerpunkt": 7159,
    "Ġoffenbar": 7160,
    "umin": 7161,
    "ĠiPhone": 7162,
    "ikationen": 7163,
    "ĠYou": 7164,
    "Ġirgendwann": 7165,
    "ĠglÃ¼cklich": 7166,
    "Ġyou": 7167,
    "Ġhoher": 7168,
    "ĠCS": 7169,
    "ĠNik": 7170,
    "Ġkorre": 7171,
    "heben": 7172,
    "Ġerlebt": 7173,
    "ĠBerat": 7174,
    "con": 7175,
    "ex": 7176,
    "ĠRett": 7177,
    "ĠBig": 7178,
    "ĠBalkon": 7179,
    "ĠEcht": 7180,
    "ĠStern": 7181,
    "ĠCan": 7182,
    "Ġanerk": 7183,
    "ĠVermÃ¶gen": 7184,
    "Ġgegangen": 7185,
    "ĠdÃ¼n": 7186,
    "ĠWagen": 7187,
    "ĠAnf": 7188,
    "Ġgebaut": 7189,
    "gefÃ¼hl": 7190,
    "ĠAspe": 7191,
    "ĠStartseite": 7192,
    "ĠJur": 7193,
    "ĠPflicht": 7194,
    "Ã¤testens": 7195,
    "ĠBelast": 7196,
    "sf": 7197,
    "ĠJesus": 7198,
    "zern": 7199,
    "Ġentsp": 7200,
    "ĠSchwier": 7201,
    "ĠTee": 7202,
    "ĠBri": 7203,
    "Ġschafft": 7204,
    "rzte": 7205,
    "Ġgeschaffen": 7206,
    "ĠNachricht": 7207,
    "ĠEhren": 7208,
    "ĠungefÃ¤hr": 7209,
    "ĠZugriff": 7210,
    "ĠRen": 7211,
    "ĠVortrag": 7212,
    "Ġletzter": 7213,
    "ĠDaniel": 7214,
    "ĠRosen": 7215,
    "alog": 7216,
    "Ġerleich": 7217,
    "Ġverab": 7218,
    "ĠYork": 7219,
    "ĠCap": 7220,
    "ĠZuschauer": 7221,
    "metho": 7222,
    "vide": 7223,
    "ĠSchÃ¤den": 7224,
    "ĠlÃ¶sen": 7225,
    "bÃ¼rger": 7226,
    "ĠZoll": 7227,
    "23": 7228,
    "ĠAblauf": 7229,
    "drucken": 7230,
    "ulation": 7231,
    "aker": 7232,
    "king": 7233,
    "ĠAmt": 7234,
    "Ġhistorischen": 7235,
    "Â´": 7236,
    "ĠÃ¼berraschen": 7237,
    "itis": 7238,
    "ulen": 7239,
    "ĠKapital": 7240,
    "gier": 7241,
    "ĠÃ¼bernommen": 7242,
    "ĠMÃ¼ller": 7243,
    "Ġauseinander": 7244,
    "teten": 7245,
    "Ġgo": 7246,
    "ĠauÃŁergewÃ¶hn": 7247,
    "Ġruhig": 7248,
    "Ġerinnern": 7249,
    "fÃ¤hig": 7250,
    "ĠVerstÃ¤ndnis": 7251,
    "ĠGÃ¼": 7252,
    "Ġzog": 7253,
    "ĠStress": 7254,
    "Ġgg": 7255,
    "Ġsh": 7256,
    "Ġbegleitet": 7257,
    "ĠJungs": 7258,
    "Ġunbek": 7259,
    "ĠKÃ¤": 7260,
    "indust": 7261,
    "iguren": 7262,
    "Ġaussehen": 7263,
    "ĠDarm": 7264,
    "ĠÃ¤uÃŁerst": 7265,
    "Ġrechten": 7266,
    "ĠSeminar": 7267,
    "okratie": 7268,
    "ĠWaffen": 7269,
    "Ġgra": 7270,
    "Ġeinfachen": 7271,
    "ĠStreit": 7272,
    "Ġinternational": 7273,
    "arbeite": 7274,
    "hebung": 7275,
    "Ġ800": 7276,
    "ĠEi": 7277,
    "ĠMassage": 7278,
    "ĠÃ¶ffentliche": 7279,
    "Ġmann": 7280,
    "lehr": 7281,
    "ĠPfarr": 7282,
    "Ġoffenen": 7283,
    "ĠGrundlagen": 7284,
    "kret": 7285,
    "Ġtritt": 7286,
    "Ġkurzer": 7287,
    "ĠBlu": 7288,
    "politik": 7289,
    "ĠÂ»,": 7290,
    "Ġholen": 7291,
    "ĠVersch": 7292,
    "bi": 7293,
    "ĠVerkÃ¤ufer": 7294,
    "ĠRobert": 7295,
    "Ġechte": 7296,
    "tl": 7297,
    "Ġsoziale": 7298,
    "orts": 7299,
    "ĠStimmung": 7300,
    "ĠNote": 7301,
    "ĠCol": 7302,
    "Ġwunderbar": 7303,
    "druckt": 7304,
    "dy": 7305,
    "luss": 7306,
    "ĠZuhause": 7307,
    "sichts": 7308,
    "Ġerhielt": 7309,
    "raining": 7310,
    "ĠVielfalt": 7311,
    "ĠRichter": 7312,
    "ĠGrau": 7313,
    "ĠGemeinschaft": 7314,
    "ĠEintritt": 7315,
    "ĠLaufe": 7316,
    "ĠAufmerksamkeit": 7317,
    "ĠKratz": 7318,
    "Ġallgemein": 7319,
    "ĠAusnahme": 7320,
    "ĠSocial": 7321,
    "rechnung": 7322,
    "ĠGratis": 7323,
    "ĠCro": 7324,
    "Ġgezogen": 7325,
    "Ġschlimm": 7326,
    "ĠGrill": 7327,
    "ĠWolfgang": 7328,
    "medizin": 7329,
    "arkt": 7330,
    "haltet": 7331,
    "PS": 7332,
    "hlte": 7333,
    "ĠRestaurants": 7334,
    "ĠPhys": 7335,
    "ĠAlkohol": 7336,
    "iller": 7337,
    "paratur": 7338,
    "Ġerschienen": 7339,
    "ĠKonkurren": 7340,
    "industrie": 7341,
    "lager": 7342,
    "ĠDial": 7343,
    "legten": 7344,
    "ubil": 7345,
    "ĠerklÃ¤rte": 7346,
    "ĠAllgemein": 7347,
    "ĠMonats": 7348,
    "ĠMicrosoft": 7349,
    "nei": 7350,
    "ĠVerÃ¤nderungen": 7351,
    "ini": 7352,
    "ĠheiÃŁen": 7353,
    "OM": 7354,
    "ilde": 7355,
    "ĠBund": 7356,
    "ĠSwinger": 7357,
    "ĠKleid": 7358,
    "Ġdro": 7359,
    "osen": 7360,
    "ĠNerv": 7361,
    "ĠHerstellung": 7362,
    "ĠArg": 7363,
    "Ġplatz": 7364,
    "verwaltung": 7365,
    "Ġteuer": 7366,
    "ĠStellung": 7367,
    "ĠgewÃ¶hn": 7368,
    "Ġklicken": 7369,
    "armon": 7370,
    "Ġideen": 7371,
    "Ġaltern": 7372,
    "Ġeinfacher": 7373,
    "tis": 7374,
    "brechen": 7375,
    "Ġnet": 7376,
    "Ġkomfort": 7377,
    "ienst": 7378,
    "Ġ41": 7379,
    "Ġprivat": 7380,
    "worben": 7381,
    "Ġnormalen": 7382,
    "ĠFahrzeuge": 7383,
    "barung": 7384,
    "ĠsÃ¤mtliche": 7385,
    "ĠDatei": 7386,
    "ĠPubl": 7387,
    "ĠHoffnung": 7388,
    "Ġwid": 7389,
    "holung": 7390,
    "isieren": 7391,
    "ĠErwei": 7392,
    "Ġanti": 7393,
    "Ġhervorragen": 7394,
    "prÃ¤gt": 7395,
    "ĠKÃ¤ufer": 7396,
    "aming": 7397,
    "ĠHaft": 7398,
    "ĠBetreuung": 7399,
    "Ġweib": 7400,
    "Ġauspro": 7401,
    "ĠhÃ¤uf": 7402,
    "loud": 7403,
    "Ġgelegt": 7404,
    "ĠYog": 7405,
    "Ġexter": 7406,
    "ĠWerke": 7407,
    "ĠFront": 7408,
    "ftet": 7409,
    "nd": 7410,
    "Ġnutz": 7411,
    "fassungs": 7412,
    "ĠParteien": 7413,
    "Ġsolltest": 7414,
    "ĠLudwig": 7415,
    "modell": 7416,
    "station": 7417,
    "Ã¼hrt": 7418,
    "Ġrum": 7419,
    "ĠAg": 7420,
    "ĠHistor": 7421,
    "ĠHoll": 7422,
    "ĠIN": 7423,
    "Ġbildet": 7424,
    "dre": 7425,
    "ala": 7426,
    "Ġdeswegen": 7427,
    "ĠIntegration": 7428,
    "ĠTechnolog": 7429,
    "ĠEich": 7430,
    "gesprÃ¤": 7431,
    "ĠDarstellung": 7432,
    "zwe": 7433,
    "sbe": 7434,
    "ĠerÃ¶ffnet": 7435,
    "ĠPower": 7436,
    "ĠÃ¼bersch": 7437,
    "ĠerhÃ¶hen": 7438,
    "ĠFokus": 7439,
    "ĠMas": 7440,
    "ĠkrÃ¤f": 7441,
    "ĠEinblick": 7442,
    "Ġmonat": 7443,
    "Ġintensiv": 7444,
    "app": 7445,
    "ĠSollten": 7446,
    "ĠSchwanger": 7447,
    "ĠHon": 7448,
    "ĠFab": 7449,
    "unken": 7450,
    "acke": 7451,
    "pass": 7452,
    "lines": 7453,
    "ĠFick": 7454,
    "ĠSpanien": 7455,
    "ĠWebseiten": 7456,
    "TV": 7457,
    "TS": 7458,
    "ĠTeilen": 7459,
    "erischen": 7460,
    "Ġsk": 7461,
    "ĠThr": 7462,
    "ĠschÃ¶ner": 7463,
    "ĠMethode": 7464,
    "ĠfÃ¶rdern": 7465,
    "Ġgehabt": 7466,
    "uk": 7467,
    "struktion": 7468,
    "ĠNorden": 7469,
    "ĠQuad": 7470,
    "Ġleichte": 7471,
    "ĠHab": 7472,
    "Ġqualif": 7473,
    "urn": 7474,
    "ĠRenn": 7475,
    "Ġbenutzen": 7476,
    "Ġgelang": 7477,
    "log": 7478,
    "ags": 7479,
    "ĠTatsache": 7480,
    "ĠFÃ¤higkeiten": 7481,
    "treffen": 7482,
    "lebt": 7483,
    "Ġ66": 7484,
    "ĠVariante": 7485,
    "annter": 7486,
    "tÃ¤": 7487,
    "Ġles": 7488,
    "dex": 7489,
    "ĠRoh": 7490,
    "ĠfÃ¼hlt": 7491,
    "berech": 7492,
    "ĠHafen": 7493,
    "Ġakzepti": 7494,
    "Ġverlei": 7495,
    "licherweise": 7496,
    "ĠParkplatz": 7497,
    "loÃŁ": 7498,
    "bart": 7499,
    "ĠWall": 7500,
    "Ġmitge": 7501,
    "ĠSchuld": 7502,
    "ĠBundestag": 7503,
    "Ġwillkommen": 7504,
    "ĠNÃ¼rn": 7505,
    "Ġerstes": 7506,
    "Ġbeit": 7507,
    "ĠEbene": 7508,
    "Ġsichtbar": 7509,
    "Ġmotiv": 7510,
    "ards": 7511,
    "ĠGrÃ¶ÃŁen": 7512,
    "inu": 7513,
    "ĠPrÃ¤sent": 7514,
    "ĠArchitektur": 7515,
    "Ġbesitzen": 7516,
    "bindung": 7517,
    "leisten": 7518,
    "rages": 7519,
    "wen": 7520,
    "ĠAuswirkungen": 7521,
    "Ġster": 7522,
    "Ġvia": 7523,
    "Ġwusste": 7524,
    "ĠHerausforderungen": 7525,
    "spart": 7526,
    "ffizienz": 7527,
    "ĠNÃ¤ch": 7528,
    "ĠOne": 7529,
    "etzungen": 7530,
    "Ġaufmerksam": 7531,
    "unkl": 7532,
    "ĠRollen": 7533,
    "Ġreden": 7534,
    "stuhl": 7535,
    "ĠHaare": 7536,
    "Ġmy": 7537,
    "ĠDavid": 7538,
    "ĠAB": 7539,
    "ĠAktuell": 7540,
    "LE": 7541,
    "azier": 7542,
    "beck": 7543,
    "ĠDipl": 7544,
    "rÃ¤ch": 7545,
    "Ġausgezeichnet": 7546,
    "ĠKarriere": 7547,
    "ĠgrÃ¶ÃŁeren": 7548,
    "ĠDekor": 7549,
    "ĠMedikamen": 7550,
    "Ġbekam": 7551,
    "Ġdiesmal": 7552,
    "Ġanhand": 7553,
    "Ġschrieb": 7554,
    "lichem": 7555,
    "ĠSexy": 7556,
    "wirkung": 7557,
    "ĠBanken": 7558,
    "Ġreichen": 7559,
    "ĠTerrasse": 7560,
    "Ġansehen": 7561,
    "anischen": 7562,
    "Ġverarbeitet": 7563,
    "ĠBehÃ¶rden": 7564,
    "Ġbegonnen": 7565,
    "prÃ¼fung": 7566,
    "komm": 7567,
    "ĠJede": 7568,
    "ĠAnleitung": 7569,
    "ĠAusgang": 7570,
    "Ġgeschafft": 7571,
    "Ġhielt": 7572,
    "schauen": 7573,
    "Ġpoten": 7574,
    "ĠGeorg": 7575,
    "chnen": 7576,
    "Ġhierbei": 7577,
    "Ġfiel": 7578,
    "ordnet": 7579,
    "ĠZe": 7580,
    "ĠKÃ¼r": 7581,
    "Ġbesucht": 7582,
    "ĠgeÃ¶ffnet": 7583,
    "Ġnachge": 7584,
    "Ġschme": 7585,
    "rhein": 7586,
    "ĠÂ«,": 7587,
    "Ġvorgesehen": 7588,
    "Ġbrit": 7589,
    "ĠBem": 7590,
    "Ã¼mer": 7591,
    "Ġgepf": 7592,
    "ĠfÃ¼rs": 7593,
    "grÃ¶ÃŁe": 7594,
    "Ġtop": 7595,
    "pret": 7596,
    "ĠAutob": 7597,
    "ĠIndividu": 7598,
    "ĠBatter": 7599,
    "90": 7600,
    "rastruktur": 7601,
    "Ġvgl": 7602,
    "ĠTrink": 7603,
    "ĠCity": 7604,
    "geschlagen": 7605,
    "elen": 7606,
    "Ġtesten": 7607,
    "kat": 7608,
    "ĠEinkommen": 7609,
    "fÃ¤llt": 7610,
    "tragung": 7611,
    "abilitÃ¤t": 7612,
    "ĠAutom": 7613,
    "ĠAusstattung": 7614,
    "Ġjene": 7615,
    "Aus": 7616,
    "ĠOberflÃ¤che": 7617,
    "sidenten": 7618,
    "achs": 7619,
    "ĠSchmuck": 7620,
    "seiten": 7621,
    "antast": 7622,
    "Ġkap": 7623,
    "pos": 7624,
    "ĠDurchfÃ¼hrung": 7625,
    "Ġgingen": 7626,
    "Ġstanden": 7627,
    "ĠGerne": 7628,
    "ĠPhot": 7629,
    "ĠKaiser": 7630,
    "farbe": 7631,
    "pal": 7632,
    "asser": 7633,
    "Ġspeziellen": 7634,
    "Ġrezept": 7635,
    "ĠDra": 7636,
    "Ġergibt": 7637,
    "richtet": 7638,
    "fordern": 7639,
    "ffel": 7640,
    "ĠGhostwriter": 7641,
    "II": 7642,
    "Ġdesto": 7643,
    "zten": 7644,
    "eldet": 7645,
    "Ġmitten": 7646,
    "Ġliefert": 7647,
    "alit": 7648,
    "ĠVorbereitung": 7649,
    "ĠSong": 7650,
    "ĠnatÃ¼rliche": 7651,
    "Ġlog": 7652,
    "bien": 7653,
    "pu": 7654,
    "Ġvollen": 7655,
    "Ġ63": 7656,
    "av": 7657,
    "Ġfaszin": 7658,
    "anze": 7659,
    "reiter": 7660,
    "Ð¾Ð": 7661,
    "ĠBetreiber": 7662,
    "funk": 7663,
    "ĠKos": 7664,
    "Ã¶m": 7665,
    "fÃ¤llig": 7666,
    "ĠSchlieÃŁlich": 7667,
    "ĠerwÃ¤hnt": 7668,
    "Ġgenauer": 7669,
    "endung": 7670,
    "OP": 7671,
    "sieht": 7672,
    "Ġteilnehmen": 7673,
    "Ġfreie": 7674,
    "samen": 7675,
    "ĠSzene": 7676,
    "ĠBrun": 7677,
    "ĠUnterkunft": 7678,
    "enzt": 7679,
    "ĠKino": 7680,
    "ĠBrenn": 7681,
    "igi": 7682,
    "ano": 7683,
    "Ġreal": 7684,
    "ausend": 7685,
    "reit": 7686,
    "selben": 7687,
    "Ġbundes": 7688,
    "ĠHochschule": 7689,
    "ĠAst": 7690,
    "ĠVari": 7691,
    "ĠPool": 7692,
    "hÃ¶rigen": 7693,
    "hmend": 7694,
    "filter": 7695,
    "Ġapp": 7696,
    "Ġverbringen": 7697,
    "Ġsolcher": 7698,
    "ĠÃ¼bernimmt": 7699,
    "spor": 7700,
    "ace": 7701,
    "Ġstimmt": 7702,
    "Ġdis": 7703,
    "ĠerlÃ¤u": 7704,
    "ĠQualif": 7705,
    "Ġverletzt": 7706,
    "san": 7707,
    "...]": 7708,
    "ĠVerlauf": 7709,
    "Ġ68": 7710,
    "Ġstren": 7711,
    "Ġ.).": 7712,
    "ĠObst": 7713,
    "ĠAR": 7714,
    "Ġnett": 7715,
    "fÃ¼hrten": 7716,
    "ĠKult": 7717,
    "wolle": 7718,
    "otten": 7719,
    "ĠWirklich": 7720,
    "tim": 7721,
    "ical": 7722,
    "ĠjÃ¤hrlich": 7723,
    "weich": 7724,
    "ĠTrotzdem": 7725,
    "Ġpdf": 7726,
    "Ġmelden": 7727,
    "wÃ¤hlen": 7728,
    "ĠHals": 7729,
    "ĠSchatten": 7730,
    "sÃ¤chlich": 7731,
    "ĠZwar": 7732,
    "Ġgerecht": 7733,
    "ĠRessour": 7734,
    "ĠPunkten": 7735,
    "ĠschÃ¶nsten": 7736,
    "ĠHÃ¶hen": 7737,
    "weist": 7738,
    "ĠverÃ¤ndern": 7739,
    "ĠHerausforderung": 7740,
    "ĠBranchen": 7741,
    "ĠVerbesserung": 7742,
    "Ġniemals": 7743,
    "ible": 7744,
    "ĠErklÃ¤rung": 7745,
    "kultur": 7746,
    "Ġrelev": 7747,
    "ĠKapitel": 7748,
    "Ġoptimale": 7749,
    "Ġht": 7750,
    "ĠTitten": 7751,
    "Ġeingeladen": 7752,
    "ĠNR": 7753,
    "rachtet": 7754,
    "IM": 7755,
    "tÃ¤u": 7756,
    "Ġ160": 7757,
    "ĠLast": 7758,
    "ĠKeller": 7759,
    "Ġholz": 7760,
    "ielsei": 7761,
    "ĠHell": 7762,
    "reift": 7763,
    "gerechnet": 7764,
    "fahrung": 7765,
    "wirt": 7766,
    "osexuell": 7767,
    "Ã¶ffnung": 7768,
    "ĠmÃ¶glicherweise": 7769,
    "Ġ\":": 7770,
    "Ġmet": 7771,
    "halter": 7772,
    "heimer": 7773,
    "ads": 7774,
    "ĠSympt": 7775,
    "rollen": 7776,
    "ĠAqu": 7777,
    "Ġanzeigen": 7778,
    "geht": 7779,
    "Ġstattfinden": 7780,
    "ĠKab": 7781,
    "Ġsystem": 7782,
    "ĠStatt": 7783,
    "ĠKleidung": 7784,
    "iren": 7785,
    "ĠErgÃ¤n": 7786,
    "zum": 7787,
    "mod": 7788,
    "ĠFremd": 7789,
    "fÃ¤llen": 7790,
    "Ġausgeschlossen": 7791,
    "kirchen": 7792,
    "musik": 7793,
    "gels": 7794,
    "JÃ¤hrige": 7795,
    "gert": 7796,
    "ĠFla": 7797,
    "maÃŁnahmen": 7798,
    "hÃ¤ngig": 7799,
    "ĠZuge": 7800,
    "ĠZeich": 7801,
    "ĠAnlass": 7802,
    "ĠHobby": 7803,
    "ĠschÃ¶nes": 7804,
    "Ġhoffen": 7805,
    "dler": 7806,
    "Ġbestellt": 7807,
    "ĠNiveau": 7808,
    "Ã¤tigung": 7809,
    "ws": 7810,
    "stehenden": 7811,
    "Ġhervorragend": 7812,
    "ĠUntersuchung": 7813,
    "ĠPress": 7814,
    "Ġbewe": 7815,
    "Er": 7816,
    "ĠBein": 7817,
    "unehmend": 7818,
    "ĠSysteme": 7819,
    "Ġchrist": 7820,
    "ĠEdelstahl": 7821,
    "Ġsichern": 7822,
    "Ġdeutscher": 7823,
    "ĠOhr": 7824,
    "ĠMitarbeitern": 7825,
    "Ġlecker": 7826,
    "otion": 7827,
    "ĠCoach": 7828,
    "ĠAngriff": 7829,
    "Ġvollkommen": 7830,
    "IP": 7831,
    "Ã¤tzung": 7832,
    "loser": 7833,
    "ĠFrÃ¼hl": 7834,
    "ĠRing": 7835,
    "Ġabwechs": 7836,
    "ĠKleine": 7837,
    "sert": 7838,
    "Ġ);": 7839,
    "ĠWegen": 7840,
    "ĠKrie": 7841,
    "ĠDritte": 7842,
    "Ġ[...]": 7843,
    "âĢĵ": 7844,
    "Ġverzichten": 7845,
    "Ġproduziert": 7846,
    "atch": 7847,
    "to": 7848,
    "utsch": 7849,
    "ĠPok": 7850,
    "ĠUmfeld": 7851,
    "ĠHeid": 7852,
    "ĠKarls": 7853,
    "Ġgebraucht": 7854,
    "ĠAlexander": 7855,
    "iale": 7856,
    "Ã¼rk": 7857,
    "ĠWM": 7858,
    "ĠOft": 7859,
    "ĠAngel": 7860,
    "Ġvieler": 7861,
    "Ġggf": 7862,
    "heil": 7863,
    "ĠCafe": 7864,
    "ek": 7865,
    "stoÃŁ": 7866,
    "ĠLieblings": 7867,
    "ĠIsrael": 7868,
    "ĠWachstum": 7869,
    "zeption": 7870,
    "ĠReifen": 7871,
    "App": 7872,
    "Ã¶lf": 7873,
    "ĠWik": 7874,
    "ĠDigital": 7875,
    "ĠRem": 7876,
    "Ġfreiwill": 7877,
    "ĠPen": 7878,
    "Ġfanden": 7879,
    "Ġrunter": 7880,
    "ĠBonn": 7881,
    "isen": 7882,
    "Ġ69": 7883,
    "ĠBre": 7884,
    "ĠLieb": 7885,
    "willigung": 7886,
    "ĠArsch": 7887,
    "Ġmehrfach": 7888,
    "ĠAndere": 7889,
    "Ġverdient": 7890,
    "gefÃ¼": 7891,
    "ĠJohannes": 7892,
    "ody": 7893,
    "hes": 7894,
    "Ġbegleiten": 7895,
    "Ġsenden": 7896,
    "ĠParlament": 7897,
    "Ġvideo": 7898,
    "Ġrad": 7899,
    "ĠFund": 7900,
    "ĠWirk": 7901,
    "ĠWen": 7902,
    "ĠObjekt": 7903,
    "ĠFertig": 7904,
    "bul": 7905,
    "ĠRegistr": 7906,
    "eise": 7907,
    "ĠFass": 7908,
    "Ġmeint": 7909,
    "ĠInternational": 7910,
    "Ġdigitalen": 7911,
    "ĠBereiche": 7912,
    "ĠBord": 7913,
    "sprecher": 7914,
    "Ġthem": 7915,
    "ĠCasinos": 7916,
    "rainer": 7917,
    "AB": 7918,
    "ĠEntscheidungen": 7919,
    "Ġfreut": 7920,
    "schiede": 7921,
    "ĠMr": 7922,
    "uchtigkeit": 7923,
    "ĠPack": 7924,
    "ĠFal": 7925,
    "ĠTrum": 7926,
    "ester": 7927,
    "Ġ}": 7928,
    "rauchs": 7929,
    "ĠFast": 7930,
    "ĠNeues": 7931,
    "UNG": 7932,
    "ĠKenntnis": 7933,
    "ham": 7934,
    "ĠAllein": 7935,
    "ĠBG": 7936,
    "ĠFischer": 7937,
    "sung": 7938,
    "Ġ1999": 7939,
    "Ġsexy": 7940,
    "door": 7941,
    "Ġfamil": 7942,
    "ĠâĢĿ,": 7943,
    "ĠVorstellung": 7944,
    "ĠSchwester": 7945,
    "ĠTief": 7946,
    "ĠEntwicklungs": 7947,
    "Ġev": 7948,
    "Ġvorbe": 7949,
    "Ġchar": 7950,
    "Ġfeiern": 7951,
    "freiheit": 7952,
    "Ġkomme": 7953,
    "ĠMassen": 7954,
    "ric": 7955,
    "Ġdran": 7956,
    "ĠUnternehmer": 7957,
    "ĠBeine": 7958,
    "ĠBehinder": 7959,
    "Ġenglisch": 7960,
    "ĠBit": 7961,
    "Ġdurfte": 7962,
    "ĠBekannt": 7963,
    "sorge": 7964,
    "Ġ1998": 7965,
    "ĠBesitz": 7966,
    "oppelt": 7967,
    "glÃ¼ck": 7968,
    "ĠhÃ¶here": 7969,
    "ĠRang": 7970,
    "ĠmÃ¶gliche": 7971,
    "bÃ¼cher": 7972,
    "Ġbehalten": 7973,
    "bay": 7974,
    "ĠTom": 7975,
    "berrasch": 7976,
    "Ġkeinerlei": 7977,
    "ĠRechn": 7978,
    "ĠPhilosoph": 7979,
    "wendungs": 7980,
    "Ġstartet": 7981,
    "Ġgarten": 7982,
    "ĠBewertungen": 7983,
    "ĠWiener": 7984,
    "ĠgeÃ¤ndert": 7985,
    "Ġweite": 7986,
    "ĠEbenso": 7987,
    "Ġspezi": 7988,
    "ĠGab": 7989,
    "gelÃ¶st": 7990,
    "dam": 7991,
    "ĠOptionen": 7992,
    "ĠRennen": 7993,
    "oben": 7994,
    "ĠGlob": 7995,
    "ĠMittelpunkt": 7996,
    "Ġumgesetzt": 7997,
    "melden": 7998,
    "ichteten": 7999,
    "aktionen": 8000,
    "ĠVerÃ¶ffentlicht": 8001,
    "ĠLat": 8002,
    "ĠGewerbe": 8003,
    "tau": 8004,
    "ĠSupp": 8005,
    "ĠErwart": 8006,
    "onstr": 8007,
    "Ġauftreten": 8008,
    "Ġkultur": 8009,
    "Ġverbr": 8010,
    "ĠFrÃ¼hjahr": 8011,
    "ĠErnst": 8012,
    "ĠMontage": 8013,
    "stÃ¼cke": 8014,
    "ĠTemperaturen": 8015,
    "Ġverstanden": 8016,
    "ĠHen": 8017,
    "ĠGru": 8018,
    "ĠQuellen": 8019,
    "ĠRuf": 8020,
    "Ġeigener": 8021,
    "ĠDatenschutzerklÃ¤rung": 8022,
    "Ġmoment": 8023,
    "veranstalt": 8024,
    "stÃ¤ndigkeit": 8025,
    "ĠDVD": 8026,
    "fferen": 8027,
    "ĠSchÃ¼lerinnen": 8028,
    "ĠPaket": 8029,
    "ĠVern": 8030,
    "Ġsitzt": 8031,
    "ĠDollar": 8032,
    "Ġzunehmend": 8033,
    "ĠAussicht": 8034,
    "tr": 8035,
    "stands": 8036,
    "ĠGelÃ¤nde": 8037,
    "ĠSÃ¤nger": 8038,
    "ĠTasche": 8039,
    "schmerzen": 8040,
    "Ã¼nstige": 8041,
    "ministerium": 8042,
    "ĠEhr": 8043,
    "berw": 8044,
    "ĠAlte": 8045,
    "ĠfrÃ¼hen": 8046,
    "ĠGumm": 8047,
    "ucken": 8048,
    "ĠRum": 8049,
    "ĠStich": 8050,
    "falen": 8051,
    "kehrt": 8052,
    "ĠfÃ¤hrt": 8053,
    "biert": 8054,
    "top": 8055,
    "OT": 8056,
    "felder": 8057,
    "ĠGrenze": 8058,
    "artig": 8059,
    "DS": 8060,
    "ĠEigentlich": 8061,
    "Ġ{": 8062,
    "ĠArbeiter": 8063,
    "stoffen": 8064,
    "Ġsteigt": 8065,
    "werks": 8066,
    "ĠEntfern": 8067,
    "ĠPause": 8068,
    "Ġneuesten": 8069,
    "ĠSold": 8070,
    "Ġdunkel": 8071,
    "ĠnatÃ¼rlichen": 8072,
    "Ġvirt": 8073,
    "stock": 8074,
    "lappt": 8075,
    "ĠSchritte": 8076,
    "Ġversteht": 8077,
    "Ġkauf": 8078,
    "reck": 8079,
    "28": 8080,
    "azit": 8081,
    "ĠSchalt": 8082,
    "vermittlung": 8083,
    "nehmern": 8084,
    "ĠAussage": 8085,
    "ammelt": 8086,
    "ĠKlÃ¤ger": 8087,
    "onym": 8088,
    "ĠAS": 8089,
    "27": 8090,
    "Ġeinsch": 8091,
    "nderung": 8092,
    "ĠArchiv": 8093,
    "Ġkeines": 8094,
    "keln": 8095,
    "ĠGebrauch": 8096,
    "Ġ67": 8097,
    "ĠSenioren": 8098,
    "ĠgeprÃ¼": 8099,
    "stren": 8100,
    "igte": 8101,
    "ĠRh": 8102,
    "ĠAL": 8103,
    "Ġphys": 8104,
    "Ġdritte": 8105,
    "ĠKriterien": 8106,
    "Ġabgesch": 8107,
    "ĠBereit": 8108,
    "ĠAdr": 8109,
    "ieden": 8110,
    "ĠAns": 8111,
    "ya": 8112,
    "fÃ¶r": 8113,
    "Ġklingt": 8114,
    "ĠKÃ¼ndig": 8115,
    "ĠDam": 8116,
    "rÃ¤glich": 8117,
    "Ġeingerichtet": 8118,
    "Ġversehen": 8119,
    "Ã¤chs": 8120,
    "ĠIll": 8121,
    "strich": 8122,
    "Shop": 8123,
    "Ġhierzu": 8124,
    "ĠWesen": 8125,
    "ĠhÃ¶chste": 8126,
    "ĠFlex": 8127,
    "Ġstammt": 8128,
    "ademie": 8129,
    "ĠElemente": 8130,
    "lichten": 8131,
    "Ġabsolv": 8132,
    "ĠKuchen": 8133,
    "ĠWorld": 8134,
    "ĠhÃ¶rt": 8135,
    "ĠJedes": 8136,
    "ĠGrÃ¼nen": 8137,
    "ĠIII": 8138,
    "Ġbehandeln": 8139,
    "Ġbegeg": 8140,
    "deckt": 8141,
    "Ġhandeln": 8142,
    "denk": 8143,
    "utze": 8144,
    "Ġgep": 8145,
    "ubilÃ¤um": 8146,
    "ĠDist": 8147,
    "26": 8148,
    "Ġdargestellt": 8149,
    "Ġgespannt": 8150,
    "Ġunmittelbar": 8151,
    "artikel": 8152,
    "izierte": 8153,
    "Ġreife": 8154,
    "Ġvermitteln": 8155,
    "beschichtung": 8156,
    "Ġwirk": 8157,
    "ĠAufwand": 8158,
    "Ã¼rgen": 8159,
    "Ġinfo": 8160,
    "ĠBeschwerde": 8161,
    "Ġbeliebt": 8162,
    "ĠKreativ": 8163,
    "ĠTurnier": 8164,
    "ĠHÃ¶ch": 8165,
    "RA": 8166,
    "ĠFur": 8167,
    "ĠDiagno": 8168,
    "pern": 8169,
    "ĠStrategie": 8170,
    "ĠGest": 8171,
    "Ġgegensei": 8172,
    "Ġfarb": 8173,
    "ĠerzÃ¤hlen": 8174,
    "hor": 8175,
    "ĠOtt": 8176,
    "Ġkomplette": 8177,
    "ĠEiner": 8178,
    "ĠLiebes": 8179,
    "emen": 8180,
    "ĠVerpack": 8181,
    "rib": 8182,
    "etaill": 8183,
    "ĠEck": 8184,
    "deckung": 8185,
    "stÃ¤tte": 8186,
    "ĠmÃ¤dchen": 8187,
    "ĠTwitter": 8188,
    "gebnisse": 8189,
    "ĠHaust": 8190,
    "ony": 8191,
    "Ġmach": 8192,
    "Ġpositive": 8193,
    "zugs": 8194,
    "reinigung": 8195,
    "ĠNachw": 8196,
    "ĠWLAN": 8197,
    "ĠVerantwortlichen": 8198,
    "ĠLuxus": 8199,
    "Ġter": 8200,
    "Ã¶hnen": 8201,
    "sprozess": 8202,
    "ĠschlieÃŁen": 8203,
    "Ġschwarze": 8204,
    "ĠprÃ¼fen": 8205,
    "empl": 8206,
    "ape": 8207,
    "Ġempfohlen": 8208,
    "asste": 8209,
    "Ġsammeln": 8210,
    "Ġaktu": 8211,
    "sprogramm": 8212,
    "techn": 8213,
    "reibe": 8214,
    "ĠErste": 8215,
    "gÃ¤nglich": 8216,
    "Ġpassieren": 8217,
    "rast": 8218,
    "ĠReparatur": 8219,
    "ubs": 8220,
    "pekt": 8221,
    "ĠBachelor": 8222,
    "Ġ88": 8223,
    "ymnas": 8224,
    "Ġnutzt": 8225,
    "ĠRich": 8226,
    "ĠAnzeigen": 8227,
    "lÃ¶sen": 8228,
    "Ġgelangen": 8229,
    "Ġbeobachten": 8230,
    "ĠGemeinden": 8231,
    "Ġverbinden": 8232,
    "ĠverÃ¶ffentlich": 8233,
    "legte": 8234,
    "unterricht": 8235,
    "ĠspÃ¤t": 8236,
    "ĠLeidenschaft": 8237,
    "weiten": 8238,
    "fektion": 8239,
    "Ã¤rten": 8240,
    "chester": 8241,
    "ĠVerteidig": 8242,
    "Ġberichten": 8243,
    "uliert": 8244,
    "werben": 8245,
    "ĠAnw": 8246,
    "ĠZÃ¤": 8247,
    "Ġberlin": 8248,
    "Ġnochmals": 8249,
    "ai": 8250,
    "ĠEier": 8251,
    "ĠIslam": 8252,
    "Ġorien": 8253,
    "hls": 8254,
    "Ġsteuer": 8255,
    "ĠGeschwindigkeit": 8256,
    "ĠKost": 8257,
    "Ã¤fte": 8258,
    "ĠKlim": 8259,
    "Ġbetreffen": 8260,
    "ĠSammlung": 8261,
    "Ã¶rderung": 8262,
    "hÃ¤ltnisse": 8263,
    "folger": 8264,
    "ĠGriff": 8265,
    "grenzen": 8266,
    "Ġbetrachtet": 8267,
    "elbe": 8268,
    "Ġplanen": 8269,
    "icker": 8270,
    "Ġrichtet": 8271,
    "ents": 8272,
    "ĠBoot": 8273,
    "berater": 8274,
    "Ġfar": 8275,
    "ĠNav": 8276,
    "Ġdiverse": 8277,
    "Ġbisherigen": 8278,
    "ĠSchmid": 8279,
    "Ġetabl": 8280,
    "Ġ98": 8281,
    "hÃ¤use": 8282,
    "schei": 8283,
    "ĠKloster": 8284,
    "ĠGerichts": 8285,
    "hst": 8286,
    "Ġsobald": 8287,
    "uel": 8288,
    "ĠWesten": 8289,
    "ĠGroÃŁen": 8290,
    "ĠUpdate": 8291,
    "Ġstammen": 8292,
    "Ġechten": 8293,
    "Ġschau": 8294,
    "ĠMach": 8295,
    "ĠlÃ¤dt": 8296,
    "Ġvertrau": 8297,
    "ĠMÃ¼nster": 8298,
    "ĠBeob": 8299,
    "Ġnied": 8300,
    "ĠSchmerz": 8301,
    "Ġ96": 8302,
    "wÃ¤sche": 8303,
    "ĠzurÃ¼ckge": 8304,
    "ĠDienste": 8305,
    "cc": 8306,
    "ĠVerlust": 8307,
    "ĠAnwendungen": 8308,
    "ulin": 8309,
    "ĠAtem": 8310,
    "Ġexklus": 8311,
    "artet": 8312,
    "ĠDenken": 8313,
    "ĠSchlei": 8314,
    "Ġ77": 8315,
    "del": 8316,
    "werken": 8317,
    "Ġdurchschnitt": 8318,
    "IV": 8319,
    "gerichts": 8320,
    "gendes": 8321,
    "design": 8322,
    "ĠWillkommen": 8323,
    "ĠGeschlecht": 8324,
    "count": 8325,
    "same": 8326,
    "ĠCal": 8327,
    "utr": 8328,
    "ĠTabellen": 8329,
    "Ġdigitale": 8330,
    "Ġeingestellt": 8331,
    "kopf": 8332,
    "arn": 8333,
    "ĠStimmen": 8334,
    "ĠAnschlieÃŁend": 8335,
    "rats": 8336,
    "Ġschweren": 8337,
    "Ġdo": 8338,
    "Ġirgendwo": 8339,
    "Ġproblemlos": 8340,
    "Ġerweitert": 8341,
    "platten": 8342,
    "ĠGeile": 8343,
    "ĠRet": 8344,
    "ĠGibt": 8345,
    "ĠKindes": 8346,
    "ĠZahlung": 8347,
    "ous": 8348,
    "Ġbestens": 8349,
    "Ã¶ren": 8350,
    "ize": 8351,
    "ĠArbeitnehmer": 8352,
    "ĠAsy": 8353,
    "Ġschwe": 8354,
    "ĠDortmund": 8355,
    "Ġcool": 8356,
    "Ġhochwertigen": 8357,
    "tra": 8358,
    "ĠgelÃ¶": 8359,
    "ĠzukÃ¼nf": 8360,
    "Ġsw": 8361,
    "ĠDSGVO": 8362,
    "ĠVerbr": 8363,
    "EG": 8364,
    "ĠErotische": 8365,
    "Ġlief": 8366,
    "Ġkenne": 8367,
    "urlaub": 8368,
    "ĠViertel": 8369,
    "ĠOrgan": 8370,
    "ĠÂ©": 8371,
    "ĠAnsprech": 8372,
    "rÃ¼stung": 8373,
    "ehren": 8374,
    "runde": 8375,
    "Ġorg": 8376,
    "ĠEmail": 8377,
    "ids": 8378,
    "Ġ189": 8379,
    "ĠErinnerung": 8380,
    "ĠFan": 8381,
    "ĠKompetenz": 8382,
    "ualitÃ¤t": 8383,
    "Ġwohnzimmer": 8384,
    "ĠSchie": 8385,
    "ĠdrauÃŁen": 8386,
    "Ġverdienen": 8387,
    "ĠSÃ¼den": 8388,
    "Ġvergeben": 8389,
    "Ġhoff": 8390,
    "ĠGrenz": 8391,
    "Ġschicken": 8392,
    "ĠSem": 8393,
    "ĠBeispiele": 8394,
    "ĠHÃ¤nden": 8395,
    "Ġ?\"": 8396,
    "ĠOster": 8397,
    "uminium": 8398,
    "ĠâĢļ": 8399,
    "ĠWurz": 8400,
    "ĠUrlaubs": 8401,
    "ĠPferde": 8402,
    "rÃ¤t": 8403,
    "ĠWart": 8404,
    "ton": 8405,
    "Ġdunkl": 8406,
    "ieur": 8407,
    "Ġeventuell": 8408,
    "ĠGalerie": 8409,
    "ĠOptim": 8410,
    "ĠVal": 8411,
    "leister": 8412,
    "Ġgearbeitet": 8413,
    "ĠhÃ¼b": 8414,
    "schritt": 8415,
    "pers": 8416,
    "stimmen": 8417,
    "Ġalter": 8418,
    "ĠBestimmungen": 8419,
    "ĠInitiative": 8420,
    "Ġsens": 8421,
    "Ã¼cksichtigt": 8422,
    "Ġentspann": 8423,
    "becken": 8424,
    "ĠSymbol": 8425,
    "Ġanspruchs": 8426,
    "ĠTool": 8427,
    "Ġspiele": 8428,
    "Ġaufgebaut": 8429,
    "ĠWilhelm": 8430,
    "ĠAktionen": 8431,
    "ĠSchok": 8432,
    "Ġemotion": 8433,
    "irekt": 8434,
    "Ã¶rdert": 8435,
    "ĠRealitÃ¤t": 8436,
    "auff": 8437,
    "Ġwirksam": 8438,
    "indlich": 8439,
    "ĠHamburger": 8440,
    "bogen": 8441,
    "ĠLos": 8442,
    "vergleich": 8443,
    "Ge": 8444,
    "Ġ74": 8445,
    "ĠApps": 8446,
    "Ã¼tter": 8447,
    "aktieren": 8448,
    "Ã¼rzt": 8449,
    "Ġmeinte": 8450,
    "Ġplus": 8451,
    "ĠReinigung": 8452,
    "ĠhauptsÃ¤chlich": 8453,
    "ĠKanz": 8454,
    "Ġit": 8455,
    "ico": 8456,
    "Ġoffensichtlich": 8457,
    "Ġbeinhaltet": 8458,
    "ove": 8459,
    "ĠAuflage": 8460,
    "Ġgelernt": 8461,
    "kter": 8462,
    "anstalter": 8463,
    "ĠLange": 8464,
    "Sh": 8465,
    "Ġbun": 8466,
    "ĠReihen": 8467,
    "Ġfunktionieren": 8468,
    "Ġbezahlt": 8469,
    "ĠWettbewerb": 8470,
    "rauben": 8471,
    "Ġcl": 8472,
    "ĠLese": 8473,
    "ĠInstallation": 8474,
    "Ġdamal": 8475,
    "ĠEinstellung": 8476,
    "ĠzusÃ¤tzlichen": 8477,
    "Ġhinsichtlich": 8478,
    "ĠWohnungen": 8479,
    "eck": 8480,
    "anische": 8481,
    "temperatur": 8482,
    "Ġbuchen": 8483,
    "hagen": 8484,
    "ĠNRW": 8485,
    "ĠGitar": 8486,
    "Ġherz": 8487,
    "ĠEcke": 8488,
    "ĠMischung": 8489,
    "Ġerfolgreiche": 8490,
    "Ã¼hen": 8491,
    "Ġkr": 8492,
    "ĠFranzÃ¶s": 8493,
    "stunden": 8494,
    "ĠLassen": 8495,
    "Ġseid": 8496,
    "ĠUni": 8497,
    "ĠRohr": 8498,
    "ĠhÃ¶chsten": 8499,
    "ĠPum": 8500,
    "ĠDatum": 8501,
    "brigen": 8502,
    "Ġ140": 8503,
    "ĠSchwÃ¤": 8504,
    "ĠBreite": 8505,
    "stil": 8506,
    "ĠKlang": 8507,
    "Ġbeschlossen": 8508,
    "ĠLeicht": 8509,
    "ĠAv": 8510,
    "ikon": 8511,
    "Ġvergleichen": 8512,
    "nÃ¶": 8513,
    "Ġjapan": 8514,
    "Ġnennt": 8515,
    "uhren": 8516,
    "gemÃ¤ÃŁ": 8517,
    "pul": 8518,
    "kirche": 8519,
    "Ġ!)": 8520,
    "Ġdpa": 8521,
    "Ar": 8522,
    "ĠAusfÃ¼hrung": 8523,
    "ĠUrheber": 8524,
    "ĠVogel": 8525,
    "spunkt": 8526,
    "Ġmachten": 8527,
    "ĠVan": 8528,
    "formance": 8529,
    "ĠStudio": 8530,
    "Ġdeutschland": 8531,
    "ĠhÃ¶heren": 8532,
    "Ġgesprochen": 8533,
    "Ã¼tte": 8534,
    "hÃ¤ngen": 8535,
    "Ġehrlich": 8536,
    "ĠHot": 8537,
    "ĠmÃ¤nn": 8538,
    "ĠVerg": 8539,
    "ĠKle": 8540,
    "ĠSuchen": 8541,
    "ĠFutter": 8542,
    "mas": 8543,
    "ĠgenÃ¼gend": 8544,
    "hlungen": 8545,
    "ĠeB": 8546,
    "ĠkÃ¼nftig": 8547,
    "verschluss": 8548,
    "ary": 8549,
    "ĠMittler": 8550,
    "ĠTrÃ¤ger": 8551,
    "Ġklassische": 8552,
    "anw": 8553,
    "echt": 8554,
    "tend": 8555,
    "ĠspÃ¤testens": 8556,
    "inken": 8557,
    "bten": 8558,
    "ĠKonzer": 8559,
    "Ġ76": 8560,
    "ĠEinstellungen": 8561,
    "Ġkennenlernen": 8562,
    "ĠLandwirtschaft": 8563,
    "ĠInspir": 8564,
    "Ġberechtigt": 8565,
    "ĠSongs": 8566,
    "Ġsolange": 8567,
    "archite": 8568,
    "Ġerfolgreichen": 8569,
    "ĠSieger": 8570,
    "ĠZutaten": 8571,
    "29": 8572,
    "ĠFried": 8573,
    "weiÃŁ": 8574,
    "ĠHaftung": 8575,
    "ward": 8576,
    "Ġbetrieben": 8577,
    "verkauf": 8578,
    "scheidung": 8579,
    "Ġpo": 8580,
    "etr": 8581,
    "sack": 8582,
    "ĠMarkus": 8583,
    "ahrungs": 8584,
    "klass": 8585,
    "ĠAusbildungs": 8586,
    "ĠMotorrad": 8587,
    "ĠZauber": 8588,
    "ĠKG": 8589,
    "ĠKleider": 8590,
    "ĠGarantie": 8591,
    "rete": 8592,
    "ĠhierfÃ¼r": 8593,
    "ĠMerkel": 8594,
    "ĠRÃ¤ume": 8595,
    "Ġgewisse": 8596,
    "ĠProfessor": 8597,
    "ĠAnn": 8598,
    "ĠHauptstadt": 8599,
    "Ġroman": 8600,
    "Ġoffiziell": 8601,
    "ĠBeziehungen": 8602,
    "ĠFormat": 8603,
    "gemeinde": 8604,
    "ĠMiner": 8605,
    "ĠGegenteil": 8606,
    "entwick": 8607,
    "ĠLohn": 8608,
    "ĠAnruf": 8609,
    "ĠMÃ¤nnern": 8610,
    "ĠOlymp": 8611,
    "Ã¤ser": 8612,
    "ziel": 8613,
    "ĠNeuer": 8614,
    "ĠIdent": 8615,
    "digung": 8616,
    "bilden": 8617,
    "ental": 8618,
    "fÃ¼hrungen": 8619,
    "Ġersetzt": 8620,
    "ĠFluss": 8621,
    "Ġveran": 8622,
    "Ġunterscheiden": 8623,
    "stÃ¤": 8624,
    "ĠQualitÃ¤ts": 8625,
    "Ġentstand": 8626,
    "formular": 8627,
    "Ġweshalb": 8628,
    "ĠAdvent": 8629,
    "Ġsteckt": 8630,
    "ĠLok": 8631,
    "code": 8632,
    "losigkeit": 8633,
    "behÃ¶rde": 8634,
    "Ġbitten": 8635,
    "Ġschlaf": 8636,
    "ĠErf": 8637,
    "ĠMilitÃ¤r": 8638,
    "nitz": 8639,
    "Ġangenommen": 8640,
    "ST": 8641,
    "ĠFÃ¤lle": 8642,
    "ĠSur": 8643,
    "Ġselben": 8644,
    "Ġrest": 8645,
    "onto": 8646,
    "Ġele": 8647,
    "ĠApothe": 8648,
    "ĠAspekte": 8649,
    "Ġkostenlosen": 8650,
    "ĠWellness": 8651,
    "Ġlinken": 8652,
    "ĠGlÃ¼cks": 8653,
    "ĠMuskel": 8654,
    "ĠBeweis": 8655,
    "Ġspannend": 8656,
    "grÃ¼ndung": 8657,
    "Ġzug": 8658,
    "ĠSchuh": 8659,
    "ĠDisplay": 8660,
    "ĠBranche": 8661,
    "alle": 8662,
    "Ġspielte": 8663,
    "ieht": 8664,
    "Ġreduziert": 8665,
    "ĠHÃ¤ndler": 8666,
    "ĠDDR": 8667,
    "produkte": 8668,
    "ĠBraun": 8669,
    "staat": 8670,
    "Ġspezif": 8671,
    "ĠKatze": 8672,
    "ĠZivil": 8673,
    "Ġsim": 8674,
    "rahmen": 8675,
    "ĠStru": 8676,
    "Ġ1990": 8677,
    "Ġvermittelt": 8678,
    "Ġvorzu": 8679,
    "ĠSub": 8680,
    "Ã¶rsen": 8681,
    "lÃ¶": 8682,
    "ĠGriechen": 8683,
    "Ġangekommen": 8684,
    "Ġleistungs": 8685,
    "ĠPersÃ¶nlichkeit": 8686,
    "Ġdenk": 8687,
    "ĠVersorgung": 8688,
    "Ġsingle": 8689,
    "ĠVorjahr": 8690,
    "ĠNÃ¼rnberg": 8691,
    "Ġok": 8692,
    "ischof": 8693,
    "ĠZustimmung": 8694,
    "ĠAbstand": 8695,
    "ĠDusche": 8696,
    "ĠHÃ¤user": 8697,
    "ĠÃ¼bert": 8698,
    "Ġstil": 8699,
    "Ġbar": 8700,
    "Vers": 8701,
    "kea": 8702,
    "ney": 8703,
    "Ġeinzigen": 8704,
    "Ġchines": 8705,
    "Ġ51": 8706,
    "Ġeindeutig": 8707,
    "ellschaften": 8708,
    "ausende": 8709,
    "Ġimmerhin": 8710,
    "ĠMasse": 8711,
    "ĠMaÃŁe": 8712,
    "ĠMom": 8713,
    "Ġordentlich": 8714,
    "kÃ¼nfte": 8715,
    "Ġentf": 8716,
    "Ġmil": 8717,
    "ĠGleichzeitig": 8718,
    "bran": 8719,
    "let": 8720,
    "Ġfuer": 8721,
    "mess": 8722,
    "ĠErschein": 8723,
    "ĠInstitu": 8724,
    "ĠOsten": 8725,
    "nimmt": 8726,
    "Ġbetrifft": 8727,
    "glas": 8728,
    "Ġgelingt": 8729,
    "ziger": 8730,
    "ĠgÃ¼nstigen": 8731,
    "Ġfern": 8732,
    "ĠLein": 8733,
    "Ġfreundlich": 8734,
    "Ġkalt": 8735,
    "freien": 8736,
    "ĠabhÃ¤ngig": 8737,
    "ĠRessourcen": 8738,
    "ĠEuropas": 8739,
    "Ġverhindert": 8740,
    "ĠInfo": 8741,
    "bares": 8742,
    "Ġorganisiert": 8743,
    "ĠFicken": 8744,
    "ĠKass": 8745,
    "Ġbeteiligt": 8746,
    "astrop": 8747,
    "ĠAnsicht": 8748,
    "ires": 8749,
    "ĠMusiker": 8750,
    "ĠTab": 8751,
    "Ġverbessert": 8752,
    "ĠEinladung": 8753,
    "ronen": 8754,
    "zeichnete": 8755,
    "bast": 8756,
    "Ġangepasst": 8757,
    "Ġ89": 8758,
    "Ġkontakt": 8759,
    "ĠFigur": 8760,
    "ĠgewÃ¤hrleisten": 8761,
    "Ġ188": 8762,
    "anter": 8763,
    "stÃ¶": 8764,
    "Ġverp": 8765,
    "ĠRud": 8766,
    "ĠVerÃ¶ffentlichung": 8767,
    "senden": 8768,
    "Ġdauern": 8769,
    "ĠTÃ¼rkei": 8770,
    "uro": 8771,
    "Ã¼nden": 8772,
    "gerecht": 8773,
    "Ġ110": 8774,
    "ÌĮ": 8775,
    "Ġschwarzen": 8776,
    "Ġsepar": 8777,
    "ced": 8778,
    "ĠAudio": 8779,
    "ĠSto": 8780,
    "ĠtÃ¼rk": 8781,
    "ĠLade": 8782,
    "ĠJer": 8783,
    "analyse": 8784,
    "ula": 8785,
    "Ġvari": 8786,
    "Ġglaub": 8787,
    "ĠKandid": 8788,
    "kord": 8789,
    "Vor": 8790,
    "eigern": 8791,
    "Ġgewissen": 8792,
    "Ġgefahren": 8793,
    "grenzt": 8794,
    "ĠKapit": 8795,
    "ĠKirch": 8796,
    "ĠDor": 8797,
    "wÃ¼n": 8798,
    "bereiche": 8799,
    "Ġoftmals": 8800,
    "handlungs": 8801,
    "ĠAnsprÃ¼che": 8802,
    "ĠðŁĻ": 8803,
    "Ġbestimmen": 8804,
    "ĠFlÃ¼chtlinge": 8805,
    "ĠmÃ¶chtest": 8806,
    "Ġ73": 8807,
    "ley": 8808,
    "tags": 8809,
    "problem": 8810,
    "Ġkrie": 8811,
    "Ġendg": 8812,
    "Le": 8813,
    "ĠAluminium": 8814,
    "Ã¤ub": 8815,
    "Ġgeboten": 8816,
    "ĠSpenden": 8817,
    "ĠManchmal": 8818,
    "ĠKalender": 8819,
    "ĠBestandteil": 8820,
    "ĠTermine": 8821,
    "ĠEngland": 8822,
    "horn": 8823,
    "Ġbrauch": 8824,
    "Ġ86": 8825,
    "Ġideale": 8826,
    "ĠSS": 8827,
    "ĠIV": 8828,
    "ĠPremium": 8829,
    "Ġgeblieben": 8830,
    "ĠWorten": 8831,
    "Ġspannende": 8832,
    "ĠZeug": 8833,
    "ĠWohnungs": 8834,
    "Ġeig": 8835,
    "ĠPolen": 8836,
    "ĠVorgehen": 8837,
    "ĠBeratungs": 8838,
    "ĠKond": 8839,
    "emit": 8840,
    "ĠBearbeitung": 8841,
    "ĠDemokratie": 8842,
    "Ġnotwendigen": 8843,
    "lÃ¤": 8844,
    "rinzip": 8845,
    "Kon": 8846,
    "grad": 8847,
    "ĠTerror": 8848,
    "Ġas": 8849,
    "ĠBMW": 8850,
    "here": 8851,
    "ĠGÃ¤sten": 8852,
    "ibilitÃ¤t": 8853,
    "Ġgleicher": 8854,
    "ĠSchÃ¶ne": 8855,
    "ĠWillen": 8856,
    "sdorf": 8857,
    "ĠAnna": 8858,
    "Ġ.),": 8859,
    "Ġdiejenigen": 8860,
    "ĠVertrieb": 8861,
    "ĠFeder": 8862,
    "ikanischen": 8863,
    "Ġdenkt": 8864,
    "schlieÃŁen": 8865,
    "dienste": 8866,
    "ĠSchÃ¶nheit": 8867,
    "ĠBewegungs": 8868,
    "Ġvorbereitet": 8869,
    "ymbol": 8870,
    "ĠHir": 8871,
    "ĠHessen": 8872,
    "fred": 8873,
    "Ġbeantworten": 8874,
    "Ġeinsetzen": 8875,
    "Ġeh": 8876,
    "agentur": 8877,
    "Ser": 8878,
    "ĠTodes": 8879,
    "Ã¤tzt": 8880,
    "Ġgeheim": 8881,
    "frauen": 8882,
    "recken": 8883,
    "ĠVerpflicht": 8884,
    "hil": 8885,
    "ĠManager": 8886,
    "Ġstat": 8887,
    "ĠSerien": 8888,
    "ĠIrgend": 8889,
    "cam": 8890,
    "Ġkombiniert": 8891,
    "ĠMi": 8892,
    "ĠNieders": 8893,
    "stÃ¤tten": 8894,
    "Ġhom": 8895,
    "ĠberÃ¼cksichtigt": 8896,
    "Ġsil": 8897,
    "ĠFilter": 8898,
    "ĠCloud": 8899,
    "lings": 8900,
    "ĠBestell": 8901,
    "ĠkÃ¤mpfen": 8902,
    "bro": 8903,
    "ĠSec": 8904,
    "ĠJuden": 8905,
    "ĠSpar": 8906,
    "ÌĥÂ¤": 8907,
    "ĠbezÃ¼glich": 8908,
    "Ġfestgestellt": 8909,
    "ĠFlÃ¤che": 8910,
    "ĠPhilipp": 8911,
    "ĠLim": 8912,
    "ĠkÃ¼nstler": 8913,
    "chern": 8914,
    "Ġ78": 8915,
    "ĠÃ¼berprÃ¼fen": 8916,
    "ĠBevor": 8917,
    "tiere": 8918,
    "ĠTarif": 8919,
    "ĠBesten": 8920,
    "45": 8921,
    "Ġbewegt": 8922,
    "ĠTheorie": 8923,
    "ĠKriegs": 8924,
    "ĠerÃ¶ff": 8925,
    "allel": 8926,
    "hÃ¤nge": 8927,
    "decke": 8928,
    "rost": 8929,
    "schlagen": 8930,
    "ĠEdition": 8931,
    "ĠReserv": 8932,
    "ĠPolitiker": 8933,
    "Ġehemalige": 8934,
    "aller": 8935,
    "wein": 8936,
    "ĠOrte": 8937,
    "Ġsowas": 8938,
    "Ã¤rt": 8939,
    "Ġerm": 8940,
    "ĠzwÃ¶lf": 8941,
    "Ġ79": 8942,
    "Ġverwir": 8943,
    "Ġstarte": 8944,
    "ki": 8945,
    "ĠStÃ¤dten": 8946,
    "Ġnerv": 8947,
    "Ġoffene": 8948,
    "Ġverschiedener": 8949,
    "ĠZweifel": 8950,
    "Ġsl": 8951,
    "ĠInn": 8952,
    "ĠEinstieg": 8953,
    "Ġhilfreich": 8954,
    "gener": 8955,
    "ĠKonkurrenz": 8956,
    "bildungen": 8957,
    "ulieren": 8958,
    "ĠYoga": 8959,
    "Ġhef": 8960,
    "ĠAnhÃ¤nger": 8961,
    "ata": 8962,
    "ĠÃ¶k": 8963,
    "ĠPlast": 8964,
    "Ġdringend": 8965,
    "ĠPrivate": 8966,
    "lÃ¤sslich": 8967,
    "Ġtau": 8968,
    "ĠmÃ¼sse": 8969,
    "Ġdefinitiv": 8970,
    "urst": 8971,
    "umfang": 8972,
    "kler": 8973,
    "ascht": 8974,
    "Ġmobile": 8975,
    "Ġanalys": 8976,
    "ĠWerkzeug": 8977,
    "Ġschein": 8978,
    "WÃ¼rt": 8979,
    "ĠgÃ¼nstiger": 8980,
    "ĠweiÃŁen": 8981,
    "ĠDachbeschichtung": 8982,
    "ĠheiÃŁe": 8983,
    "ographie": 8984,
    "ĠZin": 8985,
    "Ġbau": 8986,
    "ĠMehrheit": 8987,
    "azz": 8988,
    "ĠâĢ¦.": 8989,
    "aner": 8990,
    "swÃ¼rdig": 8991,
    "ĠBast": 8992,
    "ĠGegend": 8993,
    "sicherheit": 8994,
    "brit": 8995,
    "Ġnein": 8996,
    "uth": 8997,
    "ĠPin": 8998,
    "bauten": 8999,
    "Ġvielsei": 9000,
    "ĠGastgeber": 9001,
    "ĠModern": 9002,
    "Ġverteilt": 9003,
    "regel": 9004,
    "aneben": 9005,
    "ĠGanze": 9006,
    "EM": 9007,
    "gg": 9008,
    "Ġgreifen": 9009,
    "orfer": 9010,
    "wissenschaften": 9011,
    "ĠGewÃ¤hr": 9012,
    "ĠAngabe": 9013,
    "ĠVarianten": 9014,
    "ĠTank": 9015,
    "zeits": 9016,
    "ĠVoraussetzung": 9017,
    "Ġdekor": 9018,
    "ĠAnsprechpartner": 9019,
    "ĠGefÃ¼hle": 9020,
    "Ġbay": 9021,
    "nehmung": 9022,
    "aters": 9023,
    "oline": 9024,
    "ĠServices": 9025,
    "Ġbesonderes": 9026,
    "Ġhtml": 9027,
    "Ġprodu": 9028,
    "ikat": 9029,
    "Ġunglaublich": 9030,
    "Ġfeier": 9031,
    "beginn": 9032,
    "schlÃ¼sse": 9033,
    "Ġrechnen": 9034,
    "ĠAustr": 9035,
    "Ġpost": 9036,
    "ĠMagen": 9037,
    "ĠRechtsanwalt": 9038,
    "ĠBewohner": 9039,
    "ĠVÃ¶": 9040,
    "Ġverlangen": 9041,
    "Ġwenigstens": 9042,
    "Ġstolz": 9043,
    "geschoss": 9044,
    "kum": 9045,
    "stÃ¤d": 9046,
    "uld": 9047,
    "Ġansonsten": 9048,
    "ĠErkenntnis": 9049,
    "izierten": 9050,
    "ĠNase": 9051,
    "Ġfordert": 9052,
    "ĠEinschrÃ¤n": 9053,
    "gigen": 9054,
    "ĠSab": 9055,
    "ĠEinheit": 9056,
    "ĠLeich": 9057,
    "otte": 9058,
    "Ġtest": 9059,
    "ĠMc": 9060,
    "ĠGrÃ¼ndung": 9061,
    "Ġvi": 9062,
    "WÃ¼rttemberg": 9063,
    "ĠFlÃ¤chen": 9064,
    "Ġnord": 9065,
    "ĠAccess": 9066,
    "ĠFernseh": 9067,
    "ĠUmstÃ¤nden": 9068,
    "ĠBlatt": 9069,
    "Ġehren": 9070,
    "kompl": 9071,
    "ĠAussch": 9072,
    "ĠRichtig": 9073,
    "Ġpart": 9074,
    "ĠSolar": 9075,
    "utton": 9076,
    "ĠGetrÃ¤nke": 9077,
    "Ġschnellen": 9078,
    "lan": 9079,
    "ĠSterne": 9080,
    "schaff": 9081,
    "ĠFantas": 9082,
    "tikeln": 9083,
    "Ġaufnehmen": 9084,
    "ĠBetracht": 9085,
    "Ġbesseren": 9086,
    "Ġ700": 9087,
    "ĠEinwilligung": 9088,
    "Ġerzielen": 9089,
    "Ġ(\"": 9090,
    "Ġ125": 9091,
    "Ġdanke": 9092,
    "ĠVersicherung": 9093,
    "ĠReaktion": 9094,
    "ĠNachfrage": 9095,
    "ĠFranken": 9096,
    "ĠFotograf": 9097,
    "ĠJÃ¼rgen": 9098,
    "klar": 9099,
    "ĠRegionen": 9100,
    "Ã¤sser": 9101,
    "projekt": 9102,
    "Ġveranst": 9103,
    "ĠgeprÃ¤gt": 9104,
    "ĠOutdoor": 9105,
    "anner": 9106,
    "DP": 9107,
    "Ġverbl": 9108,
    "Ã¼hrung": 9109,
    "BN": 9110,
    "iens": 9111,
    "Ġfroh": 9112,
    "ĠMeld": 9113,
    "Ġsor": 9114,
    "Ġletztlich": 9115,
    "Ġerotische": 9116,
    "ĠTÃ¤ter": 9117,
    "schech": 9118,
    "ĠAnsatz": 9119,
    "Ġstrate": 9120,
    "mag": 9121,
    "umenten": 9122,
    "Ġschlechte": 9123,
    "uver": 9124,
    "ĠkÃ¼mmern": 9125,
    "ierer": 9126,
    "kra": 9127,
    "ĠSchulter": 9128,
    "sichtigen": 9129,
    "ĠSofern": 9130,
    "ĠSobald": 9131,
    "Ġtiefer": 9132,
    "ĠNichts": 9133,
    "ĠFernsehen": 9134,
    "ĠAuflÃ¶sung": 9135,
    "ĠgelÃ¶scht": 9136,
    "Ġnackt": 9137,
    "Ġ97": 9138,
    "Ġbestehenden": 9139,
    "ĠSpiels": 9140,
    "kÃ¶rper": 9141,
    "ĠHerkunft": 9142,
    "unen": 9143,
    "zell": 9144,
    "ĠsorgfÃ¤l": 9145,
    "ĠRabatt": 9146,
    "Ġnix": 9147,
    "ĠverstÃ¤nd": 9148,
    "ĠCode": 9149,
    "werden": 9150,
    "ĠBeam": 9151,
    "ĠEintrag": 9152,
    "webe": 9153,
    "Ġanschauen": 9154,
    "board": 9155,
    "zz": 9156,
    "ielte": 9157,
    "ĠSar": 9158,
    "Ġausser": 9159,
    "Ġvideos": 9160,
    "igungen": 9161,
    "ĠNiederl": 9162,
    "ĠâĢľ)": 9163,
    "seher": 9164,
    "West": 9165,
    "Ġprofessionelle": 9166,
    "ĠDate": 9167,
    "hi": 9168,
    "ĠDuft": 9169,
    "ĠSki": 9170,
    "ĠangekÃ¼ndig": 9171,
    "ĠGenuss": 9172,
    "ĠhÃ¤ngen": 9173,
    "west": 9174,
    "ĠPornos": 9175,
    "erkennung": 9176,
    "ision": 9177,
    "Ġschlagen": 9178,
    "ĠursprÃ¼nglich": 9179,
    "haut": 9180,
    "Ġtraum": 9181,
    "Ġsowieso": 9182,
    "ĠSC": 9183,
    "Ġsub": 9184,
    "Ġlegte": 9185,
    "Ġauss": 9186,
    "ĠSpannung": 9187,
    "Ġweist": 9188,
    "flex": 9189,
    "las": 9190,
    "ativer": 9191,
    "Ġuntersch": 9192,
    "ĠFrucht": 9193,
    "ĠFu": 9194,
    "Ġdok": 9195,
    "geleitet": 9196,
    "ĠAff": 9197,
    "Ġ130": 9198,
    "anda": 9199,
    "ĠHau": 9200,
    "ĠBildschirm": 9201,
    "uhen": 9202,
    "hauses": 9203,
    "Ġabgeb": 9204,
    "ĠNE": 9205,
    "ĠEvangel": 9206,
    "ĠKra": 9207,
    "ĠErwachsenen": 9208,
    "paar": 9209,
    "Ġerworben": 9210,
    "ĠAnliegen": 9211,
    "Ġquasi": 9212,
    "Ġvorgenommen": 9213,
    "verhÃ¤ltnis": 9214,
    "hten": 9215,
    "Ġqualit": 9216,
    "ĠAuftritt": 9217,
    "gest": 9218,
    "ĠFrist": 9219,
    "ĠKonzentr": 9220,
    "eidet": 9221,
    "ĠHauses": 9222,
    "ĠSituationen": 9223,
    "ĠbeschÃ¤ftigen": 9224,
    "ĠHr": 9225,
    "ĠUrsache": 9226,
    "Ġanf": 9227,
    "Ġdarstellen": 9228,
    "ĠSorgen": 9229,
    "spolitik": 9230,
    "gi": 9231,
    "oter": 9232,
    "inuier": 9233,
    "ĠAkku": 9234,
    "verbrauch": 9235,
    "ef": 9236,
    "ĠFinden": 9237,
    "ĠFaktoren": 9238,
    "ĠAusflug": 9239,
    "leiÃŁ": 9240,
    "Ġghostwriter": 9241,
    "ĠLinien": 9242,
    "Ġpraktische": 9243,
    "abschluss": 9244,
    "merk": 9245,
    "Ġentwickelte": 9246,
    "ĠAnwalt": 9247,
    "ĠBundesregierung": 9248,
    "ĠGehirn": 9249,
    "Ġinteressieren": 9250,
    "ampagne": 9251,
    "35": 9252,
    "leistungs": 9253,
    "ĠMaschine": 9254,
    "hu": 9255,
    "gyp": 9256,
    "irr": 9257,
    "opf": 9258,
    "ĠRepublik": 9259,
    "cription": 9260,
    "lla": 9261,
    "eintrÃ¤ch": 9262,
    "Ġzit": 9263,
    "Ġinhalt": 9264,
    "ĠErfÃ¼llung": 9265,
    "ĠDateien": 9266,
    "Ġoper": 9267,
    "Ġkontakte": 9268,
    "ĠjÃ¼ng": 9269,
    "zwei": 9270,
    "ĠJagd": 9271,
    "mÃ¤n": 9272,
    "ĠMuschi": 9273,
    "ĠSchweden": 9274,
    "ĠPartie": 9275,
    "Ġroten": 9276,
    "Ġverbindet": 9277,
    "irol": 9278,
    "Ġerreichbar": 9279,
    "ĠAuftraggeber": 9280,
    "200": 9281,
    "ĠHeinrich": 9282,
    "Ġspr": 9283,
    "Ġtrinken": 9284,
    "ĠNachhal": 9285,
    "ĠMot": 9286,
    "Ġklare": 9287,
    "isierte": 9288,
    "leun": 9289,
    "ep": 9290,
    "Ġ.Â»": 9291,
    "wid": 9292,
    "angs": 9293,
    "ĠCamping": 9294,
    "ĠReligion": 9295,
    "ĠAutomat": 9296,
    "ĠBetrag": 9297,
    "Ġaust": 9298,
    "ĠBenz": 9299,
    "ĠKro": 9300,
    "ĠungewÃ¶hn": 9301,
    "Ġwohnen": 9302,
    "ĠHandeln": 9303,
    "ĠWeltkrieg": 9304,
    "eistern": 9305,
    "ĠEntfernung": 9306,
    "aumen": 9307,
    "ĠAnsonsten": 9308,
    "kar": 9309,
    "Ġrie": 9310,
    "ĠglÃ¤n": 9311,
    "ituation": 9312,
    "informationen": 9313,
    "Ġdetaill": 9314,
    "attet": 9315,
    "testet": 9316,
    "ĠFuss": 9317,
    "Ġras": 9318,
    "Ġinstalliert": 9319,
    "ĠBGB": 9320,
    "ĠVorstellungen": 9321,
    "ĠMilf": 9322,
    "Ġnormale": 9323,
    "onds": 9324,
    "Ã¤llig": 9325,
    "arke": 9326,
    "hÃ¶hung": 9327,
    "ĠSus": 9328,
    "ĠDIN": 9329,
    "ĠHit": 9330,
    "ĠFestival": 9331,
    "ĠAusbau": 9332,
    "Ġunternehmen": 9333,
    "ahrt": 9334,
    "Ġlautet": 9335,
    "ĠInfrastruktur": 9336,
    "Ġ`": 9337,
    "winkel": 9338,
    "mÃ¤r": 9339,
    "Ġabwechslungs": 9340,
    "ĠPlÃ¤tze": 9341,
    "ĠGestalt": 9342,
    "Ġeinzigartige": 9343,
    "Ġintegriert": 9344,
    "ĠInsbesondere": 9345,
    "Ġendet": 9346,
    "dis": 9347,
    "ĠjÃ¼d": 9348,
    "stellbar": 9349,
    "ĠVorschriften": 9350,
    "ĠVerÃ¤nderung": 9351,
    "ĠOrganisationen": 9352,
    "ĠAllgemeinen": 9353,
    "ĠTourismus": 9354,
    "papier": 9355,
    "Ġbeziehen": 9356,
    "ĠErz": 9357,
    "kaufen": 9358,
    "offer": 9359,
    "ausschuss": 9360,
    "strÃ¤ger": 9361,
    "ĠAgentur": 9362,
    "ĠFeier": 9363,
    "ĠMS": 9364,
    "Ġdirekten": 9365,
    "prÃ¤sident": 9366,
    "Ġmanchen": 9367,
    "zeichnungen": 9368,
    "ĠEinwohner": 9369,
    "ettbe": 9370,
    "muse": 9371,
    "ration": 9372,
    "ĠergÃ¤nzt": 9373,
    "vider": 9374,
    "Ġvielmehr": 9375,
    "kop": 9376,
    "ĠSprecher": 9377,
    "Ã¤gt": 9378,
    "grÃ¼nden": 9379,
    "Ġ.âĢĿ": 9380,
    "wal": 9381,
    "Ã¤mpft": 9382,
    "ĠSich": 9383,
    "skon": 9384,
    "Ġverboten": 9385,
    "ctor": 9386,
    "ĠWÃ¤": 9387,
    "ĠEffe": 9388,
    "ĠZurÃ¼ck": 9389,
    "fekt": 9390,
    "Ã¤hrungs": 9391,
    "Ġ87": 9392,
    "ĠmÃ¤ch": 9393,
    "ĠAsyl": 9394,
    "Ġkeinem": 9395,
    "ĠHierbei": 9396,
    "ĠMarc": 9397,
    "dach": 9398,
    "ĠHandwerk": 9399,
    "Ġjemanden": 9400,
    "ichtigung": 9401,
    "position": 9402,
    "Ġgross": 9403,
    "pper": 9404,
    "ĠCent": 9405,
    "Ġarch": 9406,
    "ĠðŁĻĤ": 9407,
    "Ġdomin": 9408,
    "ĠProstat": 9409,
    "anbieter": 9410,
    "ĠTenn": 9411,
    "Ġschien": 9412,
    "ders": 9413,
    "Ġup": 9414,
    "ĠJubilÃ¤um": 9415,
    "Ġsign": 9416,
    "Ã¤hler": 9417,
    "ĠanschlieÃŁen": 9418,
    "ĠGame": 9419,
    "Ġbeschreibt": 9420,
    "tial": 9421,
    "ĠHT": 9422,
    "Ġschlicht": 9423,
    "imension": 9424,
    "hÃ¶rt": 9425,
    "Ġbere": 9426,
    "verarbeitung": 9427,
    "ĠfrÃ¼heren": 9428,
    "Ġgeraten": 9429,
    "OC": 9430,
    "zone": 9431,
    "ĠAuseinander": 9432,
    "Ġnehme": 9433,
    "ĠSubst": 9434,
    "handelt": 9435,
    "ĠTU": 9436,
    "ĠStÃ¤rke": 9437,
    "ĠWeiterbildung": 9438,
    "verhalten": 9439,
    "Ġangesehen": 9440,
    "bring": 9441,
    "uff": 9442,
    "ĠForscher": 9443,
    "ĠDurchschnitt": 9444,
    "iehlt": 9445,
    "fahrten": 9446,
    "ĠÃ¼berlegen": 9447,
    "ĠmÃ¶gen": 9448,
    "ĠWerden": 9449,
    "ĠgewÃ¼nschten": 9450,
    "ĠunzÃ¤hl": 9451,
    "ĠProzesse": 9452,
    "Mit": 9453,
    "feuer": 9454,
    "Ġmiss": 9455,
    "Ġkleinere": 9456,
    "bene": 9457,
    "ĠLizenz": 9458,
    "ĠPhase": 9459,
    "ĠTÃ¼ren": 9460,
    "ĠEmo": 9461,
    "ĠBezirks": 9462,
    "ĠTrump": 9463,
    "gebnis": 9464,
    "hofen": 9465,
    "ĠLoch": 9466,
    "gno": 9467,
    "ĠGehalt": 9468,
    "ĠzuverlÃ¤ss": 9469,
    "ĠPreisen": 9470,
    "stufe": 9471,
    "Ġverarbeiten": 9472,
    "ĠExtra": 9473,
    "ĠMobile": 9474,
    "Ġums": 9475,
    "ĠLook": 9476,
    "ĠBelie": 9477,
    "ĠDunkel": 9478,
    "Ġspeichern": 9479,
    "ĠDame": 9480,
    "Ġgenerell": 9481,
    "IR": 9482,
    "Ġgewann": 9483,
    "iken": 9484,
    "jÃ¤hriger": 9485,
    "FA": 9486,
    "spreis": 9487,
    "Serv": 9488,
    "ĠVordergrund": 9489,
    "stete": 9490,
    "brig": 9491,
    "Ġchat": 9492,
    "ĠLeuten": 9493,
    "Ġdirekte": 9494,
    "produktion": 9495,
    "zenten": 9496,
    "Ġstruktur": 9497,
    "amens": 9498,
    "Ġare": 9499,
    "grÃ¶ÃŁ": 9500,
    "ucher": 9501,
    "Ġleer": 9502,
    "Ġtat": 9503,
    "Ã¤cheln": 9504,
    "Ġ1997": 9505,
    "wohnungen": 9506,
    "Ġ84": 9507,
    "ĠfranzÃ¶sischen": 9508,
    "bil": 9509,
    "ĠWissenschaftler": 9510,
    "preise": 9511,
    "ickte": 9512,
    "jektiv": 9513,
    "Ġschwere": 9514,
    "gende": 9515,
    "ĠISBN": 9516,
    "ologen": 9517,
    "ĠBesitzer": 9518,
    "ĠKrÃ¤uter": 9519,
    "Ġdavor": 9520,
    "Ġ\")": 9521,
    "ĠWellen": 9522,
    "Ġ94": 9523,
    "ĠVerfÃ¼g": 9524,
    "ĠOma": 9525,
    "Ġdesign": 9526,
    "ĠDialog": 9527,
    "ĠÃ¤ltere": 9528,
    "Ġstrateg": 9529,
    "ĠPir": 9530,
    "mmert": 9531,
    "systeme": 9532,
    "Ġsichere": 9533,
    "usen": 9534,
    "britann": 9535,
    "ĠKonsequ": 9536,
    "ĠHil": 9537,
    "ĠFreiburg": 9538,
    "schnittlich": 9539,
    "Ġgeliefert": 9540,
    "ĠRevolution": 9541,
    "ĠAuskunft": 9542,
    "ideen": 9543,
    "Ġgefertigt": 9544,
    "ĠLap": 9545,
    "artigen": 9546,
    "ĠRisiken": 9547,
    "werfen": 9548,
    "ĠAlpen": 9549,
    "ĠGramm": 9550,
    "ĠMesser": 9551,
    "ĠNutzungs": 9552,
    "Ġfotograf": 9553,
    "Ġerstaun": 9554,
    "Ġ^": 9555,
    "ĠAbteilung": 9556,
    "ĠSauer": 9557,
    "ĠErstellung": 9558,
    "Ġverkauf": 9559,
    "otherapie": 9560,
    "ĠTreff": 9561,
    "ĠSchauspiel": 9562,
    "Ġwodurch": 9563,
    "Ġsicheren": 9564,
    "ypen": 9565,
    "gin": 9566,
    "Ġeffektiv": 9567,
    "Ġfliegen": 9568,
    "Ġverlangt": 9569,
    "Ġkontinuier": 9570,
    "rone": 9571,
    "ĠEint": 9572,
    "Ã¤mpf": 9573,
    "Ġgolden": 9574,
    "ĠSehenswÃ¼rdig": 9575,
    "welle": 9576,
    "ĠGefahren": 9577,
    "ĠBere": 9578,
    "Ġhundert": 9579,
    "Ġbedarf": 9580,
    "ĠSlot": 9581,
    "Ġsterben": 9582,
    "Ġhinweg": 9583,
    "ĠBewerb": 9584,
    "Ġfrage": 9585,
    "plant": 9586,
    "Ã¼bung": 9587,
    "ĠSchwangerschaft": 9588,
    "Ġbraun": 9589,
    "arische": 9590,
    "ĠAro": 9591,
    "planung": 9592,
    "ĠChor": 9593,
    "ĠKÃ¶nigs": 9594,
    "ĠErb": 9595,
    "ĠKomponenten": 9596,
    "ĠtÃ¤glichen": 9597,
    "ĠSpuren": 9598,
    "Ġdurchs": 9599,
    "ĠTun": 9600,
    "ray": 9601,
    "ologisch": 9602,
    "ĠPlug": 9603,
    "ĠSonst": 9604,
    "ĠEvents": 9605,
    "endorf": 9606,
    "ĠNachwuchs": 9607,
    "ĠAussagen": 9608,
    "ĠWiderstand": 9609,
    "ĠXxx": 9610,
    "ettet": 9611,
    "Ġkathol": 9612,
    "fur": 9613,
    "ĠgewÃ¤hrleistet": 9614,
    "Ġyour": 9615,
    "ĠDJ": 9616,
    "Ġvolle": 9617,
    "ĠAppl": 9618,
    "Ġunteren": 9619,
    "ĠwÃ¤chst": 9620,
    "ronik": 9621,
    "ĠMuss": 9622,
    "Ġerotik": 9623,
    "ĠSchicks": 9624,
    "Ġzeichnet": 9625,
    "leute": 9626,
    "Ġzentrale": 9627,
    "betrag": 9628,
    "ĠGB": 9629,
    "ĠFiguren": 9630,
    "ĠJeden": 9631,
    "ĠgeprÃ¼ft": 9632,
    "fleisch": 9633,
    "hrt": 9634,
    "ĠverstÃ¤rkt": 9635,
    "Ġjur": 9636,
    "geschichten": 9637,
    "lehen": 9638,
    "bauer": 9639,
    "ĠBraut": 9640,
    "ĠKey": 9641,
    "31": 9642,
    "ĠAmateur": 9643,
    "Ġrechtzeitig": 9644,
    "Ġ187": 9645,
    "Ġgezielt": 9646,
    "ĠDatenbank": 9647,
    "Ġangene": 9648,
    "ehmigung": 9649,
    "Ġschneiden": 9650,
    "Ġeingehen": 9651,
    "ĠNad": 9652,
    "Ġunkompl": 9653,
    "ĠES": 9654,
    "Ġ.....": 9655,
    "ĠNackt": 9656,
    "ĠBesser": 9657,
    "Ġeingetragen": 9658,
    "ĠTeppich": 9659,
    "rÃ¤der": 9660,
    "ĠIdeal": 9661,
    "ĠBach": 9662,
    "Ġamerikanischen": 9663,
    "zeugung": 9664,
    "vorsitzen": 9665,
    "Ġdeaktiv": 9666,
    "Ġ;)": 9667,
    "ĠBras": 9668,
    "resse": 9669,
    "srecht": 9670,
    "ĠLack": 9671,
    "schafter": 9672,
    "ĠEngel": 9673,
    "Ġspont": 9674,
    "ĠHerstell": 9675,
    "Ġgrosse": 9676,
    "ĠHaltung": 9677,
    "ĠÃ¼berrascht": 9678,
    "Ġdel": 9679,
    "reue": 9680,
    "Ġthat": 9681,
    "ĠPerformance": 9682,
    "zwungen": 9683,
    "ĠstÃ¤rk": 9684,
    "Ġohnehin": 9685,
    "ĠBlÃ¼ten": 9686,
    "ĠBundesliga": 9687,
    "ĠCenter": 9688,
    "Ġtraditionellen": 9689,
    "ĠFlucht": 9690,
    "arischen": 9691,
    "Ġerkenn": 9692,
    "ĠIng": 9693,
    "Ġerwachsen": 9694,
    "oret": 9695,
    "Ġmenschlichen": 9696,
    "aktor": 9697,
    "ungsverfahren": 9698,
    "Ð»": 9699,
    "itation": 9700,
    "polit": 9701,
    "mitglieder": 9702,
    "ĠHilfs": 9703,
    "ofen": 9704,
    "kus": 9705,
    "ĠQuer": 9706,
    "ĠPartnersuche": 9707,
    "ĠAudi": 9708,
    "aps": 9709,
    "ĠKommission": 9710,
    "ĠwÃ¼nsche": 9711,
    "ĠBaut": 9712,
    "istin": 9713,
    "Ġweisen": 9714,
    "reicher": 9715,
    "hÃ¤ndler": 9716,
    "Ġmomentan": 9717,
    "ĠSchle": 9718,
    "ĠSoldaten": 9719,
    "ĠDurchmesser": 9720,
    "ĠIngen": 9721,
    "stehende": 9722,
    "ĠHitze": 9723,
    "Pal": 9724,
    "Ġtrat": 9725,
    "ĠKÃ¶nnen": 9726,
    "ĠauswÃ¤hlen": 9727,
    "Ġreligi": 9728,
    "KE": 9729,
    "Ġehe": 9730,
    "ĠDesigner": 9731,
    "Ã¤mpfer": 9732,
    "orge": 9733,
    "beu": 9734,
    "ritzen": 9735,
    "ĠThÃ¼r": 9736,
    "ĠLiga": 9737,
    "ĠSamsung": 9738,
    "Ġverursacht": 9739,
    "ĠWebsites": 9740,
    "Ġgegebenen": 9741,
    "ĠRenten": 9742,
    "rac": 9743,
    "Ġreagieren": 9744,
    "ĠArz": 9745,
    "Ġallgemeine": 9746,
    "iler": 9747,
    "Ġmassiv": 9748,
    "ĠBeschwerden": 9749,
    "Ġpassend": 9750,
    "Ġgeschieht": 9751,
    "ĠCy": 9752,
    "ĠMenÃ¼": 9753,
    "zusehen": 9754,
    "ĠLau": 9755,
    "ĠQuadrat": 9756,
    "core": 9757,
    "gebÃ¤ude": 9758,
    "ĠMB": 9759,
    "ĠBetroffenen": 9760,
    "ĠBewerbung": 9761,
    "ĠBR": 9762,
    "Ġsm": 9763,
    "richter": 9764,
    "Ġnette": 9765,
    "gige": 9766,
    "Ġintelligen": 9767,
    "Ġkontaktieren": 9768,
    "ĠVW": 9769,
    "Ġentscheidet": 9770,
    "ĠStatistik": 9771,
    "derungen": 9772,
    "IA": 9773,
    "ĠTha": 9774,
    "pot": 9775,
    "ĠEntwicklungen": 9776,
    "ĠPrÃ¤sentation": 9777,
    "Ġuntersucht": 9778,
    "Ġgetestet": 9779,
    "pum": 9780,
    "ĠReform": 9781,
    "republik": 9782,
    "spezif": 9783,
    "Ġbetrachten": 9784,
    "Ġfragte": 9785,
    "ulÃ¤r": 9786,
    "ĠExistenz": 9787,
    "Ġzweimal": 9788,
    "ĠSpur": 9789,
    "luft": 9790,
    "Ġerkannt": 9791,
    "Ġlanger": 9792,
    "ĠLied": 9793,
    "Ġbrauche": 9794,
    "ĠSchei": 9795,
    "ror": 9796,
    "Ġschlechter": 9797,
    "Ġdiversen": 9798,
    "Ġdynam": 9799,
    "ĠFeatur": 9800,
    "ĠNeuen": 9801,
    "UM": 9802,
    "Ġchron": 9803,
    "ĠHochzeits": 9804,
    "ĠSpekt": 9805,
    "anspruch": 9806,
    "Ġleck": 9807,
    "ĠPortal": 9808,
    "ĠPhilosophie": 9809,
    "quenz": 9810,
    "Ġzuhause": 9811,
    "ĠHandlungs": 9812,
    "ĠHÃ¶chst": 9813,
    "Ġbreite": 9814,
    "ĠPod": 9815,
    "ĠErzÃ¤hl": 9816,
    "klÃ¤rt": 9817,
    "steuerung": 9818,
    "voller": 9819,
    "steil": 9820,
    "Ġvorn": 9821,
    "lÃ¤uf": 9822,
    "ĠSebast": 9823,
    "Ġchem": 9824,
    "miss": 9825,
    "ĠInnovation": 9826,
    "ĠgroÃŁzÃ¼": 9827,
    "ĠFlÃ¼ss": 9828,
    "Ġnachvoll": 9829,
    "Ġerwerben": 9830,
    "ahnsinn": 9831,
    "ĠÃ¤lte": 9832,
    "kunst": 9833,
    "Ġverfolgt": 9834,
    "betreu": 9835,
    "ĠÃ¼berwiegend": 9836,
    "ĠDiabet": 9837,
    "Ġschriftlich": 9838,
    "wn": 9839,
    "ĠUnterschiede": 9840,
    "ĠdrÃ¼ck": 9841,
    "ĠProgramme": 9842,
    "ĠMitgliedern": 9843,
    "ordnen": 9844,
    "rill": 9845,
    "Ġeinstellen": 9846,
    "lers": 9847,
    "kern": 9848,
    "ĠUnterlagen": 9849,
    "EC": 9850,
    "fferenz": 9851,
    "Ġgeschickt": 9852,
    "uchtet": 9853,
    "fried": 9854,
    "ĠhieÃŁ": 9855,
    "ĠÃ¶fter": 9856,
    "Ġvis": 9857,
    "Ġschlafen": 9858,
    "strom": 9859,
    "ĠEffekt": 9860,
    "ĠMatth": 9861,
    "Ġgeringer": 9862,
    "ĠZunÃ¤chst": 9863,
    "konom": 9864,
    "Ã¤mm": 9865,
    "orfen": 9866,
    "riech": 9867,
    "Ġbevorzu": 9868,
    "brÃ¼": 9869,
    "ĠPferd": 9870,
    "ĠSymptome": 9871,
    "cort": 9872,
    "fÃ¼hrte": 9873,
    "ĠRechner": 9874,
    "Ġhalte": 9875,
    "ĠMetern": 9876,
    "ĠNahrung": 9877,
    "scheinlichkeit": 9878,
    "fit": 9879,
    "region": 9880,
    "ged": 9881,
    "ĠSchwierigkeiten": 9882,
    "empf": 9883,
    "ĠKlick": 9884,
    "ĠLippen": 9885,
    "wood": 9886,
    "ĠSchles": 9887,
    "liessen": 9888,
    "Ġfeststellen": 9889,
    "zene": 9890,
    "onus": 9891,
    "Ġerschien": 9892,
    "ĠNackte": 9893,
    "gy": 9894,
    "ĠProblemen": 9895,
    "konzept": 9896,
    "Ġrichten": 9897,
    "drÃ¼ckt": 9898,
    "Ġbeendet": 9899,
    "ĠwunderschÃ¶n": 9900,
    "Ġspiegel": 9901,
    "ĠScha": 9902,
    "verlauf": 9903,
    "ĠFinanzierung": 9904,
    "underte": 9905,
    "pla": 9906,
    "Ġfuhr": 9907,
    "szeit": 9908,
    "ĠFinale": 9909,
    "ĠGrunde": 9910,
    "ĠJustiz": 9911,
    "ĠDiesen": 9912,
    "urellen": 9913,
    "utzut": 9914,
    "Ġ1996": 9915,
    "stab": 9916,
    "hy": 9917,
    "ĠMedikamente": 9918,
    "Ġoberen": 9919,
    "utzutage": 9920,
    "sendung": 9921,
    "Ġbewerten": 9922,
    "ci": 9923,
    "ĠGÃ¶tt": 9924,
    "ĠProjekten": 9925,
    "ĠCommunity": 9926,
    "ĠBewusstsein": 9927,
    "Ġbekomme": 9928,
    "ĠKindergarten": 9929,
    "ĠMaus": 9930,
    "Ġgetrennt": 9931,
    "ouren": 9932,
    "ĠFunk": 9933,
    "Ã¤ÃŁt": 9934,
    "ĠOf": 9935,
    "com": 9936,
    "Ġgewinnt": 9937,
    "ĠzugÃ¤nglich": 9938,
    "zÃ¼nd": 9939,
    "ĠKrebs": 9940,
    "ĠChristoph": 9941,
    "mÃ¶bel": 9942,
    "Ġmat": 9943,
    "Ġwissenschaftlichen": 9944,
    "ĠPoly": 9945,
    "ĠSexkontakte": 9946,
    "lim": 9947,
    "ĠGesprÃ¤che": 9948,
    "Ġkurzem": 9949,
    "Ġteils": 9950,
    "verlust": 9951,
    "Ġabges": 9952,
    "bedÃ¼rf": 9953,
    "Ġhum": 9954,
    "tu": 9955,
    "ĠtatsÃ¤ch": 9956,
    "ĠStrukturen": 9957,
    "ĠEN": 9958,
    "schiff": 9959,
    "ĠErl": 9960,
    "Ġdick": 9961,
    "Ġfrom": 9962,
    "hose": 9963,
    "Ġsog": 9964,
    "ilian": 9965,
    "Ġschie": 9966,
    "altung": 9967,
    "ĠSpielautomaten": 9968,
    "okoll": 9969,
    "fÃ¶rm": 9970,
    "Ġirgendwel": 9971,
    "ĠModerne": 9972,
    "ĠChamp": 9973,
    "Ġerkennt": 9974,
    "ĠLehre": 9975,
    "ĠBrandenburg": 9976,
    "ĠAM": 9977,
    "ĠDigitalisierung": 9978,
    "gesetzes": 9979,
    "einsatz": 9980,
    "stisch": 9981,
    "ĠRezens": 9982,
    "ĠJosef": 9983,
    "gent": 9984,
    "Ġschaut": 9985,
    "ĠInvestition": 9986,
    "kasten": 9987,
    "ĠbÃ¼r": 9988,
    "Ġscheinen": 9989,
    "Ã¶sser": 9990,
    "ĠGesetzes": 9991,
    "ging": 9992,
    "muster": 9993,
    "ĠAufstieg": 9994,
    "ĠStabilitÃ¤t": 9995,
    "serie": 9996,
    "ĠStift": 9997,
    "ĠGegenwart": 9998,
    "Ġkostenfrei": 9999,
    "berichte": 10000,
    "stedt": 10001,
    "ĠzustÃ¤ndig": 10002,
    "ĠTablet": 10003,
    "ĠElement": 10004,
    "steine": 10005,
    "ĠWalter": 10006,
    "Ġstell": 10007,
    "Ġfix": 10008,
    "ĠwÃ¤r": 10009,
    "ĠNS": 10010,
    "ĠKul": 10011,
    "ĠstÃ¼r": 10012,
    "Ġpri": 10013,
    "stÃ¤rke": 10014,
    "Ġmu": 10015,
    "prÃ¤sent": 10016,
    "ĠKartoff": 10017,
    "stitu": 10018,
    "Ġgelassen": 10019,
    "ĠGÃ¼n": 10020,
    "ĠButter": 10021,
    "kÃ¶mm": 10022,
    "nam": 10023,
    "ffnungs": 10024,
    "Ġpositiven": 10025,
    "Ġangeblich": 10026,
    "Ġfragt": 10027,
    "ĠTouristen": 10028,
    "ĠGreen": 10029,
    "ĠInnenstadt": 10030,
    "ĠAtom": 10031,
    "Ġgenaue": 10032,
    "Ġperfekten": 10033,
    "napp": 10034,
    "Ġnormalerweise": 10035,
    "ĠErwartungen": 10036,
    "ĠEinkaufs": 10037,
    "ĠFÃ¼hrer": 10038,
    "ĠIdentitÃ¤t": 10039,
    "Ã¼lern": 10040,
    "Ġ83": 10041,
    "Ġac": 10042,
    "achter": 10043,
    "ĠTau": 10044,
    "Ġbeeinflussen": 10045,
    "Ġhistorische": 10046,
    "ĠlieÃŁen": 10047,
    "ĠWÃ¼rde": 10048,
    "ĠOrten": 10049,
    "ĠUnterhalt": 10050,
    "ĠGroup": 10051,
    "Ġwerfen": 10052,
    "ĠGebÃ¼hren": 10053,
    "raÃŁe": 10054,
    "Ġempfiehlt": 10055,
    "ience": 10056,
    "ng": 10057,
    "ĠkÃ¼nst": 10058,
    "eto": 10059,
    "Ġkonsequ": 10060,
    "Ġlocker": 10061,
    "ĠSpazier": 10062,
    "pps": 10063,
    "ĠBaumwolle": 10064,
    "ialen": 10065,
    "Ġexpl": 10066,
    "ĠRettungs": 10067,
    "stande": 10068,
    "ĠâĢĿ.": 10069,
    "Ġfordern": 10070,
    "ĠMÃ¶ch": 10071,
    "Ã¤umt": 10072,
    "ĠManche": 10073,
    "Ġverwendeten": 10074,
    "Ġanmelden": 10075,
    "ĠSteck": 10076,
    "Ġeignen": 10077,
    "ict": 10078,
    "ĠLeg": 10079,
    "ĠVilla": 10080,
    "pool": 10081,
    "kal": 10082,
    "ringe": 10083,
    "ĠSchwarze": 10084,
    "Ġglaubt": 10085,
    "ĠWerkstatt": 10086,
    "ĠVorlage": 10087,
    "Ġnachfolgen": 10088,
    "ĠÃ¤hnliche": 10089,
    "born": 10090,
    "ĠMond": 10091,
    "ĠBeschluss": 10092,
    "stehung": 10093,
    "ĠMahl": 10094,
    "iversitÃ¤t": 10095,
    "Ġwartet": 10096,
    "ĠLen": 10097,
    "Ġaussieht": 10098,
    "ĠArbeitsplatz": 10099,
    "ĠSprachen": 10100,
    "ĠbestÃ¤tigen": 10101,
    "ĠÃ¤lteren": 10102,
    "leder": 10103,
    "vision": 10104,
    "Ġgeschm": 10105,
    "kw": 10106,
    "ĠAfD": 10107,
    "ĠVin": 10108,
    "Ġtolles": 10109,
    "nes": 10110,
    "ĠStation": 10111,
    "Dat": 10112,
    "ĠenttÃ¤u": 10113,
    "Ġelegan": 10114,
    "ague": 10115,
    "ĠZy": 10116,
    "ĠWilli": 10117,
    "ĠMieter": 10118,
    "Ġzufolge": 10119,
    "ĠweiÃŁe": 10120,
    "Ġ./": 10121,
    "ĠOrien": 10122,
    "mass": 10123,
    "Ġerzeugt": 10124,
    "pÃ¤ck": 10125,
    "rip": 10126,
    "ĠKommunikations": 10127,
    "Ã¼te": 10128,
    "britannien": 10129,
    "Ġdiskutiert": 10130,
    "ĠUrsachen": 10131,
    "ĠPatient": 10132,
    "ĠSchokol": 10133,
    "ĠKonflikt": 10134,
    "wahr": 10135,
    "Ġausgehen": 10136,
    "ĠNic": 10137,
    "ĠExperim": 10138,
    "Ġnen": 10139,
    "gewinn": 10140,
    "futter": 10141,
    "gau": 10142,
    "ida": 10143,
    "ĠkW": 10144,
    "amera": 10145,
    "retung": 10146,
    "ĠSitzung": 10147,
[...]
